unsigned char model_tflite[] = {
  0x1c, 0x00, 0x00, 0x00, 0x54, 0x46, 0x4c, 0x33, 0x14, 0x00, 0x20, 0x00,
  0x1c, 0x00, 0x18, 0x00, 0x14, 0x00, 0x10, 0x00, 0x0c, 0x00, 0x00, 0x00,
  0x08, 0x00, 0x04, 0x00, 0x14, 0x00, 0x00, 0x00, 0x1c, 0x00, 0x00, 0x00,
  0x80, 0x00, 0x00, 0x00, 0xd8, 0x00, 0x00, 0x00, 0x00, 0x0f, 0x00, 0x00,
  0x10, 0x0f, 0x00, 0x00, 0xa4, 0x25, 0x00, 0x00, 0x03, 0x00, 0x00, 0x00,
  0x01, 0x00, 0x00, 0x00, 0x04, 0x00, 0x00, 0x00, 0x56, 0xee, 0xff, 0xff,
  0x0c, 0x00, 0x00, 0x00, 0x1c, 0x00, 0x00, 0x00, 0x38, 0x00, 0x00, 0x00,
  0x0f, 0x00, 0x00, 0x00, 0x73, 0x65, 0x72, 0x76, 0x69, 0x6e, 0x67, 0x5f,
  0x64, 0x65, 0x66, 0x61, 0x75, 0x6c, 0x74, 0x00, 0x01, 0x00, 0x00, 0x00,
  0x04, 0x00, 0x00, 0x00, 0x9c, 0xff, 0xff, 0xff, 0x1e, 0x00, 0x00, 0x00,
  0x04, 0x00, 0x00, 0x00, 0x07, 0x00, 0x00, 0x00, 0x66, 0x6c, 0x61, 0x74,
  0x74, 0x65, 0x6e, 0x00, 0x01, 0x00, 0x00, 0x00, 0x04, 0x00, 0x00, 0x00,
  0x5a, 0xee, 0xff, 0xff, 0x04, 0x00, 0x00, 0x00, 0x07, 0x00, 0x00, 0x00,
  0x69, 0x6e, 0x70, 0x75, 0x74, 0x5f, 0x31, 0x00, 0x02, 0x00, 0x00, 0x00,
  0x34, 0x00, 0x00, 0x00, 0x04, 0x00, 0x00, 0x00, 0xdc, 0xff, 0xff, 0xff,
  0x21, 0x00, 0x00, 0x00, 0x04, 0x00, 0x00, 0x00, 0x13, 0x00, 0x00, 0x00,
  0x43, 0x4f, 0x4e, 0x56, 0x45, 0x52, 0x53, 0x49, 0x4f, 0x4e, 0x5f, 0x4d,
  0x45, 0x54, 0x41, 0x44, 0x41, 0x54, 0x41, 0x00, 0x08, 0x00, 0x0c, 0x00,
  0x08, 0x00, 0x04, 0x00, 0x08, 0x00, 0x00, 0x00, 0x20, 0x00, 0x00, 0x00,
  0x04, 0x00, 0x00, 0x00, 0x13, 0x00, 0x00, 0x00, 0x6d, 0x69, 0x6e, 0x5f,
  0x72, 0x75, 0x6e, 0x74, 0x69, 0x6d, 0x65, 0x5f, 0x76, 0x65, 0x72, 0x73,
  0x69, 0x6f, 0x6e, 0x00, 0x22, 0x00, 0x00, 0x00, 0x24, 0x0e, 0x00, 0x00,
  0x1c, 0x0e, 0x00, 0x00, 0xcc, 0x0d, 0x00, 0x00, 0x7c, 0x0d, 0x00, 0x00,
  0x2c, 0x0d, 0x00, 0x00, 0xdc, 0x0a, 0x00, 0x00, 0x8c, 0x0a, 0x00, 0x00,
  0x3c, 0x08, 0x00, 0x00, 0x28, 0x08, 0x00, 0x00, 0xd8, 0x07, 0x00, 0x00,
  0xc8, 0x03, 0x00, 0x00, 0x78, 0x01, 0x00, 0x00, 0x60, 0x01, 0x00, 0x00,
  0x4c, 0x01, 0x00, 0x00, 0x38, 0x01, 0x00, 0x00, 0x30, 0x01, 0x00, 0x00,
  0x1c, 0x01, 0x00, 0x00, 0x08, 0x01, 0x00, 0x00, 0xf0, 0x00, 0x00, 0x00,
  0xe8, 0x00, 0x00, 0x00, 0xe0, 0x00, 0x00, 0x00, 0xd8, 0x00, 0x00, 0x00,
  0xd0, 0x00, 0x00, 0x00, 0xc8, 0x00, 0x00, 0x00, 0xc0, 0x00, 0x00, 0x00,
  0xb8, 0x00, 0x00, 0x00, 0xb0, 0x00, 0x00, 0x00, 0xa8, 0x00, 0x00, 0x00,
  0xa0, 0x00, 0x00, 0x00, 0x98, 0x00, 0x00, 0x00, 0x90, 0x00, 0x00, 0x00,
  0x88, 0x00, 0x00, 0x00, 0x68, 0x00, 0x00, 0x00, 0x04, 0x00, 0x00, 0x00,
  0x56, 0xef, 0xff, 0xff, 0x04, 0x00, 0x00, 0x00, 0x54, 0x00, 0x00, 0x00,
  0x0c, 0x00, 0x00, 0x00, 0x08, 0x00, 0x0e, 0x00, 0x08, 0x00, 0x04, 0x00,
  0x08, 0x00, 0x00, 0x00, 0x10, 0x00, 0x00, 0x00, 0x24, 0x00, 0x00, 0x00,
  0x00, 0x00, 0x06, 0x00, 0x08, 0x00, 0x04, 0x00, 0x06, 0x00, 0x00, 0x00,
  0x04, 0x00, 0x00, 0x00, 0x00, 0x00, 0x00, 0x00, 0x00, 0x00, 0x0a, 0x00,
  0x10, 0x00, 0x0c, 0x00, 0x08, 0x00, 0x04, 0x00, 0x0a, 0x00, 0x00, 0x00,
  0x01, 0x00, 0x00, 0x00, 0x02, 0x00, 0x00, 0x00, 0x04, 0x00, 0x00, 0x00,
  0x06, 0x00, 0x00, 0x00, 0x32, 0x2e, 0x31, 0x35, 0x2e, 0x30, 0x00, 0x00,
  0xb6, 0xef, 0xff, 0xff, 0x04, 0x00, 0x00, 0x00, 0x10, 0x00, 0x00, 0x00,
  0x32, 0x2e, 0x33, 0x2e, 0x30, 0x00, 0x00, 0x00, 0x00, 0x00, 0x00, 0x00,
  0x00, 0x00, 0x00, 0x00, 0x64, 0xdc, 0xff, 0xff, 0x68, 0xdc, 0xff, 0xff,
  0x6c, 0xdc, 0xff, 0xff, 0x70, 0xdc, 0xff, 0xff, 0x74, 0xdc, 0xff, 0xff,
  0x78, 0xdc, 0xff, 0xff, 0x7c, 0xdc, 0xff, 0xff, 0x80, 0xdc, 0xff, 0xff,
  0x84, 0xdc, 0xff, 0xff, 0x88, 0xdc, 0xff, 0xff, 0x8c, 0xdc, 0xff, 0xff,
  0x90, 0xdc, 0xff, 0xff, 0x94, 0xdc, 0xff, 0xff, 0x06, 0xf0, 0xff, 0xff,
  0x04, 0x00, 0x00, 0x00, 0x08, 0x00, 0x00, 0x00, 0xff, 0xff, 0xff, 0xff,
  0x80, 0x00, 0x00, 0x00, 0x1a, 0xf0, 0xff, 0xff, 0x04, 0x00, 0x00, 0x00,
  0x04, 0x00, 0x00, 0x00, 0x10, 0x00, 0x00, 0x00, 0x2a, 0xf0, 0xff, 0xff,
  0x04, 0x00, 0x00, 0x00, 0x04, 0x00, 0x00, 0x00, 0x08, 0x00, 0x00, 0x00,
  0xcc, 0xdc, 0xff, 0xff, 0x3e, 0xf0, 0xff, 0xff, 0x04, 0x00, 0x00, 0x00,
  0x04, 0x00, 0x00, 0x00, 0x00, 0x00, 0x00, 0x00, 0x4e, 0xf0, 0xff, 0xff,
  0x04, 0x00, 0x00, 0x00, 0x04, 0x00, 0x00, 0x00, 0x01, 0x00, 0x00, 0x00,
  0x5e, 0xf0, 0xff, 0xff, 0x04, 0x00, 0x00, 0x00, 0x08, 0x00, 0x00, 0x00,
  0x10, 0x00, 0x00, 0x00, 0x08, 0x00, 0x00, 0x00, 0x72, 0xf0, 0xff, 0xff,
  0x04, 0x00, 0x00, 0x00, 0x40, 0x02, 0x00, 0x00, 0x99, 0xc9, 0x31, 0x3e,
  0x4d, 0x64, 0xcd, 0x3d, 0xb2, 0x3f, 0x26, 0xbe, 0x57, 0x1c, 0xdd, 0xbd,
  0x89, 0xa3, 0xa3, 0xbc, 0x2a, 0xe7, 0xcf, 0x3d, 0x4d, 0x2d, 0x28, 0xbc,
  0x67, 0x9b, 0x81, 0xbe, 0xfe, 0xaa, 0x3e, 0xbd, 0xb2, 0x74, 0xc8, 0x3d,
  0x02, 0x31, 0x0c, 0xbe, 0xb6, 0x47, 0x34, 0xbd, 0x80, 0x74, 0x49, 0xbd,
  0x07, 0x74, 0x24, 0xbd, 0xe1, 0x49, 0xc9, 0xbc, 0x9e, 0xde, 0x0c, 0x3f,
  0xb0, 0x04, 0xfb, 0x3c, 0xdf, 0xdf, 0x60, 0xbd, 0x09, 0xba, 0x14, 0x3e,
  0xec, 0x57, 0x22, 0x3d, 0xec, 0x2f, 0xe3, 0x3c, 0xcc, 0xbe, 0x38, 0xbe,
  0x2f, 0x94, 0x1f, 0x3d, 0x9d, 0x85, 0x72, 0x3e, 0x1e, 0x93, 0x81, 0x3d,
  0x4e, 0x42, 0xa8, 0xbd, 0x92, 0x66, 0xd9, 0xbd, 0x32, 0x75, 0xb6, 0x3b,
  0x06, 0x62, 0x9b, 0xbe, 0xa1, 0xa7, 0x09, 0x3d, 0xb2, 0xfc, 0x4e, 0x3e,
  0xc5, 0x96, 0x6a, 0xbe, 0xdf, 0xa3, 0xf8, 0x3b, 0x80, 0x03, 0xc0, 0xbb,
  0xe2, 0x35, 0xdd, 0x3a, 0x12, 0x06, 0x66, 0xbd, 0x3a, 0x0a, 0x1f, 0xbd,
  0x44, 0xa6, 0x8b, 0x3d, 0x27, 0xa1, 0x63, 0xbd, 0x77, 0x4b, 0x91, 0xbd,
  0x7b, 0xee, 0x3d, 0x3d, 0x6f, 0x96, 0x45, 0x3e, 0x43, 0xa4, 0x87, 0x3d,
  0x57, 0xe1, 0x5d, 0xbc, 0x07, 0x4d, 0x12, 0x3e, 0x49, 0x50, 0x92, 0xbc,
  0x2e, 0x0c, 0x5c, 0xbe, 0xf1, 0x12, 0xab, 0x3d, 0x2e, 0x3a, 0x8d, 0xbe,
  0x66, 0x6e, 0xb0, 0xbe, 0xa8, 0x57, 0x30, 0xbe, 0x8c, 0x76, 0xe9, 0x3d,
  0xa6, 0x26, 0x14, 0x3d, 0x33, 0x68, 0x8c, 0x3e, 0xed, 0xbd, 0x8f, 0xbd,
  0xc6, 0xf3, 0xac, 0x3e, 0x3e, 0x31, 0xfa, 0x3c, 0x7e, 0x84, 0x3f, 0x3d,
  0x00, 0x6e, 0x9e, 0xbd, 0xa4, 0x27, 0x08, 0x3d, 0x38, 0x64, 0x6b, 0x3c,
  0x15, 0xaa, 0x60, 0x3e, 0x12, 0x32, 0x83, 0xbd, 0x2f, 0x1c, 0x38, 0xbe,
  0xf5, 0xa3, 0xc6, 0xbd, 0x5c, 0xa6, 0x99, 0x3e, 0x8d, 0x9b, 0x02, 0x3e,
  0x7f, 0x67, 0x3b, 0xbe, 0xe6, 0x0d, 0xee, 0x3c, 0x6c, 0xf2, 0x04, 0xbe,
  0x06, 0xcb, 0x64, 0x3e, 0x06, 0x54, 0x28, 0xbe, 0xd0, 0x15, 0x1a, 0xbc,
  0x7f, 0xb7, 0x25, 0xbe, 0x21, 0xa0, 0x7e, 0xbe, 0x34, 0x80, 0x0e, 0x3d,
  0xa1, 0xbe, 0x8a, 0x3e, 0x33, 0xe9, 0x04, 0xbe, 0x24, 0x8f, 0xf5, 0x3d,
  0x5a, 0xf4, 0xb5, 0x3d, 0x7a, 0x84, 0x90, 0x3a, 0x03, 0x9d, 0x6c, 0xbd,
  0xa7, 0xfd, 0x82, 0xbc, 0xab, 0xaa, 0x07, 0x3e, 0x64, 0x0f, 0xe4, 0xba,
  0xcd, 0x6f, 0xa9, 0x3d, 0xf8, 0x1c, 0x4c, 0xbe, 0x35, 0xf2, 0x6f, 0x3d,
  0x74, 0x33, 0x50, 0x3d, 0x9a, 0x82, 0xdd, 0x3e, 0x94, 0x26, 0x86, 0x3c,
  0x9c, 0x02, 0xc1, 0xbd, 0x1e, 0x8e, 0x12, 0xbe, 0x86, 0x0b, 0x91, 0x3c,
  0xb9, 0xc3, 0x93, 0xbe, 0x32, 0xcd, 0x1e, 0xbd, 0x69, 0xe2, 0x1b, 0x3e,
  0x83, 0x3f, 0x12, 0x3e, 0xf0, 0x16, 0x56, 0xbe, 0xe9, 0x93, 0xa7, 0xba,
  0x28, 0x88, 0xcb, 0xbc, 0xe8, 0xd1, 0xe9, 0xbd, 0xe8, 0x74, 0x77, 0x3a,
  0x64, 0x55, 0xdd, 0x3c, 0xb8, 0x55, 0x59, 0xbb, 0x11, 0x9d, 0x11, 0x3d,
  0x1b, 0x8f, 0x2c, 0xbd, 0x7d, 0xbf, 0xf2, 0x3b, 0x17, 0x41, 0x74, 0x3c,
  0xf4, 0x43, 0xbe, 0xbe, 0x71, 0x17, 0x84, 0xbd, 0xea, 0xa7, 0xb7, 0x3c,
  0x6b, 0xa1, 0x65, 0x3d, 0x3c, 0x94, 0x0b, 0xbe, 0x6c, 0xad, 0xc7, 0x3d,
  0x5e, 0x4b, 0x79, 0x3e, 0x9b, 0x5b, 0xb4, 0x3c, 0x88, 0x0e, 0x85, 0xbd,
  0x84, 0x2c, 0x56, 0x3c, 0x3c, 0x43, 0x15, 0xbc, 0x83, 0x20, 0x7a, 0x3d,
  0x0f, 0x69, 0x2e, 0xbd, 0xf1, 0x6d, 0x2c, 0xbc, 0xfa, 0x5f, 0x55, 0xbd,
  0x0d, 0x73, 0x04, 0xbd, 0x98, 0xf7, 0x80, 0x3e, 0xb2, 0xd7, 0x17, 0x3e,
  0xb5, 0x80, 0x1a, 0x3d, 0x79, 0x39, 0x32, 0xbc, 0x5e, 0x8d, 0x0b, 0x3d,
  0x38, 0x6e, 0xea, 0xb9, 0x37, 0xa2, 0xfc, 0xbd, 0x1b, 0x35, 0x55, 0xbc,
  0xde, 0x5a, 0x52, 0x3d, 0x28, 0xf0, 0xae, 0xbc, 0x92, 0x51, 0x86, 0x3c,
  0x09, 0x1d, 0x78, 0x3d, 0x78, 0xb4, 0x94, 0x3d, 0x1a, 0xb8, 0x5c, 0x3c,
  0x09, 0x21, 0x2b, 0xbd, 0x2d, 0xcb, 0x36, 0x3c, 0x7b, 0xb3, 0xd0, 0xbd,
  0xca, 0xac, 0x72, 0xbe, 0xe2, 0xb8, 0x23, 0xbc, 0xbe, 0xf2, 0xff, 0xff,
  0x04, 0x00, 0x00, 0x00, 0x00, 0x04, 0x00, 0x00, 0xfe, 0xe5, 0xd5, 0xbd,
  0x30, 0x43, 0xfc, 0xbe, 0xa3, 0x9c, 0x08, 0x3f, 0x43, 0x46, 0xc8, 0xbe,
  0xf2, 0x01, 0xf1, 0x3e, 0xdb, 0x8b, 0x48, 0xbc, 0x0b, 0x3b, 0xff, 0x3e,
  0x36, 0x5e, 0x14, 0xbe, 0x02, 0x9f, 0x8a, 0xbe, 0x61, 0xc6, 0x30, 0x3c,
  0x73, 0xa3, 0xb1, 0xbe, 0x71, 0x61, 0x9b, 0xbd, 0xbf, 0x4f, 0x45, 0x3e,
  0xe1, 0x33, 0x1c, 0x3f, 0x36, 0x19, 0xc5, 0x3e, 0x14, 0x71, 0xeb, 0x3c,
  0xef, 0xc1, 0xc8, 0xbe, 0x66, 0x06, 0x73, 0xbd, 0xcf, 0x66, 0x8e, 0xbd,
  0xdf, 0x2f, 0xa9, 0x3e, 0x15, 0xed, 0x13, 0xbf, 0x4c, 0xc0, 0x13, 0xbf,
  0xf7, 0xbf, 0xd3, 0xbe, 0xf0, 0x6c, 0x3e, 0x3f, 0xd0, 0x61, 0x1e, 0x3f,
  0x26, 0xc0, 0x6b, 0x3e, 0x2b, 0xe3, 0x57, 0x3f, 0xe1, 0xde, 0x2e, 0x3f,
  0x9b, 0xf1, 0x8d, 0x3e, 0x7b, 0xe1, 0xc3, 0xbb, 0x9e, 0x7f, 0xe5, 0xbe,
  0x02, 0x60, 0x23, 0xbe, 0xd6, 0x1a, 0xb7, 0x3e, 0x22, 0xf7, 0x1d, 0x3f,
  0xcd, 0xd8, 0x50, 0x3f, 0x67, 0xa1, 0x06, 0xbf, 0x70, 0x3e, 0x49, 0x3f,
  0x27, 0x46, 0x61, 0xbf, 0x7c, 0xca, 0x71, 0xbf, 0x76, 0x47, 0xb5, 0x3e,
  0x30, 0x6f, 0xcc, 0xbb, 0x63, 0x8f, 0x4d, 0xbf, 0xde, 0x33, 0xc8, 0x3d,
  0x1c, 0x88, 0x91, 0x3f, 0x9a, 0x14, 0xa1, 0xbf, 0xe9, 0x97, 0x3a, 0x3f,
  0x82, 0x81, 0xb4, 0x3e, 0x78, 0xa9, 0xbf, 0xbe, 0xab, 0xb8, 0x48, 0xbd,
  0x58, 0x90, 0x29, 0x3e, 0xa2, 0xbe, 0x81, 0xbe, 0x8e, 0x76, 0xc1, 0xbd,
  0xad, 0x60, 0xf3, 0x3d, 0xb6, 0xc4, 0xe6, 0x3d, 0x90, 0x04, 0x21, 0xbe,
  0x45, 0x9b, 0xfd, 0xbc, 0x63, 0x19, 0x02, 0x3e, 0x03, 0x7c, 0x60, 0x3d,
  0x81, 0x86, 0x36, 0xbe, 0xb2, 0x97, 0x6c, 0x3e, 0x03, 0x64, 0xe8, 0x3d,
  0xd6, 0x32, 0x3e, 0xbe, 0x90, 0x03, 0x2a, 0xbd, 0x77, 0xb7, 0xe0, 0xbc,
  0xa4, 0x01, 0x34, 0x3e, 0x08, 0x89, 0x1b, 0xbf, 0xcc, 0x06, 0xd4, 0x3e,
  0x32, 0x8b, 0xf3, 0x3f, 0x0a, 0xba, 0xcc, 0x3e, 0x00, 0xdd, 0x9f, 0xbe,
  0xf3, 0xae, 0x4a, 0xba, 0xe0, 0xb5, 0xdc, 0xbc, 0xfa, 0xb3, 0x99, 0x3e,
  0xbb, 0x1b, 0x31, 0x3f, 0xea, 0x1c, 0x82, 0xbe, 0x0c, 0x5f, 0x06, 0xbf,
  0x6c, 0x1a, 0x77, 0xbe, 0x0d, 0x16, 0x0d, 0x3f, 0xa1, 0xe3, 0xe2, 0xbe,
  0x07, 0x89, 0x5d, 0xbd, 0x10, 0x54, 0x43, 0x3d, 0x14, 0x44, 0x8b, 0x3d,
  0x4d, 0x5f, 0x87, 0x3c, 0x21, 0xad, 0x9c, 0xbd, 0x28, 0x11, 0x69, 0x3c,
  0x56, 0x8d, 0x4f, 0x3e, 0x7a, 0xce, 0x82, 0xbd, 0x8e, 0x77, 0xfc, 0x3c,
  0xc4, 0x07, 0xa0, 0x3c, 0xc8, 0x99, 0x1a, 0xbe, 0x54, 0x57, 0x24, 0xbe,
  0x3f, 0xd2, 0x80, 0xbd, 0x3c, 0x86, 0xf6, 0x3c, 0x59, 0x48, 0x60, 0x3d,
  0xd4, 0x25, 0x6c, 0x3d, 0x54, 0x31, 0x16, 0xbd, 0x14, 0x41, 0x8a, 0x3f,
  0x22, 0x21, 0xbb, 0x3f, 0x22, 0xb4, 0x2a, 0x3e, 0xa0, 0xda, 0xaa, 0xbe,
  0xa8, 0x40, 0xf3, 0x3e, 0xc8, 0x97, 0x09, 0xbe, 0x0b, 0xf6, 0xd1, 0xbe,
  0xb5, 0x7e, 0xa0, 0xbe, 0x1f, 0x87, 0x59, 0xbe, 0x17, 0x3c, 0x56, 0xbf,
  0x8a, 0x1f, 0xd1, 0xbe, 0xf2, 0xd0, 0x05, 0xbe, 0x4b, 0x6c, 0xae, 0x3d,
  0x37, 0xba, 0xe0, 0x3d, 0xa8, 0x10, 0x1b, 0xbd, 0x25, 0xdd, 0xa0, 0xbf,
  0xce, 0xfe, 0x4a, 0xbe, 0xfc, 0x6a, 0x22, 0xbf, 0xc4, 0xae, 0xe7, 0x3e,
  0x9d, 0x68, 0x16, 0xbf, 0x46, 0x90, 0x7e, 0xbf, 0x23, 0xc7, 0x1b, 0xbe,
  0xc7, 0x08, 0x9a, 0x3e, 0x53, 0x76, 0x81, 0x3f, 0x3c, 0xac, 0xce, 0x3e,
  0xa6, 0xb1, 0x8a, 0x3e, 0x5a, 0xe5, 0x16, 0x3f, 0x44, 0x91, 0x9e, 0xbc,
  0x9f, 0x2c, 0xe1, 0xbe, 0x55, 0xe4, 0x7a, 0xbe, 0xd7, 0x04, 0x45, 0x3e,
  0xdb, 0xc4, 0x95, 0x3d, 0x0c, 0x2e, 0xe6, 0xbe, 0x92, 0x24, 0x14, 0x3f,
  0x6b, 0x6f, 0x97, 0xbf, 0x4d, 0xe2, 0xd0, 0x3e, 0xfa, 0xf6, 0x67, 0x3e,
  0xf0, 0x22, 0xdb, 0x3e, 0xe9, 0xbe, 0xc3, 0x3e, 0x06, 0x8b, 0x55, 0x3f,
  0xe0, 0x42, 0xd1, 0xbe, 0xe3, 0x32, 0x9d, 0xbe, 0xf9, 0x9e, 0x52, 0xbe,
  0xdc, 0xed, 0xce, 0x3e, 0x25, 0x42, 0xb5, 0x3e, 0x0c, 0x2f, 0xc1, 0x3e,
  0x4d, 0xf1, 0x19, 0xbf, 0x14, 0x8b, 0x02, 0xbf, 0xae, 0x3a, 0x61, 0x3f,
  0xb5, 0x3c, 0xbb, 0xbe, 0xff, 0xc6, 0x22, 0x3e, 0x91, 0xd8, 0xcc, 0x3d,
  0xce, 0x79, 0xe6, 0xbe, 0xe6, 0x6d, 0xea, 0xbc, 0x2b, 0x58, 0xa2, 0xbe,
  0xef, 0x67, 0xd0, 0xbe, 0x5d, 0xd9, 0x9e, 0xbd, 0x55, 0x94, 0x40, 0x3f,
  0xca, 0x28, 0x0c, 0x3f, 0x4b, 0xbe, 0x1a, 0x3e, 0x3a, 0x34, 0xa2, 0xbe,
  0xbf, 0xdf, 0xb7, 0xbe, 0x6f, 0xa0, 0x1c, 0x3d, 0x5b, 0x06, 0xe5, 0x3e,
  0xee, 0x1f, 0x44, 0xbd, 0xc3, 0xf4, 0x9d, 0x3d, 0x75, 0x0b, 0xfb, 0x3c,
  0xed, 0x81, 0x91, 0xbd, 0x24, 0x61, 0x3a, 0x3d, 0xb2, 0x1b, 0x01, 0x3d,
  0xf2, 0x7d, 0xdd, 0xbd, 0x24, 0xbb, 0x12, 0xbd, 0x47, 0x14, 0xba, 0x3d,
  0xe8, 0x63, 0xc2, 0xbb, 0x44, 0xce, 0xa1, 0xbd, 0xa7, 0xa6, 0x19, 0xbd,
  0x94, 0x76, 0x9e, 0x3d, 0x7e, 0x11, 0x3b, 0xbd, 0xa1, 0x8f, 0x06, 0x3d,
  0xc5, 0x75, 0xb9, 0xbc, 0x27, 0x45, 0xd5, 0x3d, 0xe4, 0xf6, 0xb5, 0xbf,
  0x2d, 0x3c, 0x56, 0x3f, 0xe2, 0xb3, 0xbb, 0xbe, 0x9b, 0xd7, 0x87, 0x3e,
  0x84, 0xba, 0x37, 0xbf, 0xb3, 0x9e, 0x3f, 0x3e, 0xaa, 0x58, 0x58, 0xbf,
  0xa8, 0x02, 0xe5, 0xbd, 0x45, 0xa3, 0x88, 0x3f, 0xe2, 0x56, 0x88, 0x3f,
  0x19, 0x3a, 0x4f, 0xbf, 0x96, 0x60, 0x93, 0xbe, 0x5c, 0xc6, 0xb4, 0xbd,
  0xd4, 0x54, 0x49, 0x3f, 0x4f, 0x78, 0x00, 0xbe, 0xde, 0x0f, 0x7b, 0xbd,
  0xed, 0xbb, 0x7d, 0xbc, 0x14, 0xdb, 0x0e, 0x3e, 0xea, 0x75, 0x01, 0x3f,
  0x90, 0x67, 0x9c, 0x3e, 0xb6, 0x02, 0x86, 0xba, 0xbf, 0xda, 0x40, 0xbe,
  0xba, 0xb6, 0x21, 0x3d, 0xc0, 0x79, 0x1e, 0x3e, 0x8e, 0x62, 0x92, 0x3d,
  0xb5, 0x34, 0x81, 0xbe, 0x94, 0x67, 0x0c, 0xbd, 0x84, 0xaa, 0x6b, 0x3d,
  0x86, 0x40, 0x2b, 0x3e, 0xdd, 0x82, 0x08, 0xbf, 0xc4, 0x4f, 0x52, 0x3b,
  0x41, 0xe6, 0xb0, 0xbc, 0x56, 0x33, 0xb6, 0xbd, 0x7f, 0xb5, 0x3a, 0xbe,
  0x83, 0x01, 0xf2, 0x38, 0x4d, 0x78, 0x6c, 0xbd, 0x44, 0xf7, 0x4c, 0x3f,
  0x66, 0x9d, 0xb1, 0xbd, 0xfd, 0x71, 0xaa, 0xbd, 0x4e, 0x77, 0xd7, 0x3d,
  0x42, 0xb7, 0x26, 0x3e, 0xf8, 0x97, 0x08, 0xbf, 0x3a, 0x02, 0x4d, 0xbe,
  0x0a, 0x33, 0x98, 0x3d, 0x57, 0x7d, 0x53, 0x3e, 0x4c, 0x31, 0x3f, 0x3d,
  0xec, 0x6f, 0x9d, 0xbc, 0xc0, 0x86, 0x9c, 0x3d, 0x92, 0x32, 0xa7, 0x3b,
  0x72, 0x76, 0xef, 0xbb, 0x1c, 0x3b, 0xb4, 0x3c, 0x4d, 0xb3, 0x36, 0xbd,
  0x40, 0x9a, 0x10, 0xbd, 0x75, 0x73, 0x9a, 0x3c, 0xbe, 0x41, 0xa9, 0xbd,
  0x73, 0xbc, 0xc9, 0x3c, 0x95, 0x47, 0x2b, 0x3e, 0x5c, 0x46, 0x3b, 0x3d,
  0x1c, 0x33, 0xb6, 0xbc, 0x59, 0xc6, 0x88, 0xbd, 0x67, 0xf2, 0x22, 0x3c,
  0xcb, 0x42, 0x9e, 0xbc, 0xc6, 0x52, 0xa1, 0xbd, 0xd2, 0x79, 0x5e, 0x3d,
  0x44, 0xfe, 0xb3, 0x3d, 0x7f, 0x37, 0x34, 0xbd, 0x94, 0x69, 0x02, 0x3c,
  0x55, 0xa6, 0x09, 0xbe, 0x6b, 0x75, 0x5a, 0x3d, 0xbc, 0x84, 0x80, 0xbc,
  0x19, 0x49, 0x02, 0x3e, 0x42, 0x79, 0x05, 0xbd, 0xf6, 0x8d, 0xe6, 0xbb,
  0xfd, 0xc9, 0x41, 0x3c, 0xc9, 0x37, 0xfe, 0xbc, 0x23, 0x11, 0x16, 0xbe,
  0x5c, 0xf6, 0x2a, 0x3d, 0x8f, 0x17, 0xb9, 0xbc, 0x8a, 0x36, 0xcf, 0xbc,
  0xca, 0xf6, 0xff, 0xff, 0x04, 0x00, 0x00, 0x00, 0x40, 0x00, 0x00, 0x00,
  0x5b, 0x39, 0xcd, 0xbe, 0x3b, 0xd2, 0x88, 0xbe, 0xbc, 0x28, 0xb3, 0x3e,
  0x57, 0xd1, 0xa2, 0xbe, 0x97, 0xc6, 0x25, 0xbe, 0x88, 0x8f, 0x1d, 0x3e,
  0x8a, 0x6b, 0xa2, 0xbe, 0x64, 0xc6, 0x71, 0x3e, 0xa0, 0xa7, 0x97, 0x3e,
  0x37, 0x19, 0xbc, 0x3e, 0xd0, 0x6f, 0x7b, 0x3e, 0x05, 0x1d, 0xa3, 0x3e,
  0x88, 0x8c, 0x0f, 0x3e, 0x29, 0xbf, 0x28, 0x3e, 0x72, 0x5f, 0x8c, 0x3e,
  0x22, 0x6b, 0xb9, 0xbe, 0x16, 0xf7, 0xff, 0xff, 0x04, 0x00, 0x00, 0x00,
  0x04, 0x00, 0x00, 0x00, 0x51, 0x25, 0xbd, 0x3b, 0x26, 0xf7, 0xff, 0xff,
  0x04, 0x00, 0x00, 0x00, 0x40, 0x02, 0x00, 0x00, 0xc0, 0xdb, 0x1e, 0xbf,
  0x3f, 0x6b, 0xf8, 0x3f, 0xfb, 0xa5, 0x9c, 0xbe, 0x75, 0x13, 0x5c, 0x3e,
  0x1c, 0x39, 0x0c, 0xbf, 0x56, 0x92, 0x87, 0xbe, 0x15, 0xe9, 0x2f, 0x3d,
  0xe1, 0xa7, 0x61, 0xbd, 0x7c, 0x2f, 0x10, 0xbf, 0xfd, 0x01, 0xa2, 0xbe,
  0x7c, 0x6b, 0x38, 0x3f, 0xa5, 0x9b, 0x9d, 0xbf, 0x02, 0x71, 0xa0, 0xbe,
  0x2a, 0x8c, 0xb6, 0x3d, 0xa2, 0x70, 0x5c, 0xbc, 0x25, 0xe7, 0x4f, 0xbe,
  0xe9, 0x58, 0xac, 0x3f, 0xe9, 0xfd, 0xd8, 0xbe, 0x28, 0x94, 0xcc, 0xbd,
  0x16, 0xca, 0xb7, 0xbe, 0x02, 0xfa, 0x92, 0x3f, 0xec, 0xa6, 0x3c, 0x3f,
  0x55, 0x3c, 0xa1, 0x3d, 0xc0, 0x71, 0x81, 0x3e, 0x98, 0x70, 0x46, 0xbd,
  0x06, 0x21, 0x44, 0xbe, 0xf9, 0xd3, 0x8e, 0xbf, 0x69, 0xa9, 0x22, 0x3e,
  0x43, 0x87, 0x8f, 0x3f, 0x17, 0xd2, 0x02, 0xbf, 0x7e, 0x75, 0x13, 0xbf,
  0x3e, 0x6e, 0x3e, 0x3f, 0xf9, 0x54, 0xc3, 0xbd, 0x11, 0x3b, 0x25, 0xbf,
  0xab, 0x04, 0x1f, 0xbf, 0x20, 0x32, 0x56, 0xbe, 0x77, 0xff, 0x39, 0x3e,
  0x86, 0xf6, 0xe5, 0xbe, 0xe4, 0xf5, 0x95, 0xbd, 0x24, 0x54, 0x44, 0xbe,
  0x27, 0xe8, 0xd9, 0xbd, 0xdc, 0xbd, 0x1a, 0xbe, 0xf5, 0x11, 0x96, 0x3e,
  0x8a, 0xb0, 0xa1, 0x3d, 0x08, 0x84, 0x31, 0xbe, 0x0b, 0xb8, 0xb3, 0xbe,
  0xf6, 0x8b, 0xc3, 0x3e, 0x11, 0x58, 0xb3, 0x3d, 0xba, 0x7a, 0x61, 0xbf,
  0x6d, 0x16, 0x5c, 0x40, 0xd7, 0x1d, 0xde, 0x3e, 0xc7, 0xe1, 0xd7, 0x3f,
  0x6c, 0x43, 0x40, 0xbd, 0x5a, 0xe5, 0x4b, 0xc0, 0x14, 0x57, 0xbf, 0xbf,
  0xd7, 0xb2, 0x01, 0xbe, 0x8c, 0xe4, 0x36, 0xc0, 0x2e, 0x54, 0xca, 0xbe,
  0xae, 0x2e, 0x4b, 0xbd, 0xe5, 0x7f, 0x42, 0xbf, 0xc9, 0xbb, 0x9a, 0xbf,
  0x5e, 0x74, 0x01, 0xbf, 0x71, 0x58, 0x32, 0xc0, 0xb1, 0xd4, 0xb5, 0x3e,
  0xa4, 0x8b, 0x81, 0x40, 0x6f, 0x77, 0x26, 0xbf, 0x5d, 0x1a, 0x92, 0x3f,
  0xff, 0x88, 0xda, 0xc0, 0x7f, 0xcf, 0xc4, 0xbf, 0xd5, 0x54, 0x05, 0xc1,
  0x55, 0x5b, 0xc8, 0x3f, 0x72, 0x77, 0x05, 0x40, 0xfb, 0xb1, 0xf0, 0xbe,
  0x4f, 0x7b, 0xbf, 0x3f, 0xa2, 0x2d, 0xac, 0xc0, 0x5a, 0x0f, 0x6a, 0xbe,
  0xae, 0xb2, 0x9a, 0x40, 0x63, 0x9d, 0xd3, 0xc0, 0xa2, 0x27, 0x02, 0xc1,
  0xe8, 0x3a, 0x65, 0xc1, 0xa7, 0x2b, 0xe7, 0xbc, 0xb1, 0x35, 0x75, 0xbf,
  0xf4, 0x67, 0x91, 0xbe, 0xb5, 0xc8, 0xf0, 0xbe, 0x69, 0xd7, 0xc5, 0x3d,
  0xc7, 0xf4, 0x45, 0xc0, 0x88, 0xa7, 0x09, 0x40, 0xf6, 0x84, 0xa9, 0xbe,
  0xd5, 0x0a, 0xaf, 0x3d, 0xf3, 0xd5, 0x66, 0x3f, 0x37, 0xc1, 0xa3, 0x3e,
  0xd4, 0x16, 0x6f, 0xbe, 0xed, 0x3f, 0x34, 0x3e, 0xd2, 0xc0, 0xba, 0xbf,
  0x8d, 0xeb, 0x37, 0x40, 0x0f, 0x76, 0xf8, 0xbf, 0x48, 0x34, 0xc6, 0xbe,
  0xd9, 0x9d, 0xd4, 0x3f, 0x51, 0x02, 0x35, 0x3d, 0xc1, 0x19, 0x7b, 0x3e,
  0x33, 0x01, 0x60, 0xbe, 0x98, 0xdb, 0x20, 0x3f, 0x1b, 0xd5, 0x93, 0x3d,
  0x0e, 0x87, 0x68, 0xbe, 0xa4, 0xd4, 0x94, 0xbe, 0x9d, 0x42, 0x7d, 0xbe,
  0xfa, 0x01, 0x6c, 0x3f, 0xae, 0xd0, 0x7d, 0xbe, 0x54, 0x29, 0x29, 0xbe,
  0x51, 0xc9, 0x9e, 0x3b, 0xdc, 0xff, 0x37, 0x3f, 0x9e, 0x6c, 0x6c, 0xbf,
  0x16, 0x0e, 0xbe, 0x3f, 0xd4, 0xd8, 0x0a, 0xbf, 0x14, 0x97, 0x8d, 0xbe,
  0x72, 0x57, 0x16, 0xbf, 0x22, 0x3e, 0x07, 0xbf, 0x04, 0xc6, 0xc9, 0xbe,
  0x80, 0x02, 0x19, 0x3d, 0x75, 0xee, 0x18, 0x3e, 0x5e, 0xd5, 0x43, 0x3e,
  0xec, 0x0a, 0xd7, 0xbe, 0x21, 0xe3, 0x7b, 0xbf, 0x1e, 0x73, 0x81, 0x3d,
  0xc2, 0x23, 0x4f, 0x3f, 0xa6, 0xa7, 0xed, 0xbe, 0x6e, 0x4e, 0xa8, 0xbf,
  0x3e, 0x22, 0x26, 0x3f, 0xb3, 0xfc, 0xca, 0xbd, 0x45, 0xb3, 0xe8, 0xbe,
  0xf9, 0x16, 0xb0, 0x3d, 0xd8, 0x8c, 0x08, 0x3f, 0x5f, 0x7e, 0xd7, 0x3e,
  0xdd, 0x9d, 0x67, 0xbe, 0x12, 0x1f, 0x46, 0xbe, 0x97, 0x53, 0x93, 0xbd,
  0xa1, 0xe1, 0x17, 0xbe, 0xdc, 0xb4, 0x9a, 0x3e, 0x8a, 0x72, 0xc0, 0x3d,
  0xac, 0x42, 0x1f, 0x3e, 0x64, 0x31, 0x89, 0xbe, 0x52, 0xee, 0x91, 0x3e,
  0xa1, 0x7c, 0xe6, 0x3e, 0xf6, 0x40, 0x14, 0xc0, 0x72, 0xf9, 0xff, 0xff,
  0x04, 0x00, 0x00, 0x00, 0x40, 0x00, 0x00, 0x00, 0xb7, 0x50, 0x49, 0x3e,
  0x12, 0xa8, 0x79, 0xbf, 0xc6, 0x1f, 0xfc, 0x3f, 0xe4, 0x40, 0x01, 0x3f,
  0xad, 0x82, 0x39, 0xc0, 0xb0, 0x06, 0x64, 0x3f, 0xc6, 0x94, 0xd4, 0x3f,
  0x2f, 0x5d, 0xc9, 0x3e, 0x32, 0x2f, 0x36, 0x3f, 0x6c, 0x3c, 0xfe, 0xbf,
  0x7a, 0x25, 0x9a, 0x3e, 0xb6, 0xd4, 0xb1, 0xbf, 0xa9, 0xc5, 0xf4, 0xbd,
  0x1e, 0xe4, 0x2d, 0x3f, 0xc4, 0xee, 0xa3, 0x3e, 0x39, 0xf3, 0x84, 0x3f,
  0xbe, 0xf9, 0xff, 0xff, 0x04, 0x00, 0x00, 0x00, 0x40, 0x02, 0x00, 0x00,
  0x7f, 0xc0, 0x4d, 0xbf, 0x2f, 0xcc, 0x94, 0x3f, 0x99, 0x4d, 0x8f, 0x3d,
  0xe1, 0x03, 0x79, 0x3e, 0xf0, 0x81, 0x19, 0xbf, 0x4c, 0x23, 0x1b, 0x40,
  0x36, 0xd1, 0x97, 0x3f, 0x04, 0x85, 0x26, 0x3f, 0x0c, 0x2f, 0xde, 0x3e,
  0x07, 0x2d, 0x29, 0x40, 0x03, 0x24, 0x49, 0xbf, 0x74, 0x9c, 0xf6, 0x3e,
  0x04, 0xac, 0x65, 0x3e, 0x0e, 0x70, 0x8c, 0x3f, 0x95, 0x95, 0x06, 0xbe,
  0xa4, 0x4c, 0x91, 0xbf, 0xeb, 0x09, 0x4f, 0xbf, 0x2d, 0xd0, 0xdb, 0x3f,
  0x10, 0x21, 0x79, 0x40, 0x26, 0xd9, 0x38, 0xbe, 0x95, 0x1e, 0xec, 0x3f,
  0x0d, 0x27, 0x9e, 0xc0, 0x43, 0xad, 0x8f, 0xbf, 0x7e, 0xb8, 0x7e, 0xbe,
  0x55, 0x77, 0x86, 0xbf, 0x1c, 0x06, 0x09, 0xc0, 0x28, 0x4a, 0x77, 0x40,
  0x47, 0xa9, 0x59, 0xbf, 0xb3, 0x18, 0x5f, 0xbf, 0x38, 0xdc, 0xdc, 0x3f,
  0x32, 0x18, 0x88, 0x3d, 0x12, 0x64, 0xd6, 0x3f, 0xb0, 0xd0, 0xfd, 0x3e,
  0xf0, 0x89, 0x49, 0x40, 0x76, 0xfa, 0x3a, 0x40, 0x71, 0x12, 0x65, 0xbd,
  0xd5, 0x72, 0xfe, 0xbf, 0x96, 0x22, 0xb1, 0x40, 0xd1, 0x6b, 0xee, 0xbf,
  0x16, 0x50, 0x7d, 0xbf, 0x11, 0x54, 0xd6, 0xbf, 0xa1, 0x52, 0x0d, 0x3f,
  0x63, 0x7d, 0x29, 0xc0, 0x9d, 0x6e, 0x83, 0xbf, 0xd2, 0x32, 0xb6, 0x3f,
  0xce, 0xca, 0x6d, 0x3d, 0xe5, 0x2a, 0xa1, 0x3e, 0xc2, 0xd7, 0x5a, 0xbf,
  0x9e, 0x8e, 0x1d, 0xc0, 0xb9, 0xe8, 0xc1, 0x3f, 0x5c, 0x80, 0x12, 0x3e,
  0x9f, 0x54, 0x16, 0x3f, 0x81, 0x6c, 0x17, 0x40, 0x55, 0xba, 0x2a, 0xc0,
  0x5f, 0xaf, 0x84, 0x3f, 0x89, 0x5a, 0x6f, 0xc0, 0x4a, 0x29, 0xbd, 0xbe,
  0x04, 0x2e, 0x20, 0x40, 0x80, 0x9f, 0x11, 0x40, 0xca, 0xae, 0x93, 0xbe,
  0xf6, 0xbe, 0x42, 0xbf, 0x0b, 0x4b, 0x7f, 0xbf, 0xdd, 0xd7, 0x87, 0xbe,
  0x73, 0x5a, 0x9c, 0xc0, 0x12, 0xd2, 0x2c, 0xc0, 0x6f, 0x7b, 0xa1, 0xc0,
  0xa1, 0x53, 0xe3, 0x3e, 0x32, 0x52, 0x20, 0xc0, 0x8a, 0x11, 0x03, 0xc1,
  0x35, 0xcc, 0xd3, 0x40, 0xa6, 0x0c, 0x81, 0x40, 0xe8, 0x2e, 0x37, 0x40,
  0x93, 0x85, 0x4d, 0x40, 0x4a, 0x2d, 0xb9, 0x3e, 0x72, 0xf2, 0xa7, 0xc0,
  0x4b, 0xfb, 0x2a, 0xc0, 0xe9, 0x4a, 0xc0, 0x3f, 0xb4, 0x13, 0xb8, 0xc0,
  0x16, 0x54, 0x2c, 0xc0, 0x01, 0x72, 0xad, 0x40, 0x6a, 0xe8, 0x3b, 0x40,
  0x95, 0xe3, 0x10, 0xc0, 0x7c, 0x32, 0x56, 0x3e, 0x18, 0xe4, 0x11, 0xc0,
  0x3d, 0x28, 0xda, 0x40, 0x00, 0xdf, 0x89, 0xc0, 0xec, 0xae, 0x75, 0x40,
  0x65, 0xc5, 0x62, 0xc0, 0x15, 0x35, 0xbe, 0x40, 0x4a, 0x11, 0xa3, 0x3f,
  0x22, 0xcf, 0xa1, 0x40, 0x70, 0xf8, 0x21, 0xc0, 0x03, 0x03, 0xdb, 0x3f,
  0xdb, 0x8c, 0x8f, 0xc0, 0xc6, 0x6d, 0x04, 0xc0, 0xcb, 0xbf, 0x0a, 0xbf,
  0xb4, 0x78, 0x01, 0xc0, 0xea, 0x8e, 0x13, 0x3f, 0xca, 0xd4, 0x38, 0xbe,
  0x61, 0xa0, 0x73, 0x3f, 0x73, 0x0a, 0xd0, 0xbf, 0xdc, 0xb8, 0x89, 0xbe,
  0x4b, 0x87, 0x5f, 0x3f, 0x8e, 0xdb, 0xcb, 0x40, 0xd0, 0xfe, 0xca, 0xbe,
  0x9f, 0xdd, 0x27, 0x40, 0x68, 0xad, 0x26, 0xbf, 0x09, 0xda, 0x4c, 0x3f,
  0x3f, 0xdc, 0xc6, 0x3e, 0xb8, 0xc7, 0xf6, 0x3e, 0xe9, 0xa1, 0x35, 0x3f,
  0x2b, 0x20, 0x13, 0xc0, 0x51, 0x6b, 0xd6, 0xbf, 0x3b, 0x36, 0x6e, 0xbf,
  0xc2, 0xb8, 0x1e, 0x3e, 0x9f, 0x9d, 0x93, 0x40, 0xef, 0xd9, 0xac, 0x40,
  0x32, 0x58, 0xef, 0xbf, 0x9a, 0x80, 0x5c, 0x3d, 0x78, 0x56, 0x50, 0xc0,
  0x1c, 0x43, 0xa9, 0xbe, 0xad, 0x4a, 0x0d, 0xbf, 0x76, 0x69, 0xfd, 0x3f,
  0x2a, 0x58, 0x00, 0x3f, 0x8a, 0x12, 0x65, 0xc0, 0x69, 0xe3, 0xa9, 0xbf,
  0x61, 0x70, 0x93, 0x40, 0x46, 0xc5, 0x11, 0x40, 0xc6, 0xbc, 0x1d, 0x40,
  0xc2, 0x5b, 0x89, 0x3f, 0x4a, 0x1f, 0xd2, 0x3e, 0x8b, 0x2f, 0x5d, 0x40,
  0xc7, 0xd5, 0x42, 0xc0, 0x9c, 0x88, 0xfd, 0x3f, 0xbe, 0xe7, 0x3f, 0xbf,
  0x94, 0x85, 0x86, 0xbf, 0x57, 0x8c, 0xea, 0xbe, 0x6a, 0xf5, 0x6d, 0x3f,
  0x4b, 0x69, 0x9c, 0xbf, 0x30, 0x63, 0x05, 0xbf, 0x10, 0x60, 0x83, 0x40,
  0x02, 0xdd, 0xac, 0xbf, 0x58, 0xf8, 0x29, 0x40, 0x32, 0x27, 0x78, 0xbf,
  0x0a, 0xfc, 0xff, 0xff, 0x04, 0x00, 0x00, 0x00, 0x40, 0x00, 0x00, 0x00,
  0x94, 0xa5, 0x03, 0x3f, 0xcd, 0xbb, 0xcb, 0x3e, 0x1a, 0xf1, 0x0e, 0xbd,
  0x5a, 0x96, 0x1d, 0x3f, 0xb0, 0x0b, 0xc8, 0x3e, 0x3a, 0x6e, 0x32, 0x3e,
  0x88, 0xdd, 0x9e, 0x3e, 0xd1, 0x88, 0xf1, 0x3d, 0x1a, 0x6e, 0x98, 0xbc,
  0x26, 0xaf, 0x99, 0x3e, 0x5c, 0x74, 0xed, 0x3e, 0x31, 0xd0, 0x49, 0xbc,
  0x60, 0xf1, 0x83, 0x3e, 0x4c, 0x99, 0xf4, 0xbb, 0x8a, 0xa0, 0xfa, 0x3d,
  0x05, 0xd8, 0xc3, 0x3e, 0x56, 0xfc, 0xff, 0xff, 0x04, 0x00, 0x00, 0x00,
  0x40, 0x00, 0x00, 0x00, 0x1f, 0x0f, 0x52, 0xbf, 0x1d, 0xcc, 0x83, 0x3e,
  0xb1, 0xc5, 0x46, 0xbc, 0xf7, 0xcc, 0x65, 0x40, 0x22, 0xd9, 0x10, 0x3f,
  0xbd, 0xbc, 0xf8, 0x40, 0x23, 0x00, 0x51, 0x3c, 0xea, 0x62, 0x12, 0xbf,
  0xa5, 0xce, 0x1a, 0x3f, 0x74, 0xe6, 0x75, 0xbd, 0xbc, 0xbf, 0xea, 0x3f,
  0x26, 0x75, 0xaa, 0x3e, 0xee, 0x34, 0x49, 0xbf, 0x7b, 0xbd, 0x01, 0x41,
  0x6c, 0x7e, 0x9f, 0x40, 0x79, 0xa0, 0x6c, 0x41, 0xa2, 0xfc, 0xff, 0xff,
  0x04, 0x00, 0x00, 0x00, 0x40, 0x00, 0x00, 0x00, 0xbd, 0xc4, 0xb6, 0x3f,
  0xe3, 0x88, 0x61, 0x3e, 0x94, 0x41, 0x27, 0xbf, 0xfc, 0x4b, 0x86, 0xbf,
  0xf7, 0xba, 0x16, 0xbe, 0x4f, 0xf8, 0xb2, 0xbe, 0xc0, 0x41, 0x27, 0xbf,
  0x36, 0x34, 0xcc, 0x3d, 0xfc, 0x6e, 0xdf, 0x3d, 0x05, 0xf3, 0xfe, 0xbf,
  0xdd, 0x41, 0x77, 0xbf, 0x4a, 0x1d, 0x94, 0x3f, 0x54, 0xe6, 0x0d, 0xbf,
  0x71, 0x72, 0xa5, 0x3f, 0x91, 0xbf, 0x88, 0xbe, 0x3c, 0x2d, 0xb9, 0x3e,
  0x80, 0xe9, 0xff, 0xff, 0x84, 0xe9, 0xff, 0xff, 0x0f, 0x00, 0x00, 0x00,
  0x4d, 0x4c, 0x49, 0x52, 0x20, 0x43, 0x6f, 0x6e, 0x76, 0x65, 0x72, 0x74,
  0x65, 0x64, 0x2e, 0x00, 0x01, 0x00, 0x00, 0x00, 0x14, 0x00, 0x00, 0x00,
  0x00, 0x00, 0x0e, 0x00, 0x18, 0x00, 0x14, 0x00, 0x10, 0x00, 0x0c, 0x00,
  0x08, 0x00, 0x04, 0x00, 0x0e, 0x00, 0x00, 0x00, 0x14, 0x00, 0x00, 0x00,
  0x1c, 0x00, 0x00, 0x00, 0x9c, 0x03, 0x00, 0x00, 0xa0, 0x03, 0x00, 0x00,
  0xa4, 0x03, 0x00, 0x00, 0x04, 0x00, 0x00, 0x00, 0x6d, 0x61, 0x69, 0x6e,
  0x00, 0x00, 0x00, 0x00, 0x0d, 0x00, 0x00, 0x00, 0x4c, 0x03, 0x00, 0x00,
  0xec, 0x02, 0x00, 0x00, 0x94, 0x02, 0x00, 0x00, 0x6c, 0x02, 0x00, 0x00,
  0x10, 0x02, 0x00, 0x00, 0xb8, 0x01, 0x00, 0x00, 0x68, 0x01, 0x00, 0x00,
  0x24, 0x01, 0x00, 0x00, 0xdc, 0x00, 0x00, 0x00, 0x9c, 0x00, 0x00, 0x00,
  0x50, 0x00, 0x00, 0x00, 0x2c, 0x00, 0x00, 0x00, 0x04, 0x00, 0x00, 0x00,
  0xc6, 0xfd, 0xff, 0xff, 0x0c, 0x00, 0x00, 0x00, 0x10, 0x00, 0x00, 0x00,
  0x03, 0x00, 0x00, 0x00, 0x01, 0x00, 0x00, 0x00, 0x1e, 0x00, 0x00, 0x00,
  0x02, 0x00, 0x00, 0x00, 0x1d, 0x00, 0x00, 0x00, 0x11, 0x00, 0x00, 0x00,
  0xea, 0xfd, 0xff, 0xff, 0x0c, 0x00, 0x00, 0x00, 0x10, 0x00, 0x00, 0x00,
  0x08, 0x00, 0x00, 0x00, 0x01, 0x00, 0x00, 0x00, 0x1d, 0x00, 0x00, 0x00,
  0x01, 0x00, 0x00, 0x00, 0x1c, 0x00, 0x00, 0x00, 0x96, 0xfd, 0xff, 0xff,
  0x20, 0x00, 0x00, 0x00, 0x00, 0x00, 0x00, 0x01, 0x24, 0x00, 0x00, 0x00,
  0x28, 0x00, 0x00, 0x00, 0x04, 0x00, 0x00, 0x00, 0x00, 0x00, 0x0a, 0x00,
  0x0c, 0x00, 0x00, 0x00, 0x08, 0x00, 0x04, 0x00, 0x0a, 0x00, 0x00, 0x00,
  0x01, 0x00, 0x00, 0x00, 0x01, 0x00, 0x00, 0x00, 0x01, 0x00, 0x00, 0x00,
  0x1c, 0x00, 0x00, 0x00, 0x03, 0x00, 0x00, 0x00, 0x1b, 0x00, 0x00, 0x00,
  0x0a, 0x00, 0x00, 0x00, 0x07, 0x00, 0x00, 0x00, 0xde, 0xfd, 0xff, 0xff,
  0x1c, 0x00, 0x00, 0x00, 0x00, 0x00, 0x00, 0x4a, 0x1c, 0x00, 0x00, 0x00,
  0x20, 0x00, 0x00, 0x00, 0x07, 0x00, 0x00, 0x00, 0x08, 0x00, 0x08, 0x00,
  0x00, 0x00, 0x07, 0x00, 0x08, 0x00, 0x00, 0x00, 0x00, 0x00, 0x00, 0x01,
  0x01, 0x00, 0x00, 0x00, 0x1b, 0x00, 0x00, 0x00, 0x02, 0x00, 0x00, 0x00,
  0x1a, 0x00, 0x00, 0x00, 0x0b, 0x00, 0x00, 0x00, 0x1a, 0xfe, 0xff, 0xff,
  0x14, 0x00, 0x00, 0x00, 0x00, 0x00, 0x00, 0x02, 0x20, 0x00, 0x00, 0x00,
  0x24, 0x00, 0x00, 0x00, 0x05, 0x00, 0x00, 0x00, 0x2e, 0xff, 0xff, 0xff,
  0x00, 0x00, 0x00, 0x01, 0x01, 0x00, 0x00, 0x00, 0x01, 0x00, 0x00, 0x00,
  0x01, 0x00, 0x00, 0x00, 0x01, 0x00, 0x00, 0x00, 0x1a, 0x00, 0x00, 0x00,
  0x03, 0x00, 0x00, 0x00, 0x19, 0x00, 0x00, 0x00, 0x06, 0x00, 0x00, 0x00,
  0x02, 0x00, 0x00, 0x00, 0x5e, 0xfe, 0xff, 0xff, 0x14, 0x00, 0x00, 0x00,
  0x00, 0x00, 0x00, 0x01, 0x1c, 0x00, 0x00, 0x00, 0x20, 0x00, 0x00, 0x00,
  0x04, 0x00, 0x00, 0x00, 0x20, 0xff, 0xff, 0xff, 0x00, 0x00, 0x00, 0x01,
  0x01, 0x00, 0x00, 0x00, 0x01, 0x00, 0x00, 0x00, 0x01, 0x00, 0x00, 0x00,
  0x19, 0x00, 0x00, 0x00, 0x03, 0x00, 0x00, 0x00, 0x18, 0x00, 0x00, 0x00,
  0x09, 0x00, 0x00, 0x00, 0x05, 0x00, 0x00, 0x00, 0x9e, 0xfe, 0xff, 0xff,
  0x24, 0x00, 0x00, 0x00, 0x00, 0x00, 0x00, 0x05, 0x30, 0x00, 0x00, 0x00,
  0x34, 0x00, 0x00, 0x00, 0x06, 0x00, 0x00, 0x00, 0x00, 0x00, 0x0e, 0x00,
  0x14, 0x00, 0x00, 0x00, 0x10, 0x00, 0x0c, 0x00, 0x08, 0x00, 0x04, 0x00,
  0x0e, 0x00, 0x00, 0x00, 0x02, 0x00, 0x00, 0x00, 0x02, 0x00, 0x00, 0x00,
  0x02, 0x00, 0x00, 0x00, 0x02, 0x00, 0x00, 0x00, 0x01, 0x00, 0x00, 0x00,
  0x18, 0x00, 0x00, 0x00, 0x01, 0x00, 0x00, 0x00, 0x17, 0x00, 0x00, 0x00,
  0xea, 0xfe, 0xff, 0xff, 0x24, 0x00, 0x00, 0x00, 0x00, 0x00, 0x00, 0x02,
  0x30, 0x00, 0x00, 0x00, 0x34, 0x00, 0x00, 0x00, 0x05, 0x00, 0x00, 0x00,
  0x00, 0x00, 0x0e, 0x00, 0x14, 0x00, 0x00, 0x00, 0x10, 0x00, 0x0c, 0x00,
  0x08, 0x00, 0x07, 0x00, 0x0e, 0x00, 0x00, 0x00, 0x00, 0x00, 0x00, 0x01,
  0x01, 0x00, 0x00, 0x00, 0x01, 0x00, 0x00, 0x00, 0x01, 0x00, 0x00, 0x00,
  0x01, 0x00, 0x00, 0x00, 0x17, 0x00, 0x00, 0x00, 0x03, 0x00, 0x00, 0x00,
  0x16, 0x00, 0x00, 0x00, 0x04, 0x00, 0x00, 0x00, 0x01, 0x00, 0x00, 0x00,
  0x3e, 0xff, 0xff, 0xff, 0x20, 0x00, 0x00, 0x00, 0x00, 0x00, 0x00, 0x01,
  0x28, 0x00, 0x00, 0x00, 0x2c, 0x00, 0x00, 0x00, 0x04, 0x00, 0x00, 0x00,
  0x0c, 0x00, 0x10, 0x00, 0x00, 0x00, 0x0c, 0x00, 0x08, 0x00, 0x07, 0x00,
  0x0c, 0x00, 0x00, 0x00, 0x00, 0x00, 0x00, 0x01, 0x01, 0x00, 0x00, 0x00,
  0x01, 0x00, 0x00, 0x00, 0x01, 0x00, 0x00, 0x00, 0x16, 0x00, 0x00, 0x00,
  0x03, 0x00, 0x00, 0x00, 0x15, 0x00, 0x00, 0x00, 0x08, 0x00, 0x00, 0x00,
  0x03, 0x00, 0x00, 0x00, 0x00, 0x00, 0x0a, 0x00, 0x10, 0x00, 0x0c, 0x00,
  0x08, 0x00, 0x04, 0x00, 0x0a, 0x00, 0x00, 0x00, 0x0c, 0x00, 0x00, 0x00,
  0x10, 0x00, 0x00, 0x00, 0x03, 0x00, 0x00, 0x00, 0x01, 0x00, 0x00, 0x00,
  0x15, 0x00, 0x00, 0x00, 0x02, 0x00, 0x00, 0x00, 0x00, 0x00, 0x00, 0x00,
  0x14, 0x00, 0x00, 0x00, 0xba, 0xff, 0xff, 0xff, 0x1c, 0x00, 0x00, 0x00,
  0x00, 0x00, 0x00, 0x3b, 0x1c, 0x00, 0x00, 0x00, 0x20, 0x00, 0x00, 0x00,
  0x02, 0x00, 0x00, 0x00, 0x00, 0x00, 0x06, 0x00, 0x08, 0x00, 0x04, 0x00,
  0x06, 0x00, 0x00, 0x00, 0x04, 0x00, 0x00, 0x00, 0x01, 0x00, 0x00, 0x00,
  0x14, 0x00, 0x00, 0x00, 0x04, 0x00, 0x00, 0x00, 0x13, 0x00, 0x00, 0x00,
  0x10, 0x00, 0x00, 0x00, 0x0f, 0x00, 0x00, 0x00, 0x0e, 0x00, 0x00, 0x00,
  0x00, 0x00, 0x0e, 0x00, 0x1a, 0x00, 0x14, 0x00, 0x10, 0x00, 0x0c, 0x00,
  0x0b, 0x00, 0x04, 0x00, 0x0e, 0x00, 0x00, 0x00, 0x24, 0x00, 0x00, 0x00,
  0x00, 0x00, 0x00, 0x20, 0x24, 0x00, 0x00, 0x00, 0x28, 0x00, 0x00, 0x00,
  0x01, 0x00, 0x00, 0x00, 0x00, 0x00, 0x0e, 0x00, 0x08, 0x00, 0x00, 0x00,
  0x00, 0x00, 0x00, 0x00, 0x00, 0x00, 0x04, 0x00, 0x0e, 0x00, 0x00, 0x00,
  0x01, 0x00, 0x00, 0x00, 0x01, 0x00, 0x00, 0x00, 0x13, 0x00, 0x00, 0x00,
  0x04, 0x00, 0x00, 0x00, 0x12, 0x00, 0x00, 0x00, 0x0d, 0x00, 0x00, 0x00,
  0x0c, 0x00, 0x00, 0x00, 0x0c, 0x00, 0x00, 0x00, 0x00, 0x00, 0x0e, 0x00,
  0x16, 0x00, 0x00, 0x00, 0x10, 0x00, 0x0c, 0x00, 0x0b, 0x00, 0x04, 0x00,
  0x0e, 0x00, 0x00, 0x00, 0x18, 0x00, 0x00, 0x00, 0x00, 0x00, 0x00, 0x37,
  0x18, 0x00, 0x00, 0x00, 0x1c, 0x00, 0x00, 0x00, 0x00, 0x00, 0x06, 0x00,
  0x08, 0x00, 0x07, 0x00, 0x06, 0x00, 0x00, 0x00, 0x00, 0x00, 0x00, 0x02,
  0x01, 0x00, 0x00, 0x00, 0x12, 0x00, 0x00, 0x00, 0x01, 0x00, 0x00, 0x00,
  0x00, 0x00, 0x00, 0x00, 0x01, 0x00, 0x00, 0x00, 0x1e, 0x00, 0x00, 0x00,
  0x01, 0x00, 0x00, 0x00, 0x00, 0x00, 0x00, 0x00, 0x1f, 0x00, 0x00, 0x00,
  0x68, 0x12, 0x00, 0x00, 0x34, 0x11, 0x00, 0x00, 0x20, 0x10, 0x00, 0x00,
  0x28, 0x0f, 0x00, 0x00, 0x18, 0x0e, 0x00, 0x00, 0x18, 0x0d, 0x00, 0x00,
  0x28, 0x0c, 0x00, 0x00, 0xd0, 0x0b, 0x00, 0x00, 0x7c, 0x0b, 0x00, 0x00,
  0x28, 0x0b, 0x00, 0x00, 0xd4, 0x0a, 0x00, 0x00, 0x84, 0x0a, 0x00, 0x00,
  0x10, 0x0a, 0x00, 0x00, 0xb8, 0x09, 0x00, 0x00, 0x68, 0x09, 0x00, 0x00,
  0x18, 0x09, 0x00, 0x00, 0xc8, 0x08, 0x00, 0x00, 0x7c, 0x08, 0x00, 0x00,
  0x30, 0x08, 0x00, 0x00, 0xe0, 0x07, 0x00, 0x00, 0x8c, 0x07, 0x00, 0x00,
  0x20, 0x07, 0x00, 0x00, 0x04, 0x06, 0x00, 0x00, 0xc4, 0x04, 0x00, 0x00,
  0x50, 0x04, 0x00, 0x00, 0x28, 0x03, 0x00, 0x00, 0x08, 0x02, 0x00, 0x00,
  0x80, 0x01, 0x00, 0x00, 0xcc, 0x00, 0x00, 0x00, 0x60, 0x00, 0x00, 0x00,
  0x04, 0x00, 0x00, 0x00, 0x2a, 0xee, 0xff, 0xff, 0x00, 0x00, 0x00, 0x01,
  0x14, 0x00, 0x00, 0x00, 0x1c, 0x00, 0x00, 0x00, 0x1c, 0x00, 0x00, 0x00,
  0x1f, 0x00, 0x00, 0x00, 0x34, 0x00, 0x00, 0x00, 0x02, 0x00, 0x00, 0x00,
  0xff, 0xff, 0xff, 0xff, 0x80, 0x00, 0x00, 0x00, 0x14, 0xee, 0xff, 0xff,
  0x19, 0x00, 0x00, 0x00, 0x53, 0x74, 0x61, 0x74, 0x65, 0x66, 0x75, 0x6c,
  0x50, 0x61, 0x72, 0x74, 0x69, 0x74, 0x69, 0x6f, 0x6e, 0x65, 0x64, 0x43,
  0x61, 0x6c, 0x6c, 0x3a, 0x30, 0x00, 0x00, 0x00, 0x02, 0x00, 0x00, 0x00,
  0x01, 0x00, 0x00, 0x00, 0x80, 0x00, 0x00, 0x00, 0x82, 0xee, 0xff, 0xff,
  0x00, 0x00, 0x00, 0x01, 0x14, 0x00, 0x00, 0x00, 0x24, 0x00, 0x00, 0x00,
  0x24, 0x00, 0x00, 0x00, 0x1e, 0x00, 0x00, 0x00, 0x3c, 0x00, 0x00, 0x00,
  0x04, 0x00, 0x00, 0x00, 0xff, 0xff, 0xff, 0xff, 0x10, 0x00, 0x00, 0x00,
  0x08, 0x00, 0x00, 0x00, 0x01, 0x00, 0x00, 0x00, 0x74, 0xee, 0xff, 0xff,
  0x1b, 0x00, 0x00, 0x00, 0x73, 0x65, 0x71, 0x75, 0x65, 0x6e, 0x74, 0x69,
  0x61, 0x6c, 0x2f, 0x63, 0x6f, 0x6e, 0x76, 0x32, 0x64, 0x5f, 0x32, 0x2f,
  0x53, 0x69, 0x67, 0x6d, 0x6f, 0x69, 0x64, 0x00, 0x04, 0x00, 0x00, 0x00,
  0x01, 0x00, 0x00, 0x00, 0x10, 0x00, 0x00, 0x00, 0x08, 0x00, 0x00, 0x00,
  0x01, 0x00, 0x00, 0x00, 0xea, 0xee, 0xff, 0xff, 0x00, 0x00, 0x00, 0x01,
  0x14, 0x00, 0x00, 0x00, 0x24, 0x00, 0x00, 0x00, 0x24, 0x00, 0x00, 0x00,
  0x1d, 0x00, 0x00, 0x00, 0x84, 0x00, 0x00, 0x00, 0x04, 0x00, 0x00, 0x00,
  0xff, 0xff, 0xff, 0xff, 0x10, 0x00, 0x00, 0x00, 0x08, 0x00, 0x00, 0x00,
  0x01, 0x00, 0x00, 0x00, 0xdc, 0xee, 0xff, 0xff, 0x61, 0x00, 0x00, 0x00,
  0x73, 0x65, 0x71, 0x75, 0x65, 0x6e, 0x74, 0x69, 0x61, 0x6c, 0x2f, 0x63,
  0x6f, 0x6e, 0x76, 0x32, 0x64, 0x5f, 0x32, 0x2f, 0x42, 0x69, 0x61, 0x73,
  0x41, 0x64, 0x64, 0x3b, 0x73, 0x65, 0x71, 0x75, 0x65, 0x6e, 0x74, 0x69,
  0x61, 0x6c, 0x2f, 0x63, 0x6f, 0x6e, 0x76, 0x32, 0x64, 0x5f, 0x32, 0x2f,
  0x43, 0x6f, 0x6e, 0x76, 0x32, 0x44, 0x3b, 0x73, 0x65, 0x71, 0x75, 0x65,
  0x6e, 0x74, 0x69, 0x61, 0x6c, 0x2f, 0x63, 0x6f, 0x6e, 0x76, 0x32, 0x64,
  0x5f, 0x32, 0x2f, 0x42, 0x69, 0x61, 0x73, 0x41, 0x64, 0x64, 0x2f, 0x52,
  0x65, 0x61, 0x64, 0x56, 0x61, 0x72, 0x69, 0x61, 0x62, 0x6c, 0x65, 0x4f,
  0x70, 0x00, 0x00, 0x00, 0x04, 0x00, 0x00, 0x00, 0x01, 0x00, 0x00, 0x00,
  0x10, 0x00, 0x00, 0x00, 0x08, 0x00, 0x00, 0x00, 0x01, 0x00, 0x00, 0x00,
  0x9a, 0xef, 0xff, 0xff, 0x00, 0x00, 0x00, 0x01, 0x14, 0x00, 0x00, 0x00,
  0x24, 0x00, 0x00, 0x00, 0x24, 0x00, 0x00, 0x00, 0x1c, 0x00, 0x00, 0x00,
  0x58, 0x00, 0x00, 0x00, 0x04, 0x00, 0x00, 0x00, 0xff, 0xff, 0xff, 0xff,
  0x10, 0x00, 0x00, 0x00, 0x08, 0x00, 0x00, 0x00, 0x10, 0x00, 0x00, 0x00,
  0x8c, 0xef, 0xff, 0xff, 0x35, 0x00, 0x00, 0x00, 0x73, 0x65, 0x71, 0x75,
  0x65, 0x6e, 0x74, 0x69, 0x61, 0x6c, 0x2f, 0x75, 0x70, 0x5f, 0x73, 0x61,
  0x6d, 0x70, 0x6c, 0x69, 0x6e, 0x67, 0x32, 0x64, 0x2f, 0x72, 0x65, 0x73,
  0x69, 0x7a, 0x65, 0x2f, 0x52, 0x65, 0x73, 0x69, 0x7a, 0x65, 0x4e, 0x65,
  0x61, 0x72, 0x65, 0x73, 0x74, 0x4e, 0x65, 0x69, 0x67, 0x68, 0x62, 0x6f,
  0x72, 0x00, 0x00, 0x00, 0x04, 0x00, 0x00, 0x00, 0x01, 0x00, 0x00, 0x00,
  0x10, 0x00, 0x00, 0x00, 0x08, 0x00, 0x00, 0x00, 0x10, 0x00, 0x00, 0x00,
  0x1e, 0xf0, 0xff, 0xff, 0x00, 0x00, 0x00, 0x01, 0x14, 0x00, 0x00, 0x00,
  0x24, 0x00, 0x00, 0x00, 0x24, 0x00, 0x00, 0x00, 0x1b, 0x00, 0x00, 0x00,
  0xf0, 0x00, 0x00, 0x00, 0x04, 0x00, 0x00, 0x00, 0xff, 0xff, 0xff, 0xff,
  0x08, 0x00, 0x00, 0x00, 0x04, 0x00, 0x00, 0x00, 0x10, 0x00, 0x00, 0x00,
  0x10, 0xf0, 0xff, 0xff, 0xcd, 0x00, 0x00, 0x00, 0x73, 0x65, 0x71, 0x75,
  0x65, 0x6e, 0x74, 0x69, 0x61, 0x6c, 0x2f, 0x72, 0x65, 0x5f, 0x6c, 0x75,
  0x5f, 0x33, 0x2f, 0x52, 0x65, 0x6c, 0x75, 0x3b, 0x73, 0x65, 0x71, 0x75,
  0x65, 0x6e, 0x74, 0x69, 0x61, 0x6c, 0x2f, 0x62, 0x61, 0x74, 0x63, 0x68,
  0x5f, 0x6e, 0x6f, 0x72, 0x6d, 0x61, 0x6c, 0x69, 0x7a, 0x61, 0x74, 0x69,
  0x6f, 0x6e, 0x5f, 0x33, 0x2f, 0x46, 0x75, 0x73, 0x65, 0x64, 0x42, 0x61,
  0x74, 0x63, 0x68, 0x4e, 0x6f, 0x72, 0x6d, 0x56, 0x33, 0x3b, 0x73, 0x65,
  0x71, 0x75, 0x65, 0x6e, 0x74, 0x69, 0x61, 0x6c, 0x2f, 0x64, 0x65, 0x70,
  0x74, 0x68, 0x77, 0x69, 0x73, 0x65, 0x5f, 0x63, 0x6f, 0x6e, 0x76, 0x32,
  0x64, 0x5f, 0x31, 0x2f, 0x64, 0x65, 0x70, 0x74, 0x68, 0x77, 0x69, 0x73,
  0x65, 0x3b, 0x73, 0x65, 0x71, 0x75, 0x65, 0x6e, 0x74, 0x69, 0x61, 0x6c,
  0x2f, 0x64, 0x65, 0x70, 0x74, 0x68, 0x77, 0x69, 0x73, 0x65, 0x5f, 0x63,
  0x6f, 0x6e, 0x76, 0x32, 0x64, 0x5f, 0x31, 0x2f, 0x42, 0x69, 0x61, 0x73,
  0x41, 0x64, 0x64, 0x2f, 0x52, 0x65, 0x61, 0x64, 0x56, 0x61, 0x72, 0x69,
  0x61, 0x62, 0x6c, 0x65, 0x4f, 0x70, 0x3b, 0x73, 0x65, 0x71, 0x75, 0x65,
  0x6e, 0x74, 0x69, 0x61, 0x6c, 0x2f, 0x64, 0x65, 0x70, 0x74, 0x68, 0x77,
  0x69, 0x73, 0x65, 0x5f, 0x63, 0x6f, 0x6e, 0x76, 0x32, 0x64, 0x5f, 0x31,
  0x2f, 0x42, 0x69, 0x61, 0x73, 0x41, 0x64, 0x64, 0x31, 0x00, 0x00, 0x00,
  0x04, 0x00, 0x00, 0x00, 0x01, 0x00, 0x00, 0x00, 0x08, 0x00, 0x00, 0x00,
  0x04, 0x00, 0x00, 0x00, 0x10, 0x00, 0x00, 0x00, 0x3a, 0xf1, 0xff, 0xff,
  0x00, 0x00, 0x00, 0x01, 0x14, 0x00, 0x00, 0x00, 0x24, 0x00, 0x00, 0x00,
  0x24, 0x00, 0x00, 0x00, 0x1a, 0x00, 0x00, 0x00, 0xf8, 0x00, 0x00, 0x00,
  0x04, 0x00, 0x00, 0x00, 0xff, 0xff, 0xff, 0xff, 0x08, 0x00, 0x00, 0x00,
  0x04, 0x00, 0x00, 0x00, 0x10, 0x00, 0x00, 0x00, 0x2c, 0xf1, 0xff, 0xff,
  0xd4, 0x00, 0x00, 0x00, 0x73, 0x65, 0x71, 0x75, 0x65, 0x6e, 0x74, 0x69,
  0x61, 0x6c, 0x2f, 0x72, 0x65, 0x5f, 0x6c, 0x75, 0x5f, 0x32, 0x2f, 0x52,
  0x65, 0x6c, 0x75, 0x3b, 0x73, 0x65, 0x71, 0x75, 0x65, 0x6e, 0x74, 0x69,
  0x61, 0x6c, 0x2f, 0x62, 0x61, 0x74, 0x63, 0x68, 0x5f, 0x6e, 0x6f, 0x72,
  0x6d, 0x61, 0x6c, 0x69, 0x7a, 0x61, 0x74, 0x69, 0x6f, 0x6e, 0x5f, 0x32,
  0x2f, 0x46, 0x75, 0x73, 0x65, 0x64, 0x42, 0x61, 0x74, 0x63, 0x68, 0x4e,
  0x6f, 0x72, 0x6d, 0x56, 0x33, 0x3b, 0x73, 0x65, 0x71, 0x75, 0x65, 0x6e,
  0x74, 0x69, 0x61, 0x6c, 0x2f, 0x63, 0x6f, 0x6e, 0x76, 0x32, 0x64, 0x5f,
  0x31, 0x2f, 0x42, 0x69, 0x61, 0x73, 0x41, 0x64, 0x64, 0x2f, 0x52, 0x65,
  0x61, 0x64, 0x56, 0x61, 0x72, 0x69, 0x61, 0x62, 0x6c, 0x65, 0x4f, 0x70,
  0x3b, 0x73, 0x65, 0x71, 0x75, 0x65, 0x6e, 0x74, 0x69, 0x61, 0x6c, 0x2f,
  0x63, 0x6f, 0x6e, 0x76, 0x32, 0x64, 0x5f, 0x31, 0x2f, 0x42, 0x69, 0x61,
  0x73, 0x41, 0x64, 0x64, 0x3b, 0x73, 0x65, 0x71, 0x75, 0x65, 0x6e, 0x74,
  0x69, 0x61, 0x6c, 0x2f, 0x64, 0x65, 0x70, 0x74, 0x68, 0x77, 0x69, 0x73,
  0x65, 0x5f, 0x63, 0x6f, 0x6e, 0x76, 0x32, 0x64, 0x5f, 0x31, 0x2f, 0x64,
  0x65, 0x70, 0x74, 0x68, 0x77, 0x69, 0x73, 0x65, 0x3b, 0x73, 0x65, 0x71,
  0x75, 0x65, 0x6e, 0x74, 0x69, 0x61, 0x6c, 0x2f, 0x63, 0x6f, 0x6e, 0x76,
  0x32, 0x64, 0x5f, 0x31, 0x2f, 0x43, 0x6f, 0x6e, 0x76, 0x32, 0x44, 0x31,
  0x00, 0x00, 0x00, 0x00, 0x04, 0x00, 0x00, 0x00, 0x01, 0x00, 0x00, 0x00,
  0x08, 0x00, 0x00, 0x00, 0x04, 0x00, 0x00, 0x00, 0x10, 0x00, 0x00, 0x00,
  0x5e, 0xf2, 0xff, 0xff, 0x00, 0x00, 0x00, 0x01, 0x14, 0x00, 0x00, 0x00,
  0x24, 0x00, 0x00, 0x00, 0x24, 0x00, 0x00, 0x00, 0x19, 0x00, 0x00, 0x00,
  0x44, 0x00, 0x00, 0x00, 0x04, 0x00, 0x00, 0x00, 0xff, 0xff, 0xff, 0xff,
  0x08, 0x00, 0x00, 0x00, 0x04, 0x00, 0x00, 0x00, 0x10, 0x00, 0x00, 0x00,
  0x50, 0xf2, 0xff, 0xff, 0x20, 0x00, 0x00, 0x00, 0x73, 0x65, 0x71, 0x75,
  0x65, 0x6e, 0x74, 0x69, 0x61, 0x6c, 0x2f, 0x6d, 0x61, 0x78, 0x5f, 0x70,
  0x6f, 0x6f, 0x6c, 0x69, 0x6e, 0x67, 0x32, 0x64, 0x2f, 0x4d, 0x61, 0x78,
  0x50, 0x6f, 0x6f, 0x6c, 0x00, 0x00, 0x00, 0x00, 0x04, 0x00, 0x00, 0x00,
  0x01, 0x00, 0x00, 0x00, 0x08, 0x00, 0x00, 0x00, 0x04, 0x00, 0x00, 0x00,
  0x10, 0x00, 0x00, 0x00, 0xce, 0xf2, 0xff, 0xff, 0x00, 0x00, 0x00, 0x01,
  0x14, 0x00, 0x00, 0x00, 0x24, 0x00, 0x00, 0x00, 0x24, 0x00, 0x00, 0x00,
  0x18, 0x00, 0x00, 0x00, 0x10, 0x01, 0x00, 0x00, 0x04, 0x00, 0x00, 0x00,
  0xff, 0xff, 0xff, 0xff, 0x10, 0x00, 0x00, 0x00, 0x08, 0x00, 0x00, 0x00,
  0x10, 0x00, 0x00, 0x00, 0xc0, 0xf2, 0xff, 0xff, 0xef, 0x00, 0x00, 0x00,
  0x73, 0x65, 0x71, 0x75, 0x65, 0x6e, 0x74, 0x69, 0x61, 0x6c, 0x2f, 0x72,
  0x65, 0x5f, 0x6c, 0x75, 0x5f, 0x31, 0x2f, 0x52, 0x65, 0x6c, 0x75, 0x3b,
  0x73, 0x65, 0x71, 0x75, 0x65, 0x6e, 0x74, 0x69, 0x61, 0x6c, 0x2f, 0x62,
  0x61, 0x74, 0x63, 0x68, 0x5f, 0x6e, 0x6f, 0x72, 0x6d, 0x61, 0x6c, 0x69,
  0x7a, 0x61, 0x74, 0x69, 0x6f, 0x6e, 0x5f, 0x31, 0x2f, 0x46, 0x75, 0x73,
  0x65, 0x64, 0x42, 0x61, 0x74, 0x63, 0x68, 0x4e, 0x6f, 0x72, 0x6d, 0x56,
  0x33, 0x3b, 0x73, 0x65, 0x71, 0x75, 0x65, 0x6e, 0x74, 0x69, 0x61, 0x6c,
  0x2f, 0x64, 0x65, 0x70, 0x74, 0x68, 0x77, 0x69, 0x73, 0x65, 0x5f, 0x63,
  0x6f, 0x6e, 0x76, 0x32, 0x64, 0x2f, 0x64, 0x65, 0x70, 0x74, 0x68, 0x77,
  0x69, 0x73, 0x65, 0x3b, 0x73, 0x65, 0x71, 0x75, 0x65, 0x6e, 0x74, 0x69,
  0x61, 0x6c, 0x2f, 0x64, 0x65, 0x70, 0x74, 0x68, 0x77, 0x69, 0x73, 0x65,
  0x5f, 0x63, 0x6f, 0x6e, 0x76, 0x32, 0x64, 0x2f, 0x42, 0x69, 0x61, 0x73,
  0x41, 0x64, 0x64, 0x2f, 0x52, 0x65, 0x61, 0x64, 0x56, 0x61, 0x72, 0x69,
  0x61, 0x62, 0x6c, 0x65, 0x4f, 0x70, 0x3b, 0x73, 0x65, 0x71, 0x75, 0x65,
  0x6e, 0x74, 0x69, 0x61, 0x6c, 0x2f, 0x64, 0x65, 0x70, 0x74, 0x68, 0x77,
  0x69, 0x73, 0x65, 0x5f, 0x63, 0x6f, 0x6e, 0x76, 0x32, 0x64, 0x2f, 0x42,
  0x69, 0x61, 0x73, 0x41, 0x64, 0x64, 0x3b, 0x73, 0x65, 0x71, 0x75, 0x65,
  0x6e, 0x74, 0x69, 0x61, 0x6c, 0x2f, 0x64, 0x65, 0x70, 0x74, 0x68, 0x77,
  0x69, 0x73, 0x65, 0x5f, 0x63, 0x6f, 0x6e, 0x76, 0x32, 0x64, 0x5f, 0x31,
  0x2f, 0x64, 0x65, 0x70, 0x74, 0x68, 0x77, 0x69, 0x73, 0x65, 0x31, 0x00,
  0x04, 0x00, 0x00, 0x00, 0x01, 0x00, 0x00, 0x00, 0x10, 0x00, 0x00, 0x00,
  0x08, 0x00, 0x00, 0x00, 0x10, 0x00, 0x00, 0x00, 0x0a, 0xf4, 0xff, 0xff,
  0x00, 0x00, 0x00, 0x01, 0x14, 0x00, 0x00, 0x00, 0x24, 0x00, 0x00, 0x00,
  0x24, 0x00, 0x00, 0x00, 0x17, 0x00, 0x00, 0x00, 0xec, 0x00, 0x00, 0x00,
  0x04, 0x00, 0x00, 0x00, 0xff, 0xff, 0xff, 0xff, 0x10, 0x00, 0x00, 0x00,
  0x08, 0x00, 0x00, 0x00, 0x10, 0x00, 0x00, 0x00, 0xfc, 0xf3, 0xff, 0xff,
  0xca, 0x00, 0x00, 0x00, 0x73, 0x65, 0x71, 0x75, 0x65, 0x6e, 0x74, 0x69,
  0x61, 0x6c, 0x2f, 0x72, 0x65, 0x5f, 0x6c, 0x75, 0x2f, 0x52, 0x65, 0x6c,
  0x75, 0x3b, 0x73, 0x65, 0x71, 0x75, 0x65, 0x6e, 0x74, 0x69, 0x61, 0x6c,
  0x2f, 0x62, 0x61, 0x74, 0x63, 0x68, 0x5f, 0x6e, 0x6f, 0x72, 0x6d, 0x61,
  0x6c, 0x69, 0x7a, 0x61, 0x74, 0x69, 0x6f, 0x6e, 0x2f, 0x46, 0x75, 0x73,
  0x65, 0x64, 0x42, 0x61, 0x74, 0x63, 0x68, 0x4e, 0x6f, 0x72, 0x6d, 0x56,
  0x33, 0x3b, 0x73, 0x65, 0x71, 0x75, 0x65, 0x6e, 0x74, 0x69, 0x61, 0x6c,
  0x2f, 0x63, 0x6f, 0x6e, 0x76, 0x32, 0x64, 0x2f, 0x42, 0x69, 0x61, 0x73,
  0x41, 0x64, 0x64, 0x2f, 0x52, 0x65, 0x61, 0x64, 0x56, 0x61, 0x72, 0x69,
  0x61, 0x62, 0x6c, 0x65, 0x4f, 0x70, 0x3b, 0x73, 0x65, 0x71, 0x75, 0x65,
  0x6e, 0x74, 0x69, 0x61, 0x6c, 0x2f, 0x63, 0x6f, 0x6e, 0x76, 0x32, 0x64,
  0x2f, 0x42, 0x69, 0x61, 0x73, 0x41, 0x64, 0x64, 0x3b, 0x73, 0x65, 0x71,
  0x75, 0x65, 0x6e, 0x74, 0x69, 0x61, 0x6c, 0x2f, 0x64, 0x65, 0x70, 0x74,
  0x68, 0x77, 0x69, 0x73, 0x65, 0x5f, 0x63, 0x6f, 0x6e, 0x76, 0x32, 0x64,
  0x5f, 0x31, 0x2f, 0x64, 0x65, 0x70, 0x74, 0x68, 0x77, 0x69, 0x73, 0x65,
  0x3b, 0x73, 0x65, 0x71, 0x75, 0x65, 0x6e, 0x74, 0x69, 0x61, 0x6c, 0x2f,
  0x63, 0x6f, 0x6e, 0x76, 0x32, 0x64, 0x2f, 0x43, 0x6f, 0x6e, 0x76, 0x32,
  0x44, 0x31, 0x00, 0x00, 0x04, 0x00, 0x00, 0x00, 0x01, 0x00, 0x00, 0x00,
  0x10, 0x00, 0x00, 0x00, 0x08, 0x00, 0x00, 0x00, 0x10, 0x00, 0x00, 0x00,
  0x22, 0xf5, 0xff, 0xff, 0x00, 0x00, 0x00, 0x01, 0x14, 0x00, 0x00, 0x00,
  0x24, 0x00, 0x00, 0x00, 0x24, 0x00, 0x00, 0x00, 0x16, 0x00, 0x00, 0x00,
  0x3c, 0x00, 0x00, 0x00, 0x04, 0x00, 0x00, 0x00, 0xff, 0xff, 0xff, 0xff,
  0x10, 0x00, 0x00, 0x00, 0x08, 0x00, 0x00, 0x00, 0x01, 0x00, 0x00, 0x00,
  0x14, 0xf5, 0xff, 0xff, 0x1a, 0x00, 0x00, 0x00, 0x73, 0x65, 0x71, 0x75,
  0x65, 0x6e, 0x74, 0x69, 0x61, 0x6c, 0x2f, 0x72, 0x65, 0x73, 0x68, 0x61,
  0x70, 0x65, 0x2f, 0x52, 0x65, 0x73, 0x68, 0x61, 0x70, 0x65, 0x00, 0x00,
  0x04, 0x00, 0x00, 0x00, 0x01, 0x00, 0x00, 0x00, 0x10, 0x00, 0x00, 0x00,
  0x08, 0x00, 0x00, 0x00, 0x01, 0x00, 0x00, 0x00, 0x42, 0xfd, 0xff, 0xff,
  0x00, 0x00, 0x00, 0x01, 0x14, 0x00, 0x00, 0x00, 0x14, 0x00, 0x00, 0x00,
  0x15, 0x00, 0x00, 0x00, 0x00, 0x00, 0x00, 0x02, 0x30, 0x00, 0x00, 0x00,
  0x68, 0xf5, 0xff, 0xff, 0x20, 0x00, 0x00, 0x00, 0x73, 0x65, 0x71, 0x75,
  0x65, 0x6e, 0x74, 0x69, 0x61, 0x6c, 0x2f, 0x72, 0x65, 0x73, 0x68, 0x61,
  0x70, 0x65, 0x2f, 0x52, 0x65, 0x73, 0x68, 0x61, 0x70, 0x65, 0x2f, 0x73,
  0x68, 0x61, 0x70, 0x65, 0x00, 0x00, 0x00, 0x00, 0x01, 0x00, 0x00, 0x00,
  0x04, 0x00, 0x00, 0x00, 0x92, 0xfd, 0xff, 0xff, 0x00, 0x00, 0x00, 0x01,
  0x14, 0x00, 0x00, 0x00, 0x14, 0x00, 0x00, 0x00, 0x14, 0x00, 0x00, 0x00,
  0x00, 0x00, 0x00, 0x02, 0x30, 0x00, 0x00, 0x00, 0xb8, 0xf5, 0xff, 0xff,
  0x20, 0x00, 0x00, 0x00, 0x73, 0x65, 0x71, 0x75, 0x65, 0x6e, 0x74, 0x69,
  0x61, 0x6c, 0x2f, 0x72, 0x65, 0x73, 0x68, 0x61, 0x70, 0x65, 0x2f, 0x73,
  0x74, 0x72, 0x69, 0x64, 0x65, 0x64, 0x5f, 0x73, 0x6c, 0x69, 0x63, 0x65,
  0x00, 0x00, 0x00, 0x00, 0x00, 0x00, 0x00, 0x00, 0xde, 0xfd, 0xff, 0xff,
  0x00, 0x00, 0x00, 0x01, 0x14, 0x00, 0x00, 0x00, 0x14, 0x00, 0x00, 0x00,
  0x13, 0x00, 0x00, 0x00, 0x00, 0x00, 0x00, 0x02, 0x28, 0x00, 0x00, 0x00,
  0x04, 0xf6, 0xff, 0xff, 0x18, 0x00, 0x00, 0x00, 0x73, 0x65, 0x71, 0x75,
  0x65, 0x6e, 0x74, 0x69, 0x61, 0x6c, 0x2f, 0x72, 0x65, 0x73, 0x68, 0x61,
  0x70, 0x65, 0x2f, 0x53, 0x68, 0x61, 0x70, 0x65, 0x00, 0x00, 0x00, 0x00,
  0x01, 0x00, 0x00, 0x00, 0x02, 0x00, 0x00, 0x00, 0x26, 0xfe, 0xff, 0xff,
  0x00, 0x00, 0x00, 0x01, 0x14, 0x00, 0x00, 0x00, 0x14, 0x00, 0x00, 0x00,
  0x12, 0x00, 0x00, 0x00, 0x00, 0x00, 0x00, 0x02, 0x28, 0x00, 0x00, 0x00,
  0x4c, 0xf6, 0xff, 0xff, 0x18, 0x00, 0x00, 0x00, 0x73, 0x65, 0x71, 0x75,
  0x65, 0x6e, 0x74, 0x69, 0x61, 0x6c, 0x2f, 0x66, 0x6c, 0x61, 0x74, 0x74,
  0x65, 0x6e, 0x2f, 0x43, 0x6f, 0x6e, 0x73, 0x74, 0x00, 0x00, 0x00, 0x00,
  0x01, 0x00, 0x00, 0x00, 0x02, 0x00, 0x00, 0x00, 0x6e, 0xfe, 0xff, 0xff,
  0x00, 0x00, 0x00, 0x01, 0x14, 0x00, 0x00, 0x00, 0x14, 0x00, 0x00, 0x00,
  0x11, 0x00, 0x00, 0x00, 0x00, 0x00, 0x00, 0x02, 0x30, 0x00, 0x00, 0x00,
  0x94, 0xf6, 0xff, 0xff, 0x22, 0x00, 0x00, 0x00, 0x73, 0x65, 0x71, 0x75,
  0x65, 0x6e, 0x74, 0x69, 0x61, 0x6c, 0x2f, 0x72, 0x65, 0x73, 0x68, 0x61,
  0x70, 0x65, 0x2f, 0x52, 0x65, 0x73, 0x68, 0x61, 0x70, 0x65, 0x2f, 0x73,
  0x68, 0x61, 0x70, 0x65, 0x2f, 0x31, 0x00, 0x00, 0x00, 0x00, 0x00, 0x00,
  0xba, 0xfe, 0xff, 0xff, 0x00, 0x00, 0x00, 0x01, 0x14, 0x00, 0x00, 0x00,
  0x14, 0x00, 0x00, 0x00, 0x10, 0x00, 0x00, 0x00, 0x00, 0x00, 0x00, 0x02,
  0x30, 0x00, 0x00, 0x00, 0xe0, 0xf6, 0xff, 0xff, 0x22, 0x00, 0x00, 0x00,
  0x73, 0x65, 0x71, 0x75, 0x65, 0x6e, 0x74, 0x69, 0x61, 0x6c, 0x2f, 0x72,
  0x65, 0x73, 0x68, 0x61, 0x70, 0x65, 0x2f, 0x52, 0x65, 0x73, 0x68, 0x61,
  0x70, 0x65, 0x2f, 0x73, 0x68, 0x61, 0x70, 0x65, 0x2f, 0x32, 0x00, 0x00,
  0x00, 0x00, 0x00, 0x00, 0x06, 0xff, 0xff, 0xff, 0x00, 0x00, 0x00, 0x01,
  0x14, 0x00, 0x00, 0x00, 0x14, 0x00, 0x00, 0x00, 0x0d, 0x00, 0x00, 0x00,
  0x00, 0x00, 0x00, 0x02, 0x30, 0x00, 0x00, 0x00, 0x2c, 0xf7, 0xff, 0xff,
  0x22, 0x00, 0x00, 0x00, 0x73, 0x65, 0x71, 0x75, 0x65, 0x6e, 0x74, 0x69,
  0x61, 0x6c, 0x2f, 0x72, 0x65, 0x73, 0x68, 0x61, 0x70, 0x65, 0x2f, 0x52,
  0x65, 0x73, 0x68, 0x61, 0x70, 0x65, 0x2f, 0x73, 0x68, 0x61, 0x70, 0x65,
  0x2f, 0x33, 0x00, 0x00, 0x00, 0x00, 0x00, 0x00, 0x52, 0xff, 0xff, 0xff,
  0x00, 0x00, 0x00, 0x01, 0x14, 0x00, 0x00, 0x00, 0x14, 0x00, 0x00, 0x00,
  0x0e, 0x00, 0x00, 0x00, 0x00, 0x00, 0x00, 0x02, 0x34, 0x00, 0x00, 0x00,
  0x78, 0xf7, 0xff, 0xff, 0x26, 0x00, 0x00, 0x00, 0x73, 0x65, 0x71, 0x75,
  0x65, 0x6e, 0x74, 0x69, 0x61, 0x6c, 0x2f, 0x72, 0x65, 0x73, 0x68, 0x61,
  0x70, 0x65, 0x2f, 0x73, 0x74, 0x72, 0x69, 0x64, 0x65, 0x64, 0x5f, 0x73,
  0x6c, 0x69, 0x63, 0x65, 0x2f, 0x73, 0x74, 0x61, 0x63, 0x6b, 0x00, 0x00,
  0x01, 0x00, 0x00, 0x00, 0x01, 0x00, 0x00, 0x00, 0xa6, 0xff, 0xff, 0xff,
  0x00, 0x00, 0x00, 0x01, 0x14, 0x00, 0x00, 0x00, 0x14, 0x00, 0x00, 0x00,
  0x0d, 0x00, 0x00, 0x00, 0x00, 0x00, 0x00, 0x02, 0x38, 0x00, 0x00, 0x00,
  0xcc, 0xf7, 0xff, 0xff, 0x28, 0x00, 0x00, 0x00, 0x73, 0x65, 0x71, 0x75,
  0x65, 0x6e, 0x74, 0x69, 0x61, 0x6c, 0x2f, 0x72, 0x65, 0x73, 0x68, 0x61,
  0x70, 0x65, 0x2f, 0x73, 0x74, 0x72, 0x69, 0x64, 0x65, 0x64, 0x5f, 0x73,
  0x6c, 0x69, 0x63, 0x65, 0x2f, 0x73, 0x74, 0x61, 0x63, 0x6b, 0x5f, 0x31,
  0x00, 0x00, 0x00, 0x00, 0x01, 0x00, 0x00, 0x00, 0x01, 0x00, 0x00, 0x00,
  0x00, 0x00, 0x16, 0x00, 0x1c, 0x00, 0x18, 0x00, 0x17, 0x00, 0x10, 0x00,
  0x0c, 0x00, 0x08, 0x00, 0x00, 0x00, 0x00, 0x00, 0x00, 0x00, 0x07, 0x00,
  0x16, 0x00, 0x00, 0x00, 0x00, 0x00, 0x00, 0x01, 0x14, 0x00, 0x00, 0x00,
  0x14, 0x00, 0x00, 0x00, 0x0c, 0x00, 0x00, 0x00, 0x00, 0x00, 0x00, 0x02,
  0x2c, 0x00, 0x00, 0x00, 0x3c, 0xf8, 0xff, 0xff, 0x1c, 0x00, 0x00, 0x00,
  0x73, 0x65, 0x71, 0x75, 0x65, 0x6e, 0x74, 0x69, 0x61, 0x6c, 0x2f, 0x75,
  0x70, 0x5f, 0x73, 0x61, 0x6d, 0x70, 0x6c, 0x69, 0x6e, 0x67, 0x32, 0x64,
  0x2f, 0x6d, 0x75, 0x6c, 0x00, 0x00, 0x00, 0x00, 0x01, 0x00, 0x00, 0x00,
  0x02, 0x00, 0x00, 0x00, 0xda, 0xf9, 0xff, 0xff, 0x00, 0x00, 0x00, 0x01,
  0x10, 0x00, 0x00, 0x00, 0x10, 0x00, 0x00, 0x00, 0x0b, 0x00, 0x00, 0x00,
  0x28, 0x00, 0x00, 0x00, 0x84, 0xf8, 0xff, 0xff, 0x1a, 0x00, 0x00, 0x00,
  0x73, 0x65, 0x71, 0x75, 0x65, 0x6e, 0x74, 0x69, 0x61, 0x6c, 0x2f, 0x63,
  0x6f, 0x6e, 0x76, 0x32, 0x64, 0x5f, 0x32, 0x2f, 0x43, 0x6f, 0x6e, 0x76,
  0x32, 0x44, 0x00, 0x00, 0x04, 0x00, 0x00, 0x00, 0x01, 0x00, 0x00, 0x00,
  0x03, 0x00, 0x00, 0x00, 0x03, 0x00, 0x00, 0x00, 0x10, 0x00, 0x00, 0x00,
  0x2a, 0xfa, 0xff, 0xff, 0x00, 0x00, 0x00, 0x01, 0x10, 0x00, 0x00, 0x00,
  0x10, 0x00, 0x00, 0x00, 0x0a, 0x00, 0x00, 0x00, 0x28, 0x00, 0x00, 0x00,
  0xd4, 0xf8, 0xff, 0xff, 0x1a, 0x00, 0x00, 0x00, 0x73, 0x65, 0x71, 0x75,
  0x65, 0x6e, 0x74, 0x69, 0x61, 0x6c, 0x2f, 0x63, 0x6f, 0x6e, 0x76, 0x32,
  0x64, 0x5f, 0x31, 0x2f, 0x43, 0x6f, 0x6e, 0x76, 0x32, 0x44, 0x00, 0x00,
  0x04, 0x00, 0x00, 0x00, 0x10, 0x00, 0x00, 0x00, 0x01, 0x00, 0x00, 0x00,
  0x01, 0x00, 0x00, 0x00, 0x10, 0x00, 0x00, 0x00, 0x7a, 0xfa, 0xff, 0xff,
  0x00, 0x00, 0x00, 0x01, 0x10, 0x00, 0x00, 0x00, 0x10, 0x00, 0x00, 0x00,
  0x09, 0x00, 0x00, 0x00, 0x28, 0x00, 0x00, 0x00, 0x24, 0xf9, 0xff, 0xff,
  0x18, 0x00, 0x00, 0x00, 0x73, 0x65, 0x71, 0x75, 0x65, 0x6e, 0x74, 0x69,
  0x61, 0x6c, 0x2f, 0x63, 0x6f, 0x6e, 0x76, 0x32, 0x64, 0x2f, 0x43, 0x6f,
  0x6e, 0x76, 0x32, 0x44, 0x00, 0x00, 0x00, 0x00, 0x04, 0x00, 0x00, 0x00,
  0x10, 0x00, 0x00, 0x00, 0x01, 0x00, 0x00, 0x00, 0x01, 0x00, 0x00, 0x00,
  0x01, 0x00, 0x00, 0x00, 0xca, 0xfa, 0xff, 0xff, 0x00, 0x00, 0x00, 0x01,
  0x10, 0x00, 0x00, 0x00, 0x10, 0x00, 0x00, 0x00, 0x08, 0x00, 0x00, 0x00,
  0x38, 0x00, 0x00, 0x00, 0x74, 0xf9, 0xff, 0xff, 0x2a, 0x00, 0x00, 0x00,
  0x73, 0x65, 0x71, 0x75, 0x65, 0x6e, 0x74, 0x69, 0x61, 0x6c, 0x2f, 0x63,
  0x6f, 0x6e, 0x76, 0x32, 0x64, 0x5f, 0x32, 0x2f, 0x42, 0x69, 0x61, 0x73,
  0x41, 0x64, 0x64, 0x2f, 0x52, 0x65, 0x61, 0x64, 0x56, 0x61, 0x72, 0x69,
  0x61, 0x62, 0x6c, 0x65, 0x4f, 0x70, 0x00, 0x00, 0x01, 0x00, 0x00, 0x00,
  0x01, 0x00, 0x00, 0x00, 0x1e, 0xfb, 0xff, 0xff, 0x00, 0x00, 0x00, 0x01,
  0x10, 0x00, 0x00, 0x00, 0x10, 0x00, 0x00, 0x00, 0x07, 0x00, 0x00, 0x00,
  0xc4, 0x00, 0x00, 0x00, 0xc8, 0xf9, 0xff, 0xff, 0xb4, 0x00, 0x00, 0x00,
  0x73, 0x65, 0x71, 0x75, 0x65, 0x6e, 0x74, 0x69, 0x61, 0x6c, 0x2f, 0x62,
  0x61, 0x74, 0x63, 0x68, 0x5f, 0x6e, 0x6f, 0x72, 0x6d, 0x61, 0x6c, 0x69,
  0x7a, 0x61, 0x74, 0x69, 0x6f, 0x6e, 0x5f, 0x33, 0x2f, 0x46, 0x75, 0x73,
  0x65, 0x64, 0x42, 0x61, 0x74, 0x63, 0x68, 0x4e, 0x6f, 0x72, 0x6d, 0x56,
  0x33, 0x3b, 0x73, 0x65, 0x71, 0x75, 0x65, 0x6e, 0x74, 0x69, 0x61, 0x6c,
  0x2f, 0x64, 0x65, 0x70, 0x74, 0x68, 0x77, 0x69, 0x73, 0x65, 0x5f, 0x63,
  0x6f, 0x6e, 0x76, 0x32, 0x64, 0x5f, 0x31, 0x2f, 0x64, 0x65, 0x70, 0x74,
  0x68, 0x77, 0x69, 0x73, 0x65, 0x3b, 0x73, 0x65, 0x71, 0x75, 0x65, 0x6e,
  0x74, 0x69, 0x61, 0x6c, 0x2f, 0x64, 0x65, 0x70, 0x74, 0x68, 0x77, 0x69,
  0x73, 0x65, 0x5f, 0x63, 0x6f, 0x6e, 0x76, 0x32, 0x64, 0x5f, 0x31, 0x2f,
  0x42, 0x69, 0x61, 0x73, 0x41, 0x64, 0x64, 0x2f, 0x52, 0x65, 0x61, 0x64,
  0x56, 0x61, 0x72, 0x69, 0x61, 0x62, 0x6c, 0x65, 0x4f, 0x70, 0x3b, 0x73,
  0x65, 0x71, 0x75, 0x65, 0x6e, 0x74, 0x69, 0x61, 0x6c, 0x2f, 0x64, 0x65,
  0x70, 0x74, 0x68, 0x77, 0x69, 0x73, 0x65, 0x5f, 0x63, 0x6f, 0x6e, 0x76,
  0x32, 0x64, 0x5f, 0x31, 0x2f, 0x42, 0x69, 0x61, 0x73, 0x41, 0x64, 0x64,
  0x00, 0x00, 0x00, 0x00, 0x04, 0x00, 0x00, 0x00, 0x01, 0x00, 0x00, 0x00,
  0x03, 0x00, 0x00, 0x00, 0x03, 0x00, 0x00, 0x00, 0x10, 0x00, 0x00, 0x00,
  0x0a, 0xfc, 0xff, 0xff, 0x00, 0x00, 0x00, 0x01, 0x10, 0x00, 0x00, 0x00,
  0x10, 0x00, 0x00, 0x00, 0x06, 0x00, 0x00, 0x00, 0xe0, 0x00, 0x00, 0x00,
  0xb4, 0xfa, 0xff, 0xff, 0xd3, 0x00, 0x00, 0x00, 0x73, 0x65, 0x71, 0x75,
  0x65, 0x6e, 0x74, 0x69, 0x61, 0x6c, 0x2f, 0x72, 0x65, 0x5f, 0x6c, 0x75,
  0x5f, 0x32, 0x2f, 0x52, 0x65, 0x6c, 0x75, 0x3b, 0x73, 0x65, 0x71, 0x75,
  0x65, 0x6e, 0x74, 0x69, 0x61, 0x6c, 0x2f, 0x62, 0x61, 0x74, 0x63, 0x68,
  0x5f, 0x6e, 0x6f, 0x72, 0x6d, 0x61, 0x6c, 0x69, 0x7a, 0x61, 0x74, 0x69,
  0x6f, 0x6e, 0x5f, 0x32, 0x2f, 0x46, 0x75, 0x73, 0x65, 0x64, 0x42, 0x61,
  0x74, 0x63, 0x68, 0x4e, 0x6f, 0x72, 0x6d, 0x56, 0x33, 0x3b, 0x73, 0x65,
  0x71, 0x75, 0x65, 0x6e, 0x74, 0x69, 0x61, 0x6c, 0x2f, 0x63, 0x6f, 0x6e,
  0x76, 0x32, 0x64, 0x5f, 0x31, 0x2f, 0x42, 0x69, 0x61, 0x73, 0x41, 0x64,
  0x64, 0x2f, 0x52, 0x65, 0x61, 0x64, 0x56, 0x61, 0x72, 0x69, 0x61, 0x62,
  0x6c, 0x65, 0x4f, 0x70, 0x3b, 0x73, 0x65, 0x71, 0x75, 0x65, 0x6e, 0x74,
  0x69, 0x61, 0x6c, 0x2f, 0x63, 0x6f, 0x6e, 0x76, 0x32, 0x64, 0x5f, 0x31,
  0x2f, 0x42, 0x69, 0x61, 0x73, 0x41, 0x64, 0x64, 0x3b, 0x73, 0x65, 0x71,
  0x75, 0x65, 0x6e, 0x74, 0x69, 0x61, 0x6c, 0x2f, 0x64, 0x65, 0x70, 0x74,
  0x68, 0x77, 0x69, 0x73, 0x65, 0x5f, 0x63, 0x6f, 0x6e, 0x76, 0x32, 0x64,
  0x5f, 0x31, 0x2f, 0x64, 0x65, 0x70, 0x74, 0x68, 0x77, 0x69, 0x73, 0x65,
  0x3b, 0x73, 0x65, 0x71, 0x75, 0x65, 0x6e, 0x74, 0x69, 0x61, 0x6c, 0x2f,
  0x63, 0x6f, 0x6e, 0x76, 0x32, 0x64, 0x5f, 0x31, 0x2f, 0x43, 0x6f, 0x6e,
  0x76, 0x32, 0x44, 0x00, 0x01, 0x00, 0x00, 0x00, 0x10, 0x00, 0x00, 0x00,
  0x06, 0xfd, 0xff, 0xff, 0x00, 0x00, 0x00, 0x01, 0x10, 0x00, 0x00, 0x00,
  0x10, 0x00, 0x00, 0x00, 0x05, 0x00, 0x00, 0x00, 0xe4, 0x00, 0x00, 0x00,
  0xb0, 0xfb, 0xff, 0xff, 0xd6, 0x00, 0x00, 0x00, 0x73, 0x65, 0x71, 0x75,
  0x65, 0x6e, 0x74, 0x69, 0x61, 0x6c, 0x2f, 0x62, 0x61, 0x74, 0x63, 0x68,
  0x5f, 0x6e, 0x6f, 0x72, 0x6d, 0x61, 0x6c, 0x69, 0x7a, 0x61, 0x74, 0x69,
  0x6f, 0x6e, 0x5f, 0x31, 0x2f, 0x46, 0x75, 0x73, 0x65, 0x64, 0x42, 0x61,
  0x74, 0x63, 0x68, 0x4e, 0x6f, 0x72, 0x6d, 0x56, 0x33, 0x3b, 0x73, 0x65,
  0x71, 0x75, 0x65, 0x6e, 0x74, 0x69, 0x61, 0x6c, 0x2f, 0x64, 0x65, 0x70,
  0x74, 0x68, 0x77, 0x69, 0x73, 0x65, 0x5f, 0x63, 0x6f, 0x6e, 0x76, 0x32,
  0x64, 0x2f, 0x64, 0x65, 0x70, 0x74, 0x68, 0x77, 0x69, 0x73, 0x65, 0x3b,
  0x73, 0x65, 0x71, 0x75, 0x65, 0x6e, 0x74, 0x69, 0x61, 0x6c, 0x2f, 0x64,
  0x65, 0x70, 0x74, 0x68, 0x77, 0x69, 0x73, 0x65, 0x5f, 0x63, 0x6f, 0x6e,
  0x76, 0x32, 0x64, 0x2f, 0x42, 0x69, 0x61, 0x73, 0x41, 0x64, 0x64, 0x2f,
  0x52, 0x65, 0x61, 0x64, 0x56, 0x61, 0x72, 0x69, 0x61, 0x62, 0x6c, 0x65,
  0x4f, 0x70, 0x3b, 0x73, 0x65, 0x71, 0x75, 0x65, 0x6e, 0x74, 0x69, 0x61,
  0x6c, 0x2f, 0x64, 0x65, 0x70, 0x74, 0x68, 0x77, 0x69, 0x73, 0x65, 0x5f,
  0x63, 0x6f, 0x6e, 0x76, 0x32, 0x64, 0x2f, 0x42, 0x69, 0x61, 0x73, 0x41,
  0x64, 0x64, 0x3b, 0x73, 0x65, 0x71, 0x75, 0x65, 0x6e, 0x74, 0x69, 0x61,
  0x6c, 0x2f, 0x64, 0x65, 0x70, 0x74, 0x68, 0x77, 0x69, 0x73, 0x65, 0x5f,
  0x63, 0x6f, 0x6e, 0x76, 0x32, 0x64, 0x5f, 0x31, 0x2f, 0x64, 0x65, 0x70,
  0x74, 0x68, 0x77, 0x69, 0x73, 0x65, 0x00, 0x00, 0x04, 0x00, 0x00, 0x00,
  0x01, 0x00, 0x00, 0x00, 0x03, 0x00, 0x00, 0x00, 0x03, 0x00, 0x00, 0x00,
  0x10, 0x00, 0x00, 0x00, 0x12, 0xfe, 0xff, 0xff, 0x00, 0x00, 0x00, 0x01,
  0x10, 0x00, 0x00, 0x00, 0x10, 0x00, 0x00, 0x00, 0x04, 0x00, 0x00, 0x00,
  0xd8, 0x00, 0x00, 0x00, 0xbc, 0xfc, 0xff, 0xff, 0xc9, 0x00, 0x00, 0x00,
  0x73, 0x65, 0x71, 0x75, 0x65, 0x6e, 0x74, 0x69, 0x61, 0x6c, 0x2f, 0x72,
  0x65, 0x5f, 0x6c, 0x75, 0x2f, 0x52, 0x65, 0x6c, 0x75, 0x3b, 0x73, 0x65,
  0x71, 0x75, 0x65, 0x6e, 0x74, 0x69, 0x61, 0x6c, 0x2f, 0x62, 0x61, 0x74,
  0x63, 0x68, 0x5f, 0x6e, 0x6f, 0x72, 0x6d, 0x61, 0x6c, 0x69, 0x7a, 0x61,
  0x74, 0x69, 0x6f, 0x6e, 0x2f, 0x46, 0x75, 0x73, 0x65, 0x64, 0x42, 0x61,
  0x74, 0x63, 0x68, 0x4e, 0x6f, 0x72, 0x6d, 0x56, 0x33, 0x3b, 0x73, 0x65,
  0x71, 0x75, 0x65, 0x6e, 0x74, 0x69, 0x61, 0x6c, 0x2f, 0x63, 0x6f, 0x6e,
  0x76, 0x32, 0x64, 0x2f, 0x42, 0x69, 0x61, 0x73, 0x41, 0x64, 0x64, 0x2f,
  0x52, 0x65, 0x61, 0x64, 0x56, 0x61, 0x72, 0x69, 0x61, 0x62, 0x6c, 0x65,
  0x4f, 0x70, 0x3b, 0x73, 0x65, 0x71, 0x75, 0x65, 0x6e, 0x74, 0x69, 0x61,
  0x6c, 0x2f, 0x63, 0x6f, 0x6e, 0x76, 0x32, 0x64, 0x2f, 0x42, 0x69, 0x61,
  0x73, 0x41, 0x64, 0x64, 0x3b, 0x73, 0x65, 0x71, 0x75, 0x65, 0x6e, 0x74,
  0x69, 0x61, 0x6c, 0x2f, 0x64, 0x65, 0x70, 0x74, 0x68, 0x77, 0x69, 0x73,
  0x65, 0x5f, 0x63, 0x6f, 0x6e, 0x76, 0x32, 0x64, 0x5f, 0x31, 0x2f, 0x64,
  0x65, 0x70, 0x74, 0x68, 0x77, 0x69, 0x73, 0x65, 0x3b, 0x73, 0x65, 0x71,
  0x75, 0x65, 0x6e, 0x74, 0x69, 0x61, 0x6c, 0x2f, 0x63, 0x6f, 0x6e, 0x76,
  0x32, 0x64, 0x2f, 0x43, 0x6f, 0x6e, 0x76, 0x32, 0x44, 0x00, 0x00, 0x00,
  0x01, 0x00, 0x00, 0x00, 0x10, 0x00, 0x00, 0x00, 0x06, 0xff, 0xff, 0xff,
  0x00, 0x00, 0x00, 0x01, 0x10, 0x00, 0x00, 0x00, 0x10, 0x00, 0x00, 0x00,
  0x03, 0x00, 0x00, 0x00, 0xdc, 0x00, 0x00, 0x00, 0xb0, 0xfd, 0xff, 0xff,
  0xcc, 0x00, 0x00, 0x00, 0x73, 0x65, 0x71, 0x75, 0x65, 0x6e, 0x74, 0x69,
  0x61, 0x6c, 0x2f, 0x72, 0x65, 0x5f, 0x6c, 0x75, 0x5f, 0x33, 0x2f, 0x52,
  0x65, 0x6c, 0x75, 0x3b, 0x73, 0x65, 0x71, 0x75, 0x65, 0x6e, 0x74, 0x69,
  0x61, 0x6c, 0x2f, 0x62, 0x61, 0x74, 0x63, 0x68, 0x5f, 0x6e, 0x6f, 0x72,
  0x6d, 0x61, 0x6c, 0x69, 0x7a, 0x61, 0x74, 0x69, 0x6f, 0x6e, 0x5f, 0x33,
  0x2f, 0x46, 0x75, 0x73, 0x65, 0x64, 0x42, 0x61, 0x74, 0x63, 0x68, 0x4e,
  0x6f, 0x72, 0x6d, 0x56, 0x33, 0x3b, 0x73, 0x65, 0x71, 0x75, 0x65, 0x6e,
  0x74, 0x69, 0x61, 0x6c, 0x2f, 0x64, 0x65, 0x70, 0x74, 0x68, 0x77, 0x69,
  0x73, 0x65, 0x5f, 0x63, 0x6f, 0x6e, 0x76, 0x32, 0x64, 0x5f, 0x31, 0x2f,
  0x64, 0x65, 0x70, 0x74, 0x68, 0x77, 0x69, 0x73, 0x65, 0x3b, 0x73, 0x65,
  0x71, 0x75, 0x65, 0x6e, 0x74, 0x69, 0x61, 0x6c, 0x2f, 0x64, 0x65, 0x70,
  0x74, 0x68, 0x77, 0x69, 0x73, 0x65, 0x5f, 0x63, 0x6f, 0x6e, 0x76, 0x32,
  0x64, 0x5f, 0x31, 0x2f, 0x42, 0x69, 0x61, 0x73, 0x41, 0x64, 0x64, 0x2f,
  0x52, 0x65, 0x61, 0x64, 0x56, 0x61, 0x72, 0x69, 0x61, 0x62, 0x6c, 0x65,
  0x4f, 0x70, 0x3b, 0x73, 0x65, 0x71, 0x75, 0x65, 0x6e, 0x74, 0x69, 0x61,
  0x6c, 0x2f, 0x64, 0x65, 0x70, 0x74, 0x68, 0x77, 0x69, 0x73, 0x65, 0x5f,
  0x63, 0x6f, 0x6e, 0x76, 0x32, 0x64, 0x5f, 0x31, 0x2f, 0x42, 0x69, 0x61,
  0x73, 0x41, 0x64, 0x64, 0x00, 0x00, 0x00, 0x00, 0x01, 0x00, 0x00, 0x00,
  0x10, 0x00, 0x00, 0x00, 0x00, 0x00, 0x16, 0x00, 0x18, 0x00, 0x14, 0x00,
  0x00, 0x00, 0x10, 0x00, 0x0c, 0x00, 0x08, 0x00, 0x00, 0x00, 0x00, 0x00,
  0x00, 0x00, 0x07, 0x00, 0x16, 0x00, 0x00, 0x00, 0x00, 0x00, 0x00, 0x01,
  0x10, 0x00, 0x00, 0x00, 0x10, 0x00, 0x00, 0x00, 0x02, 0x00, 0x00, 0x00,
  0xfc, 0x00, 0x00, 0x00, 0xc0, 0xfe, 0xff, 0xff, 0xee, 0x00, 0x00, 0x00,
  0x73, 0x65, 0x71, 0x75, 0x65, 0x6e, 0x74, 0x69, 0x61, 0x6c, 0x2f, 0x72,
  0x65, 0x5f, 0x6c, 0x75, 0x5f, 0x31, 0x2f, 0x52, 0x65, 0x6c, 0x75, 0x3b,
  0x73, 0x65, 0x71, 0x75, 0x65, 0x6e, 0x74, 0x69, 0x61, 0x6c, 0x2f, 0x62,
  0x61, 0x74, 0x63, 0x68, 0x5f, 0x6e, 0x6f, 0x72, 0x6d, 0x61, 0x6c, 0x69,
  0x7a, 0x61, 0x74, 0x69, 0x6f, 0x6e, 0x5f, 0x31, 0x2f, 0x46, 0x75, 0x73,
  0x65, 0x64, 0x42, 0x61, 0x74, 0x63, 0x68, 0x4e, 0x6f, 0x72, 0x6d, 0x56,
  0x33, 0x3b, 0x73, 0x65, 0x71, 0x75, 0x65, 0x6e, 0x74, 0x69, 0x61, 0x6c,
  0x2f, 0x64, 0x65, 0x70, 0x74, 0x68, 0x77, 0x69, 0x73, 0x65, 0x5f, 0x63,
  0x6f, 0x6e, 0x76, 0x32, 0x64, 0x2f, 0x64, 0x65, 0x70, 0x74, 0x68, 0x77,
  0x69, 0x73, 0x65, 0x3b, 0x73, 0x65, 0x71, 0x75, 0x65, 0x6e, 0x74, 0x69,
  0x61, 0x6c, 0x2f, 0x64, 0x65, 0x70, 0x74, 0x68, 0x77, 0x69, 0x73, 0x65,
  0x5f, 0x63, 0x6f, 0x6e, 0x76, 0x32, 0x64, 0x2f, 0x42, 0x69, 0x61, 0x73,
  0x41, 0x64, 0x64, 0x2f, 0x52, 0x65, 0x61, 0x64, 0x56, 0x61, 0x72, 0x69,
  0x61, 0x62, 0x6c, 0x65, 0x4f, 0x70, 0x3b, 0x73, 0x65, 0x71, 0x75, 0x65,
  0x6e, 0x74, 0x69, 0x61, 0x6c, 0x2f, 0x64, 0x65, 0x70, 0x74, 0x68, 0x77,
  0x69, 0x73, 0x65, 0x5f, 0x63, 0x6f, 0x6e, 0x76, 0x32, 0x64, 0x2f, 0x42,
  0x69, 0x61, 0x73, 0x41, 0x64, 0x64, 0x3b, 0x73, 0x65, 0x71, 0x75, 0x65,
  0x6e, 0x74, 0x69, 0x61, 0x6c, 0x2f, 0x64, 0x65, 0x70, 0x74, 0x68, 0x77,
  0x69, 0x73, 0x65, 0x5f, 0x63, 0x6f, 0x6e, 0x76, 0x32, 0x64, 0x5f, 0x31,
  0x2f, 0x64, 0x65, 0x70, 0x74, 0x68, 0x77, 0x69, 0x73, 0x65, 0x00, 0x00,
  0x01, 0x00, 0x00, 0x00, 0x10, 0x00, 0x00, 0x00, 0x00, 0x00, 0x16, 0x00,
  0x1c, 0x00, 0x18, 0x00, 0x00, 0x00, 0x14, 0x00, 0x10, 0x00, 0x0c, 0x00,
  0x00, 0x00, 0x00, 0x00, 0x08, 0x00, 0x07, 0x00, 0x16, 0x00, 0x00, 0x00,
  0x00, 0x00, 0x00, 0x01, 0x14, 0x00, 0x00, 0x00, 0x20, 0x00, 0x00, 0x00,
  0x20, 0x00, 0x00, 0x00, 0x01, 0x00, 0x00, 0x00, 0x38, 0x00, 0x00, 0x00,
  0x02, 0x00, 0x00, 0x00, 0xff, 0xff, 0xff, 0xff, 0x80, 0x00, 0x00, 0x00,
  0x04, 0x00, 0x04, 0x00, 0x04, 0x00, 0x00, 0x00, 0x19, 0x00, 0x00, 0x00,
  0x73, 0x65, 0x72, 0x76, 0x69, 0x6e, 0x67, 0x5f, 0x64, 0x65, 0x66, 0x61,
  0x75, 0x6c, 0x74, 0x5f, 0x69, 0x6e, 0x70, 0x75, 0x74, 0x5f, 0x31, 0x3a,
  0x30, 0x00, 0x00, 0x00, 0x02, 0x00, 0x00, 0x00, 0x01, 0x00, 0x00, 0x00,
  0x80, 0x00, 0x00, 0x00, 0x09, 0x00, 0x00, 0x00, 0xa0, 0x00, 0x00, 0x00,
  0x84, 0x00, 0x00, 0x00, 0x74, 0x00, 0x00, 0x00, 0x64, 0x00, 0x00, 0x00,
  0x54, 0x00, 0x00, 0x00, 0x44, 0x00, 0x00, 0x00, 0x34, 0x00, 0x00, 0x00,
  0x20, 0x00, 0x00, 0x00, 0x04, 0x00, 0x00, 0x00, 0x90, 0xff, 0xff, 0xff,
  0x0e, 0x00, 0x00, 0x00, 0x00, 0x00, 0x00, 0x0e, 0x0c, 0x00, 0x10, 0x00,
  0x0f, 0x00, 0x00, 0x00, 0x08, 0x00, 0x04, 0x00, 0x0c, 0x00, 0x00, 0x00,
  0x61, 0x00, 0x00, 0x00, 0x03, 0x00, 0x00, 0x00, 0x00, 0x00, 0x00, 0x61,
  0xb8, 0xff, 0xff, 0xff, 0x11, 0x00, 0x00, 0x00, 0x00, 0x00, 0x00, 0x11,
  0xc4, 0xff, 0xff, 0xff, 0x04, 0x00, 0x00, 0x00, 0x00, 0x00, 0x00, 0x04,
  0xd0, 0xff, 0xff, 0xff, 0x03, 0x00, 0x00, 0x00, 0x00, 0x00, 0x00, 0x03,
  0xdc, 0xff, 0xff, 0xff, 0x16, 0x00, 0x00, 0x00, 0x00, 0x00, 0x00, 0x16,
  0xe8, 0xff, 0xff, 0xff, 0x53, 0x00, 0x00, 0x00, 0x00, 0x00, 0x00, 0x53,
  0xf4, 0xff, 0xff, 0xff, 0x2d, 0x00, 0x00, 0x00, 0x00, 0x00, 0x00, 0x2d,
  0x0c, 0x00, 0x0c, 0x00, 0x0b, 0x00, 0x00, 0x00, 0x00, 0x00, 0x04, 0x00,
  0x0c, 0x00, 0x00, 0x00, 0x4d, 0x00, 0x00, 0x00, 0x00, 0x00, 0x00, 0x4d
};
unsigned int model_tflite_len = 9864;
