/**
  ******************************************************************************
  * @file    voice_model_data_params.c
  * @author  AST Embedded Analytics Research Platform
  * @date    Fri Aug  9 16:08:00 2024
  * @brief   AI Tool Automatic Code Generator for Embedded NN computing
  ******************************************************************************
  * Copyright (c) 2024 STMicroelectronics.
  * All rights reserved.
  *
  * This software is licensed under terms that can be found in the LICENSE file
  * in the root directory of this software component.
  * If no LICENSE file comes with this software, it is provided AS-IS.
  ******************************************************************************
  */

#include "voice_model_data_params.h"


/**  Activations Section  ****************************************************/
ai_handle g_voice_model_activations_table[1 + 2] = {
  AI_HANDLE_PTR(AI_MAGIC_MARKER),
  AI_HANDLE_PTR(NULL),
  AI_HANDLE_PTR(AI_MAGIC_MARKER),
};




/**  Weights Section  ********************************************************/
AI_ALIGNED(32)
const ai_u64 s_voice_model_weights_array_u64[37077] = {
  0x7f0000007fU, 0x1e4c350950521af4U, 0x2ac609c4a281bb62U, 0x35e281e555fac22dU,
  0xf59aed1cdec7c7f3U, 0x1be7f74fdd81b60bU, 0x49df13e22bce19c6U, 0xf12838082ce93a1aU,
  0xfcee81b633b7fc5aU, 0x90ce253581a92525U, 0x35f855e5c2220f2eU, 0x1fc9ed30fc81ba00U,
  0x5f4f71c29c1f316U, 0xc1e3243181adf301U, 0xdf217d6303d52ffU, 0x423cf5c4ea6e4f0eU,
  0xcf7f34457b5841b2U, 0x200d0ad802e7d181U, 0x18101be30606210dU, 0x4d1d294fde81822cU,
  0xe516cedd077a0d05U, 0xfe241eb9c43ecbffU, 0x28477f508e49b0c2U, 0xbb1c12430523c7cfU,
  0x2981a21c2b5b02c9U, 0x366d0de2fe412641U, 0x1201c8813d0ab59fU, 0x8186e737d6163d38U,
  0xe30c0421b2c8eb1aU, 0x329ff21405e4230eU, 0x9c812f6b3e400f98U, 0x5de681fbfb9f2f28U,
  0x9df1afa96682ad5U, 0xc197c1125276f94aU, 0x4c7c637f6d3ab334U, 0x2e81a4230ed61430U,
  0x3cf4072e23cdadfdU, 0xedbfb4dc81c3b0e7U, 0xc50d575153533b5dU, 0xa881ab232239d3dbU,
  0x364b3daa970e3a5fU, 0x363af5b4eff72b06U, 0x2a8adf13057f7bd0U, 0xc2d1002681a3dd02U,
  0xeffe2f20c6ef2d34U, 0x8881580bde9e1802U, 0x9eed174490b7471fU, 0x62cf6e00346e5e1U,
  0x18e9bb812e111da5U, 0x366b16813d0acaaaU, 0xc3b5ef459cf46f38U, 0x887fddf850dd6db9U,
  0xba6e365258494af0U, 0x3717192713101b10U, 0xbd819fa0f6a8c0f1U, 0x18f5bee0f1b98484U,
  0x262d24113025da81U, 0x817b74821a0df5d1U, 0xbf231809b95911e6U, 0xeac109553c092412U,
  0xa38683bb8f819e11U, 0x3cc3f62cfe81b605U, 0x8eafe270fb7cf13U, 0x1318eb465bf4cf37U,
  0x243a12f6b6daf17fU, 0x3bffffffdfU, 0xffffffdc00000006U, 0xffffffff0000001fU,
  0x700000003U, 0xffffff6d00000009U, 0xffffffb300000022U, 0x5ffffffbecU,
  0xffffffdeffffffdbU, 0xffffff84fffff6c3U, 0x190000005bU, 0x29ffffffecU,
  0x2300000027U, 0xffffffefffffffd7U, 0xaafffffffaU, 0xe60000000bU,
  0xfffff9e200000032U, 0xf3f49dbb1ed64e1cU, 0xadeba5320bcc0adbU, 0x49c1d017ff00cef1U,
  0xd5a8e2fa061b0a0cU, 0x1f260a1c191ce8f9U, 0x1b1df520e41400d8U, 0xf8f2f90628f1e7d1U,
  0xeafd8201fae308cdU, 0x7efed09fcd5260fU, 0x3f1e0e31bc7efU, 0xee1101151dfcc7f4U,
  0xf5f5f4040dd7021dU, 0x1d20c91c18042a29U, 0x281912f7dae9d5ddU, 0x2123131cfe0fc1aaU,
  0xbcf10510f10afe31U, 0x24e1ebeed7fe9fd3U, 0xf82591b11d061a2fU, 0xf8d7f0ed172ef2fcU,
  0xd9edb1fa538126f2U, 0x912e5d715fdac01U, 0x4543e0d41903051dU, 0xee16000afd04caddU,
  0xe6d3f33f1fc91d59U, 0xe2dff6031cea0a17U, 0x3ef01acde8f6dbf5U, 0x183c04e8eff5f4b1U,
  0xeffa4a6d0009e83bU, 0xdce13f2705fc2515U, 0x3f441cfcdabaaf3U, 0x7200bba26c01dbcU,
  0xb40830cd2515f0efU, 0xe9ebe0b41c001418U, 0x131633d11d0a0617U, 0xf9f2ab0537f21cd6U,
  0xe7ef061a25f60d4cU, 0x4e1d71222f5c10aU, 0x3b0b45d02cdafef6U, 0xf7e5d4eed5be15c9U,
  0xc61c32ea13fd17U, 0xe8efe80af1fcd5d4U, 0x3e62feae1e2cc1aU, 0x17dfd5eeb5cb13c7U,
  0xcbce01f123bce5c9U, 0xf605231cc40c01e9U, 0x23e93599f3e41335U, 0xbedf8f9dd010fd2U,
  0xc21fb835598e04edU, 0x1f2ee32de51cb4ecU, 0x2e0027c232221e0fU, 0xae1132529f309c6U,
  0xfaffd00a22b600f0U, 0x308112ad9f7d6daU, 0xf0e079cd4ebc1f3U, 0x17140cea0f32c8c1U,
  0xbf33bc23c18d0a16U, 0xf3e4f5e9000126f3U, 0xbffe5c9d4f5f30fU, 0x3414dc12f101c2c2U,
  0xda2dcb0513c70ff1U, 0xfc72d15e70e00fbU, 0xfe7eacbf417e7f1U, 0x1c20190ce6e5d7d9U,
  0xcf2fec0e24f314f1U, 0x1316212024eb0025U, 0xf207e8081a030509U, 0x11f7111615030504U,
  0x1ed6c8f8f1f516fdU, 0x1518ea0c15fdc20cU, 0x517f11319e7fe07U, 0xfae2e807050af1e9U,
  0xf7c0ddf5e5f10bffU, 0x309eaff17f3e510U, 0xe40c051005f6fef8U, 0xec0def1a15f4e302U,
  0xeddcf8eaf001fb03U, 0xafee71408fbf3f9U, 0x2e80813d9def9e6U, 0xddfbfff40a080409U,
  0xbfef4f0c00307ebU, 0xfcdec5ee11edf118U, 0xf418fff70411e4ffU, 0xf903cff7d7971ff9U,
  0xfed5f6efd1f8100eU, 0x13ede0d611ea0b14U, 0xfe1b04f1030add0aU, 0x19f0b912dc8208feU,
  0xe6d600e1a7fd0bf9U, 0xdeadffbf9f3db14U, 0xff0912f1fce0e1fdU, 0xf0ccde05ae95dff1U,
  0xd7c805e3b80113dbU, 0xf6fae80fff01d7f2U, 0x4eef602d5f4dcefU, 0xeef70c0dfadbc8fbU,
  0xfefb0eeede02f7e3U, 0xec0acafceaf60207U, 0x15f225cc1eef391cU, 0xf6fcc507f7fb17d4U,
  0xf6e323ffe1fee218U, 0xe3c3bcdafcbe21e8U, 0xe9d909b819c9dfefU, 0xe1c7bdd6fcd7f1e7U,
  0xf8c035f3dc0ed622U, 0xf1a9ddbee2c315f4U, 0xe5ef18f500a9b8c7U, 0xd4c69ab3d3c9f3f2U,
  0xdad16fe61c1eece0U, 0xe6a9c0d5e3df5005U, 0xe8fb3318e6c5c6c6U, 0x8e7bee7e8e42428U,
  0xffdc56c62721c1feU, 0xf8241d13e40cce0aU, 0xfd1310f6fa28f5e3U, 0xd30a06f32506f026U,
  0xeefbf001edf406d8U, 0x9fe0acedb0be1U, 0xeff819e7ef20e6ccU, 0x911a1be32c160e1aU,
  0xe305f9e508e2e8deU, 0xcbc7edd9c4fb27c6U, 0xc1d418fde0ecc5cbU, 0xc1f906a60c18f0eaU,
  0xe31e228221bcd2c7U, 0xa8b2d2aeb9d71cb6U, 0xbfbae80aecbbd4bdU, 0x2d8caac00fbe405U,
  0xebf7358121dcaad2U, 0xf12f292e021419f2U, 0xeebf5f0fa061a0fU, 0xcffa2ff51117f0ecU,
  0xffe6e8f8fb17020bU, 0x92a1723f71711ffU, 0x23f9de120e0f1a1bU, 0x8ef2d190a11d5fdU,
  0xe9f8d6f80ce5f025U, 0xd14081d13f61101U, 0xf9fd12fb13f80b0bU, 0xffe216031c10ecf5U,
  0xfdede30dfff0f72aU, 0xee021a0ff4fb4ad8U, 0xfd0116eee5ebe6e4U, 0xf71b26d607df22e9U,
  0xd83afadecddc01f7U, 0xfecbd5f111e6f112U, 0x404f500eefae6e6U, 0xe9e8ed09d89809fdU,
  0xf8cef3f0a8061bdbU, 0x2c9eaeb0903e1fbU, 0x211f3ee091cd1f9U, 0x3ece3f1eed3f2efU,
  0xf7dac5e3b30917e0U, 0x1ead0f2ecf6c8f9U, 0xf206f5eff0f8d4e8U, 0xfdf90705e0d2c8e1U,
  0xd2eabae1caebfac4U, 0xfdfeef0dec30bbe1U, 0xe0fae4e7e3dff8f8U, 0x40d09e5ceefdddbU,
  0xc315ceb6f00af5a4U, 0xfbcaaff5ec0016U, 0x1b0deed916f9170fU, 0xdbcfce190f1c02fdU,
  0xebd65df5ec11e32fU, 0xfdf4f6c006164aebU, 0x9e309e028c0182fU, 0xf700b10df2e60eefU,
  0xfff24ce2ed1fda0dU, 0xe7e5b6c6d9d9f302U, 0x17e01be532c5d70dU, 0x11e2a105e9c6f6e7U,
  0xcad5520cf809cb1dU, 0xefdbdbc3ecfc7ffaU, 0x22fd26fa08b6de20U, 0x7bebeeffdf60be8U,
  0xded8571a1323c918U, 0xe9fcbbfde4cf91f3U, 0xf6144df3191dd6fbU, 0xc7ededd5340f271fU,
  0xdc36fc241af7d2U, 0xf6ead3e2dffb03d3U, 0xf7f032f1f60fbf2cU, 0xb5d2dace4046220dU,
  0xdfff27b94700d8eeU, 0xd9fcd2e9cffefacaU, 0xdfe423efdb1fcc06U, 0xe71d0ed43039ff08U,
  0xd70521ee50ecf7e4U, 0xd1e6e0ede3f01de2U, 0xffdd26e0dc1fcc01U, 0xfe04fcd312290b05U,
  0xe61111ca56ecdddcU, 0x140bebf3010df518U, 0xdb14fa11070b0cfdU, 0xf4d1fa0e000dde05U,
  0x15f7f301ea0e1c0cU, 0x3eadec30a19de04U, 0xeb08c7ff0ffc19efU, 0xdcb4bf0bf5d80510U,
  0xefd1d6fd0d07edU, 0x1813cdf51705af17U, 0x918ccf3f10501faU, 0xd2e8e012de07e0fcU,
  0xd7eaf8eef10dfeU, 0x9fdc1f716f6b418U, 0xf7030400f1eef3ebU, 0xbff1db0bf9efebeeU,
  0xe2bc1a00ee1b190dU, 0x170605d80ffeb415U, 0xee05eadd0a060708U, 0xbdc2dc010a23120cU,
  0x5f3f0faf6d304fdU, 0x19ecbdcd0200d913U, 0xff1de9db020403ffU, 0xb3b6b600dcfff3f1U,
  0xe69b2117edf20921U, 0x17f0c3e21900fb03U, 0xe6f305da03e7f40aU, 0xbeedd01c02f4f3ceU,
  0xfa8a362dc3fd0c1bU, 0xf008ea1307e2fa1dU, 0x6e23bfec5d0d6e5U, 0xf419e7d908e609f0U,
  0xe3cb48e2d918ebd5U, 0x40bdbfd212ebe0aU, 0x171c3ada101d1f1aU, 0xcaeed907e8ff1205U,
  0x1e2e72931dd0a02U, 0xf6ba170cc1ea1dU, 0xc0631d5f5f6e415U, 0xd7e6b5fe0bcb17ebU,
  0xeba31d29c5f70d32U, 0xeee28104f8aa2a10U, 0xfd0148e3d1ccb5caU, 0xd7dcbde4d7c00ed3U,
  0xcba132eeeb07f5f2U, 0xcc0e1910e21006d8U, 0xefdc2fdfc7d7e9d5U, 0xf504ffc7fdfdebcdU,
  0xb8240ed52bfad7e1U, 0x300f71005ec0a23U, 0x15f50d0318151505U, 0x13ea03f9ece9fbf9U,
  0xe90c21b6180110U, 0xa18f335e81302fdU, 0xfe0126dddb0ff9d2U, 0xd01107fd19e4f5ecU,
  0x7eced02b1fa0dd6U, 0xf512160cbe011bdfU, 0xddee0cd3cbeaecd1U, 0xbd1913c50c2201edU,
  0xea19fee0f1b3ecd5U, 0xc6fb0d00c6fb07c3U, 0xccc314f2e9e1db0aU, 0xea0a1bc418f4daf5U,
  0xf42cfdaf22e4dcd9U, 0x220c131b2b27211fU, 0xfd0aeb1b111c13fbU, 0x12e509fcf2d80ef0U,
  0xa0de205b4042cc3U, 0x20fe00d1700f203U, 0xe1f204f8e611d90aU, 0xea0bf8f20f1aede9U,
  0xd3feebd8a1180ccfU, 0x2913d6f608f4f01aU, 0xdc10f8fd05ceda04U, 0xe407041be206c31fU,
  0xe0f204d4c21607feU, 0x1e8030313e6c416U, 0xdb0d290fd3e7e5fbU, 0xd0feed1ee210cf30U,
  0xe9f91ac6d42bffdeU, 0xffd9f0daf7c80808U, 0x30ff15ccf3fd1a5aU, 0x7f7d1f811d7eeadU,
  0xe1df33439d08021cU, 0xebacbdf6f6ce2206U, 0x7f43de224a9d5feU, 0xe7eaa0eac190f8aaU,
  0xe5cd541bb515d0ffU, 0xeec9cafafcc738f9U, 0xce01ce112aebcabU, 0xcf697a5eea9eae7U,
  0xdbb73ce2ba05f4cdU, 0xdfece006f2cb0de9U, 0xf3e43113d9cad4abU, 0xe1c0e7d2d4ff2624U,
  0xebe02faff40ac6b5U, 0xd817f126d4d007d8U, 0x160356bcbb19cfb2U, 0xaef3fbdc2ef332e7U,
  0xc7fa3db7e7efdaaaU, 0xafeabfd3b4dff5b4U, 0xe3d024acbcf7a3daU, 0xa2c3d7ad1016dfbeU,
  0xc3eb03812dc9d1d0U, 0xa6dec4e18ddff88eU, 0xd1d8eabcaeeda6daU, 0xbaeaeab80a21d4b3U,
  0xd4e21f972b9bb9a4U, 0xc3a3dfb8ae0006a8U, 0xd1b1efedaafcd3c5U, 0xc4d6d39f0d28ebeaU,
  0x1006359c409f9abdU, 0xd7091210c933dcd7U, 0xdae202eafdd905eeU, 0xa7e723cd050f0dcfU,
  0xc70beecee33be1a7U, 0xd7f602e7b331ddd7U, 0xd4c7d0e003bff509U, 0xbcdc08d90c1ab0b1U,
  0xbf040bbff412c8b0U, 0xc8f2d7efa12ee1cdU, 0xc5b7cef1f3aae5dfU, 0xc5bef6ec1820a8beU,
  0xc6fc21b426bfd8e6U, 0xa5f4feb5acfed19dU, 0xbfa6c104d2c90eddU, 0xabdaf2ac081ad0f2U,
  0xe2f224931ab6caccU, 0x130a111125f8160eU, 0xfef8da0af61cf5f3U, 0xe3061b1108fcd514U,
  0xff0cf703dae52bf9U, 0xe0ef3240b17f1f8U, 0x7f3fee4faf2fccaU, 0xcafefe09e2ebeae1U,
  0xf7f9ff10c0f10af0U, 0x7fcfb03effe17f9U, 0x1e430d6f0e700d1U, 0xe41e14d328060bffU,
  0xfc1df9040dd50aecU, 0xefd9130bd4f213dfU, 0x18ff4ee6e3eebbbeU, 0xbd2e17df1f0216e0U,
  0xd82c2b110ed8fde8U, 0x16ece8f500fa272bU, 0xb25041a11f000f3U, 0x929e30af2c4e1f7U,
  0x3e110f10e2d171aU, 0x20fb89212104e728U, 0xbbf6d409fbe5fe04U, 0x1a01e817f2f49cddU,
  0xf3810ed1b42e1009U, 0xb1992240b0db808U, 0xb208c8f8f2f10b08U, 0xe414f508f90290efU,
  0xf58cf5a9b31009c3U, 0x161cc7140526cae2U, 0xd9fdf707d816000dU, 0xd703f30ae50cb5fbU,
  0xede0e1c0fc040bc9U, 0xf3dab8ebf5fb25fbU, 0x1cfa07f42bcb02daU, 0xef6d6e70cd304f2U,
  0xe6c64c173301e5feU, 0xfaf0b7f7f3e702faU, 0xe03f3f8e2d0d4bbU, 0xf5edc8040ecf06d8U,
  0xb3a531e9f1e2eae8U, 0x19d2dbf105d1f10fU, 0xeffd4efe6f6f1cdU, 0x16f0fe18090cf102U,
  0xe4cd0a07dcf50c1fU, 0x200bf5000de9f420U, 0xf71f0105f2f90eedU, 0x12a060ce11bfd05U,
  0xe3ec13f4f50e0f14U, 0xc4c8f7f1e4dc41e6U, 0x19e749cccaaecfc4U, 0xebebdccfd9e101baU,
  0xdd2e47cf0012c2f3U, 0xe5e23bd8f7081dffU, 0xfe01f7e5fbcde204U, 0x3dd6bc07ddd2f3c6U,
  0xc74d06d815ffe30dU, 0x10f2d5edffff0a1eU, 0x1cfde9f30a1def1bU, 0x32f5e91504d0eeecU,
  0xe401ec2431e50f3cU, 0xefc120d061f0421U, 0x1e092ce71024f418U, 0xfb2d02142520f214U,
  0x8f6ff132bd02829U, 0x1bea06021a15fd0eU, 0xeb1ce3f4f617030fU, 0x6040305eef5d1f0U,
  0x13f9a0ef16e10f0aU, 0x18fa0123f506100fU, 0x1c08fffbf921e3fbU, 0x17510c05d4ffcdd3U,
  0xeefacd5002e7291bU, 0x20f2421fbf9f618U, 0xfefe24dd0ed4d4fcU, 0x124123faf8eaf2c6U,
  0xd91f143bcf0ef219U, 0xdd133626e6ee0bf2U, 0x22f70cc3e9e9fd07U, 0x72d01f7020a04bdU,
  0xe22a07200df0fbf5U, 0xfeccf3090a14f210U, 0x1d2203bf2e03e405U, 0xe919d21307d1e8e4U,
  0xfb07eb1907fb0b3dU, 0xfaf2da230cd3e924U, 0x25020ec4f4d5ded8U, 0x1603bffaff93f8daU,
  0xf9b7153d9815f12fU, 0xe2d6cd3405eb3002U, 0x1c060dd5bfdaeaf2U, 0x291ac2e5d9811ce0U,
  0xdcea19d3d20bf7f9U, 0xdcf3da07fae0f1e7U, 0x3e606c9f01edef1U, 0x350dd7f3f1def7d3U,
  0xe4bdf8291cbf0614U, 0xf718e7381af4f21cU, 0xfcff40e0fedef497U, 0x91e0fd217e806faU,
  0xdddcc5a30c84U, 0xf9ead620d0c4e4f1U, 0x1e1832e9bff7e2c8U, 0xfe0a0de20118f01aU,
  0xcedeadd4e795ebdbU, 0xd9dffde5c2d228e2U, 0xe9f52cdcebead3edU, 0xa04eac4030bf8dfU,
  0xee10f2e82cc3eec9U, 0xf0f5f2ebdbfa30dcU, 0xdcedcf08ed03e9f2U, 0x2bf0dce0df18bfdeU,
  0xf6e70cee19f001ebU, 0xfd14052a05eb05f6U, 0x1f6ba09fafefcf2U, 0x28052413260fb4dbU,
  0xf600e11ddfee24d6U, 0x14282233092dcc0bU, 0x38f213e5001821f3U, 0xfb392b0d2d19b8f2U,
  0xd529d735daf4ffedU, 0xf80d34250108ecdaU, 0x110305c8ff18f819U, 0xf6101a13202fe2e8U,
  0xf92df9f2fef215eeU, 0xf5fc0afdf3fa09e3U, 0xd8f60ae80901eb15U, 0xffa14f5172adde7U,
  0xdd2819e80dd704f6U, 0xedf84a270630f215U, 0xfb070fc006facffeU, 0xf911eb0cefdfe1afU,
  0xc53fd93811c5dec9U, 0xfae337e8eb10f4eaU, 0x2b27f4d73a2cf437U, 0x45fdf813f6f9ca9eU,
  0xac4dc83c4ee7fa1cU, 0x23f29ef1010ca5f8U, 0xeb0e04d9f90fe415U, 0x20f7d510d024a6bcU,
  0xe8e7d2f620eb0d05U, 0x31ee41401216f506U, 0x271b54d80c440f0cU, 0x36484022f60de1d9U,
  0xf211b8320ccf19ecU, 0xf605241802ea0cdfU, 0x3bec17bcfe28f5ecU, 0x462e2902fddad5b0U,
  0xde35e139b900d7e2U, 0x2f96417f6014befU, 0x24f8110d0031e3e2U, 0x282e1be436e6f0b4U,
  0xb6542629d7150503U, 0x1eddc6e314d0ec04U, 0xacfcdac9f4fdeee2U, 0x22f40e000fd49bb3U,
  0xb3b032e5e0220bf9U, 0x213b0a5813021924U, 0xfd1f0a1620fad3b6U, 0x202822fe041db9cfU,
  0xd6fa081bb010f0f8U, 0xf8e60f04e7090df3U, 0xe00dbce510d6e2U, 0xce902dbed19c68cU,
  0xaef7fe0ae6f104d6U, 0xc0090805cc1830d6U, 0xd5f41db4bfcfc6b9U, 0xeaf828c211e5a6b0U,
  0x931e1cc404d2e6e1U, 0xe5d7e309d1e803dfU, 0xd5efdfb7c4f2a4e3U, 0xfddc22c12205b181U,
  0x99e111cdfabcf1a4U, 0xf51534e4d7e30c00U, 0xd9f8f3a8ee0fbfe2U, 0x43833eb0ee3a19aU,
  0x9616faddefcbfe95U, 0xf130bf4c0f1e8dcU, 0xe80c09bfc011e6fdU, 0xfe1503ff250fa2a7U,
  0x891bf035faab15e9U, 0xbb0d1f06de15e8c3U, 0xbbe531edf8db83d0U, 0xec0715c6ceee9fb9U,
  0xbb230096e9a5de9fU, 0xec46c10cce0211deU, 0xd7e8bcd41d070515U, 0x20e9f71b2a3cbdd9U,
  0xe6dc14f03be501c2U, 0x1556223c00fd4c08U, 0xdff1fa1604f82803U, 0x321817154a2bb3f5U,
  0xf42a2aefde231939U, 0xfd01b8e9e30a0cebU, 0xbee0f03f3f41de5U, 0xc8de96fc1ef8d4e1U,
  0xe8eb25ba470ee5a7U, 0x1217d80404f261e5U, 0x51bbfebfcfe0517U, 0x2f4030a2b2715f1U,
  0xcd0a30f53a1b0010U, 0x710032aeff1f6e5U, 0x8f3ebfbf0fe1ef6U, 0x31b18240500f304U,
  0xceb7e61a0fda2108U, 0xf627fa1b121dfacbU, 0x3f7dccf04072aefU, 0xc009fa251320e200U,
  0xf9fa131428cf19f6U, 0xef8d7dfebffe4d7U, 0x516ab06ff000413U, 0x4bbebf2ec20acf4U,
  0xdecacb1c26dd142eU, 0x1becd90e21b3f8U, 0x381495d3100f0c05U, 0xc1b1d411cf24fbe2U,
  0xdd2940202e41b24U, 0x11f3cf002af3c134U, 0x4813eee100dede0dU, 0xd6ecfa20d6f6d8c4U,
  0xec1d421ef22073eU, 0xeee6f604140dec37U, 0x1ae30501ede4d6ffU, 0x6de0708f1e0dae9U,
  0xcf70920d514e90cU, 0x1d17bee5f6edc7fdU, 0xe8fb59f12935f91bU, 0xedd7b613f431170aU,
  0x18dadb0e23e202e0U, 0x1fbc81ddfdd0d205U, 0x11101fcb2409ba15U, 0xdfa8a619dbe6320eU,
  0xeeafff1505c91f22U, 0x29e7980319d1ec08U, 0x2b2224d4e918d9feU, 0xe1c8c6e6dadc1a1fU,
  0xffb5faee05e30ee5U, 0x1bdef60ae0e1c4e9U, 0x281602e6c9fdd0e3U, 0xd8e9d81ad4cfd9f7U,
  0xd5d2ddcf0ee0e4f7U, 0x30151b18080ad5fcU, 0x8ec03ddf91d3612U, 0xecee202f0116e2f4U,
  0x160fc11d13e32609U, 0x9d7e10d1b18ad06U, 0x25fe3ded17f0220fU, 0xf202f80828f8dee3U,
  0x16e9ef39ee030d1cU, 0xdac6f50c04ceb715U, 0x5dcfbe8f6f9e1ceU, 0xc208f6daebadedd1U,
  0xeee92438a8e7e409U, 0xecc6dd1effd8f5e1U, 0xcbde36e5eac9af97U, 0xeceef3c3fcacf3ebU,
  0x1af649f9bfedd6b9U, 0xedbbd1cbbdef0afcU, 0xbacccadec5fe9fd5U, 0xedcce7db0714a208U,
  0x15d700e7fac6f7d8U, 0x6ddb2fdd9e34e23U, 0xacb1d7fdbfef9fb7U, 0xf20d22ce29f494d9U,
  0xecbd07d0dafef2deU, 0xc6daeee1f93516U, 0xdcf210f3c7fbc6f1U, 0x12e90bc4ffd3f1e1U,
  0xdcd919c7f5fae7eaU, 0xfec6170ff0f90819U, 0xf4f742edc219c305U, 0x201414cbe7e7dfebU,
  0xbb0ffefb0ae2f6dbU, 0xcc90f0cac8dbb0c1U, 0xc3ba02abd3f0a7e2U, 0xe6dedbabceae17d2U,
  0xdb01f8d209b9d4a2U, 0xe5f900f2cef381bbU, 0xf8dcf1e1d507eb02U, 0xf61cefebf612f4f8U,
  0xe1e9d8002c87e9c3U, 0x16ebfa01faeacaf0U, 0xfdeb03d6e502f3f1U, 0xedf7fb0be819edfeU,
  0xbdeed20c33c30818U, 0x1cfe26100513cffcU, 0x10f6efe4030f091cU, 0xef3026150617e2dfU,
  0xd3fed80e11e0fe11U, 0xe8db3bd5cf18ced3U, 0x1fe506c0e4e4f816U, 0xe5d0faf7d202e7c6U,
  0xd839ebe446d1c9e1U, 0x18ce17c2ee09d4f3U, 0x404f8d9eb1c1f2dU, 0xedfec08fbefb0eeU,
  0xec1adcfe32eb0c1bU, 0xae0dcf8fa0af007U, 0xf1fe19ebfc0cf122U, 0x31eecf5eaf3f3f7U,
  0x1cdcd180a0d2020U, 0x15cc291705ffde0fU, 0x7f91aded522f5fcU, 0xff37f6fce6f218e1U,
  0xd418f11c10ebf8fdU, 0xedbe0cf4e30321e4U, 0x27f103b4d4ebd1f3U, 0x1e03d4f603edd0c6U,
  0xb41908d31df1f5fbU, 0x2300dcd901f3010cU, 0xeafbdeff19020704U, 0x52d9e10505e1a7e1U,
  0xda04f71af5ef1b08U, 0x26341127f523d911U, 0xfff619eef50e101eU, 0xf4252216fa0300dcU,
  0xd51a062505f606ffU, 0x1d2155160314e1f2U, 0x1c0e0ace12231420U, 0x72c2b15171ff0efU,
  0xe041f413ed1822d8U, 0xdd02e7e7cd034105U, 0xd3d1eef0fde702e5U, 0xf0e9ece5150bc2fcU,
  0xc6f224dde606efe7U, 0x1cd2c6a6fcc20b26U, 0x8cf4a224f1edba89U, 0x2bdee3d425d7981aU,
  0xf4c142dfe00e00f2U, 0x4d0b6af13e11818U, 0xe20ac12dca01bc88U, 0x24e0c9f411acbffcU,
  0xccd521c6992609caU, 0xe92a0143020e2622U, 0x31b2510d5daf6a0U, 0xb1630fcdedbffa0U,
  0xe4e535f5970fece4U, 0xf3080d2ae904e4fdU, 0xf9ea34b4d4fcf9daU, 0x9e2315c9fa1013c8U,
  0xe231dafaeedb1b11U, 0xbdc5e8d0b6d59ce2U, 0xb7d0e9c7b4dbb8e1U, 0x8df4e394dfe0e9d7U,
  0x9ceffb96f5c5b4abU, 0xc7d5d69ac0f1ffd7U, 0xbaaab5fca40eb008U, 0xdbd9a5d6d5d2fdeeU,
  0xdc0607c83eb9dfcbU, 0xe519ef0bde03450dU, 0xc9ef0bdeae1be307U, 0xef4d11d0ee0708f8U,
  0xeff01f1948ca01f6U, 0xdd0318251313c113U, 0xa0c0ccc10cc13ceU, 0x9c1729d8011610e3U,
  0xfb0ffbcbe1ec0ee2U, 0xd4e807e9ea0f81b7U, 0xfcdbcebef6fae507U, 0xeffbf1fdcd1a01e1U,
  0xc70dd8c94e96dbbbU, 0x16d604c2ddfe95e0U, 0x219bdce08021121U, 0xffe3c114ec270cf8U,
  0xccfac31960aeff19U, 0xf9fefbeaf3fcb5f5U, 0xfd2421e30e04f439U, 0xf64bfa1fe9191bdcU,
  0xd5e2c62633021119U, 0x12f6040003d4d712U, 0x50213e414e0f8dbU, 0xcb1402eedaf618e4U,
  0xec0115ad2018e8d1U, 0xeffd03edf3f3f4ffU, 0x2b040ddadde40d33U, 0x32d4e312e7dad6d8U,
  0xdf26f9fa14030e0fU, 0x17e60bd502ef0516U, 0xf01ad8d91805e823U, 0x1bf1ddff3ae9dde9U,
  0xf4ecf33102f90119U, 0x291b261a0711ef07U, 0x2d114bee0ef324faU, 0x1d433407191cf8f7U,
  0xcf1e163d142e2712U, 0xe906ed1505f4e3e4U, 0xfbfeebd9f107e6f0U, 0xf11df90cff1cf3fbU,
  0xf2f91919f9f5f8e8U, 0xede3e7e9f2f8e8e7U, 0xe40813f1e204d9daU, 0xbfea07d5f7fff2e3U,
  0xeaff06bb1db1cedaU, 0xc5deccffeeebf6d2U, 0x3d8def8b4f0dac7U, 0xc7fafec5fe12bcd5U,
  0xd0f01df028c9d2ddU, 0xece5edd1ed0137f7U, 0xe9f0a604d1d3ea0cU, 0xeaebfdfffc04e8e5U,
  0xf400eec12dfc100cU, 0xede9e6e8080d0727U, 0xeeefaf6f4083400U, 0xb106fd0deaf801eeU,
  0xec141eded40f14eeU, 0xc5c71cc5f40bbbd7U, 0xb6ce1fedf0c7f5c6U, 0xb8e2f0cee1ab5efdU,
  0xee5a36e2ddf4d9ddU, 0xebc726adee0ea5b2U, 0x2d0313dde20cf0ebU, 0x7f1b2d5dcf045efU,
  0xe23ef52427d0ebcaU, 0x1acf0dcb0909da05U, 0x3201d406f918042bU, 0x1413fa1ecfe237f2U,
  0xfb0fa65a2f9d0c20U, 0xe0d1e2e1f201bee8U, 0xeadfefc2fae5f9cfU, 0xa801f5e6d2cae7daU,
  0xe51bf8cc0ae7cfb2U, 0xd2e950c8e531e0d3U, 0x4beee1be08da0e1aU, 0xecd4da00c5ea06b4U,
  0xe17fd1a545ebcdd9U, 0x1af01cd2e900d0f3U, 0xc1c0af0121c1539U, 0x10eddf1ad4e7a4b9U,
  0xca26d64a4709100fU, 0x22ffc7f20adef11bU, 0x80839fef2060921U, 0x1e36f110f1eeb3dfU,
  0xe4eeee19060b200cU, 0xf6f1eefbf0e5eaedU, 0xe1dbf8c5c8edf9fdU, 0x2f9d2effbc5bcf5U,
  0xf5dafdcb1cd3fcc2U, 0x1de518e614f03be1U, 0x261bc2d6ea0de915U, 0x32e40013f20504e3U,
  0xd125e6fd3af904dcU, 0x33efcefcfcf3f110U, 0xf2fde2ece131ee14U, 0x3821111707fabfdaU,
  0xdccef43efcdc3108U, 0xf07e11f1a04ed1aU, 0x21425e5f720fcfbU, 0xf20132503f1e00fU,
  0xd1a7f70bebfa10efU, 0xf8e90fd6fa11120eU, 0x1e2f721f9ee05U, 0x1df1fdfd06cdd503U,
  0xf0192afa1d080204U, 0x808fbef01ef0112U, 0x305ddff3402f8eeU, 0x1fe20e181cfbf7e3U,
  0xf8f5e52efeea0effU, 0x1af31d1811f3ed21U, 0xfd0e28f9fc10f0ecU, 0xf301fff2fde14faU,
  0xcefdb1ce0df12ecU, 0x6fde71c02f00f11U, 0xbf927f7e21d04e7U, 0x1412060b0ef608faU,
  0xffe6cc13c9f704efU, 0xe7dce3f4f2d32b09U, 0xfe03f3f4d9e3e0bdU, 0xfb070cef1fe2cec9U,
  0xe80f38ceddfcd700U, 0x1b0be4da1be72b11U, 0xf318b0001ceeeecaU, 0x37f8edf912cec8d4U,
  0xdb0433f5c4410cf9U, 0x326cd3715ff03f1U, 0xe0f3be0616fafbc6U, 0x9fa400c26cdc2c8U,
  0xece3e40592f516d5U, 0x15450928070506e6U, 0x1ecd7f415f30edcU, 0x1bed36151308b703U,
  0xf4fcabf7d3f908ccU, 0xc5deb0e5cee4cfd6U, 0xe5e9fef7dcd1c781U, 0xa6e3f4ccdaf4c0e0U,
  0xe6e20cbc0ab5b3cbU, 0xd9ead5d4daf629f5U, 0xe1edc0fbe7d1bcb4U, 0xff0502c704f8fef2U,
  0xf0d32fbcf2e6e1eeU, 0xec6dccaf7ec2ef5U, 0xbfe3adfee8f59acdU, 0x30cff1e1f8e4d0e5U,
  0xdff212c318effef2U, 0x1cf60e0209fb2e08U, 0xe81eeb22dd01f8deU, 0x20f6ea01f3cc0811U,
  0xf81010dff206000dU, 0xdfdbbdd1cefdc1bbU, 0xdce10feee3e6e3c4U, 0xaaced3e8de0bf3dcU,
  0xeada23b619cfc2aaU, 0xe52407fbe308f4d7U, 0xf9fbeef3fdf4080fU, 0xe1dcefe700291806U,
  0xe1f1fea331fbece2U, 0xfa01d9e7e10123e6U, 0xf108bbe9fa170701U, 0xff2f90a062be4e5U,
  0xe60d2df7380e0e20U, 0x12ebeff508eb3404U, 0xe602bae7f401eafbU, 0xfd03f40ff114daf9U,
  0xeaf51e0215240f14U, 0xe2d7e1daf0ed0aedU, 0x1f513d60801e5d0U, 0x81c6f0ff12efeba4U,
  0xcaeb38f8f906d6d1U, 0xd9d1ec0f07e83624U, 0xf1f8ede0ffeeae06U, 0xe05cac718f403daU,
  0xc7ed23fc3df5eadeU, 0xe208c514dce0bcf2U, 0x1d074cc4ae03cbdbU, 0xce1514d21925ccd4U,
  0xd5d32c02fe08f4b6U, 0xadb028e7cb0e1ed1U, 0xcfcde5a9c3ee95bdU, 0xa3e2e5a6e61fdd9bU,
  0xed2102d1f6cabebeU, 0xf21e24291108f915U, 0xa03ff03fdec18ebU, 0xbc31201309f6e1cfU,
  0x41e00f1c4f5f3eeU, 0xfddc1dddedf6fd0aU, 0x12f9f6e1c0dbf8fcU, 0xf806f4f412f2e2ccU,
  0xf81514fadc12dd17U, 0xe016eef3f502ba0cU, 0x29cfe0daeae4fce9U, 0xe7dcb9e1d6fa0afeU,
  0xea0cf90af5050a0cU, 0x202c1ede0907f52cU, 0x18ea3a0ade0103e5U, 0xe108ed07ea042edeU,
  0xdb07c5251a220d39U, 0x24f90b2b0913fff1U, 0x16f807c8d221f4e5U, 0xb9111717f91dfe0bU,
  0xf510f3fccef718d7U, 0xf2f223f2d309e2f9U, 0xf3ff0acdfaefd410U, 0xe5f925d4f815d8beU,
  0xb61feaef23d8e8c9U, 0x2e929e5ff33d2e8U, 0xedf6f8c1f91de933U, 0xfdebcdf7b4f5e5beU,
  0xce10d5163fe914eeU, 0x1de6d9e911f6fb20U, 0xe91019da0b18e62dU, 0x1e1ae911f31acbf7U,
  0xf2a4010318201026U, 0x1a2c03371c35c40aU, 0xf9f506b00f040df0U, 0xd70e18fd2b10a7cdU,
  0xd4edf21ed5110ff8U, 0xed1a2931e50ef1efU, 0x3c0e08ae02eef52bU, 0x341f28e30a1eb4bdU,
  0xbe32eddf1aea03e5U, 0x2216ea1012fa2a11U, 0xf71ff8ee1deefc1aU, 0x44ec12fe0d18c1dcU,
  0xeadcf20504fc1e12U, 0x1732c52eec0de90fU, 0x60bffe015fbfb11U, 0x2e3a341d302fa3fdU,
  0xdbe2e411f70a10e8U, 0x1afafbe1f702f31aU, 0xb24fd01fd0ee80eU, 0xfcf00500d2e8f70eU,
  0xfd07eee1eef809e9U, 0xa0c1ff4000ffb17U, 0x1126030808faee00U, 0x33129fc04070b0cU,
  0xf608fffdf605fd01U, 0xffff0400fff5eef9U, 0xf90ff6f807f4e504U, 0xd16fd131902eb10U,
  0xf90bf6fafdf50cfaU, 0xf9f417050ff6f90fU, 0xc0bfee70504f311U, 0xfbf3fdf4f9f001f6U,
  0x141afffbf60bf006U, 0xe6ece6fcf7d1daf4U, 0x1ed19d41ad80819U, 0xe816d6ee04ecfde2U,
  0xae8240eb2f6edfcU, 0xf7d6c3eef8d2180aU, 0x12f036e116d6f2e2U, 0x1007b2e21583fedeU,
  0xebc53511c700f601U, 0xf3c8d008f9c62a04U, 0x13fc260ff4f3ead4U, 0xce8ceecf9c60807U,
  0xebbe29f1f00ee1f6U, 0x2e4f3f5fde7f9e7U, 0xfefbfc04f50604d6U, 0xfcdbcdf0e709fde7U,
  0xecf10f1719f5eff6U, 0xdf3f033fe01cdcdaU, 0xee939d0ebed00c1U, 0xa80824e31b0619f1U,
  0x109bbbee3bae98cU, 0xcbf90108a3e7ddc6U, 0xdae6f4cfb614c7daU, 0xc92315c2311ce0d2U,
  0xdf21baa11281e3c3U, 0xcec4dde8cdec13daU, 0xd0d9cbe6d4f0a7f3U, 0xef07fcc30d0cebf9U,
  0x214ddc331a6dcedU, 0xe5d3f4d1f7faf1eaU, 0xcff7e713fa03d4efU, 0xffe9ffdb0502f40dU,
  0x10bf8cb2cd4eed4U, 0xfc300722f831d1fcU, 0xf7edd70a1f012001U, 0x24001d1a1c12c5e3U,
  0xe404c324e80e07cbU, 0xf1401f13ff28d8f0U, 0xefc03ff1103361aU, 0xee2d4016383ac4ebU,
  0xde2ce803f7250a09U, 0xec0f0d0eeb1e03edU, 0x2ebeefe0dfc0311U, 0xe3035001b32dbf5U,
  0xe11a11e3220afa25U, 0x8f41af003ff0bf0U, 0xfc09d400ff030e18U, 0x3091207fe09e9edU,
  0x1fbfc1526d70c0fU, 0xe0a5f0f0edd4f0deU, 0xe7def5dff5d4d0daU, 0x3203fadedbe8beebU,
  0xcdc82df421e6ffebU, 0x17d1b1da0dcc2e1aU, 0xf3f9a8e333fd0bf2U, 0x49e1c906d816c3faU,
  0xccd0df8f5f80612U, 0x24f7bb0804e9fd28U, 0xf8edc8090711fcceU, 0x1df5ba01e1dbb1c8U,
  0xe2c8d00ab5cf0fffU, 0xfe01e02ef720e904U, 0x35f541f3f02104f0U, 0x16233517261009fdU,
  0x5ddc33ba7e618f3U, 0xe70f0c1e27f0e917U, 0xffbfef6010d13ebU, 0xd0092bfefafae30dU,
  0xfdff07f31bee0d16U, 0xbfbe90919f5511eU, 0xfb09db18e20cf3f1U, 0x2001f4f71bede316U,
  0xeb07f7eaee0af716U, 0xfcfec0fe17f42e14U, 0xfc02a8fe08d813e2U, 0x80f051cffe8acc7U,
  0xdfd91ad5ea1c0a0aU, 0x1e18b43f16080028U, 0xcbfeca1318f6f8f9U, 0x15121315fadeaeedU,
  0xfff8c5fcb92219e1U, 0x14dcd5e5fb04d907U, 0x2b202e0afb24e2bdU, 0xa205d4d9c9b1392cU,
  0xfdffebbf24fd07a1U, 0xfcdde0a06e028f6U, 0xe8120cebef11deb0U, 0xfefff3d3d2e10723U,
  0xd91404dbec0dfbceU, 0x7f6b4eede0e1901U, 0xebf4dbd7fbf7d2d7U, 0x1bedd8da230debdfU,
  0xb2c11fb208f9d6edU, 0x30adafa10ee1df3U, 0xf7e38111d9f5c6e9U, 0x18f90ef330ebf8fcU,
  0xf7d1f4c5fee000f1U, 0xf91309f40a33e004U, 0xfe07e0ed43bf3d10U, 0xdb11fa08f905d5deU,
  0x23003fcf5dd2aU, 0xcdf9faf5ebfcede8U, 0xf3d7ebd542a722bfU, 0xc3ea07fcd901efd9U,
  0x8f248e9060aba23U, 0xcc0d07f5da1b42ecU, 0xf506f5e61ec2ebf2U, 0x1604ebf6eeeeffc4U,
  0xd9425ed92712e0ebU, 0xf1012d0ff2e1401U, 0xf809d9ef2df62218U, 0x45ebda350908fd12U,
  0xf2150dfd4406021fU, 0x14fb0502ff1fe8f2U, 0xd702c709f41f28edU, 0xfcf3ddfffb011bf1U,
  0xfd02d9f903e220d9U, 0x250501f9ff0ae70eU, 0xe915def80c0507e7U, 0xf2c7e51adff6e5f5U,
  0xe1ccd523eeea210bU, 0xfe1f0e3219f9dc25U, 0x10809fc0213fdeeU, 0xde211b1e05f0fce5U,
  0xf0f82023ec122812U, 0xffefca0e10ebe717U, 0xf2ea2ef4dcc6f2ebU, 0xca1101f415f104efU,
  0xdcd84ee8d21606e5U, 0x23dcdfdc0d14920bU, 0x230afdc0f2251508U, 0xc5dcb603f8e1eddcU,
  0xe4e2b01f2aae1b24U, 0x19cab7ec05e7c32bU, 0x11170bc5f2f7f428U, 0xbce49a00dac4efdfU,
  0xab2144dfbdd015bU, 0xfed53204cae500U, 0x18e81aeaefe1e6f0U, 0xed20d0f4048111bbU,
  0xebcf5011b616eb0cU, 0xcb101c1ff2080cdeU, 0xf9ff39d6bab3ced2U, 0xd60f15dc1dd105e0U,
  0xb7f7009a23ecbfa3U, 0x17e6ed2722e3ca25U, 0x392940c91122fa0aU, 0xde01d50ec9cf17f8U,
  0x1f1e94acce62a1bU, 0xe5fdbe1fedd6140dU, 0x2dfd2abc09f10cbfU, 0xb1efe4f205d61effU,
  0x19c90f12b202e501U, 0xeef321f2d30e23d2U, 0xe1f113ccd7d7f3cbU, 0xb010f3e91b0408d9U,
  0xda200fe219d0d8e0U, 0xdbeb3ce7d1053ddeU, 0xefcdf6d20bc90e04U, 0x1ef4dcd20f02f7d8U,
  0xc5217b042c9d4f5U, 0x1113f431260b0330U, 0x140e39e5e6e708d3U, 0xa060807e9e211dfU,
  0xeee020ab60b06e5U, 0x2240b2a0a000df8U, 0xfcf017f7e1e0fec6U, 0xc5e7f7fd1ff9fb06U,
  0x13fff313add6fcd0U, 0xd00e430ade202ad2U, 0xbddaf8f1e6e004b9U, 0xde2e2be71511ff0fU,
  0x1b3801e338dbdbbbU, 0xf60347fcdc0928d0U, 0xedd3e8fe08dbe11eU, 0x2fdd06fa04121909U,
  0xe22b30da48ffd8cdU, 0x12c4ac97d523b7d1U, 0xb0482e283edcab16U, 0xdfbd4225321cfbf9U,
  0xacd3ada2bbd60995U, 0xcde60855a114c318U, 0xc06e7aeabb5f622U, 0xaa37d08e4fc413fbU,
  0xf03642eb1badc6c9U, 0xfcba2e4a381e41fbU, 0xc11b46f13eee413dU, 0x93262aa62f93edd9U,
  0xcbf60134090b8bc7U, 0xd49beabfa5ffc8c2U, 0x9fb13237ea032f9eU, 0xac2e219fccf7c6c5U,
  0xc5d5a52aafb627a7U, 0x8b8c2aec26aceaacU, 0x95ebc124a1f10224U, 0xaccbd1c9df320c2dU,
  0xba3b00cb1632e840U, 0xb127f014ef9d9b9fU, 0x8fb90542a0bb3ae8U, 0xb5cfcb29cffdd4c5U,
  0x49d5fce11cfd20e2U, 0xa22cae39c912043eU, 0xc2d72fb4193bf818U, 0xdf0d32f23db70531U,
  0x5520dfe6e9daf334U, 0x949cc5d4fdc7d9f7U, 0x273bb417bd1f3aa1U, 0xf64bfa06b340ed63U,
  0xcd1c37d5c30bbf0aU, 0xc9eb0f460027afe2U, 0x282881262f15e601U, 0xdfafe442fad73cdfU,
  0x1b4c2a974cc624a4U, 0xb49d4ec1fc13a41eU, 0xbbeedf9d081d2ad8U, 0xe514099ec133e808U,
  0xc550bdf9ad41034cU, 0x3af2cf9412c346d3U, 0x39d4023c02e1ad51U, 0x293af5aa33c822efU,
  0x9dabce4fdd26cc19U, 0xd0ebc849041c3251U, 0xdaeff8b827d8de0dU, 0xc902a0e80ca8a5dfU,
  0x593bb3b2474cedadU, 0x2710c81a1f992b33U, 0xd9a6bff346f2d744U, 0x7f5cfcb41d5d4f1U,
  0xdeacad503938f500U, 0x18280bda13e1c1c5U, 0xe8c8c33f49f5b72eU, 0x2d2a27c0fda2eeeaU,
  0xf27ecf8d7f9eaf5U, 0x283ae947f80bc41bU, 0x3c1dd00398e798efU, 0xa3b8092a47e3c0a5U,
  0xf937449e39aa0d44U, 0x46ddf895f0bbe745U, 0x1adad8f1c103cebcU, 0xc2ed44ca1151b4a8U,
  0x92d50a456ee97fcU, 0xf6d9faf5f10ee5dbU, 0xc00c902e9f8f5cdU, 0xbefcdfd8fdedfcf1U,
  0xaf5d5bfdfedd3e8U, 0xd6d8fcd4eef1eeccU, 0x7ebc1c5e1f2e2f6U, 0xc2cde9d4f1ef05f5U,
  0xfdeeeace0ed9e8ccU, 0xe4c6dbf100e4cde5U, 0xe5f7e2f0f2e601ecU, 0x1fc5f7f7e0d6dee4U,
  0xe6f7edec27dfe7ddU, 0xd9ebe2cbfeefeffaU, 0xe1000edcf0f2f6d5U, 0xc505db05d0febaf9U,
  0xf0c7cfd2d1eeeaffU, 0xeae1ebe1f00a141dU, 0x404fccedcd6022aU, 0x20e2d90b01cdf2ccU,
  0xebff1003ea0a0013U, 0xfbd60dc711ec360bU, 0x4bf60cecc7ec20fbU, 0xffaad7e9fd81d0baU,
  0xfa032d3fdbded507U, 0xcdef3006e5f3d6c8U, 0x170830d4f1f5d6d4U, 0xfde2f0d525b12edbU,
  0xae0bfa3c08e1ceb4U, 0x191c4be1042018e0U, 0x4ce8fc18222701f9U, 0x3feb130815f02ee7U,
  0xc52ad0391afcefcdU, 0xe0f6000ee40637deU, 0xeae6eedaeff1e7f5U, 0xe300f3efec11eef6U,
  0xfff128fe21fd0608U, 0xdfe5ffdfdef0d3e5U, 0x2e30ec5ece7e7f1U, 0xe2d7fbe0eeeb12b9U,
  0xf301f7d705caf4d0U, 0xc1d01321e3f823e2U, 0xeff84ca3d625f73cU, 0xd1fbf5ddd4fbf4c3U,
  0xf8fe141824cdeefeU, 0x37fbd1fa05d9290fU, 0xd0ec020cdd09b823U, 0x47101d04f3ddf8e7U,
  0xac6f5b7e1070d00U, 0xee13f60fe6fc390bU, 0xfdfef6e2f8fbd103U, 0xf71421dd1524f7daU,
  0xe6120ef7f3f3feecU, 0xd1e346d4cddd2ff5U, 0x2e313d5dde2c5e3U, 0x1ae214d7f514f3b0U,
  0xbe10221913eadaebU, 0x12f823f7f723bae2U, 0xd5d6cbd8fae9df0eU, 0x4ce0db23e4e8fad8U,
  0xb904e5583b84fae3U, 0x1123ec0d0a1ad2f4U, 0x1e0b0e0aff1c2336U, 0x165c0d2101310410U,
  0xeddad0e53941819U, 0x2ede91804fb2d20U, 0xd7fa05f1effde6f7U, 0xf736efe1fedfe2d2U,
  0xc128f9221e250006U, 0xe914ba1f03f60f28U, 0x813eeb4062c0807U, 0xc01117fefd30e6ddU,
  0xf0dd190e4d250ef5U, 0x91cff1cd513f0e0U, 0xf3e8ded81318e916U, 0xc53b24f80730c5d1U,
  0xbcfae1d81fd223e3U, 0xf52cf9f5ccfcecddU, 0x1e1baacaf333021dU, 0xf11f0c0c1716b1e9U,
  0xdb1dd8162fbe210eU, 0x1f07f619f71ecdeeU, 0xee0fa2b9f93af922U, 0x7b53905df32d718U,
  0x5cfcf11a31bddU, 0x1520c200f90498faU, 0xef04839be1080201U, 0xa281e9f5d22dbc16U,
  0xd1efc8f40ba01bf9U, 0x30e01c2f805c015U, 0x31089b9e922f6ffU, 0x91aae305e730edf7U,
  0xe0dbe5ff19cb0411U, 0xf4dfdabd1cf00029U, 0xfaf4e9c403fce407U, 0xbce2ca050607afdfU,
  0xe7ce4a15def81e42U, 0xde8c10a0a12bdeeU, 0xf31be000110a0eU, 0xf2c8e81ef6f9dcedU,
  0xac32be2f5240c00U, 0x1dd39ca61606ad18U, 0xcb00f6f7f211fa16U, 0xc2a999f5fbc8cdf8U,
  0x2c50bf1e80c06f6U, 0x17eaa8eb0d15c4feU, 0xe80efafbe81af50cU, 0xac0fa7ff17e5d9f6U,
  0xbd720f3b2041ccbU, 0x1c0a930009dc020aU, 0x15f34bfbf500fcc4U, 0xef10eae70fdceaefU,
  0xf3af3721cdee11edU, 0x2e37d104010ed3fbU, 0x1a0cdf001b1d232bU, 0xdafe1f262d10e401U,
  0xd1d2061129c81718U, 0x24ebc3f81cdbd711U, 0x8fe13de0331fc2eU, 0xe3f6e213f508bf0dU,
  0x4eb1618fdd40800U, 0x2f5df1c04013722U, 0x2e1e0ae8e1fc0febU, 0xef02f21e0f27d00bU,
  0xdad4231fccdb110eU, 0xf80be706f815131aU, 0x1a00150106101bebU, 0x122e20112f11d508U,
  0xe9ed122bc5c80708U, 0xae70107f4f72a11U, 0xedfe1700fa1600f9U, 0xefe203031c000c0fU,
  0xf81ddfe1fa0013dfU, 0x170c080c18ee0919U, 0x6170d09fe06e90dU, 0x191a0610f3051612U,
  0xeeedc4f90ceb1002U, 0xe0df1080ee3df04U, 0x1628f109f116cff2U, 0x152d1a0507f6e3fbU,
  0xe900d411de0b060cU, 0xf6ed1310e3f1f0e1U, 0x18f623cbebd1daedU, 0xd0211e001f0303e4U,
  0xdf20facbe1f8deeeU, 0xf8f3dbd5f408fa00U, 0x5fb10e816000612U, 0xf80dc614f6dfe5deU,
  0x3e0192302ea0318U, 0xeadfcfdbfbe40b06U, 0x11df03cc12e706f8U, 0xf7f7b20ff492f8d0U,
  0xf1ca260cd809e71dU, 0xe5e0c2f8fbe6f90cU, 0xdfe0edf1af0ebe5U, 0x303b1d3e081feb9U,
  0xe7b148fdbc08f401U, 0xdee8de23e6df35ebU, 0x11022ce8e7c6eae2U, 0xd4ead8cbc5df03deU,
  0xeed830c708feced2U, 0xe823ef17f912140fU, 0xf8fb3ef014fbf6c1U, 0x15110ee320e805eaU,
  0xfaf6e4f0d0ddefc1U, 0xf102f10cd4e3f6feU, 0xf10727d0eb09e3eeU, 0x90417e1372128d5U,
  0xde15e8cf10bae4d5U, 0xd3dcd8eec7f001c5U, 0xdfd705d8cf06d2e4U, 0xa7f2fdac0d1bf4b4U,
  0xc5f5f7a129bed5bcU, 0xc7a9ddc2ceee1fceU, 0xbfdad2e8dae2cad7U, 0xd1d7dcbfd6f4d4c0U,
  0xe20400b22dacc8e4U, 0xf11d0b0ff91b0cfdU, 0x4e5d20efafe1ef0U, 0x2ce705171103e6e2U,
  0xd7fdbd1a0c27fdd1U, 0x162f192c0b40d905U, 0x17f3effa0e0e330fU, 0x141b2b0d1334ebe4U,
  0xd72ed71bff1220f0U, 0x5281d1add37f1edU, 0x904fdd2ff0a1918U, 0xdc172d102d47d1eeU,
  0xd11de4eb1205f8fdU, 0xdb040e0ecd06e5d0U, 0x3ddeeecfa0ee117U, 0xc3f713f22528eef1U,
  0xf02aebda2ee0e6f8U, 0xcb30eac6ecded014U, 0xeae3dffbe222c0U, 0xfbc7cf106833b9a8U,
  0x9dee181a005ad0edU, 0xdc401a1c0d47d613U, 0xedc40ff302e82310U, 0xc14a3fc3751f2096U,
  0xd4642e1b0142ebbbU, 0xadfd31fea6181fb1U, 0xdcfe16f9fe0c1720U, 0x1ceb0eb90b12d285U,
  0xbf22fffc1129b8e4U, 0x1017daa8e1f5e510U, 0xdad0b8ecea2ae60dU, 0xddccdfd443497e4U,
  0xb60b0355f5d1e906U, 0xf0e591d801d3bb0eU, 0x1af4bca5b02bf427U, 0x2ebb9e3e1f69aebU,
  0xafdfdd01388ae8ddU, 0xfa1efffffb3508f9U, 0x1d0e42acf918ec12U, 0xfc2e18fae4fdeb05U,
  0xa41ea949a0ab27f3U, 0xe211480ff43d0d12U, 0x1ae96e02f8e5e510U, 0x2d391fed0f1403e6U,
  0xda72dd38a6ebcb02U, 0xe6b601c5f1cdd7feU, 0xd7ee25eeb3dcdbf5U, 0x4ad5f1c238caebe4U,
  0xb9410f121018cc15U, 0xef149cc714ea96f0U, 0x208a2cd15f4f70fU, 0x2bd7f809d00781b6U,
  0xf3c8c7234e2cef22U, 0x172f1e2f0032fc2cU, 0x7de2bafcaf5cc14U, 0xde5a3e1218f5f284U,
  0xa753db53bd0c2018U, 0xf1304616cd2152ffU, 0xfc4fc8d8def4e4U, 0x321d1d00e9fdf991U,
  0xa16ed739c5ce1bc4U, 0xd62753d6a51133b2U, 0x4f1e699e5f1d904U, 0x47e409eef82bbd97U,
  0xd148352e17ddcbcbU, 0x2d249bfbede7370bU, 0xeceed1e3d90fef0eU, 0x7acb31a4f08abbcU,
  0xa6b0d2fae01c11e3U, 0xf3cd43d1906e418U, 0x371e23bce5350bf9U, 0xf12f16150de7cea1U,
  0xc0e8e52296e52ac5U, 0xdb263e14dc04f90eU, 0xe4e337bce1cfde25U, 0xf7440302f509b6daU,
  0xa85315f1f6fe0dbeU, 0xecceebc8c90011eeU, 0xe4d2feafb9039305U, 0x1fe9fce31700a9edU,
  0xc40b143304e5faddU, 0xf7ec10f6edfe03f2U, 0x1708f016fd191105U, 0xea04080c0a16ed0dU,
  0x16fbfdf115e9000cU, 0x6d512eb01f30406U, 0x1df4d5fae80e0f11U, 0xf4f1040df4ff03f5U,
  0x406fa0afaebf6faU, 0xf5cf23e20a1619f7U, 0xd0ae2f9f3fdf50fU, 0xbf90209ffd116e7U,
  0x3151621fb0f02ffU, 0x6d731ed0503f0edU, 0xeb0ad3ea1715fe01U, 0x2b011ff911db1b0bU,
  0xe728f43a18d006dbU, 0x20d0809f7f4f901U, 0x5fdefeee308deeeU, 0xf0fc15f71c1a0bf1U,
  0x1edffe6fad31af3U, 0xefefe9f5def8fae0U, 0xe404f3ece1fbe7e6U, 0xf80204e8fcfc0010U,
  0xe5effdf5fec609d1U, 0xd7d1eeebedc919f7U, 0xee00fdddb0e4e1e3U, 0xccf7ebdcf7f5f5c5U,
  0xecf403cee710eafdU, 0xdda13fe03e015ffU, 0xe805e905f712d5f4U, 0x21190308fad5f6d4U,
  0xe90c110beb23fe06U, 0xa0dfd14fdf9ed11U, 0xf4fef7f7ec0d0bd9U, 0xe00f0b04f009f908U,
  0xecfff7e1f3ed06ddU, 0x15f1d9fae9f70ff9U, 0xed03f1e808f1e1U, 0xe9040e03f301dc0fU,
  0xe203fae50bf617dfU, 0xc6c9c3f5b8f4d4c4U, 0xd8c607bee3faa9dcU, 0xc0fceecde102f3e6U,
  0xe3d5f8d7f081d39aU, 0xd7f0110ddc07eee8U, 0xdbdc0de0d9eefef4U, 0xe2191edaefecf3fdU,
  0xe80700e709d0f5d3U, 0xee7f2eefbf50506U, 0xe8e9eefff8f107eeU, 0xeafcf5ed09fb04fdU,
  0x7fc06e9fde909deU, 0xadde7dfdbf70503U, 0xf9da02f6f0e8fad8U, 0xe7fff9ebfdf8dd02U,
  0x2f2090800ea07f9U, 0xe419f6d1f0fce0d8U, 0xfaf4f8f606cefaecU, 0xf903efeddf030403U,
  0x8f702bb0ee2e0cdU, 0xfb3dfa1efb1e0affU, 0xf40efb07140d2218U, 0xa140617181a0914U,
  0x7f901012df1fffdU, 0xecd0dee1e6dcdc13U, 0x910feeb1716fe13U, 0xb3f4cff2dff527fcU,
  0xf2c6291a1401f406U, 0xdedc03e9ecdcf5U, 0xfc0b0403e512f1d0U, 0xeaf9d5fae2e611ecU,
  0xd0d627def5f60abfU, 0xf4b6e2fef6021d02U, 0xd1f722e6d618c3e8U, 0xe4dfded5f91210e3U,
  0xf5d207fa07deeefbU, 0xf2d5e0c7fee63a2aU, 0xb2e2f5f9b8f8a8f9U, 0x4e7d7d705ffe5eaU,
  0xead314daef08fafaU, 0xf081e21fef91a03U, 0xfa0015e5f30a1603U, 0xd527040b0e0421f6U,
  0xe723cb38c5da15f0U, 0xfcea08f600f5df04U, 0xe81409f6e21517eeU, 0xd3ebfbe21ef61d03U,
  0x42302f6e71314e7U, 0x5e1f7b8e50b81e6U, 0xe2effcecd40305f3U, 0xdbedcbf5dcfb4b0dU,
  0xd211f524080a16caU, 0x140e11d80811c60fU, 0x2624d811e1010dfdU, 0x822df19d3052a04U,
  0xef0ace0c21e9fe20U, 0x1d2428ef13ecffU, 0x10fd11f0e7140dc2U, 0xda1e2805e1f40bfbU,
  0xe02bef11e0f008d2U, 0xf3052c06e93bd1efU, 0x905f2d40fe927e7U, 0xe3f52decfd01faefU,
  0xef44beca09da10e2U, 0xf6cc33b8ef35d0f8U, 0x504f9cbeefc2028U, 0x8dbe904d1f8fec8U,
  0xd246cf5032eb1101U, 0x13defae30bfcd81cU, 0xf605e3da00f90636U, 0x17f8ec16d8f0c4f2U,
  0xf8ebdb0619021819U, 0xb19f0fe1ad7ba0bU, 0xfafaf6d5f3e200cfU, 0xddf5f70fe4efeef0U,
  0xf5fce9e0e3121ef7U, 0x3291b020bfc1705U, 0xdbe70ee308e9efeeU, 0x1ff4f60012e8ebcaU,
  0xe600ffc8faf408ceU, 0xe0d30f9faff100fU, 0xe8150603071ff703U, 0x54212e0a30fbf5e8U,
  0xdb2df92804f124eeU, 0xc1a0c230e03d7f8U, 0xf61b02e4f1f02600U, 0xd1916250716c6ecU,
  0xe1f00af4def80602U, 0xfcfff2e0dff60cf0U, 0xe1eadaf600fef4f6U, 0x1bfa0100070ee5e2U,
  0xeef70bc32e09edfbU, 0x1015d7f31ff82f21U, 0xd05bbee1dea0711U, 0x2102dc200522b9e1U,
  0xe00308e3ff1d050fU, 0x12078df91af50326U, 0xcffbcfeb11fa0afdU, 0x19f6e21d140c9beeU,
  0xe0a8fdf3bb11170dU, 0x2604b8220e12ed1fU, 0xce0009fb0b060ef4U, 0x809e6020df2f208U,
  0xf3bef4d9c2ef0edcU, 0xe5d5dcf9e4dd01f7U, 0xd1e4e001fb00d4cfU, 0x150c00cd1d1fce0dU,
  0xe4fc15f016dbf5f6U, 0xffdfd4f4efcb28ffU, 0xd8fca7fadddcb48fU, 0x1d0b00d5190bb7cbU,
  0xc5cc23eceaf7eaf5U, 0xaeebbca07d60e0eU, 0xea208ff2e3ead2abU, 0x10f5dcf7ffb5fdc7U,
  0xb8c921edb5fe02ebU, 0x1a36b7180be00d0bU, 0xf80ea50a16f000c4U, 0x13223f1705fadde1U,
  0xdfd3f2eca60a161bU, 0xeacbb3d1e7e4e3d3U, 0xead406fad4de06a6U, 0xc90b07f4da10c004U,
  0xfff912e626d1dbe3U, 0xc1bd96dcbcaf00d4U, 0xc2b3f6e0a0b2b08fU, 0xaf0b10a6dff2b4cfU,
  0xf5ef2390f0cdc7b5U, 0xdfe6fcdee00143ebU, 0xd6facedfe0e2cee9U, 0xbf6f1e30cec16dfU,
  0xd60023a117fadbddU, 0xdd8daed11012818U, 0xa0ab401ef06f501U, 0x2acfe8ff0ed60af4U,
  0xfceafb0f14df0a0cU, 0xe5c0c4cdedf1e1ddU, 0xd2cf01d8e4ece4b7U, 0xbaf4d9d7e7f7eaefU,
  0xf5f11cd709ded7c4U, 0xc5e1d5e7b1f3b5a9U, 0xd0c407cecaeeb8d8U, 0x8befe3b4e7f1ca06U,
  0xf8d30b810691d096U, 0xf2f6f8c4db0d25e2U, 0x29f3c9f0cafe0d17U, 0xe3cbcef1100e010bU,
  0xfc1bf6c92ffc03f4U, 0xfdff00fe080e2a15U, 0x2200e6f4f502fd07U, 0x6fb0704f4050c06U,
  0xe4111c582c0f112bU, 0x10f1d92608e23815U, 0x240910d60116f00fU, 0x1005f7e9ceef06e5U,
  0xda0dfb1ec2f4faf3U, 0xeec90f08f7f7b9d5U, 0xfb173df1caf2f8edU, 0xebfdd6b3c1b45605U,
  0xd7410930f2eff681U, 0xf6d674c8e8fe9fbeU, 0x1f0a3cef10231701U, 0x102ec20f86ed6016U,
  0xe54bb44966d6fcf2U, 0x9cc22f6090aacf4U, 0x110ad8cce91de83bU, 0x9010009ec0cf0f1U,
  0xfefbcd2f3ea71e04U, 0xf4dd0c22faf6a4e7U, 0x2f51de6eb06e3e3U, 0x83f24e1c7ced9d8U,
  0xe316cc04d0d900b1U, 0xdfc54a16c81816c2U, 0x18fc0ecac2f106ffU, 0xe6200edfc1d7fcc7U,
  0xc56297ca0be1f1c9U, 0xf4d754fffc0ff90aU, 0xdcf70bf210f1d606U, 0x4d0bdb0ce3b3dfc9U,
  0xe625f9070bed08fcU, 0x1ff1e30716f0d7efU, 0xe707f6effe11f713U, 0x626d9fedbcdc5ebU,
  0xdffcd819fd0502faU, 0x192c0b21fef0faeeU, 0xe10f9a8c211fd06U, 0x391e2df5080af30dU,
  0xd4f9f12cffaf29f0U, 0xfb0e2233ec0307e2U, 0xebf828baede4f2f8U, 0xdf1b42f81703dcc3U,
  0xeb2bf2fde7acfadfU, 0x1b0449171c1218f4U, 0xe10502faf2dddb00U, 0x443d3be6e407edd0U,
  0xed40e7330bfc1f0aU, 0x1edcdfcf50add0dU, 0xf60c1df0f91bddeeU, 0x913e218fd0df2e6U,
  0xeecb111afcfd07faU, 0xf16cb1b20f522fbU, 0xd4eb12ea13f9fed6U, 0x101e171d04e8dfdcU,
  0x16df2704d80924d5U, 0x50a241b09ec12fcU, 0xd4ca2cc9d4c0e0b4U, 0xf62b17fee1e3d1e2U,
  0xf30c00f6d7f0f2bcU, 0xf1e8302c14213c17U, 0x1904fef6fed3d501U, 0x2a233df3f0e1f0c2U,
  0xf6420eef13f4e81aU, 0x1600b83113f2a103U, 0xf0ef2be424ffef0aU, 0x426fd082903d410U,
  0x9a3f0ff17daf502U, 0xf60c1929f00305faU, 0xfd0213edf6ea08cfU, 0x9211e0112f012dfU,
  0xf721ed00dfe8ffd7U, 0xf3001200ee0320f1U, 0xbfa16f5f1faeedfU, 0x181e1ade090a0ed6U,
  0xdb10eef708f9fbe7U, 0x10bf2def4fd0911U, 0xf7fffa021100f3f9U, 0x100dff06e817d5e9U,
  0xef0bfd01f7040114U, 0x13efdafd071ae70fU, 0xf6fce3f71604fe14U, 0x9e5f117f2f7ea0dU,
  0xfbefe5f4f9f41cfbU, 0x4181a1f0307e00aU, 0x1ffe6db05070403U, 0xef510fe2309d4e8U,
  0x8f8d0f1f4d204fbU, 0x8ff0518ecff2df9U, 0xff08ffece014fc0bU, 0xf2419ea1c11cee8U,
  0xe608cb0905ca02faU, 0xf1f90b02e4f920f4U, 0xede318f5e8d9d9bdU, 0x3212f1e611daeddfU,
  0xe00f28fbf2f8e7f2U, 0x19eedfee0be41dfdU, 0x922d50cfdf2ffd4U, 0x801fe13f9d90ed8U,
  0xef021cfcce24f607U, 0xc0ae7f309ff280bU, 0xf60ce0110c0502d3U, 0x5d8f3fd05efdd05U,
  0xfbe810f5f20ef8e8U, 0x22214260a18d3eeU, 0xf3f5fff9f414feffU, 0xf3fe1cfb0bfddaf6U,
  0xde0fef0dcf1b11fbU, 0xe01c081ae6f1edeeU, 0xead400c1d1db00b1U, 0xbe151cd0062ed2d1U,
  0xdf13f8efd8f3efd8U, 0xea0b12fbf7e82bffU, 0xf5fddaf81bf0eee0U, 0x62a36df20fef9ecU,
  0xf41b1ac609f4ddefU, 0xfdf8ddf00328e2faU, 0xecf8dfe4eb14011aU, 0xfeddeaff2322f30dU,
  0xf8e9f10f1dee0ff3U, 0xb12e70100d7d2feU, 0xf7fc0ae6dc1ad916U, 0xdf1300021023f00dU,
  0xddf1ee11e2f524fdU, 0xe410010eecd0cbe1U, 0xe9f215c5d8eff1b1U, 0x81280fd3e51b0b00U,
  0xdd1afcbdd1dd05b7U, 0xf01c130ef1f54e09U, 0x4fe0d2201e405fcU, 0x171714ff0d1b1504U,
  0x111642b72439020cU, 0x408320bf315dbd1U, 0x290ae9cae3fbf5feU, 0xe316030ff32726ffU,
  0x806f2de22e00df2U, 0x25e2f0d3f21acf1fU, 0x2530f1ccf2fe0521U, 0x1d9df0cd7e5dc05U,
  0xfcddbd1afee61649U, 0x1cdfd815280fe22dU, 0x2c0a3dd4cb02c610U, 0xcc1ff81f0cd211f8U,
  0x7dd193b02fd073dU, 0xf8d0e12dfcf623f2U, 0x2d0946c6e5d1d4c8U, 0xe5ffebb7f6fb2307U,
  0xc70425e4fd0fd108U, 0xf7ee0cc91d1bd01eU, 0xfdfa22e8ffee0af6U, 0xd0c2bf0faffd44f0U,
  0x4edf5e728011407U, 0xddecbfdf8eb0312U, 0x371722f9f40cecebU, 0xf9ddb3f5ecc01702U,
  0x18ebe9f7d80f08f8U, 0xf8da19fdf6e8fdU, 0x150e12cecb1ff8d5U, 0xdc09f600cce506d6U,
  0xd6e0e51ec5e1fa00U, 0xdb201e04c80e28cfU, 0xcacef7abdedfd805U, 0xe41319c6ced8fbb8U,
  0xc51ec1e2f3b9c5ddU, 0x2c0f0301fa0bace6U, 0x111c03e61318e213U, 0xf7def124fd1918e8U,
  0xdf118126f2be02f6U, 0x16f9dac7f6e4bf0aU, 0xeeef8ceecf7e8fbU, 0xf1d3e01cc2d9ca06U,
  0xebebcd01ddbcf7f3U, 0xeeed617f4f5c9faU, 0x5fd09a7e700fbd9U, 0xe911daf3fcdaddf0U,
  0x5c4022fc3ef0d0eU, 0xd2fe45e2ed21ef01U, 0xcff501d9edd6ed0bU, 0x19fae2fae10130f5U,
  0x42b48fc44efd7d9U, 0x80b0a04030b3905U, 0x11a49041107eb00U, 0xd0703e7f2ed33eaU,
  0x15150827c6041cf1U, 0xfcd7e7100ff32c13U, 0x1bf527eaea0bdfd4U, 0x2ed3d9daedb80b12U,
  0xdcb14f2d20cf5fcU, 0x5f1dc18ede41be7U, 0x91b2a21d22cdaadU, 0xfc12f8e1edf40e13U,
  0x303040abbfd01d2U, 0xbee63fbf7146805U, 0x1e2e230b1bfa242cU, 0x3bf1f002f6053a26U,
  0xf44e1b052c191500U, 0x11ebc600ccf5c1e2U, 0xfd4dcd7fd08cedfU, 0xe532e02e30eaed7U,
  0xc5dfa54dc6a817faU, 0xc51e3835f5e6f800U, 0xdb0425d0fcf3e2bdU, 0x3758339b03ec19bfU,
  0xe25ddeeec6cfdeeeU, 0x15aaf7e9dbca0f17U, 0xf2eef903d8e7cce2U, 0x3ed4ea0af1b0eafaU,
  0xe9fc0223f9eaf003U, 0xe5ce0dfe0fbb31ffU, 0x1d30e0d9f03d3b3U, 0xf64a21f407c708d6U,
  0x6071335e01cd90dU, 0x1ae21b07fbdcfa1bU, 0x130417f5ca1df0c3U, 0x3a33070dffeae5e2U,
  0xd634f83bb218f1edU, 0xf0ef401ef309160aU, 0x6e52bd5e9dd08e7U, 0xe35329eefff02bebU,
  0x16fe64e8126ddcfU, 0xf9adfdbccf042fe9U, 0xbfc604a9f4f204U, 0x12f0e2ced4dd12e6U,
  0xdb24f92737cdfb2bU, 0x2f08cbfa021ce006U, 0x81126f1d9fc052eU, 0xfe0cb804ab27d11eU,
  0xd2a3f92e31e32723U, 0xe025fc1edc1f2115U, 0xe8e005d504dde1e5U, 0xd81c2f010c0f0f02U,
  0xea352ae0e80ceef7U, 0xf2f62e03f824c7cdU, 0xf5f930dbf2cfd6d3U, 0x17ea02f4c10129f6U,
  0xbe2affd7fe0dcebcU, 0xbe75ce10520c1e5U, 0xd90209f31505193eU, 0x12f9f4ffc2211b00U,
  0x1fabd317aea0203U, 0x5d9d0c9e7c7a130U, 0xe00835c0e818f12aU, 0xf71d071cad0db7ecU,
  0xead70adc3cf4f23cU, 0x13400c2404d1c9e5U, 0xe0014f6e3310bfaU, 0x1130070a3219d224U,
  0xf92ba911e0e4e910U, 0xd5ee1bfe072140d5U, 0xfeea2fc1c5b8c7fbU, 0x24e9d8dd10f920e6U,
  0xce46ffc0f0ceb5baU, 0x13ed20ee0d03461cU, 0xceffe1281b0bf6eeU, 0x46e9f9fb01c3fff2U,
  0xf425183a08f8e0f3U, 0x800f1191daedf1fU, 0x86c9220fd7b319c0U, 0x8321600cfe4b9c3U,
  0xfefd2f0ab207e7bcU, 0x5fb1af3dde614f7U, 0xf9130603dc03dbebU, 0xee003b0de62309d1U,
  0xf82ce3c619dbebefU, 0xbcb2de4fbe32c05U, 0xf013c3fb000bdd09U, 0x32e5ee0ee8e112eaU,
  0xf126e2051af30604U, 0x18ad49bd20fd0a07U, 0x20feb062800c5f2U, 0x3cf30e08e6a201c6U,
  0xf813eb2bf4e01df6U, 0x29bc56041105ebf1U, 0x90046040d2dea10U, 0x381b2b0311ac2ee8U,
  0xf443ce3d05c631c5U, 0xee15ed1701d9eacbU, 0xe9dd02dff3ffcdb2U, 0xbf2c0ec20e2b08e7U,
  0xdbd6efc409f00bd6U, 0xe3ff010ff5e84300U, 0xe7d1e8e2f8bb98U, 0xfa1308c14209e7e9U,
  0xef01f8d205eadcfaU, 0xed73ffcfab84013U, 0xf9f7efdafd15b8c8U, 0x470412f924e51abdU,
  0xc1292efbca25fa0cU, 0x84e3d081ef72afcU, 0x219d8041b0eedc3U, 0x31ec280a1f9607a3U,
  0xbe27de218c390606U, 0x11faac1a06cbb6ddU, 0xe9d417d4d5fe0ebcU, 0xc0dcdee1eafd1ae2U,
  0x15b705fa09e51299U, 0xe7ccc7e4c7d4f9bbU, 0xe6c9fed1d3f0c281U, 0xca0103c9e6f8d1bcU,
  0xd2e9ed9de8d1c3a6U, 0xd7e0afebc2df0ccbU, 0xb4c7edbca4e6a09eU, 0xc02408bd0f0bb593U,
  0xa8cd28cdf5cebaceU, 0xf6ff2fe5e9d815fcU, 0xe1e0f5cf0af5eaedU, 0x370a0fe4fcc902ceU,
  0xdc1df2c1f9eaddcaU, 0xaa6e6c8f4e7d8feU, 0x501e812fdf70ccdU, 0xc6d1b8f1c6002b10U,
  0xf4e012da03e504b1U, 0xf2b1bcbcb9e0e4c2U, 0xffc6eb0ae0f8d78cU, 0xb4f2bedae6fdcde1U,
  0xd4c8f4cd07bbd4b5U, 0xc921ace59ab7c7a8U, 0xeabfe7bfc3cdd6c4U, 0x9ffcd6cdf32196c2U,
  0xc7d816b600d8d4acU, 0xf75b3146f50362ebU, 0xc4fafd0bead601efU, 0x1431330f0a58f3e0U,
  0xe72215cd0a28fcf7U, 0x306b11007e1161bU, 0xf60424180ef3151eU, 0x4efdf04352d1ef4U,
  0x17df3af40ff9ec06U, 0x5fffcc60fe4340bU, 0xafd9ce04faf8fbdeU, 0x16c9e0e6ffcbf5c6U,
  0xfce72002cbf9faf0U, 0x1a27fef008020718U, 0xd17ff2601e309e8U, 0x12bef0f21ac0f5d8U,
  0xf8e039fbf2faf5fdU, 0xf0560628fa2034d3U, 0x50f6e92104f521faU, 0x200122121c1604daU,
  0xd5fa112f02fee9e7U, 0xcadbe500e9f1ffe8U, 0xfdeb36efbaf3ccf2U, 0xc7210dbfd9bd2efdU,
  0x1e0502da0cffcfcbU, 0xbfafbfbcccf0a8b5U, 0xb7f1e9cea3f0a2cbU, 0x98ced3bdefc3e3ceU,
  0xbadc03d523cac5d2U, 0xe701e8e3fafff8d8U, 0xd302fbfbfdf2d20fU, 0xc8fde9dfd503ffefU,
  0x14ef01b32ccadedcU, 0xe913dafaee1921f4U, 0xf6e1e7090908e814U, 0x514f608ed01ee0fU,
  0x29d5ccde31c10de9U, 0xd8e221e0e225d2eaU, 0xe2fbf7d305cd12f0U, 0xe0dbece5dad016e4U,
  0xd6e813d331fde5e7U, 0x51cdcd2e4e5d1bfU, 0xf70bc2cd05f71a0aU, 0xe6d5e2fae739e0fdU,
  0xf800dde134dcee0dU, 0xfee7e8a714fdecf5U, 0x2310d5eee7f21f2aU, 0xe5f7b612d30901fbU,
  0xe5dcea02321bf806U, 0x2d101d50512f716U, 0x28fa3610ede7081aU, 0xd3230ef3b9f61a1aU,
  0x5e9d8ed0108f906U, 0xe5deddb7da081fd0U, 0xe3fddbeafbfcdb03U, 0xfdb4b4dae9eef6cdU,
  0xed03e6ca0ff2f0c8U, 0x7d4e3da1a17d3f9U, 0xfeecd8e61316090aU, 0x17e0c61cf1f1e0fdU,
  0xbbded0813af1a0bU, 0x11eb27010838a9f1U, 0x112bf3eb1e1c1719U, 0x2fbd517fee72822U,
  0xe8f8d31b37b331ffU, 0x24e209e9031d81dbU, 0x3b2547d211240a3aU, 0xdb27f00b080a2020U,
  0xeffd9031499b3207U, 0x27f6c20a2001e310U, 0xdd0fb9f2091e061dU, 0x26e1fc0ce10a9019U,
  0x1aead2e906fc360fU, 0x1116e9f0fb2bd807U, 0xeeede0f3fe16d6dfU, 0x7defa0efb0fa61dU,
  0xff8b724c1f201e3U, 0x1c0fc7d7f214e610U, 0xe9d806e2ddfefde8U, 0xdeaff60ee6e8dffaU,
  0xce0bdffe9bb00c3U, 0xce8cdf8fb15b6f5U, 0xfefdd7dbdcf4d9f1U, 0xbdcce609e810dde7U,
  0xf1d907d4efd90ce8U, 0x4dca9e81ec42a16U, 0xd3f1f3ef0efee7b8U, 0xfff8ce100ccb07cfU,
  0xf19532ffde240a09U, 0x1f2b311fde40607U, 0xf1f9c31ce3f903c6U, 0x15fad620f51de0d7U,
  0xf59fd8cfcefde4f8U, 0x26ddb9d3f8ea07f6U, 0xf6068113d40e04ffU, 0xefe3e22a05048ad1U,
  0xebc51fc2c600f417U, 0x2b0dbc032723c707U, 0xb81dd51121fa2919U, 0x824e40501e0b406U,
  0xf0b919b5c9140e0cU, 0xf00f9e8e81702e2U, 0x6f8fc01effde707U, 0xf9d10ee11e0d0ff9U,
  0xd8c60bbc4eb9f2f3U, 0x1007bded04f1060dU, 0x400cbff2d913f918U, 0xfcf8d7f01e03c022U,
  0xf2ce151e31d20137U, 0xf0e9eae6fcf4f801U, 0x71927e1fa14d7e2U, 0xcd11d611e11708fbU,
  0x1cf5c2a04ff1819U, 0x14cab0dbf4e24129U, 0x1d21f022f6f5ffeaU, 0xf5fece0e2cca73f8U,
  0xe3c871d9d20f0315U, 0x20090e01040010ecU, 0x2118e0ebfb083632U, 0x32d9e032fdefeb16U,
  0xf716edff49fefe11U, 0x29fffd0310ee100bU, 0x20f215e0ff2e1905U, 0x37f91932f42db4e8U,
  0xde22e58001f0932U, 0xeef4eb1e0fef27faU, 0x1a0830c0e6e610deU, 0x7d7fcead8f9ecccU,
  0x8fb1ffff413fbf8U, 0xf7d9fc01ecf224f9U, 0xfc011f0724040b29U, 0x1ad0bcf409d814e5U,
  0xf100d8f626f8f5f7U, 0x28f926e30bf7e41dU, 0x1e24f8eef10f03eeU, 0xc5d4ef13c5fceef3U,
  0xfbf1dbd6dcea1e0cU, 0xd1d050119e3c0feU, 0x92becf309f6f7f4U, 0xd0220f03d1f4e3ddU,
  0xedeb152fbb201700U, 0xf21f1b14effa0dfeU, 0xe3da1ed3d9d10a0dU, 0xd1521fe05ffedacU,
  0xf10b4301d00ee4f0U, 0xea02190eeb0a0401U, 0x8cefcded809e90aU, 0x80ff1f92af8e1b3U,
  0xcf241b2af7eddde7U, 0xffd6d20210e8e114U, 0x28f73db725bff913U, 0xba17def9fad21ccbU,
  0x7d13818c7fbf811U, 0xe9af9212ebb31906U, 0x16f829cf01cec8dfU, 0xfbea98d5f48112afU,
  0xc78c35f3be11defaU, 0xdfb8c71502e753d6U, 0x120635d9dff9ced2U, 0xffdfc0ede3df14c0U,
  0xc0ca13d2ff09d5f5U, 0xdbf10f0dc2edeac6U, 0xf0d3f2f3e0f9fbfdU, 0xbfeebededfafed8U,
  0xe3e8e6f326d0e0e9U, 0xf53d0042042ee006U, 0xf4e862e4e2e42fa2U, 0xdd2222ef2008fbe9U,
  0x2306b4b9dccde5aaU, 0xd40e0c10d5110aefU, 0xc7e610d2caf4e8f6U, 0xa42209cc2821d3bdU,
  0xf22ae8be358fe0dfU, 0xceddcecebcec15ccU, 0xd6d9cfe0d5efd81bU, 0xffd5dee60bf2bfcdU,
  0xdaf10dd13ebae4daU, 0xe6d7e4d0d9004702U, 0xebdff20be9e7daebU, 0x15ecf9fade10edcbU,
  0xf10424e82706d3f6U, 0xe1b2b220727d6f8U, 0xe0f4dc1ef12405c1U, 0x2b0815200507b7caU,
  0xcb16ae22f0d01fd5U, 0x1d3a2039df46f4cdU, 0x23f2e90aec3f09edU, 0xda2a450c2044af01U,
  0xc638c725080025edU, 0xfa22060aeb03ffdaU, 0xe801e9e7f712e9e8U, 0xf22a14f12844e3feU,
  0xd510f7f30ff7111cU, 0xeeecf4f2e6ecfce0U, 0xefdd06d9f2f6e5e9U, 0xffff04ed070e29feU,
  0xfc1c1de21909f60cU, 0x836dd27aad781fcU, 0xcaa625e503fed9eaU, 0xed04b91fa9f9a5d8U,
  0x12b62d0fcc05d195U, 0xa4daddb7f6ce8ee1U, 0xf9c1febbbcd908ceU, 0xacbf0e215f6c2a8U,
  0xf9b0d19c111dc1fU, 0xa9dd2d06aed2918fU, 0x1c14a88af2bef8c9U, 0xcad8ff19d1b8ccdaU,
  0xb70ed209fbf99babU, 0xe1febfaaa2c01ae6U, 0x520fbb3c0e5e0f9U, 0xe01de7bb34cd00beU,
  0xdcc4a91cd5b3b1c3U, 0xfc00d803f31901c5U, 0x1eba05cce3fba3b4U, 0xfef1d7aec39dd324U,
  0xf0ac2cb4041acd12U, 0xbc12abfb08f433eaU, 0xf12ecf33d0e401d1U, 0xfc3d2c6169c1410U,
  0xdfd6facf1be2d0d8U, 0xc60800332cefabe3U, 0x37c6ec2402eebff0U, 0xdfd31f0e0bc2f2c6U,
  0xd5220627b0b3c6baU, 0x2cbcb2ba13c0d3c4U, 0x1520ec02c8cec0c9U, 0xb91fe1cf1deddcd4U,
  0xc631ddccf026d8e9U, 0x18cdf6b021170daaU, 0xee24a50f03fcff38U, 0xf0efce9011516bdU,
  0xd33cee021decf4d0U, 0x25dcaca22d29331bU, 0x2e1805393605b7bfU, 0x35f3d2eca416da07U,
  0xc6ad1ad11ff90cbbU, 0xc7c61108dcf8d1beU, 0xe8e3caeb35f218ddU, 0x9021abe34c2e00bU,
  0xeb12f5d9fc3bef00U, 0xfbcc1ee52f091fc7U, 0x6d0cb0a06f401f5U, 0xc4d922fea9b5c83bU,
  0xe8dec5df11dceec6U, 0xf1c70cc4b30129e3U, 0xafc91102f1ef2fe0U, 0xdcd3e6f8c2dab4afU,
  0xf0f44bad2efb0e16U, 0xbb0bafcbe6bd2401U, 0xedb9e62d11ded704U, 0x19a60a08f3db0117U,
  0xcfdd1c130fbbd400U, 0x292a24ebfc0ab1ddU, 0xdac53ee6e300182aU, 0x46d1d509e0f234b9U,
  0xda0ff5c8daf5bfebU, 0xc20ec118f621b006U, 0xc7f9f0e9df1df102U, 0x2507a8d0b4a82e03U,
  0xbbc6ecb924ff08U, 0xf2c1e5d907ebf2efU, 0xe4f10dd6e5fcccfaU, 0x16110ad8f0e4e4efU,
  0xe01135e515eed4e0U, 0x1af210cefe03061cU, 0x5a3ec2423f911U, 0x1bfaf205cc1ae8e7U,
  0xd922d90038181f01U, 0xef9c2eb270ade16U, 0x417dcedf908fdffU, 0xe90ad5099be4U,
  0xf8e1c31000e73305U, 0x26ecdb1a2017ff21U, 0xe9154ce5021c0e1cU, 0x1118d62308dad8ecU,
  0xedbbc410cbe31516U, 0xb7e8cadbbbec0edfU, 0xf9dcf6e8f1e4d1c3U, 0xfb1115c500eac0dcU,
  0xcb0034ee2fdecfe8U, 0xf003f7ebfbe64e05U, 0xfd07bef609e1cbdaU, 0x3b0eefe11e01d1d2U,
  0xd7f534f0ef16ff1fU, 0x807bce403c81fffU, 0xee15c7ece9efbccaU, 0x16efcd14fdd5d6c9U,
  0xd8db04f1d80012e0U, 0x2111e34e1ede1623U, 0xb0ed30d1e0be8d1U, 0x19f43d2c1c06e8d6U,
  0xd4ebd1ebb30c1a01U, 0xd1cdc8eeddf906d8U, 0x30ce8fbe6fdb8U, 0xd4180acce7efefdbU,
  0xf9fa21c425e7aee6U, 0xd3eac601ebc634ebU, 0xe7ec10f6d1dbdfb3U, 0xd70d1ed327fadde7U,
  0xd5024ac8fcfabef1U, 0x7def3dd06e44411U, 0xf2fcbed9f9e4dad2U, 0x10ecd7e838c6dbcdU,
  0xc32340d2e11ddadfU, 0x1213da180b013513U, 0xe7ea8deb1302ebf1U, 0x43d9080d29c2f4d8U,
  0xdbe2fce5e8cd0bd0U, 0xc9b3a7cbd0fceed5U, 0xf4f419f6f1e3e3bbU, 0x84cacecde3efdaecU,
  0xfbdb04b72bd4bcc3U, 0xa8dab6c9b7efdcb8U, 0xcdd31ce7e6b2bf92U, 0x8704fdabe30fcaddU,
  0xddf31081ffb59aa7U, 0xe12704eacc0d56dbU, 0xf0e0d3dbf4bce3cfU, 0xebdfdbcf2e2611fdU,
  0xcd1a4db12a2ac7e4U, 0x80c0de70c0d5efeU, 0xdef69308f6f60108U, 0x56cffe14300e02e6U,
  0xee233d0418431f0cU, 0xf4b5c3e4f9d4daf0U, 0x41345f2cbdcd4d0U, 0x90b7cbb1fcfa3001U,
  0xfcd03db40e26dcbaU, 0xead9b6edefe501e7U, 0xefdd1207cafcd018U, 0xc1cec1f2f11afed1U,
  0xe7cc0f0702e7e1b6U, 0xbbe9cb01b2f8f9a7U, 0xf3d702bfaff6b6eeU, 0x84dc1ab3f60fb5c5U,
  0xecf8ecf117bdd5b3U, 0xe2efefc3c702390cU, 0xc6dba1ccc4e3810dU, 0xd6bce3b30315dcd8U,
  0xff00fbf936b9eaeaU, 0x1bee331fdc1c1be2U, 0xedf910cfe402eae0U, 0xf7240ce20cfdf3efU,
  0xd341b9fcf4cc06e0U, 0xe3eb1317d812ceefU, 0xd8f403b9cd0fd8feU, 0xf72a18def1f6e2eeU,
  0xc02dee07d8e102e7U, 0x4dc11c8d7dbc1cbU, 0xeec41be1c0f4e1f8U, 0xdd15e3dfcddf2ceaU,
  0xd616f3371fb0fad5U, 0x1ef708d800fd021aU, 0xafa21fed6f8f404U, 0xfd1ed80cba081ffeU,
  0xe6f8df0645e4061cU, 0xc172d3ff019e207U, 0x1dfb07c2f4f9f2e8U, 0x1a242710050ed8c8U,
  0xf037ccf2f8d72af4U, 0xfcfc3c30f211eb04U, 0x1fd927aceef5eb11U, 0xf03a3ae60708bfb6U,
  0xda459e2026e2f909U, 0xcde4400ea1fcfffU, 0xf9f017c40e14ee0cU, 0x1c1e1cf004f1d5bfU,
  0xbc39a24454d40108U, 0x1ef235e2f8fbf81dU, 0xf801fbf2061be532U, 0x1e03f21ce71c9ff4U,
  0xe210be1835ee171dU, 0x1105e703332bf51aU, 0xeb00f2deedd500efU, 0x9cec10c05c0a6bdU,
  0x1bb0bd30b040bf8U, 0x212aef2b0c062314U, 0xdf512bd0c2ce633U, 0x18340a071302c1baU,
  0xd30ce80802f81dfeU, 0x2127f10e060e3e1fU, 0xeee708df011cf123U, 0x323d1bfc4c13a9b4U,
  0xbb06d90cf6ee2604U, 0x35f6d9101e0e0414U, 0x1f160e0c070f001dU, 0x210c041bee00bed6U,
  0xdab2f326d60e1806U, 0xe0c010b0b05b2f8U, 0xec0a07ee1c0a27feU, 0xe1fb09f935170b10U,
  0x13f4e703f5ec0cf8U, 0xf5e8fdf206dcd114U, 0xf8f20de313f5efdfU, 0xcafdf7e2eee51400U,
  0x13ed29f60bfafa0bU, 0xe6c3acfde8d6df07U, 0xf5f016f8eadce6d6U, 0xd3cdb6d5e7c119dcU,
  0xd2b125c62009e5c4U, 0xcfdb1e02f6f0e4U, 0x120413fcf702eb08U, 0x6d5b0f3e1e620fdU,
  0xf2e503fd130cf0eeU, 0xec0f05320819b406U, 0x10f3fc0021f51de5U, 0x3f712063105d8eeU,
  0xcce81f2d6fe07f7U, 0x4f4fc10eafe0504U, 0xf31303e907f71509U, 0x3f8f6f63309dbeeU,
  0x1f08e00f3d10c0aU, 0xebeae502ecf91ff8U, 0xebf926eee111ec0eU, 0x202506ec1705ed00U,
  0xe411f907f2ecf015U, 0xe0e307ffdf0d18edU, 0x2f73cfffde2fbc6U, 0x1c0e00d7fee33501U,
  0xf932f9df15ebe0d2U, 0x1105f70812e5200dU, 0x409b819eef903bfU, 0x13f20a0f34dfd5e5U,
  0xe4e9ff0cb000fef3U, 0x6021f01ff0c0302U, 0xfcf4cb0d0005fbd4U, 0x13f105023d0fe10aU,
  0xf2f10117d3211202U, 0x3191428091ae2e9U, 0x8ebfb05030d0eedU, 0x132fea031fe5feU,
  0xdc0214fa2013f6f4U, 0xd4121a08e6150ce1U, 0xecd8eadcede10fefU, 0x171425e51b12c8e4U,
  0xe62807e330eff5f8U, 0xf6e001e5f2140312U, 0xc8e0ea080dfbf20fU, 0x2ee7f4ea0bf8dbf2U,
  0xe2faf4f21bf9eae3U, 0x518e4fd0916d1fcU, 0xeeebecf508170113U, 0x7f706fd1f1fe7f5U,
  0xe2e7c3fe08d410e3U, 0x1b0c140eebfadf06U, 0x7fd05dee31bda01U, 0x82336f40e2afceeU,
  0xc70bc4eaebe818e5U, 0x6fe01fbda0200d5U, 0x8e30fede30fdd02U, 0x11128e20818f4edU,
  0xb215c402efb7fed8U, 0xd61efd0bcaf2d0dfU, 0xf6080b00d8dcd1b5U, 0x930405c31505f2d0U,
  0xe91a16cc0efbe9bcU, 0x96e5efe1c4f4fca1U, 0x2df00eca9e2d1e7U, 0xa9f7089a1c30e1baU,
  0xdd2021940dd8d984U, 0xb1bf209fa116db97U, 0x3dff302bfead31eU, 0xd4d2c4b1f3f8e1deU,
  0xee1d00d331d7d7a6U, 0xfbf529c3fe2419e4U, 0xfeebdcf0ee09e81bU, 0x25f3ee19efecdef1U,
  0xf2ea151f2ff8f908U, 0xd701fff8d106e0c8U, 0x16c8099ee5f7eae7U, 0x81a8fac3d1fcc7dbU,
  0xf0f409f406fffce0U, 0xcfeec507d2f1c0e4U, 0xe8ddc9a2d90ac100U, 0xa7d7dae30df292e0U,
  0xfef6f1d1fde0e6d8U, 0x1d4f1edb9150ccbU, 0x2c8e3d2d111c6fcU, 0xace3f3ef110cc4cfU,
  0xf1090a121ae804f7U, 0xfed9e7d4fb081de9U, 0x4cff921f702deffU, 0x37d0fb08ff06e1f0U,
  0xca07e21611dbf8eaU, 0xfd17b811eeedb5fcU, 0x13e6eedfe905e926U, 0xe2c0fe0d293bbbffU,
  0x809fbf312e4fecdU, 0x2b1bd025d504d8d4U, 0x1920e1c7eb37d50bU, 0xfcef20e51215bff4U,
  0xe2ebde1314bd0adcU, 0x719f826d21fefe7U, 0x11370ba2f810ce25U, 0xb43627fe034bc8d2U,
  0xd3f5db0515b93014U, 0xfb0f2afef5f00eefU, 0x1ad80802e5feeb04U, 0xe72b320e180cdeacU,
  0xcf19072900e2fb2dU, 0x3518d4f50a03af00U, 0x4707adbd143afe30U, 0x6c1f93cec49ad09U,
  0xd6edd51c32d2471eU, 0x550fa41e0bf8c419U, 0x6619d3a01e4bfb16U, 0x1ee7133c433dc6f8U,
  0xd6d7924d30cd3e4fU, 0x3809f758011ae03fU, 0x402c3ec31036fc30U, 0xd26652194d4bbce7U,
  0xe3f1b54de4f54237U, 0x1af5280ddbe42300U, 0x3022adccd16cbd9U, 0xcc4210f2f620d0adU,
  0xab11ed28cbea021aU, 0xefcfd2517fd0909U, 0xfe130a10f81b00edU, 0xf4181a01170e04f2U,
  0x50eec15f4f222f7U, 0x160105230bf7ede8U, 0xfcf922eeee20ee0cU, 0xe41513fc0d1a01f9U,
  0xf31ed4ecffd903f9U, 0xfa060d23e3f121d6U, 0xf0424d3e815e3fdU, 0x6361d02030c08fcU,
  0xec34e816f1c20ef8U, 0xdbf62e21ea042cccU, 0xf4fb2cc10107efe7U, 0x42a22dd0efbe9f2U,
  0xf035f2f115b7e700U, 0xfbdff6f215f3f409U, 0xeb1905ec100df5f7U, 0x25e615cbb0f9f6U,
  0xf9fefbfaaff517f1U, 0xf8ecef1c050cebf3U, 0x100ff8f6030509c7U, 0xd50d0f0adcbcfcecU,
  0xe4070b0faefcf203U, 0xe9000c0af00de6f3U, 0xf2f8fdf303f20ad6U, 0xe316ffefd3d6efe7U,
  0xf127fd16e905e0f0U, 0xdc140f21f004e8f2U, 0x7df07e606010ce6U, 0xde0203efe6faf2eaU,
  0xf420f7f510f4ebefU, 0xf7ecca02f6d10a12U, 0x180e23c705cbe9fbU, 0xd7f5cb02b58d11d7U,
  0xddd130efd30eebf4U, 0xeeb3b9d5e9d02506U, 0xcf60edcdcadbed4U, 0xc0d7afe7bf82ecd0U,
  0xb5bc33c5e51cdae5U, 0xe0cdf8eb07eb1eecU, 0x12eb1cf2e6b2ecc9U, 0xe5e8c4e8ccca0becU,
  0xe1f418d91b0cc7fdU, 0xdad0ecebf5ef03e3U, 0xe8e4fcf4f4df12c8U, 0xeec2d815e1f7f701U,
  0x1f41ddd0d01f4faU, 0xd6e0d8fee5befbefU, 0x14e11fbad4e5cac0U, 0xa0edebcc161a14dfU,
  0xc8db17ae0af1d5e3U, 0xd1a8d4c8d7d81ac8U, 0xdacd03c8b7d6b5c6U, 0xbaf6cba5f1f1f8bbU,
  0xdbe1098e19f0bee2U, 0xcc81dabec5e109e3U, 0xc9e4eeedd6d4bccfU, 0xf9d6baccef020900U,
  0xe3fb1ca632f2c4c9U, 0xd685c3aae0e301daU, 0xe0f500e2d8c8ca97U, 0xe5b7cdced9eb0203U,
  0xace36b117efd6ceU, 0xd4dd1203ba43fbeeU, 0x17032d9acdcfe4dbU, 0x30f82fcd3c1804a1U,
  0xddfcbcf4eda5e592U, 0xd1c33d0198133dc8U, 0xdc11c8c1f4029de5U, 0x26faf8c7ec16a3a2U,
  0xa92ef723f0b111b3U, 0x23d9dfe4e30355edU, 0x1b01efcff52de211U, 0x2cf2ebd63ae7d0b3U,
  0xe41c262d20fa2220U, 0x1fe8d501dacf2ff0U, 0xd0fae5d9eb17c4c8U, 0x34f507f61129fbc7U,
  0xd2e2e4ffe7aff7beU, 0x141ae909f2e49210U, 0xfafc49b7f121f6d1U, 0x380efd03fd15cbeeU,
  0xba04b063face312cU, 0xea212326e8127c12U, 0x46f22ffbf900ead8U, 0xe4129b3f2ea16c9U,
  0xd121edf09504ebbeU, 0xf5f109f3c9dff7e4U, 0x50a3e12fd13f7dbU, 0x3e32e7d2ebf22e00U,
  0xf932cc26fefa0ae7U, 0xf415c8dee51a340eU, 0x12ebcf0cf5dde0e9U, 0x3ad2c3200d16e3daU,
  0xf813e925f432dc07U, 0x23310318230cfa1bU, 0xfacfe5f2df0e0bceU, 0x80205041123cebbU,
  0xc11510fdd54effddU, 0xfd542215fe281f09U, 0xe2c2eddbdff8f0b5U, 0xdb1739002a18cba8U,
  0xc53df9e1d406e6f0U, 0xcc373b3fd4f324c9U, 0x12c8feafcde403f7U, 0xb1631e2ff3fc5ccU,
  0xea2f0a420cd4e5faU, 0xfec208bee6121a1aU, 0xbbcf91e701f1e909U, 0x1ad7f70d200281a6U,
  0xc91b23eefaf3f5e5U, 0x4641c2fe09c8fb15U, 0xe026f198d476bb3eU, 0xe3fc3620786de92dU,
  0xcdac7d8cda84fc1U, 0x2024d907d6c3b808U, 0xa291aa7c11fdc08U, 0x413020f0910c3f0U,
  0xb0efbaf5d3b22adeU, 0x3022a26c70307ecU, 0xf0fc2bca0624de1eU, 0x31444efb3912eaeaU,
  0xb71cc92a08a4fee8U, 0x11fb3018b901edecU, 0x16f524e5eb07c9dfU, 0x1817480c2c14d9d5U,
  0xa7710be423bbe6e7U, 0xd0f3f6ffcce6dfdaU, 0xf7d223ded4d7c2dfU, 0xce02eebe0217b0d2U,
  0xd9fe11f113c0d1cbU, 0xeaf0d1e4dcf8ccecU, 0xe5d7bfb9ebf9c7e7U, 0xeae3dee20500c6ccU,
  0xd7caedc927c1f9dcU, 0xf109ed11d30bd1ddU, 0x2170bcbfef4da08U, 0xe32528ffff0b00baU,
  0xdddae9ed1ec5ee01U, 0x3f308f8def708f4U, 0xd14ecdbe9ecdafbU, 0x181df6fcfb09e7c5U,
  0xd0f7ea252ae4f227U, 0xca92ddbfd607aaf9U, 0xcdb644e5b9d1dbe1U, 0xd1cdb7acdb913306U,
  0xd73543fcfd13cbc3U, 0x5c3eeaeeafdd703U, 0x22d6d7efd120e818U, 0x2c581fae8d8181eU,
  0x320e1ec28be18edU, 0x27e601e601080412U, 0x14ef0e02dc13fc1aU, 0x302fafbceecfc06U,
  0xdae4c33516e70b28U, 0x200c2f21091e02feU, 0x1af539e00d1b1601U, 0xdf2f2713d7eb0eeaU,
  0x410f82ef8f611ecU, 0xd1d143dbc52cc0ceU, 0x32c510bacedef152U, 0xe4d8f6efaa1bedd6U,
  0xe55efed44ccdc0dcU, 0x15d919b7fdf7d111U, 0xeeeeaed80104fe2dU, 0x18c09d1effefb2c9U,
  0xdd17cc0c39e40228U, 0x1ce1dc07eff8e40fU, 0xd8f81cf206f10c2cU, 0x43cf302d30dbddaU,
  0xe9ecf6fcfa12170bU, 0xfbfb17060de9e60fU, 0xf20d1e07d905ffffU, 0xfe22eafbe80bf8e1U,
  0xe41ed70aee170a0bU, 0xe4dd23deee082de8U, 0xfd0c16d5fddbe7eaU, 0x24ff00fbeb02ddddU,
  0xdd1e36f515fbe8f1U, 0x2f10e3ae08f00b1eU, 0xc80d98f11618f0f2U, 0x54c1bb3429eebbfeU,
  0xe8f0d80c19081807U, 0x1d2b0d270e17d4f6U, 0xe7093ae8ed1eeaf8U, 0xf73323161921da00U,
  0x30313f5e3200ed3U, 0xc190f150704f005U, 0x9f71ce5ea09e309U, 0x318e410ee09dff2U,
  0xf426ebfef2eb18deU, 0xf2c8ebdddf04fddbU, 0xf9e0e1fdd302fd12U, 0xc5fbf1f7ec0507f1U,
  0xf10be8db02f2ffefU, 0xfad7f4f5e5fb0aeaU, 0xf7dad3e8eae2eae8U, 0xe50409f209f6e2e8U,
  0xe00001ecf80803e7U, 0x12feecdc09fa3218U, 0x7f2aaf51cea02fbU, 0x19e9d6050f11e3f1U,
  0xcb0616f5f61cfdf6U, 0x2003d3f41d2a4622U, 0xc32adf2e8e9f005U, 0x120dfa0729e516d7U,
  0xdccf25fdd8181b0cU, 0xfbe50a01bd05ddc5U, 0xdbe8fafcee12daf2U, 0xd219ffedec0a1100U,
  0xf903eddf07c0f5a1U, 0xf7e0f3f6b8fbead1U, 0xdfdaf1f4e0ebaadeU, 0xf10707f007eed6f3U,
  0xdcfefdee08b7f9aeU, 0xe4c6cad9e1b93404U, 0xc8c7e9e6b6df9a92U, 0xd3ede7a516ecd3d1U,
  0xcce504cceb0600e0U, 0xf9ab05fd05f23bf8U, 0xa04cee8f6edd6f5U, 0x30bebf10dd232c9U,
  0xbc1d10e3ee43e7efU, 0x6e704fa0307f2f1U, 0xfbd90aff05ff09e8U, 0xeb0207fbd708fce1U,
  0xf7fc03d8fcfb0febU, 0xf3ece5f8d7fff6edU, 0xf0f5f7f3fcf0e6ecU, 0xd8ff0b00d909fee1U,
  0x1105eff609f816b8U, 0xeaa9afc4a6c2e1baU, 0xe4b9eadf90cebcc5U, 0xa5eccac7bef09dbdU,
  0xf5c1fbbdfeb0f181U, 0xe6f622ddf4113ef2U, 0xfbf4ded7c7c6dbe5U, 0xd9f0fad607ef29bcU,
  0xd80d0fa11b23e9e5U, 0xf4aae3d8dbdaffeeU, 0x2000b07deebd8ddU, 0xd705feece6f2e606U,
  0xfaf9f7db171a15e5U, 0xefaddbe5c702edefU, 0xfcdb0deac3d4d5cdU, 0xc6f5f6d6def5d6d1U,
  0xf5fff4dd0feafec1U, 0xeaa9c8c9b206cfacU, 0xe19fe6d3c7e6d8daU, 0xccdbbdcaf5f7cce0U,
  0x4d4ecca0592e48dU, 0xf2021ed0e530d8ceU, 0xdf1e3bcec0cfd22U, 0xd8e9d4eb021922e7U,
  0xa0ae8c22fb40fcdU, 0xb0dadce8acedcadfU, 0xb4ecd9c3c6ddc801U, 0x8bfaf6afd510cabdU,
  0xc3f01de635c7ceb0U, 0xdfeab103c0e222f4U, 0xcda2ede2ade1a0f1U, 0xbc2241bf1aff91cbU,
  0xf5fa0bd611bde7f3U, 0xe6a3bb8901c63a20U, 0xed009ff87d381e5U, 0x2afa07dd07d2b301U,
  0xf0d219b32914ff13U, 0x1de0d50202021c02U, 0xf4ce572cdf04eb0fU, 0x28390fdccde5190eU,
  0xf5fbb6fa5acffe1aU, 0xd7d3ffe2d6fdc205U, 0xf6dc18dfddd4e3f0U, 0xbce9d9c7ece00ec9U,
  0xd2392cfc00f3e1e2U, 0xfab93fc6c91295c0U, 0x9f939d5baead2e0U, 0x13de5d5bddc49d2U,
  0xd934c8124c99f7c7U, 0x2bbdf9c8e32193f7U, 0x3b06cdccec1b1512U, 0x13fba000d3dcebd4U,
  0xb9fc921b56b1023fU, 0x8ed06120601e7fbU, 0x2e280adbe4061d2aU, 0xce46f711c40ad5ddU,
  0xf3f2fc400ae3154bU, 0xfaec28e0dc20bbf7U, 0x8f324a8df0ac624U, 0xf40dea04f91dd5a3U,
  0xbd3beffa43eafcb3U, 0xd9342ff72efafbU, 0x26221ab5e62b1a38U, 0x8201201f101b5b4U,
  0xe140d2543ff80714U, 0x7c0e5ca020bc319U, 0xef00cb6fe24d747U, 0x13f5ba2ef0f0c1b5U,
  0xd3e3bd2037e3300fU, 0x18edde15e6dcbe23U, 0x130131c8d501eaddU, 0xf22df002e7fc02cfU,
  0xebf8f703d70e16fbU, 0x9080a12fcec07e7U, 0x10f6f4c0e530f837U, 0x19f9151215eeb5a1U,
  0xbe27083a2fc41c1fU, 0x44fbdc5618f6f70eU, 0x3e804e20847db0dU, 0x58452c142e05ad9fU,
  0xa8facd34f8cb1a03U, 0x25f8ca150bf5fafbU, 0xf21b02d30a26060dU, 0xe121424eef2d2aeU,
  0xc1e30005cf1131feU, 0x2037d335f4f1e50aU, 0xfb1016ebef0e24eaU, 0xba28060becf195ceU,
  0xc201f41d8a0724d4U, 0xd1dad3f1cd011e1cU, 0xfd0804d028f9d6d4U, 0xc7dadeefeede0ce8U,
  0xf4de4ff5c21dd8deU, 0xe9c4adf3f9dbfce8U, 0x291bff03ecffd1d0U, 0xbaf7d1e9c9de21f4U,
  0xead7faeadf26f4e7U, 0xf2d2eae5cbe5e6fcU, 0x1bf3f9d60ef9cee4U, 0xe9cdd208d5cd0aecU,
  0xe1e9e9d5f3fcf4ecU, 0xebecf9d8de0ce804U, 0x4dfddf5f70aeffbU, 0xe6c7e30d02d2f9d7U,
  0x9051118dbf8d50eU, 0x20eaea13cff4e000U, 0x13112dcfc709f817U, 0xd2c1afc040cebe8U,
  0xff0bc711b1d41d25U, 0xdcd0ebffeb1855d7U, 0xfbf63ff4eae4f7d7U, 0xf9fae5a5cfca23faU,
  0xdc11d1c5b4f109e1U, 0x10d5daf2d70626f6U, 0xf53b260600efd6U, 0x1617e4d6d9d943fbU,
  0xed130b27fe0701ccU, 0xde91bdfd401fbd7U, 0xef14eaf40f13f5e5U, 0x1ae8e0f5ebfb03e2U,
  0xecfcf831eedc000cU, 0x641343e0a10d807U, 0x7e511dbe6001fe5U, 0xfb1c21021f16e8e6U,
  0x425e6ed9d2320efU, 0x11101b19c9e9c4e4U, 0xf9dbfbcbdce3feccU, 0xde032802183ea5f6U,
  0xfd17b5d8cac200fdU, 0xdb111bf9e90805f7U, 0xebd4c7a5dbe5f8e2U, 0xe32337fc111fe0cbU,
  0xfd47eaf629e9e7f6U, 0xedd717e4ecf11104U, 0xae1e1e11d03f204U, 0x2af6e9ef03f5cbacU,
  0xe413243d1a0fedf0U, 0x3e15fb0411a7dd04U, 0xe80734e0dafaddebU, 0xf28181aeb1ce411U,
  0xe915ce19c80635e8U, 0x422160afed88101U, 0xebe337d3d3d2f2ffU, 0xdb06010ce0f4ebd8U,
  0xf004dbe4c3fc0297U, 0x181434110617f8dfU, 0xcd910d1effe230aU, 0x6f81c1aff1ce402U,
  0xd114fc0c37d613d4U, 0x5f1fd17daf110f5U, 0xffe704e4eff0ecf2U, 0xf23539d8110ddbcdU,
  0xf80f19240ee1ede1U, 0xee21605b81aedccU, 0x250d9910a41310b6U, 0xb3020eb9c0e7b6efU,
  0xe717faeebe1e1bf4U, 0xfe1f1b130d070e02U, 0x28a9d1b8ffd7e1f7U, 0xbd95ab0be412ee19U,
  0xf8b5c6bfaad8b7eaU, 0x6eaa2f4e730cf0dU, 0x2127101912fd2c25U, 0xa9d2d2efe3d6e604U,
  0xfe05bb25caef270aU, 0xebfbfde1e3efe0c7U, 0x10c715e22a1120dfU, 0x3f4ccef0c14ffe1U,
  0x15ecf333cb0d32dfU, 0x8c28ff20bc430f2U, 0x1e188112d619b5fcU, 0x6b1e5b7ced2e91aU,
  0xdc0dbfd532a908f3U, 0xf42bf2e1dcf821baU, 0xe9c6e1e4c90927c0U, 0xb2b0e1bea3a59506U,
  0xf416afe4ddcbc803U, 0xe81ef502f4feedcaU, 0xf5253d352bc228feU, 0xdc17042ba99d0ce7U,
  0xf6c9cf1c9cabc5c6U, 0xcbf71416c02aae32U, 0xfe8ec0decb824c6U, 0xbacbd12525fc2002U,
  0xc5cbc9000ba0f9d7U, 0xf1cebbb0b6eb07e3U, 0xe5a30208d9b1f81aU, 0xe3bf9db2ab0e05d1U,
  0xadafd80c29cef3f2U, 0xcaf9b3c80ebf1acaU, 0xf4e734fadaf2fda0U, 0xdad9cf0611c11a15U,
  0xa3f935ea9dddf7b9U, 0xcf9d9ad9ebd4b832U, 0xfdeb192ed2acb8b4U, 0xdbd3b8cfb8d2f29cU,
  0xceb6cffe0c30f30bU, 0xc3ffa2eeef13b7f0U, 0x2e372e22ecd5eb03U, 0xdfdde4e8eaefdcf1U,
  0xc8f4b608a8f3eb0cU, 0xfff4be1eb5aa89aeU, 0x1bf0ba14c7fcf721U, 0xb1dbe92ec61aef12U,
  0xc6cee6bdd8bed520U, 0xb1daed26c9c4c1d9U, 0xccddd8c12010dfb4U, 0xa6e30be23719abdbU,
  0xcab5a28eefc4e015U, 0x1a0a1d4950838f0U, 0xeef3a60beac2aa06U, 0xd293f1b6e1ddf903U,
  0xf3e4bd0c2aa4071dU, 0xe90695e4bb15d8c7U, 0xd1d0c6e7eee1e221U, 0xcd0de01c102ebdbeU,
  0xc1bf22d1e913e9f5U, 0x1122fb2213001a23U, 0x260433130002180fU, 0x152e0b15edf508e0U,
  0xdc001518ef22fe0aU, 0xf5121a23f619ea1bU, 0x14f52afd13f1e809U, 0xb180e0c2de6f8e1U,
  0xd9050c06d303f032U, 0xe607ee24e01b28e1U, 0x7eb0cdff90208f3U, 0x8eeeb05dff41befU,
  0xeffe0cf4f60bef0dU, 0xdff8f2f3e0e7d6cdU, 0xdde5dcdef012fff9U, 0xdfe900f3e3f5c200U,
  0xf9f5e3fd06db00f1U, 0xdcb5c9e60ae13f05U, 0xffee0cb7ffb9ccfdU, 0xffd8c6cdd4cbf5b7U,
  0xbade2a14dc0bd828U, 0xf2c7d0fc020224f4U, 0x32de1cc6fe91edf6U, 0xeedab5d7caddebb7U,
  0xb1cd22c8fa1fd6e7U, 0xe7d0f6e5e91d19efU, 0xf2e1f8d90de2f1f7U, 0x17e7da08eee4ccc4U,
  0xe5060af7f4e2f722U, 0xee0ccfccf3eceeebU, 0x403f11501d806faU, 0xddebf61ce70bc004U,
  0x15e1f1ef02da06feU, 0xbf000e06b0eeeec0U, 0xc8c7ec95bcf6abb3U, 0xd8250eb32d07f4cdU,
  0xc71cf59e12a3e3a8U, 0xb4bbf3b6b6ef12aaU, 0xc2b0dbd6d1e2bee7U, 0xf7ead7aa0403d8d1U,
  0xeef9f4811adfb1eaU, 0xe8c4cfaaed0b17edU, 0xe100e606f0dffdd6U, 0x15daecfc00ffe7faU,
  0xf2f8fbdf1cd0ff03U, 0xfae7d1e0f4e01206U, 0xe3f6f926e6e9f5aeU, 0x2ebe01302f81cU,
  0xfedf17ccf3dbecf2U, 0xe01a3b1df20912e9U, 0xebd6f3c6f3e9f2baU, 0xf10d27fa3420f6daU,
  0xe61eeeb907fce7fdU, 0xb2ff15e6b2060fcdU, 0xfdd5dbf0e4bce9d3U, 0x20a03c1171af1f5U,
  0xe303f59904f3dcedU, 0xd7c0f1c3e20005f3U, 0xd0e7e103efaae3d8U, 0xffe301d4fdf7c9e9U,
  0xede903be0fe4cbf7U, 0xd8dedac1f7e8ecf9U, 0xe4eb0100e497f399U, 0xd7f6e8cef910e7e9U,
  0xe014d010eebbfdU, 0xfa03dbe8fd05cfe5U, 0xf60e09f9e626f813U, 0xe104111f14d3fe27U,
  0x1b04b8ea06ef1f0bU, 0x25ef45380c0f2aefU, 0x3d1b5dfe12e9db04U, 0x302c3bdee0cc180cU,
  0xe557cafb26e322fdU, 0xfee34ee7fa19e602U, 0xde12fbf52f1c0c0bU, 0x35f53209f2dd03e5U,
  0xf433a2260bd0151dU, 0xcc5df1a26f6e610U, 0x101630f0f71cfde0U, 0x1d41221442adfcfeU,
  0x2101d32ab5e33a0cU, 0xe22dd9ff03ebe3f9U, 0xc7c2e8f12fbf2981U, 0xf1d7f9fbddb2c8fbU,
  0xeeddf5f6f71ee39dU, 0xc63f201df6fe31d6U, 0xf7d4ede5e2a4f085U, 0x5241ec213adf8bfU,
  0xf61f1db6a60ab6deU, 0x106f4e30dc55612U, 0xf3e69bf901dfdfd0U, 0x53be07152eb2ccb7U,
  0xcb193ef8a72f011fU, 0x1842c9430a01e407U, 0x23e9f421f331bdU, 0x38d71429cbc9d2aaU,
  0xddb6bb0ca7e703f4U, 0xe2d10dd1e4e9daebU, 0xb7f0efeba444aa10U, 0x91d9f1c20244dd32U,
  0xe4380fc849d400baU, 0xd7a2b5d3d5c2f6b3U, 0xd0db1ede922ba7c0U, 0x8aedfd8dc5ffd4d9U,
  0x9edbee9900aebfa0U, 0xdab214b8c7f810cfU, 0x8ae5b8ddd4d1c0e6U, 0xf3f4e2b30317b0e2U,
  0xa60730853281e3c1U, 0x5b4d6b2fbcd6b2aU, 0xa9edad0bf9f191c9U, 0x2cc200dff4e8c30bU,
  0xe4f136b3e6c2fffbU, 0x21c18f50528e606U, 0x1ffef4ca240f1810U, 0xcc1d36122975df21U,
  0x19333e040514e721U, 0xd0000ad9e1f187ecU, 0xe3fdf3ec1eb213d5U, 0xf11116f8fb46c1e3U,
  0xdf0700ad00dcd4f1U, 0xe64fec01fb06e1f8U, 0xe9f8ca1e33f61810U, 0x109cce20f554cf10U,
  0xecee129e4ef4f3e1U, 0xd22d90d02062debU, 0xd71db1d81f073011U, 0xe8e811290230b612U,
  0xe00419f5301d1527U, 0xf30b1a16ddf6350aU, 0xf0f90ab2d901d4f0U, 0x71a08ed3116f2d4U,
  0xd72ac502e3b624c1U, 0xf5d130f1b0fa0eeeU, 0xe209f8aed21da5deU, 0x402efeb806ff0fd3U,
  0xdf2900060eb8dbd1U, 0x8f2aeb7e8da07e5U, 0xe4eb0deb0401c9f6U, 0x2fd9ae06f20fbbaaU,
  0xccd7160c2512f01aU, 0xfc228105fc07f91fU, 0xe51fb5f910e003e0U, 0x9c9c51bdd32e5efU,
  0xd0b510cac7270811U, 0xfd0b18171cf90efdU, 0x2406f5e3d1f61becU, 0x1b361e0b09fcddf4U,
  0x40ea028ede51311U, 0xfe052316cf2426ecU, 0xecdd3814e00610e1U, 0x352c13f2f2e7fef2U,
  0xc41bbe26d8d80de3U, 0xfaf80100cf1243efU, 0xf80f20ec07fdf2caU, 0x191610d624f506eeU,
  0xc84d042cf909ec07U, 0xae4e0cd03e745ffU, 0xe41ab1220a05d5e5U, 0x2ae2d7e2e8d73de2U,
  0xd6de3628f12f01dfU, 0x1319f91b14ff3f1aU, 0xbfce6d3e11107f4U, 0xe3f618f4f21306f0U,
  0xb2127db362a16e3U, 0xef2d072af51bdeeeU, 0xf7e1edb9ddfa00eeU, 0x1517270af515bcdbU,
  0xda2cbef1b60c09f1U, 0xf10e110205e6cbddU, 0xece711d6fef012c9U, 0xa6f120f30a30c1e5U,
  0xcf13f0ea03e8e9d5U, 0xe6f726d8eb1846d9U, 0xd2d682c20ef5d1eeU, 0xfce800f43a1ad793U,
  0xc43e21e216f8e0e9U, 0x1a1eeaf60d08df01U, 0xe7f601fbfd18f828U, 0xf4e9f7122d25fd29U,
  0xe711031800e42ceaU, 0x91df9f7f2de9cf5U, 0x1c0d1ef8f926eb10U, 0xfb22fa11ea15f509U,
  0xb61cf212eff10cd9U, 0xe309f810f0e5bbffU, 0xe3fd3d0d0ef8edfbU, 0xa2d8f8dfdaf3f7daU,
  0xdaeae803f2f70cbcU, 0xeeea29d6060240d6U, 0xa05c8c8f0ef0509U, 0xefe8f6fe1209f5edU,
  0xe53c09db0e0d02b9U, 0x12d6130cf6d0f307U, 0xf193b20e634eae4U, 0xd451c09f90e1443U,
  0xc0e0719f1ef0700U, 0x2e22ad90302231aU, 0xf9150c250cdedbc6U, 0xedf7facf140b1725U,
  0x1f09e9b20d0de9f3U, 0x2df3ecd311ea0628U, 0xf52b140cf300cfecU, 0xfafdc7fd0d02f145U,
  0x3fcf5bb03f41ed5U, 0x33c4f307f4dd01fbU, 0xe9082009da16e014U, 0xfdf1c00a0fef0928U,
  0xdbea10e615f902d8U, 0xc3d70914ff03f4faU, 0xece509fa15a8100fU, 0xe5ee0ecaf4ff07d7U,
  0xf9ef4f23ee17cb13U, 0xd700e9dddff8fbf5U, 0xead824ff15c11e2eU, 0xefc2f7e107cf0304U,
  0x110414c1e2ffd001U, 0xfcefbbd8f6e6f3f7U, 0xd4df230715d1e912U, 0x3c9bddccdd7f4ebU,
  0xeedd36d7cf19e5e4U, 0xffe1ceffe4d22df2U, 0x270727dde9f40bb5U, 0xf1e8f7c8e2de06e9U,
  0xd9d937f6a202d3faU, 0xe41dd016e1b1bcc0U, 0xeb2631b8c736f2dcU, 0xc9f4010825331248U,
  0x11cf81ccf189060dU, 0xfceecad6f2dadcd0U, 0xd00de1cf1149d609U, 0xd7da12f74e1fe632U,
  0x17c8b0e6ed8df119U, 0xfaeec216e7dad1f1U, 0xeb06d8d0f31615e9U, 0xe20d1b0202180409U,
  0xfd9a3dfebd7e0fdU, 0xf2f8baf9dfd0a9daU, 0xe8f304d9ef27fed0U, 0xcb0319e62014fcf2U,
  0xebd7cdd700a9cdbeU, 0x52300ec11390c0cU, 0x3223041640b14fb6U, 0xadfffbe7dcaa30e9U,
  0x16e931e7c049ceccU, 0xf020abf4f7f8f908U, 0x1ad5d60029a02725U, 0xfcdcef0704d6d716U,
  0xe1dd4113ca46ca03U, 0xf512effd1726ff09U, 0xfffcce529d3301fU, 0xf50107fa05fddfe5U,
  0xf2ea37ecce29d408U, 0xcc0be2e6ea15ade2U, 0xd2c6ddf72bec14d7U, 0xc7c2f4fc00f9e0e6U,
  0xc3e40901c204d9f7U, 0xe0def5b3ea0c2cfbU, 0xee1dcd8e4efd5eeU, 0x28f1d5d512f6e5c4U,
  0xde17180b23f7fa06U, 0x220ec0f7210e1417U, 0xe00281ec3fe4dae6U, 0x2ee0f11426ecf8f4U,
  0xd4b509e905e632e1U, 0x1b05a51f16ee0328U, 0x2301d6fe0e02e4e6U, 0x1c2939ee5028cff5U,
  0xe894fc25d1db15f7U, 0x20e2d10d010bf133U, 0x1a300bfbf5ffd6cdU, 0xed0f16e8270a3afdU,
  0xead2f312a2f706f6U, 0xcfecef0cdfe803e5U, 0xdeda16e1f2f30bceU, 0xd22802eaeafef3e5U,
  0xf1190ff40affdbe9U, 0xece5e3e5f7cd510cU, 0x3203f8ebe802e2f2U, 0x19e4f3fd18d1d2d7U,
  0xe31c5011de3c090aU, 0x230b16140d022af6U, 0x1c12e7081c0decd7U, 0x350c2d1a0db8facfU,
  0xda200241fc260bcfU, 0xef1e151bf9f7ffe9U, 0x1ce7c4f21712fae4U, 0x1ef02c163efcbeeeU,
  0xe3f98b2ee6b2fde2U, 0xdaccbde7d0e6d2e3U, 0xeefd14e3eceafae3U, 0x96e706d6e60fe3fbU,
  0x9eb18de28cbe5e7U, 0x9c9b91e2b6d1f8d8U, 0xbebdfbbdc4bda4a4U, 0xbddfccaaeaddbdbeU,
  0xbdbd04c4f1b9b9bcU, 0xf5bf00c9e3ec5e0aU, 0xecd0d4ffd411bcecU, 0x23fbcefc409ffacaU,
  0xf8fd24c3de23dd1aU, 0x2306eaec1fe43e15U, 0xdee5e101e4fff3d8U, 0x43e3f3f91c8f05eaU,
  0xebf31008d11e1505U, 0xc9d094cfdee5dfd3U, 0x2db2ce9dbdcf5c9U, 0xa7cddeebc616bed2U,
  0xe4bf21e815d0c3baU, 0xbd0bdce6c422a694U, 0xe909ffedfde6c4f1U, 0xcdddd4cfd409fdfdU,
  0xdde61d9e28e5d19bU, 0xe824ffe0ca24acadU, 0x312f0eb0b112647U, 0xf1c3d4ffd73fecd8U,
  0xa9e8f2e05ae6f3ecU, 0x81be6eb120131e8U, 0xebedcdee19faf020U, 0xfdcbe513e02a01f8U,
  0xf1de0c1434031415U, 0xfedcbf0617e21cfdU, 0x131f260ff5200ed9U, 0xfae7fb11fb08011aU,
  0xdcc0014bef70702U, 0x5f7f9fdf901c606U, 0x5f1251119ef1cd4U, 0x3ecfedec7d433edU,
  0xf2e4e025e604f8d8U, 0xd50b16d5fc0ec9f7U, 0xf5f2f30523f6f2d4U, 0xe8ecfbf7eff5f8d5U,
  0x91cd1dbc9dbe0c2U, 0xeef2eed5f9ee140fU, 0xda01b2fa0016f4f2U, 0xefbe40dfee81512U,
  0xf0e7e7c8decbf3cdU, 0x21ee2cfd1501a304U, 0xf1ed0806212cf413U, 0x45eaf71addfdf8f4U,
  0x2349ac2c03cd01f7U, 0x10421e004f0e12aU, 0xea0109ea1ff7f0d0U, 0xd5d3dee5ffd7efecU,
  0x2a6381eaa5c2eb01U, 0x16f6f2b8070cc523U, 0xc9f2c60802f80cd2U, 0xcbbcb3e9c8d519ecU,
  0x2139ef294cd03e6U, 0x181bd4ae0d10d823U, 0x5fd9b18fffa07f8U, 0xd7c2b025aad9e7faU,
  0xfbd5061199190607U, 0x1cfdd431131279e7U, 0xebe4cd2203160910U, 0x25b9faf10ae6c3ddU,
  0x70df740dc1505ecU, 0x1f35fe2f0531d9deU, 0xf607e00d132116edU, 0xe9f20e1d13b8e5U,
  0xf8ce9f1bd2eb0ab2U, 0xfb1eee01fe27fefeU, 0xf3edcaec18251eedU, 0xd6f7151f3c2bb2dbU,
  0xf4f4b601fde6180eU, 0x1510d80afd120511U, 0xf8e5f4d6e505d916U, 0xd82104021e07ce01U,
  0xeedc2b0a001a2a01U, 0x1eddf5fc09021905U, 0x70e8be8f913f1eaU, 0xfe20bffedeaecfaU,
  0xf7eefbe910e82229U, 0x2ffde10f1710e41fU, 0xdf18d1030110da02U, 0xfff20c1c1e11ece3U,
  0xfae6fc18090a262fU, 0x301efe38170c210fU, 0xe2107fefe1901efU, 0xf11219052b16deebU,
  0xeff9f722c80f3929U, 0x21170f3c12150c1dU, 0x210b1202df30e6d4U, 0xec441d060408fdf4U,
  0xe6edd80bebf52710U, 0xd4030304f208e4ddU, 0xdf623ef08fff4faU, 0xec2318eb0df3fbe0U,
  0xdf18f7ea1de8cae8U, 0xd7dc13ede2181b01U, 0x1ee1f2e4c1f5fd3fU, 0xfbd0f1e70215e3efU,
  0x14e7cc2bf9e9feU, 0xdf6b8d1f9042824U, 0xf8dae303c4051e56U, 0x19f7dd0d0d0c81e3U,
  0xf501edc41925fa2aU, 0x150ab4d90a3bf503U, 0xdaf4d507ea0b373cU, 0xcd8b42615f19defU,
  0xf5f1f3c8022cf801U, 0xf6e9f5f7d3070ed0U, 0xf3e7ebd3f206f30cU, 0x180600e1fbe9e9dfU,
  0xfc06fddcff07e6caU, 0xfde1edefe50402deU, 0x1ffc9b3e315e10cU, 0xf6defb0bfa0fd4daU,
  0xf5edfee512ccf3d7U, 0xff5b7d8f1f9d1f4U, 0xff03a6bdea00ef1cU, 0xcbd6f3fc0410a9c5U,
  0xb3b2deff16eafdcdU, 0x101eb3d6fff1e9f3U, 0x2d28aaf3f412ee19U, 0xdfc5d829d82fc9baU,
  0xc4c8bfe8f90d0706U, 0xfff70d18f20a3ee1U, 0xa05e8fbf901ed1bU, 0xee506170f08f5f5U,
  0xf0121d1b18ee14f8U, 0x19f6feeaf502220cU, 0x2308f6d91104e423U, 0x250e1b2aebe7cdc5U,
  0xf2ffef1b21fd082aU, 0x17d9bcec0710d215U, 0x29f6e1ceff0af01cU, 0xaf0e716efe6cbadU,
  0xcfd21a25020d2219U, 0x26dce50318f8ed11U, 0xc261de80b09fc17U, 0xf6d8d00717db01dbU,
  0xe4ec1115f7130a05U, 0x1d01f3f10226230bU, 0x3c23c9f0061df528U, 0x5ed11111a0ce5e0U,
  0xf61d0c2834fa111aU, 0x2416202f1b172223U, 0x1208fddc1e2ff312U, 0x10352202241d0de0U,
  0xeb200531fef51a1eU, 0x1310e4fcf8d70d09U, 0x1f0fefe9ecfbdeeaU, 0xf2e3e40613f5b8c6U,
  0xb3e40c0bf5ed0ef0U, 0xf80915fbf80e571dU, 0x1d0d10d30e0616f2U, 0x1809010244f3eebaU,
  0xd33e1024f71d1318U, 0x220b00e8150b0814U, 0xfbf5d8fdebfb1e01U, 0x4cbe8f703ec1af4U,
  0xfefaf0dff608fb15U, 0x1f08fdf2261c0320U, 0xfb1bcffc0a1a0f09U, 0xf0ecda02efe1ffeeU,
  0xefeecd13f8f70f10U, 0xce2c6f1170ec302U, 0xd60cf6f81bfe05e7U, 0xeadcd523e6f3f7f8U,
  0xf3d507f9f4191e06U, 0x19fcbff9faffc815U, 0x819fafdfbf711f4U, 0xaff7e20be8e7dbe0U,
  0xdbdc19cce00f24ebU, 0x1e01f6df0c0ddc0aU, 0x1b21f0c513030520U, 0xe0c4bff4e7fafde6U,
  0xffd6f00df3eb20ffU, 0x13f3ebe710ff001dU, 0x19f60edb1be5fc12U, 0xe5f9bb06c9bde2acU,
  0xcaa31e4c87060030U, 0xe9e1cbdef3d91121U, 0xfa0c11cf00d2daefU, 0xead1c5f7d88108caU,
  0xe9cd4d00a4f0f9fcU, 0xf6f1c4f8f0c30c21U, 0xf5f237f5d7afbcb2U, 0xd0f6e0f9e2b6ec04U,
  0xebc137bdea0de7b7U, 0xfcf2c70719e6f11dU, 0x1bf542d1180ef5ffU, 0xe112f8f1e9e538e9U,
  0x11e4324a07f8212eU, 0x8ecb0f6f6b1fb10U, 0xeddf3ae3e4e5ced8U, 0xdff8ccc214ea19b7U,
  0xd1bc2600e905f409U, 0xd1d8e604cef004e5U, 0xeed33edab5dea6f0U, 0xbbe6dfb6fb0efeafU,
  0xc70225b221eec6c6U, 0xc5f0e1e1d1f816bcU, 0xfedd2202ccd3b20aU, 0xdc04f3b012070b05U,
  0xf9fd26b136dcd0ddU, 0xf61a0f2d0a1f061aU, 0xf0ea17e4ff11fbf5U, 0xf8f80806d2f120feU,
  0xf4101a17ee0b04d2U, 0xe3130820ec2201e2U, 0xf2da0cdeeefaf624U, 0x9f212d080225ddd2U,
  0xc41de1f7dfe8f3dcU, 0xd2fb18ecc122e9c4U, 0xded112dbe7d0021bU, 0xc1fe0ff10516e3edU,
  0xdf200cb313e6f5c5U, 0xde0df1efb70808b3U, 0xe9d6fbd9f6c7f811U, 0xcefe0cddf713c4f9U,
  0xd2270edc26ecd4deU, 0xec0b0816fefd0df5U, 0x8031cfcf0eaee01U, 0xe42d10d9fc07fde8U,
  0x323e2f729e703f7U, 0xfb0a14f3eef6190aU, 0xfaf6fffb21e7e5f8U, 0x2c1601f70214eae5U,
  0xfc03fdbc23110704U, 0x1310c5e506f5042eU, 0xedfccefe0ee8f400U, 0x1defd509dc18b3e2U,
  0xd2d2faefd7000d1fU, 0x260ec02c2012f416U, 0xe709f1020d0ef80dU, 0x141cee162ff1e308U,
  0xf1baecd4c6fa2d0dU, 0xeef7ff1ef6f6dbfcU, 0xe002eae3f6fb06d1U, 0xd31309eb04f7e3d2U,
  0xecfaf001ebf5f6d4U, 0xf70ce8f6f4dd2af3U, 0xecd9f7faf2e8f1cfU, 0xc1103d32af4d2e9U,
  0xcde625dc03f3eef4U, 0x1108d0df03b6111bU, 0xc8f3aae5f5e4b5b2U, 0x1a1310d624fdefbbU,
  0xc6c934e9c1e90bebU, 0x1b2bc12112d41516U, 0x1359bff0ff90dd5U, 0x53a28131ef70cd8U,
  0xeae5ffeea80e1403U, 0x12fb040df018f8f7U, 0xfbf500e5ff2af525U, 0xf00d04051421e7e6U,
  0xc605ec0626da1f09U, 0xe80e050fd7dbd3e7U, 0xeef709f8dc2cdeaeU, 0x810d21cb0132c6d2U,
  0xc217f8ddf2e209d2U, 0xdcf2ef0bcfd936d5U, 0xdfdff4d4d0c7b3b7U, 0xe10e05c30bf4d9a6U,
  0xc20b2897eaf1c8c4U, 0x3faf2f1030f5624U, 0xdaf885111af3e6edU, 0x22f5fc0433e40d05U,
  0x80504eb18030202U, 0x81928112127eb1fU, 0xf9fa0ef00c11171eU, 0x131d0f2b2026e6e8U,
  0xf0160b1ee6220d27U, 0xfc121613f60daa03U, 0xeff71bdd05e816d9U, 0x88050af70612e1e3U,
  0xe0100cfbdffffbeeU, 0xbdfecafac8ebf3c7U, 0x7c5fcb4c1e3c6cbU, 0xaefdddb8e610c9f1U,
  0xdfd7128720c7c1bdU, 0x2fc0fc5fc1236f5U, 0x2f7b115dcf0fd0dU, 0x3e9da0cf8030115U,
  0xdd3437e03b1c0110U, 0xdad9d5ddb3b6bec1U, 0xcac8efccfacdd9a9U, 0xe7e304f3e11708d6U,
  0xf4d1acecbfd8c8e3U, 0xe6365e3c3334530cU, 0x38273bf231e9202cU, 0xa43935d703ea571fU,
  0xf3501c3f8be13ee8U, 0x50af1ffe4c925d3U, 0xdedbf4e516e61109U, 0xf4fffff4ec0dcad7U,
  0xf6dff2ececffd002U, 0xcfe3ca0311d1ded3U, 0x2c2d9c3f4f1d5e5U, 0xf1e1d8f108edc5bbU,
  0xc4eb16f5dce9ead5U, 0xbd30d8fdbac5acdfU, 0xdddecef9e008dba5U, 0xe52403f1d614eeccU,
  0xcca1aefb2ed8fbb9U, 0xbb0f00d8e2d2fdc3U, 0xc7cff3b003c0d9c8U, 0xbff6f2ffe1e2fed4U,
  0xd0c9c5fadcfcc9fcU, 0xec06d012e6e805d5U, 0xf2e3b80df7c6f3f0U, 0x11efee3e6f693efU,
  0x7dfe2e4beebe907U, 0xf6d24ce718301c08U, 0xeee6dcdf1a070c24U, 0xb0013e8e9e61fdeU,
  0x5362001e107f2fdU, 0xec06f602cefcede7U, 0xd0dff004e6d8e6d2U, 0x15dff9d3b3d8d3f8U,
  0xc2e4d3ebfff40fd1U, 0xe9200afae41d0bcbU, 0xe8ffe9cc1707fdf5U, 0xbae5feeb0f18d2c0U,
  0x10e3d91ee417e6dcU, 0xebe8c6e8f5dbddfdU, 0xf204fd09e608dda5U, 0xe9122900e62bbfd7U,
  0xbe0213ebf7ceeee9U, 0xf0f636d9dbdf0dd5U, 0x4727e311f5ebd805U, 0xc80cd11507e73ed0U,
  0xf7434dd5e91c0518U, 0x12f8f6dfe9d835d8U, 0xb4d3cae6e90ec810U, 0x2fecead7160bc6f6U,
  0xbdeff91a29c0f9d0U, 0xdad5d8f8c80714ebU, 0xe6d9f6fad4ff03d5U, 0xcddaf2c4da21cfe1U,
  0xb6dc10f713fcdc0fU, 0xfd0fe3d3e1fbdbbfU, 0xd9c522e4c9ecb3c9U, 0xa2123aefdd1bc9d3U,
  0xd2cf0aaab6b1fae3U, 0xbb0f4decc22ac3b1U, 0xdecaf3b8f7ce07efU, 0xffc0cfedbadc42e3U,
  0xd814c78123b9dfbfU, 0x2105fb01f2f3efe2U, 0xeae6ede8f709250cU, 0x2fc1519172af4f8U,
  0xf2e3f01d033b2bffU, 0xc00d2f9edebc4efU, 0xee25b6d3020b27f4U, 0xccc7f7f32a2ced0dU,
  0xdbc2cae81c071be3U, 0x141be20d13e2d912U, 0x1806ddf3f31b19d5U, 0xa5fc17102d0ec90cU,
  0xf2f8f7152f182c13U, 0x9eacf0919dd080fU, 0xbe71ee0d110d6ccU, 0xeff2fae94bdff307U,
  0xfcf809131ae6f003U, 0x141ea4ce1ad8b917U, 0xf105f9d6f7e1ede8U, 0xebb4bcf2c1e8dee1U,
  0xd79fc2d3defaf015U, 0xe6a4b5aa16c5b826U, 0x13eeecdcc208d238U, 0xbbda9116ffb409efU,
  0x4a5e2e5e106ef0aU, 0x4baafff0dfaec1eU, 0xfe0f1eebfc10d91aU, 0xe1d7d2e98ebe1e08U,
  0xe7c6f5e5c304e7f6U, 0xf3f3d713070abaceU, 0x51c31cee80cd2dbU, 0xdfe6f4faccd6e8daU,
  0xa2edc1f9eefee981U, 0x251711211910cafeU, 0xaff1ce614100440U, 0xeed0e15ed0cd9eaU,
  0x5ece0284ebc2316U, 0x16fcd8fcfaeaae0eU, 0x381409d7160bfd11U, 0xf7020708db0aeff2U,
  0xbdcde0eef2e8fa2dU, 0xfce6e4d2f4f51d15U, 0x8dae4a5eed41400U, 0xe2ffe70b11f2b9b4U,
  0xda034342c105fcfbU, 0xd1d6c4cedf0745faU, 0xfe6dca618bfd8f8U, 0x12d5b4e5f9dcdaafU,
  0xc4064f0a030eb717U, 0xf606e93413fafb3aU, 0xf4e439f60a14e70eU, 0x28e314edecfbdeccU,
  0xd51d493a22182c17U, 0xf6e2210bfcebfd17U, 0x1f22afc01fdc9b3U, 0x1df8ead23fd20fd6U,
  0xd5054608dc0f0fe1U, 0xe7c5e31ce3f44ff2U, 0x25ef4f06de18a0b0U, 0x15260bb100e9ecedU,
  0xe70b29e50d0ae4cbU, 0xdfe32fe8d1f267e0U, 0xf5034ceed418cf07U, 0x1feefcd60ee10a00U,
  0xd33521d940e8efb3U, 0xbb06f606c100e6cfU, 0xd0eef0dad7e0e7f8U, 0xbc2511d0ef08e107U,
  0x382bc817cfceabU, 0xae04f4e5990ad7a8U, 0xeeebe8c3cae6cdf4U, 0xaeeb15cbfb0db9d6U,
  0x10a0ad422bad298U, 0xc0e3f6e5baed12aeU, 0xd2e5d3d6b0fcbaeeU, 0xc6e20eb0f602bfcdU,
  0xcb050bcf1381c4bcU, 0xe7dbf0deec1b2ff4U, 0xcbe3b0e3e1fbaa03U, 0xfdf504eaeff2f704U,
  0xe5ff00e434d606f6U, 0xfdeddd06ede00d09U, 0xe6ea00d7e601f906U, 0xdadfea041806defaU,
  0x21d2110fb1a09f0U, 0xd5f5e60ad5c9b0f8U, 0xd3c824c2e2fffbefU, 0x9ffb1ad604f6f1e0U,
  0xe30d17feea13fcdeU, 0xfbeb44dcdbf3dad1U, 0xef031713efe4eddbU, 0x215f5f2dbec1407U,
  0xd918d4da1ce1e2beU, 0x5da21dc1615d7ecU, 0x260fea0c09f3fe1cU, 0x261a031701110cf9U,
  0xfb12d653458ef505U, 0x80ac003f4fef4f8U, 0xf5e9e2e70c1b0e02U, 0xbe8eef20a12b6eeU,
  0x13e6f60d070a11ebU, 0xf928ed23d50bb0caU, 0xf9f1eeb6f82ade0eU, 0xcf0606fa0432a9e2U,
  0xfd13b10107c010cfU, 0xa0e0f2ae11624f6U, 0x3042be1cc17f932U, 0x8383b071b02dbdbU,
  0xde2fd91b2bfb1717U, 0x1aef090afd02f3feU, 0x61717eae801f30aU, 0xd2e1b09ceefb9d3U,
  0xee2ac91714fd1817U, 0x30f6daff19fcd114U, 0x1300d4faf6230627U, 0xeeaf81c2124d7f4U,
  0xf9c9df1e2d111815U, 0x3014fded1001fc15U, 0xf6fdd3f4f207051fU, 0x1a16f90ff41cc3d1U,
  0xebe5e11a0cf42f14U, 0x3420f736ff020119U, 0xf40400d4f82b0810U, 0x363b472a0913acd0U,
  0xcff1d131ffc232f3U, 0x19000f3e0411de10U, 0x1efd1dd001150efbU, 0xfc513b0e2800d6e9U,
  0xe1f0f81ce8da3221U, 0xe3c2c6cdd0f9f4daU, 0xc1bcd9dee1fee003U, 0xefb9e4eeedf5b2dbU,
  0xf1f010c708b8efadU, 0xf5fbd8dfccfefbe2U, 0xeae8effdc1fef7ecU, 0xcdeae8f4e80cc50dU,
  0x10dcf2c503abebb3U, 0xb60ae1f6a3f1c8deU, 0xdcb4dfbca9feaebfU, 0xb0c6fec00015aae8U,
  0xf4d7f0e0e498d3b1U, 0xcebc4cc4d7fa15d0U, 0xbec3c6e7a9c2cff9U, 0xeaf20cace918f6e1U,
  0xf70ef8e516dce4a1U, 0x3abeaa2243e3e32U, 0x6f5e7cef1e8293fU, 0x1fb4bf0effc2dcdeU,
  0xbf231d18eb5af533U, 0xf5c1d2deea04ef10U, 0xcfb91fa4c5ea05e4U, 0xc6c4d1e907d6e4d6U,
  0xc2272f01c831e2cdU, 0x1e33cdbb51098b0U, 0xc2e925c3ddd2e4e0U, 0xd9fffbb0eaf021d3U,
  0xa060f504faeaee81U, 0x91414e3df1dd2e3U, 0x12e9ebf5de06051aU, 0x1a0bd80dc3f12a0cU,
  0xe314c2f83cab1201U, 0xfde4ebd0c4e4e501U, 0xe7dbc1ece5dad3f4U, 0xec0c3ece8fed1c7U,
  0xeaf00bcb12f8eda3U, 0xf3e8f0d5c7238ac7U, 0xe3c8f0cad325d334U, 0xecc1c6f606fcd4c4U,
  0xc7d0e2f02da8edacU, 0x14005427da2ad8deU, 0xdfef1beeeff034dU, 0xf53b2af20b12fbf4U,
  0xe52ef13d54e01be2U, 0x39d42af9f923fc22U, 0xff0602e5d907ef25U, 0x1481efcf625cfcfU,
  0xfeffc20c21df2b14U, 0x4cbd0ecd70d01dcU, 0xe1e4bee2e406d9ffU, 0x38d9bef9f9e5c8d2U,
  0xc1e1fcda3ccb0bd1U, 0x1fef06e10c0f12fdU, 0x14e5a8ea0b03f621U, 0x2bb9f417051ab5afU,
  0xadddfa0a2dda0607U, 0x3415133afd050621U, 0x112508d00020e539U, 0x4340181b2a1ac2beU,
  0xe4fab621201c18f7U, 0x312a2018f929f4fdU, 0x23f30ebcff1a0613U, 0xd503f2f3623cfebU,
  0xe10ae72cfde03d03U, 0xfe0924230af4dbfaU, 0xf1209edf33fece7U, 0x24373a21fd18ca06U,
  0xdc1bca25f7b81316U, 0xba0a3a29de1519c9U, 0x18eb10d309e7f6f6U, 0xd93539d2080ff2c2U,
  0xf859f2da0ce001d3U, 0xac006d0f40a11efU, 0xefd7af06ebfbf611U, 0x1ee3e803f1dbc404U,
  0xda1adcc9fadbf8f5U, 0xaf60f020d04d20fU, 0xe316c5fc1117eff0U, 0x2f4b80d000fd8eaU,
  0xe9fde70ff10d1200U, 0xe6f4f11f26fedffdU, 0xffd815e4fdae17daU, 0x23e8ceecc981f9e3U,
  0xe7002701c439e1f0U, 0xd8ecf410daffbadcU, 0xcfdfbd5ffc2e6cbU, 0xcffdf8e58e9ffeb2U,
  0xbae9f4bed30bebb6U, 0xdbd4f4daecf50207U, 0xdee0dbf7eaddec05U, 0xbdbccf6f9e4eb01U,
  0x3f4f9f4f2d9e10aU, 0x17c2e9f5efee0c0bU, 0xa13f5f2e311c6e6U, 0x25f4d10713d000e8U,
  0xe20d150d0cff0e05U, 0x1f01f3fec5c99ee1U, 0xdefb089fd043e3daU, 0xdcfff4f10c1ff90cU,
  0xac1599e0d6860bd5U, 0xefdfc5ceb48dcbc7U, 0xdcf3f0dae417c2bdU, 0x8af6d800fc31c8e0U,
  0xabb4cfbdec9d07e3U, 0xf0ecfcdbf8f21aebU, 0xe7e9c8cceadaedeeU, 0x6ffe6e1041de7d4U,
  0xd2071ee122fbdaf5U, 0xee05090ee400040bU, 0xf1ecece900f9cacfU, 0xef0d25eaf0ebe9c7U,
  0xf8111e0d0806dff9U, 0x7291c12064ce905U, 0x310618073bf1280fU, 0xd3effbf71528f1eaU,
  0xf4083debb36ef1f1U, 0xf7eff80cf114c6f9U, 0x9fe333d0df1f2d1U, 0xa61904e9c1dcbffbU,
  0xff120b07f500f5d4U, 0x1018ffdff0f7fdeeU, 0xc30cefe8e90a11e7U, 0xd608ffd8e2ff000aU,
  0xeff30bec05f4e8d0U, 0xb1d0006d613e8e2U, 0xf80218c7f5f1e210U, 0xdc2d05f5051004faU,
  0xe5fb28e61cf9e1e7U, 0xee6d1f2f1d21a01U, 0xdef4e2eaf8efc2ceU, 0x2b07ede104e1d0ebU,
  0xe4c20834e302e509U, 0x418dde817e40a0bU, 0x816ba180b11ebe4U, 0x1ee0ed1407f5d2eaU,
  0xd40412e9ea05fcU, 0x2125bf0717eff7fdU, 0xd050ef0180516f6U, 0x82a1b26ff0ddb01U,
  0xffccd10fe903250eU, 0x2070616fa12db08U, 0xfaf82afc11061201U, 0xf41e020e03f902f6U,
  0x1110ebf9fe0b240aU, 0xfbfdddf703f5eff5U, 0xf6f1d0e6fbfe0009U, 0x23e7fbfef302ccf2U,
  0xe5de20de1e1bdaf9U, 0x14f2a102f8d9f90bU, 0xd7e3a7fc16f3c0e4U, 0x2c0e90ee5bbcbfcU,
  0xf3b8dcefdaeafbeaU, 0x1f09ba4204c7f113U, 0xe2f7d9f9fe03e1b4U, 0xf828270c0bd3f1dcU,
  0xe2e2d00f95d011eaU, 0x120d023bf309f119U, 0x2507e10b1408f5dbU, 0xf41e1eeefaf2dbffU,
  0xe4f7c41594cc11e3U, 0xd4eeedd6f1ee4ce9U, 0xe90cfce4f4c4e8d4U, 0x200d02caead9d8e8U,
  0xe80b2eb70f21bff5U, 0x11dcb9c1f4dc3811U, 0xf0ef8aeffed0e0e1U, 0x4cf0e812f0babbd9U,
  0xd3e71ff9da410afeU, 0x2f9dd141d0eff00U, 0xf9fdcae719ffe9d2U, 0x2a4544f508cbaae8U,
  0xfe0a01fbc8171edeU, 0x2301fb3218051ff2U, 0xe2e4bc07171b09ecU, 0x271d16ff0ad3b505U,
  0xf5ea9d20b1c523eaU, 0xc8c0aae3eae00fc8U, 0xbbd110dcd5d5c9d1U, 0xb4f7efd1e8f2d4f0U,
  0xf6f031911fd9bfc9U, 0xce9cd5cdf7c84d04U, 0xbce1ebebd7b2ae9dU, 0x3e0cbb50fcdc8d3U,
  0xf9fc4bb7f1f6c5e6U, 0xca3e3ee00db4b17U, 0xede4e3f2bbf5beceU, 0x33f3c4d6d58cdfa4U,
  0xc50364edf32cf1daU, 0x29ebf3111dfb30f8U, 0xebeaa02df90208eeU, 0x4ef6de27ef81e5eaU,
  0xf90fef02dffc180dU, 0xe7f4c0f1fef31c00U, 0xe063bf212f0fad8U, 0xbd6bdccf49f19f8U,
  0x5d91dfce612e9bfU, 0xec19fe2aeef65e05U, 0x350f47ea0b1ce700U, 0xf23fbe301c811daU,
  0xecf23627fd0a0d20U, 0xe8babdf4f90609ebU, 0x15d825ced90bc705U, 0x3493b8de24dfd4abU,
  0xcbd70a210be913e1U, 0xaff1f29f2f41708U, 0xfe0b15d0e40c9800U, 0x33f2ed1fb24f6f4U,
  0xc7111b13dbd103deU, 0xe6f8351b0719c51bU, 0xf80fe4be0efcef0aU, 0x42a21d6233303feU,
  0xf1281141bc407f8U, 0xeb071c0dd4f7e9d8U, 0x20071bb7e304cbecU, 0x254a21ec260bdbcdU,
  0xd339a4f208bf0d12U, 0xf0e62ee6cdfaebdaU, 0x21ef0fb9f301db02U, 0x290001ea1e13ddadU,
  0xb924b42822b3fb03U, 0xde042617f92f20e8U, 0x2e04e9d30a03efd9U, 0x44a010f1e19d0aaU,
  0xa418ef13cc0f0113U, 0x9f903ea00fd020dU, 0x1d0ff2e001e003e3U, 0xffbdc0aedeb11b7U,
  0xf3020108e02f041eU, 0xf1041c180e15f10eU, 0xfb011dea07f0f506U, 0x211f1209f6e9f8adU,
  0xdb24ff24a9020915U, 0x5e324f4d9f608fdU, 0x2e311d0ea02f70fU, 0x2b08ff10fdf8f1aaU,
  0xe03add2aec060104U, 0xec2d2535fa10240dU, 0x34211bbacf1adbf0U, 0xdf4300e9f0f502cdU,
  0xa3340146e7c7f90eU, 0xf6ff0f14d4f0e600U, 0x1f114bae514f7f2U, 0xfe1320022b0decdcU,
  0xbc19a4f6eca504d1U, 0xd09130ef90e27fdU, 0x9ff2aea0218eaf0U, 0x2e132a050e23c9caU,
  0xac20b718c88ff4d2U, 0xe6e51bf7d4dad2e1U, 0xeae52cded3faf908U, 0x4cdd06e8f4de06ceU,
  0xad1fc21b1491f9c4U, 0xfd1b4036c62af2e4U, 0x5ef08daf213b2faU, 0xed420ecffb0adabaU,
  0xc9450527d1bcecc4U, 0x1af6c012311f1b2eU, 0xecd4d61700f441eaU, 0x30c8f81625d02bedU,
  0xf1b60128f14503fdU, 0x1433da20ed0cdce8U, 0xddfbd0e61cf82deaU, 0xc1ebc70a0f21f241U,
  0xf8869eead7d001cdU, 0x1715ea14e523fdd9U, 0x2fdd7f208f8f6e6U, 0x98fbf0250039cc04U,
  0xf1eecf190fd82808U, 0x29e7c40907df3a2aU, 0x1c1e0d06d708e206U, 0xfe17c8370f113ef7U,
  0x1af516491c38054fU, 0x17dbcfcde9caf203U, 0xed0ac102f40cd9dcU, 0xa94ac0a0d2319fdU,
  0xd9e5c103ff1a25daU, 0x14c6bfcb38ceb432U, 0x2414c703f0ebebeeU, 0x1ec6c713d2baea1dU,
  0x1a99cf2d8ed2310U, 0xff0eef1d25dbf405U, 0x2014f2f6c72bf4c4U, 0xcaf5e313b0d61a10U,
  0x9c3e6169f1d0f04U, 0x904ce3ee1e6cf11U, 0x2f0d0ef4f4f2ef18U, 0xf315d40bc8cedc08U,
  0xf4a898f825d61204U, 0xf404e222210b0205U, 0xfdfe11f506341849U, 0xf8e1eb34d329f9d3U,
  0xf0f0df14fee71123U, 0x8f1bf0614f3b711U, 0xf025f0d332120c1aU, 0xfacbcf00e4c6ced5U,
  0xf7abc93ed9cf2519U, 0x713ec0bf0e7e1e1U, 0xd1cfafe115f021deU, 0xad0c0df736d897f8U,
  0xf5f6d61b81c4f9c7U, 0x14408fae5f25209U, 0xdf0cf81612f71b01U, 0x2d423f1a21fec441U,
  0xfc099a0cf2bc08cdU, 0x1fb350721fa1715U, 0x150919d8f8eaf4eaU, 0xffe208142ac6feefU,
  0xe10d1d39f5091edbU, 0x2debba0116ec1915U, 0xe2e2060c1ee1bc9fU, 0x614ef8e157c6ffb9U,
  0xe0d7de2afb2df1deU, 0x1fe8d4182deea90bU, 0x1e000735d5f0f5ceU, 0xfa1bdcef0ea9c0d8U,
  0xf7c00c17e3f511ccU, 0x10f63d430805f40cU, 0xf812dd19d027f409U, 0xfa1d0eed3bcfd83bU,
  0x1f07b4f82ac704dcU, 0xf6f92f23f4f313e6U, 0x1b0d17e8021111edU, 0xdb2e3609d60314deU,
  0xdc46d148a3f717d8U, 0xfffd2df50a1939eeU, 0xe617e924fc08e5e3U, 0x25dd000a1f0afd21U,
  0x2eec0ffed4ef12U, 0x200f12f11020ff0aU, 0xed1be6fb140a0200U, 0x1ee9fa00090bf510U,
  0xfcfe05100efd23edU, 0x1718fe3e0edf0d14U, 0xf0c0de8c900cee5U, 0xed2f2ae0f624e6d1U,
  0xcef30f11e4ef06fdU, 0x9070c2223f2c901U, 0x7ff21a307e411cbU, 0xde334a0ad0eff2edU,
  0xe334ed18a40704eeU, 0xece4ffc3f242d2e1U, 0xd4daa2b4f00018e0U, 0xbcc80f1ff5dfc2baU,
  0xd003b304b8e7e6e0U, 0xfdc11fe4ecf5ddfaU, 0xf3ccbed7e0e20813U, 0xe6fdd1ebcdd215eeU,
  0xe519e8fbebb0e5f2U, 0x1f0fbe903fc8101U, 0xebec0302c40bd825U, 0xf330bfe2ccd808edU,
  0xebf414083dbc0117U, 0x221df11a1afae914U, 0x1d0844f4ecf611edU, 0xc60c0e09e5ec0e0aU,
  0xeb051d99d828faf1U, 0x7daa5b507e4ad06U, 0xbcd9e0d6e3ffe7f4U, 0xd0a697e9f3dfcdf8U,
  0xeda6f318fbf1fdcbU, 0xf6e45ff90732b8ffU, 0x12070cd42ffe1715U, 0xb1afbf4db14431cU,
  0xcf2ece0f2fd80aecU, 0x18f917fd0cfbdbf3U, 0xe6113ef002190f09U, 0xeefd0c1ef327dcefU,
  0x90d01eb42f60511U, 0xf5fb18fe0fe92b11U, 0xf192ed406e40e02U, 0xa20cfde3c9fc42d9U,
  0xf32b4b9fdb41e70cU, 0xeef4cea403ef00dfU, 0xfb10cce6eff0fc10U, 0xf4a69507dfe8c5d6U,
  0xc6df0e1908f9d716U, 0x17fc4e0d15213c16U, 0xf81719000de10715U, 0xf7220f0ce7e114e2U,
  0xdf3af316f6080601U, 0x7e30bd808f30313U, 0xd8f70d10f6e2220eU, 0x3206e912c9e9dbe9U,
  0xe6ff0c1ece21ff16U, 0xebd7fee9e6d806f2U, 0xe7edf9e3e4dfc1d1U, 0x30de07ddfddfb7abU,
  0xd612f715fce207f3U, 0xe3034228d026ed03U, 0x6d725e1c7e8f6e4U, 0x150627dc14e40dd8U,
  0xde0dbb3304c4f9e0U, 0xf7013aefd611ebf7U, 0xfaf1fdefe0f5c70fU, 0xe80ff8e2faebedb7U,
  0xc10fedf5cabd00dcU, 0xe9d8fbf6ec0f0ae1U, 0xc202f3cec502e50fU, 0x19c9c8ed1fdef4feU,
  0x5eb09fe19ebeedcU, 0x1bda1bc90b0f0befU, 0xdceff9fae009dcfbU, 0x20cbd00bb8ccc0e5U,
  0xd91ce60910eb07f0U, 0x25fa08290b0ff510U, 0xdff211fae60dfc09U, 0x13392a12e918c5ddU,
  0xeb0daa4cf3bd0e0dU, 0xf0252a13f0180e15U, 0xdd1039cbee00fcbbU, 0xf33036e8edf310d9U,
  0xd02be8c8bdeadcceU, 0xe8d8d7d3dbf00bf2U, 0x26ecde0fe7000f12U, 0x2ed3dcef26ebe915U,
  0x17192b4208edf219U, 0xe2a5e9bee5f937e3U, 0xc6fddff4eae3da18U, 0xec7ca08cfb3c6daU,
  0xc40ce2111cf3dfe9U, 0x1aef1d31e4e629f5U, 0xd0535ecd820fadaU, 0x4f2a10fdfaca06d2U,
  0xf10ae05b2bf9f8e8U, 0xe8132c3c04032be4U, 0x2ff73ae4f7e8ebfdU, 0xe74d3fdce6f118ddU,
  0xec53020cc9f616d6U, 0xdefed3dfcaebf7c4U, 0xc9f6e7f2e7deebe4U, 0x11d5c0f9d8e5cfffU,
  0xe8e4fd0201dad4eaU, 0xe88122abe61417ecU, 0xf3cea8cdceb2b2fdU, 0x22c9b4f5c7bbdeb5U,
  0xa7231deb49fdeeffU, 0x12ef1712e61645ffU, 0x14060ae1e61fb522U, 0x3f120aff12dad9bfU,
  0xe11a024626fde2faU, 0xd52d512df20a26faU, 0x16eb4decd4aee9e9U, 0xd32719f2cedbf39eU,
  0xcc4f2fd6e91fecd0U, 0xc8dfdbc2c406e4f1U, 0xd2ceea01f2e5e3c9U, 0x10c1b7d5edeeaee6U,
  0xeed8150909f4dbecU, 0xddffffffb7U, 0x13200000059U, 0xa100000073U,
  0xffffffd90000005fU, 0x8f000000e5U, 0xffffffe1ffffffc2U, 0xffffff7e0000006aU,
  0x3800000009U, 0xfffffd8500000073U, 0xffffffe6000000a7U, 0x7a0000006bU,
  0x12a0000014cU, 0x29000000f3U, 0xffffffcb00000054U, 0x205000000a9U,
  0xffffff75ffffffe5U, 0xfffffe2600000058U, 0xffffffd100000039U, 0x7b00000155U,
  0xa500000070U, 0x1ab0000005cU, 0xc6ffffff1aU, 0x94fffffdc7U,
  0xe1000000cdU, 0x73fffffe54U, 0xffffffa5fffffe9cU, 0x3a000000e2U,
  0x1f00000025U, 0x19affffffb7U, 0x6f000000acU, 0xfffffe21ffffffdaU,
  0x940000001fU, 0xe7f80ef4faddeae0U, 0x7e5140eec17f5f9U, 0xf9f9ec37ea0bf624U,
  0x105ffaf191fd117U, 0x1e76e15dd21fd34U, 0x26e2b1081cf32df4U, 0xefe005ed2bfbf7e9U,
  0xe7e004f626ea2b0aU, 0xff222e0806dfe6f9U, 0xf31e1af8effce9f0U, 0xdeaf4f6e5f60ce6U,
  0xfa0803e1010bee27U, 0x14f64d251416ea22U, 0x1f0c01000dff10e9U, 0xf20b2ced65090607U,
  0x6d3040c120a3311U, 0x130511d6e1e1d71dU, 0xeee2ea02e3fcfc0aU, 0xf6c920fd0cbb02f6U,
  0x130cdf03f917f404U, 0x8e81e1a14220708U, 0x1c05f6f918f629d6U, 0xbed24dd4bfbfee9U,
  0x1bff1e0e1c2ef2efU, 0xe80813e8d8d4e420U, 0x4f7d7eab9d7e00fU, 0xb8d4ec3d01be0aeaU,
  0xe21ae2ee1fd937U, 0xfde73d00d42503f5U, 0x16e9e9fefeec49d6U, 0x7d42ff66df7cd1cU,
  0xc8c0e30c0ef3a6b0U, 0xef0120e4edb9e7f1U, 0x28fce3e6cbd0dd00U, 0xd7bdf7fbeddefcedU,
  0x1de7e8f3f20bb613U, 0x30021415c913f3e7U, 0x1ce8e9f720ed32c0U, 0xd4f827e1fce504fcU,
  0xdfdb050204df9ebcU, 0x21f5020d0cfbda2cU, 0xfd1acce5df12e6ebU, 0xed0b1a0f08c50006U,
  0xce8180a102bca10U, 0xfcf2faf9e12100e0U, 0x3f9cdfefacff6d7U, 0x28df210527f8f223U,
  0xd613ffedfd25b0c9U, 0x20d31e8f906ed04U, 0x1dc60a09f6fbea1bU, 0x1ab8fbfe04010a18U,
  0x90eef2cfe17e511U, 0x1905ddfd081303feU, 0x17260df628f9d31cU, 0xce204f103ecfae2U,
  0xefffe51d1003d5e0U, 0x3b03e8f0f9f3ec27U, 0xe414f9ea0e0ff208U, 0xfe121021201ffed8U,
  0xea2d200d06fff7f0U, 0x11f919fb0dc400f3U, 0x103feef4e90a0af7U, 0x170d05fb0ffce6ffU,
  0x705ff0d060f02ceU, 0xf3f6e7b7f6f0e911U, 0x1b0a0fefab0ee5ffU, 0xeb09fcdd52e6f3e3U,
  0xdea1002eb1ab40bU, 0x3be71cf5e72708e4U, 0x32f0f3fa0ce215f3U, 0x2d12ac301053ab1U,
  0x2adcf1ee3701fcfaU, 0x1c15e3d2e7efc8f0U, 0xf9f20627cb08f6dfU, 0xf208f00427c801ceU,
  0xfa07f9e2c2fae718U, 0x2300e914ea2df3baU, 0x1b19b4104bf20107U, 0xf9fcfddb1e0b22c2U,
  0x2ccfe81e25efd4d4U, 0xeb06d8c2c4ebc8f0U, 0x2df1fa1ec9fb06e3U, 0xdef151f107f10dd6U,
  0xe7f4f7f8d41af442U, 0x21eee4e0e8080a09U, 0x23ecd4fde0d1340bU, 0xef72dd0ea0340c5U,
  0x31d3f414ff0ce2cdU, 0xe8e5b6bee300e3e9U, 0x1bd0db28d4faefefU, 0xf7f625e2eefdfaacU,
  0x15f60bd2e90ce326U, 0xfbccd716d9d9fae3U, 0xdfeb0a2de21ccbU, 0x35342cc7fbe66bcbU,
  0xcb11e72239caedfcU, 0xecfdc0d10afbf2efU, 0xf2bce71b00e7d40cU, 0xccfcedeecd39faeeU,
  0x7fa0cbf1e1efffcU, 0xf7ebf511f9e7fcd2U, 0xef9bffbd9d3260fU, 0xf2141001c90e4dddU,
  0xfee6cef216cfc2fcU, 0xd90f18e1f513edf5U, 0x21fa392ed3d9f80fU, 0xb5081105faebfa06U,
  0xfdfa0a071708d5fcU, 0xfef00bf1fd160711U, 0x3fccffff8c702f0U, 0xfef527f802d642f9U,
  0xe5f51bc107eeeafcU, 0x201b1b06190aef00U, 0x1def2320bfc5c11fU, 0xd0cc1d01e7d4f909U,
  0xfdf4e7f5132cde15U, 0xefc3006061ee21dU, 0xeefee06fdb40726U, 0xeff14133f1012eaU,
  0x5f028f7fb08ef1bU, 0xffedf6e4f41ff004U, 0xfa15370f29f40f23U, 0x3ec01f9f6fffb0eU,
  0xe50bf003f8fdf4c4U, 0x1afe15080523f332U, 0x12c6d9020645e210U, 0x1803f1f747f805eeU,
  0xece10b060a1b250fU, 0xc18fe08f9fbcd26U, 0xdbea29efe01516f2U, 0xe83512fcf0e70af6U,
  0xff070d23dd14f625U, 0x6f6dc0204d00b19U, 0x2706fafb361f48c8U, 0x25e02bea1a081ff4U,
  0x3304cf01070de7dbU, 0x16dcdefceabebd37U, 0x47d6e306ef1a01feU, 0xa1b0121edd602ddU,
  0x1c420719d6f4fe27U, 0xeefaebc6f90f0c08U, 0xf0e6fcfb04fc15ceU, 0xb0325041c092af0U,
  0xf623d6f2f20b03e1U, 0x20ef1217eb301811U, 0xe5e7e8033f0eedU, 0x52e64419d1e6f7eaU,
  0xc35bd27e3d40013U, 0xce05b0d70b2100eeU, 0xede5f4f4c50c00f8U, 0x23e8f0d91f070610U,
  0x310cdf2316fde1d6U, 0xe010f3e4f458f51eU, 0xef2ce402e2fe2bf3U, 0x21e4201ef2be02adU,
  0x17fb081de8d5f9e7U, 0xf0efd2efdcf5fcf8U, 0x3dcf500fc16fff8U, 0xede8efd906d72adbU,
  0xfcfbff040107f2e6U, 0x1aebbce8db3b12ffU, 0xce1dc6e7e6e22319U, 0xae80c0bdde7fad2U,
  0xdf0411eb1a0b23ffU, 0xba3be1ffdefdf106U, 0xe5fde7111a300beeU, 0x1b0b12003002e507U,
  0xa173a1e0511c301U, 0xe2091b00f003057fU, 0xfbfbefd9cb0b0ddbU, 0x1f1e30e8fbf0fef0U,
  0xec0de51a3ef9f806U, 0xf32502ef01e9fc43U, 0x1c0bdcf6102f4400U, 0x17f80cf2f4dfeef3U,
  0x4021ffc090cd1e7U, 0x24eb1cd41101093bU, 0x8f0f325f0eefb06U, 0x29f13e03efff0606U,
  0xe3ecf8ec16fc063dU, 0x8eceeee35220b12U, 0xfc23cff9201302dbU, 0x10c250919ee3febU,
  0x2202003a1af7e601U, 0x4bdb0707e2fffb39U, 0x52844f3fd120dcfU, 0x3ff0a00f405f4cdU,
  0xee0afd0dd1042aefU, 0x22efe3fb200aef14U, 0x70d05001d1df919U, 0xa70e12e911f000edU,
  0xf812ff06face17f6U, 0x41bd20fe8f6f302U, 0xdbfb1fef12fa160bU, 0x20fb201813fcfed9U,
  0xedf9e322f90305cbU, 0x12ff19f223dff317U, 0xf0f2fc0e144d1112U, 0x911c8ea0d31e618U,
  0xde50f31d2fa0a14U, 0x1af5c9ebfff1e719U, 0xe015feedfafa0fU, 0x805fff91df708e7U,
  0xfb09150fedfdf102U, 0x2a01f2e721fc07eeU, 0x1601050be5f41202U, 0xfff60edd17e40ef3U,
  0x31af409f5350510U, 0x2ee1d20cdcfff010U, 0x3ed1efe0cfc1deaU, 0x42a09f2e8f9f1fcU,
  0xede50410eede3a0bU, 0xef7f1f4f9010fefU, 0xbb0ef10af0121d1dU, 0x6f0eaeefdfb25fdU,
  0x24f2ec27fbe101fcU, 0xffeaf605ee1ed40cU, 0x8eb1f1cdd0602ffU, 0x2e2a20f91108edU,
  0x3e207f402ed1417U, 0x111ee13f0eefdf6U, 0xeb2a12f8f8e741caU, 0x9e81cf608e637f8U,
  0x1ae0fcea070c01d2U, 0x2317f933f42d09f3U, 0x400af72daed904f3U, 0xed2f2c13eefff210U,
  0x17054cbe21241034U, 0x131edbf7064fef08U, 0x2651eafb0def4a0bU, 0x21171511c2fb4406U,
  0x22ee1016191711f4U, 0x14f9141af00c0705U, 0xf9190a0ef0d5f3eaU, 0xf0c07e1f1f5f5fbU,
  0x27fd222e1d06264eU, 0xd2b080f0116f30dU, 0x3c1af3e91bfa0c1aU, 0xf0fc170eb3f441f4U,
  0x9f5ff1314e2f3e9U, 0x70debff1f0af70aU, 0x5d9fe0ed3d501feU, 0xccf1d91aeff520U,
  0xd2dc000643fe2de5U, 0xecfed0d4de1d12efU, 0xeaef04fde4060fU, 0xf2eae71301dc06f0U,
  0x291f1e4829eddeb6U, 0x1afff717f0290c03U, 0xebf3f6ccd3f3f8e8U, 0xd409f9d6ccda02ffU,
  0xeefaf4fe0ff4f8e5U, 0x38f8a3e1e0f5e519U, 0x14e7ff0ee5c7f81eU, 0x12efdafaf7dee0ffU,
  0x6c2270ebefce895U, 0x722261233271f02U, 0x1109fbf0f2df3a1aU, 0x1173b2f3f0a0d00U,
  0x370ce235d11803e6U, 0x1141252c150ffc19U, 0x1ae520fe09092425U, 0x401fe1f2241b0412U,
  0x30e8effbf2203103U, 0x1110e4f6e613f213U, 0x212e24f0f9e30c39U, 0x352ae90a1acbf5e6U,
  0x28012ff3f504fc13U, 0x22fa06d7fc0705e8U, 0x2df3040228032116U, 0x1fef160448070de4U,
  0xd90916f2ee09101eU, 0x36fddbe8e6311133U, 0x110bf30bf4e7ec21U, 0x8ea0f1f16dfff0eU,
  0xf4e8fee407d80f0dU, 0x1a14bcb7f4171022U, 0xee131e00de0d23f9U, 0xfdea0a1d20efed01U,
  0xeeb140117ebf0ebU, 0xfe1cf02cc90f031aU, 0xfdf8f60f062317f1U, 0x7dffbf3151007f3U,
  0xf710073007dff32dU, 0xeb39c4ebee2a09fcU, 0xd80b24fee5f21ce1U, 0xff0f9001dd32926U,
  0x2f14e506213effeaU, 0x1efde90fd920f2f5U, 0x2dcce313e81b31eeU, 0x13f912e9f2d6f3e7U,
  0xda111418b8ffd621U, 0xfcddfb031404c1U, 0xff1150209f33826U, 0x1309fbf3eeeb2a05U,
  0x280ce94d1b18faf5U, 0x1005e1e1cc2105e6U, 0xee2205f1e1fd06e9U, 0x9f40d10c4ce0ce0U,
  0xd90ffc58e61b1517U, 0xf7e2d504dff70a16U, 0x2f6e4e711fdfeefU, 0x4d8f8eefad008f8U,
  0x1b07e53e1b0cf1c7U, 0x4e2d411c70bfdf3U, 0x1e19effeed1cf6ceU, 0xf6fdfa05d8f8f2efU,
  0xddf1fb0a21ff21e6U, 0xe410c304f20af802U, 0xe2d00ceadfe8eb1cU, 0xf639f508ecff29U,
  0x2a31fc3004faddbeU, 0xfb5c91dc5d7da03U, 0xd10ee04ebf607deU, 0x4406f30dabedfd1eU,
  0xd4faeffafac806f4U, 0xded7a5c4e81c0205U, 0xeefa2111f5bb0bf2U, 0xdcefe7efb1edf5b8U,
  0x27ecd6e516ce07a7U, 0xf1eb35374333381cU, 0x1cf25f617191719U, 0x3140cdd430f0041U,
  0xfff9f2fb4ef9ff20U, 0xf90a0bfa1b16fafeU, 0x1fff24fdcf160727U, 0x1739e72d3509230aU,
  0x33f9f8fa1a0c1e23U, 0xec011715fe321c12U, 0x27ee2905162f321eU, 0x2d24f2ec23f309efU,
  0xf20df90aef150415U, 0x1e2e481010e80401U, 0xbff00081a1d0626U, 0x2cfae42b0f23da06U,
  0x234dfe02f5013e1bU, 0xef2de822ee420009U, 0xec19e8dfec1bea1eU, 0xf4f00c1521d9070eU,
  0x415dde9e000031cU, 0x1b224712edf1ef20U, 0xf6ee2906f51d0f20U, 0x1deafcf74d03f3e8U,
  0xe9f9ed0ce8f82e12U, 0xfee0220cdb38df0eU, 0x18192c02eaff07fdU, 0xfd0aed0d22f7fed1U,
  0xfb02f9fe0d12fbU, 0xfb2407c00b19fc10U, 0x62c22f7f4d61bfcU, 0x1df62007060b2426U,
  0x17e1dd1601070febU, 0x1eee122ddb5705deU, 0x1fff1b2916fe06edU, 0x1212225f900f7deU,
  0xe4f12b000708ce0eU, 0xf80724f60d34fdfcU, 0xf102ebf0e10dee2fU, 0xf809fe0a17fb081bU,
  0x2afbedfa1e183d0aU, 0x210c2320df3beae8U, 0xee1607e0fafa1306U, 0xe31e2a1407f305dcU,
  0xde91902d527fefeU, 0x43e10e2f6fdfa0bU, 0xbf606eeec1b1d2fU, 0xd8fe26fe0a090b32U,
  0x1cf1f0fcdd261d0bU, 0xdd8451ae90012f0U, 0x5fedeffc4140c08U, 0xe4fd102bd2ca090bU,
  0xe9d216ecfc120919U, 0x339fbcefeecf7fbU, 0xdc0732f0e9e409ebU, 0xd6083b03cfdd04fdU,
  0x213b10e8f02c0eddU, 0x24e518ecc3d2eef5U, 0x1df41b2500f5fdbaU, 0x1322e2e5bb1700f5U,
  0xcb0c250fd3ed151bU, 0x30edfe60014feedU, 0xed122107f3f815e6U, 0xc5d621e0ebdf0428U,
  0x25ddbccd312f03f2U, 0x80c2309f71227e6U, 0xf2f33150c18090eU, 0xd0bf20df60cff2dU,
  0x142216301409f90cU, 0xfdf40fd71d1af021U, 0xd4280704e5eb071fU, 0x250df510ff3d0cfeU,
  0x130df9dcfdf41c21U, 0xd110d3407231f05U, 0xf1f90ee719f44324U, 0x2829ea0228f00cf4U,
  0x2e3812fdf9fff7e8U, 0x41416f519d9fcfdU, 0xeace01f7f2f305fbU, 0xcf7c5033c2fdd0bU,
  0xec1afab6eb232334U, 0x90f2c35151e0907U, 0xfe0cf2f1cded200eU, 0x5061c243ee40607U,
  0x207f5170e03e5f3U, 0x331543e529ddf937U, 0x21e60ef9d2dcfdfbU, 0xf0120a3118f0ddU,
  0x11eaff0713ed261bU, 0xd02f82af21729d8U, 0x1829f5fccf0711cfU, 0x11f1efeb29f108d2U,
  0x1fefea0624ef19U, 0x28e32d211b04f21eU, 0x25f10a0b33f806d4U, 0x15fe220b062a2ce7U,
  0x704f5fee7e81f1eU, 0x13d8f222ee441dacU, 0x2015131dd31d10c5U, 0xb1107d501fafce1U,
  0xe2351ce8bde9090fU, 0x71001e9121814e1U, 0xc0702070f291dU, 0xc9f21cd03f0c1301U,
  0x410bdb040ff22926U, 0xffce15dee70914daU, 0xf3cc231aec1327f6U, 0xdf736da13e405cfU,
  0xeb3ef9feb2f21b09U, 0xb1412e81cd8f3f6U, 0x10e28f1e4092533U, 0xd9ff05c5e4fbdb38U,
  0x5bf2eb1303d22615U, 0xf6deeed3daebffdcU, 0x3a72eeff0030d18U, 0x1304f8c5f2fe030eU,
