/**
  ******************************************************************************
  * @file    voice_model_data_params.c
  * @author  AST Embedded Analytics Research Platform
  * @date    Thu Aug 29 15:08:04 2024
  * @brief   AI Tool Automatic Code Generator for Embedded NN computing
  ******************************************************************************
  * Copyright (c) 2024 STMicroelectronics.
  * All rights reserved.
  *
  * This software is licensed under terms that can be found in the LICENSE file
  * in the root directory of this software component.
  * If no LICENSE file comes with this software, it is provided AS-IS.
  ******************************************************************************
  */

#include "voice_model_data_params.h"


/**  Activations Section  ****************************************************/
ai_handle g_voice_model_activations_table[1 + 2] = {
  AI_HANDLE_PTR(AI_MAGIC_MARKER),
  AI_HANDLE_PTR(NULL),
  AI_HANDLE_PTR(AI_MAGIC_MARKER),
};




/**  Weights Section  ********************************************************/
AI_ALIGNED(32)
const ai_u64 s_voice_model_weights_array_u64[148053] = {
  0x3b8670c040166c9cU, 0x3db00af83e5abdd8U, 0x3ddf8b47be675830U, 0xbf1394c33d2e1493U,
  0x3ea0b43ebf42c347U, 0xbe32a7503dd389e6U, 0x3dfb5522be822393U, 0xbebd1364bde1f470U,
  0x3e2b4066be41ac05U, 0xbd9115103abba2b9U, 0xbf184308be898a81U, 0x3d3769483df40f21U,
  0xbe6b8b4fbc96fc10U, 0x3e26454f3d9ee1e5U, 0xbe8d755c3bea5accU, 0x3e1846f9bd48db9fU,
  0xbdf97c5f3e4b12cdU, 0x3ddc27823e3bcc88U, 0xbe0156f23cec80a0U, 0xbdbb42bb3e44a785U,
  0x3e39fbc1bd2a044fU, 0xbe7c3081bd4c504dU, 0x3dd26e183dbbb182U, 0x3ce636c33d8679b4U,
  0x3daf72513e78d835U, 0xbedc022abe34383fU, 0xbdf67915bf06906eU, 0xbdf4124a3e48cfb7U,
  0x3e53709abdc09fb2U, 0xbf0395b63d002d6aU, 0x3d15534b3d341ae0U, 0xbc14635a3e00cac5U,
  0x3e29ed613dac3c06U, 0xbda20a31bcdb0bb1U, 0xbe33b78e3e949bf2U, 0xbcdb4307bede7713U,
  0xbdd4df263e13d3f6U, 0xbd9816eebe093948U, 0xbded97a43e09bd84U, 0xbe02ec2abe404beeU,
  0x3d003eb03e1b7109U, 0x3bb145a8bede872fU, 0xbe27fe5a3e3a95cdU, 0x3e4b913cbed4f0c1U,
  0x3c21a4e33e172b98U, 0xbd48c6b4be86925aU, 0x3dc345a43b3c0ae2U, 0x3d805d13be09d782U,
  0x3d809117be724bd0U, 0xbd8248493c541381U, 0xbec0a208bf035932U, 0x3dd864ef3ddef9feU,
  0xbe7cc15fbe8f4627U, 0x3e8dbddf3dc6a2c1U, 0xbd275d87be0b7ca3U, 0x3cebad1b3d582724U,
  0x3d89abef3d1605a6U, 0xbd48f6ee3d2bf78aU, 0xbe97d833be194f02U, 0xbd27e7d63df66d3aU,
  0xbe28d9c9be5708d0U, 0x3e1610153d44840dU, 0xbe986ae2bd2ea437U, 0x3ccf101b3ddea9e2U,
  0x3d95890d3e7058d7U, 0xbced85bbbe3ba76aU, 0xbd38bed6be3fc2e5U, 0xbe40048fbde24a5bU,
  0x3d5cef28bde30e01U, 0x3e86633b3c89a4baU, 0x3e25a8c93bccf0ddU, 0xbbb4016e3e0af42fU,
  0x3de435603cfabab6U, 0x3e7146883cd0a835U, 0xbec6b676bc22d9e0U, 0xbc909c973de7db6aU,
  0xbe8fda89bd532a98U, 0xbe505faabe80d7e1U, 0xbe86e79fbe2250ceU, 0x3dd7e1abbda81ea6U,
  0x3d9f78923db83098U, 0xbe03bae5be12505aU, 0x3d7bdf73bdfef216U, 0xbd85a803beaa3731U,
  0x3dbe9a2a3dbdc96bU, 0x3e2d29c03adb78cdU, 0xbe3a4d453dfda828U, 0xbcf58c023c125eaaU,
  0xbcae93573db9b8e0U, 0xbdb4e3393dd35c5fU, 0x3e220bc13d906f01U, 0xbdbd081e3de85620U,
  0x3e7d2860be2d2014U, 0xbebb594cbdfb015fU, 0xbe3bc279bebc71edU, 0xbeb96a58be80b74dU,
  0xbe5e3404bede20d5U, 0xbd878945be8ac15bU, 0x3d66be2d3e61c92dU, 0x3e87b0503d8feef2U,
  0xbea06433be1fd547U, 0x3d4eb6373dadad37U, 0xbdc390093e1d6092U, 0xbeb55fb9bda2ed86U,
  0x3e4fb2903d5b0e58U, 0x3d8737a53d2e4ec7U, 0x3c94c80f3d5fc176U, 0xbd16eee8bde751c2U,
  0xbe45d8dbbe0ec8e6U, 0x3da07232bd186f7fU, 0x3dd1491d3dd543f9U, 0xbcab97de3ddf34b5U,
  0xbeb4b48dbe431ca4U, 0x3d1a34d43ca9712aU, 0x3ceb7bc03bb72b20U, 0x3cdf32fa3d0290e0U,
  0x3c687e623da81710U, 0xbb8179003d4a98efU, 0x3c15cbe43cca4ee3U, 0x3acf940d3d35f915U,
  0xbd115bd23d848830U, 0x3dae002abe4256d7U, 0xbd8d1283bd0a585dU, 0x3d92dbcf3da8c45cU,
  0xbe4a2689bdb751c4U, 0xbe0dfa69bda633acU, 0x3e14f1773deb88aeU, 0x3d5415bc3c7cdcd0U,
  0x3d4a964a3de71b9bU, 0xbca8f91dbd7df8efU, 0xbc70e97fbd9538bfU, 0x3df86bf43d5c996cU,
  0x3df0db763cf7486aU, 0x3d8165313e01072aU, 0x3dd5c0a53dd65721U, 0xbe003bfb3d14deafU,
  0xbe5fbfd3be102723U, 0x3dfc642b3d7413c6U, 0xbdb8a1953d18f896U, 0x3d16af913d843f32U,
  0x3c47a724bcae7c5aU, 0xbcce83ed3dffe3efU, 0xbe035a46bded2720U, 0x39dc32ef3d427e94U,
  0xbcc422843d261e7bU, 0x3be043de3d72cb5dU, 0x3c076bdebd5ba970U, 0xbc4637d3bc821e61U,
  0x3da44f113c6f4dd3U, 0x3da71c2e3dba82d3U, 0xbd06d9e5bd551feaU, 0xbe4576cb3cd06063U,
  0x3e3f1bbabeeb9dabU, 0xbd07cdb0becab7beU, 0xbd90a9d23daceb1bU, 0x3e491bdebe3e9ce6U,
  0x3cb11ee7bcda9e98U, 0x3e849c3cbdf5915fU, 0xbdeedbfdbe9e3b5dU, 0x3e33d74bbd6e0320U,
  0x3db387c6be0688f0U, 0x3bb91ff7be33f20fU, 0x3e0b45c03e1d72d3U, 0x3e4f1a973d6c2a41U,
  0xbd2e8d393d6b83c1U, 0xbe04e7693ea4017eU, 0xbe9aa12abea2971eU, 0xbe1fb4eb3d686ea0U,
  0xbedaff40bd9ae256U, 0xbe1049c53c09f1e8U, 0xbd52cea0be424df9U, 0x3c17fbce3c680880U,
  0x3d92df073e837ecfU, 0x3dd4b95bbdcd0fd5U, 0xbe7da4b23d5011aeU, 0x3da94b703ccbe315U,
  0xbda3bbf03d52738bU, 0xbe3f8142beabb4c0U, 0x3df6a5abbe01fd05U, 0xbe1a37f5be66f1b5U,
  0x3e220dfa3cfafccaU, 0x3d58e2b8bec5fbf1U, 0xbd2ec7e83e7a7fc0U, 0x3c9fa61ebe02b0fbU,
  0x3dde2800bc81b9beU, 0xbd81a0ad3e500220U, 0xbd87d835be1f1e2fU, 0xbe45cca83e1eb7a2U,
  0xbe3fb166bd913c59U, 0xbce089d03deedd1cU, 0xbdd4d5ebbdeef2d9U, 0xbe01b9bf3e08b576U,
  0xbdbfe01d3c664a31U, 0x3e252307bd250564U, 0x3cea6e203e87eec0U, 0xbe3a5792be81f83cU,
  0x3e72b9963e336cdbU, 0xbec47e36bebf8278U, 0xbca519e7be50bcbeU, 0xbe8b1542be95657bU,
  0xbd2273ddbd7ab1c4U, 0x3e5f4bfabd043bb3U, 0xbf009f10be87b62cU, 0x3e403f633e152608U,
  0xbe331b5cbe717200U, 0x3d0bf9773da56995U, 0xbe412e55bce221deU, 0x3ace3211bc93eb15U,
  0xbd904ac93da6b325U, 0x3d1a61a6bd52f07fU, 0xbd140921be832c17U, 0xbdf7c6373d77a829U,
  0x3d88f8c7be2a408dU, 0x3e2082523e0c3e2cU, 0x3e1c28c5bd7fed8bU, 0xbc8d74dcbdaf8835U,
  0xbdfb2f1e3e280ba1U, 0xbd171f4dbe00bed8U, 0x3e326cc23d9090a1U, 0xbd94ba65bdad6a4aU,
  0x3ca08b3c3d3d0b86U, 0x3c2a88f6beac1740U, 0x3de9f2be3d68281cU, 0x3e1a99573c90abdfU,
  0x3c7855803c129ff0U, 0x3cbcf6d23df7c7aaU, 0xbd27ec033e50dbd6U, 0x3dace99a3d4cb1adU,
  0x3e86a6a63ddf22efU, 0xbecf97303d814238U, 0x3d77f165bed3c635U, 0xbf031b41bdf338f7U,
  0xbd0b28ecbedad205U, 0xbe292e5a3e85dcfcU, 0xbe5c2bfcbeb2cd93U, 0xbe9371f8be79e43eU,
  0x3d8d346bbe263f21U, 0xbefc866bbf36b999U, 0x3de225d53e09ea83U, 0x3dd5c90abd2f11bfU,
  0x3e3bf3173e2c4e19U, 0x3d5c8ed3bdfd51b6U, 0x3e34d3573e1eff0dU, 0x3dd2f4933e91701fU,
  0xbe8fcfd7bdecdb9dU, 0xbeab9b7a3e33eecbU, 0xbeb48b59bedfcf08U, 0xbe924b373dc66ebdU,
  0xbeebfa88bea5429dU, 0x3d14da783d5cff9dU, 0xbe2726d53d873de6U, 0x3d89f2eabbf08f4cU,
  0xbedb7ff3be9a5f9fU, 0x3d1d276d3e33c018U, 0xbe9b234ebda84b62U, 0x3ea6800e3c8910afU,
  0xbd6897d03d37906aU, 0x3d3342bcbb816bffU, 0x3de80493bf1847dcU, 0xbb8853843c592af0U,
  0x3c17286e3c32df1aU, 0x3ce970723c405c3eU, 0x3dfe2973bd2363f4U, 0xbb444084be9399adU,
  0x3c210f74bc67b750U, 0x3b7086c93ba2b9d7U, 0xbbdf0801be69ed25U, 0x3c1834ebbdf04835U,
  0x3d1881eb3d90a5b8U, 0x3d5565f3bcc891d6U, 0x3bb82464ba8eb101U, 0x3db37ae1bc9d214eU,
  0x3cfe828b3de568c3U, 0x3dd2a5acbe4af3d1U, 0x3dab482fbdb88e7dU, 0xbe17b547be0297d3U,
  0xbbaa47b13ca99cabU, 0x3d0b700ebdeaecaaU, 0x3ca2dbb8be4e8508U, 0xbe474d79bcfa6374U,
  0xbe07bb38be07d39fU, 0xbe40066fbe156739U, 0x3cdbb08cbde07f58U, 0xbd3209c3bdc979d3U,
  0xbb79ea92be01ebcfU, 0xbc80af59be720db1U, 0xbe3caca9bc99b969U, 0x3de64641be503dc0U,
  0x3d5e4c213ceb7973U, 0x3dbeaa9ebe11b0a7U, 0x3d5b0db6bcb5d32fU, 0xbe44093ebdce1a5fU,
  0x3d253a783da62640U, 0x3d4fee4ebe925d6dU, 0x3d6390ffbe9bd8f5U, 0xbd3531903d9b3734U,
  0xbe1de7c9be020118U, 0xbe6907b6be9d9a17U, 0xbb9e17c4be004e17U, 0xbc39b5b93d8903baU,
  0x3d4640f2be3dfbcaU, 0x3d8f0cfd3df6608dU, 0xbd7b03cabe38b3d8U, 0x3d83fb0d3d123f72U,
  0xbd53ebac3da6a68aU, 0x3ddf99583cb75a0cU, 0xbdb859d43d9192d1U, 0xbe0e7e5a3d13edfaU,
  0xbc7ec8603d1e57e9U, 0x3d9fe3e4be486744U, 0x3d888bd0be845746U, 0xbde4d89ebe313bddU,
  0xbe85f4cbbd9d94a6U, 0xbdb6b661be94f25dU, 0xbdebc0e7bd55cce0U, 0xbe3bdaa1bdb16495U,
  0xbd94dd5cbc5fad30U, 0xbd815e743d9a6124U, 0xbd95db62be6c2ee4U, 0x3dd6a06b3d452b44U,
  0x3c9957d03d0100dcU, 0xbd62fc053cb38100U, 0x3dd50840bd9c91edU, 0xbdd1429f3df599e1U,
  0x3d70e21e3c9f5765U, 0x3e8d029ebd54b3dbU, 0xbd96b1a7be549848U, 0xbccf175abc8d6a2cU,
  0xbdc44c24bdb96c6bU, 0x3d195868be80d1dbU, 0xbc9d89f0bccc9d37U, 0xbe25befdbd65b350U,
  0xbd6ab730bd26b43fU, 0x3d468823bbf8995fU, 0x3cc8fb8dbe6734b6U, 0x3e5dd0d1bd211ec1U,
  0x38fab92abd212dc0U, 0xbb3f204c3df53d89U, 0x3deb4d7bbdb8f8ddU, 0xbde4763e3cefacccU,
  0x3cc3b544bd3da9c9U, 0xbd4f8fa7be429230U, 0x3e7c78edbe63d915U, 0x3d95cd25be71f950U,
  0xbdf4f79fbd271a81U, 0x3d54f9763e04d167U, 0x3dbdf820bcc5b78cU, 0x3e918b163c440b4eU,
  0x3cf5ca34bdf0e15fU, 0x3b904a323b9dc123U, 0xbe1a510abe04ad3aU, 0xbd4868df3d486006U,
  0xbdb82c713e7c3386U, 0x3dfda5ac3da1f410U, 0x3c6f8194bdae9ecbU, 0xbebd10a33d95409aU,
  0xbd12b3acbd062b7aU, 0xbd1e637fbdf2e57cU, 0xbdd9bf87be2681b4U, 0x3e1552f8be48cc53U,
  0xbb8920d2bdfb069dU, 0xbd6b26bebd493da0U, 0x3e5d3d7bbe10beb3U, 0x3e3fee3e3d7efc76U,
  0xbbc5e16abdc00d2cU, 0x3d5e0d9cbebeeb1cU, 0xbe72f0a5be15c25bU, 0x3e0d4df9be9b2292U,
  0x3d160e573cae465cU, 0x3bcaef503e736520U, 0x3e1b9fc3bd588f65U, 0xbe9d69783dfa29a7U,
  0xbe123d983ceecbf4U, 0xbdd97ff6bc184e41U, 0xbec52a2dbda98136U, 0xbe3c05cebe949314U,
  0x3d7cc7b1bd0cccb7U, 0xbe26926fbd8d486aU, 0x3dc4385fbe81c0dfU, 0x3d0f0bbdbe5a570dU,
  0xbd4b5e7f3d51c40bU, 0x3ddab0f8beb02e3aU, 0xbc9ba0c2bd42d6f2U, 0x3e144b20bee75549U,
  0xbc5b6afdbe30311aU, 0xbce828283e0b47b8U, 0x3dc119b7bb714abbU, 0xbdb2f9fabc8e3b9bU,
  0xbdcafec53c2fbedbU, 0xbe4544cf3dcb434fU, 0xbe834731bc8c6f6aU, 0xbdb73e8fbe063c4bU,
  0x3d8c81283b4b2641U, 0x3b9f04823ca2992eU, 0xbc931bf5bd42f686U, 0x3e1409393d792edeU,
  0xbc806e203de0cd82U, 0x3e4c2675be24abc5U, 0x3e25a41bbc302921U, 0x3e1e2c2fbe14f57eU,
  0xbdab218cbe070bbcU, 0xbd8c3fbb3dd25d51U, 0x3d87ee7dbe90562aU, 0x3da3b0553cfa625fU,
  0xbe0ff038bd9df44dU, 0xbc3037683daf36c7U, 0x3bcb777b3d3ef83eU, 0xbe1dc1a7be214442U,
  0xbd7da9a0bdcb7fecU, 0xbdc5b1d8bdbaaa2fU, 0x3e08f2a1bdfa8f4bU, 0xbd807ee7be509777U,
  0xbd0591613c6985e8U, 0xbe002ca3bec036f5U, 0xbd5d9184bd442e58U, 0x3dee7027be67e02eU,
  0xbe24783abd042480U, 0xbcf2a2b03b1e0aa0U, 0x3e7b239abe4db662U, 0xbcc501343d25cd80U,
  0x3d22d707bd0b3441U, 0xbccba9d73d9115b1U, 0xbe8e783e3de76edeU, 0xbd8a0dacbe24d00bU,
  0x3de6aa12bc2e4ef4U, 0x3d16c572bc1478bdU, 0x3e5eacd0be07b78dU, 0x3dad63cebd83bca2U,
  0xbdacb4c93d8a6cc8U, 0xbd8b3e14bef0bc73U, 0xbc450c523da24c74U, 0x3e2460d7beb8fe6eU,
  0x3ca0fa3fbe76842cU, 0xbccf0a81bde26e76U, 0x3e632d76be7bfe8dU, 0xbcabd0bfbcff4be8U,
  0x3ba2ce21bcb57233U, 0xba72ea923db761aaU, 0xbe40ec753e2d37fbU, 0xbc7fdda7bd4f8d86U,
  0x3b09bf8abc872d0dU, 0xbd62026d3da65e63U, 0x3e1c6baebe0d70b8U, 0xbc5efd4d3e016fa0U,
  0x3daba5943e06e348U, 0x3df22003be098f01U, 0x3cdb8b293d42689eU, 0x3daba2f0be13134cU,
  0x3e084002be519285U, 0xbc6d878abdb03214U, 0xbd9d7b40bdc4a685U, 0x3dac3ff23c134ab9U,
  0x3d974d993c2c461aU, 0x3d0184cd3db2b422U, 0xbd666d723cb91ecaU, 0xbd6d4626be05e30fU,
  0xbc124eae3c978976U, 0x3df29f1b3e0237b1U, 0x3daab4333c74cabdU, 0xbd5501833d4d69d7U,
  0x3e0e0c183dec084aU, 0x3c45636bbc5fa41cU, 0x3da1f8fb3d6f1bd5U, 0xbdbdca6abdc08f16U,
  0x3e19b717be2cf25dU, 0xbca48b263c9b518bU, 0x3da5561dbe3ff855U, 0xbe1263c23d9ef87bU,
  0xbdc7f06abd90412bU, 0xbc8691913ddf2c0fU, 0x3d33f5f43cf70c80U, 0xbe3b379bbe86595eU,
  0x3d2156a93cc8bfcaU, 0xbcda143bbd6683f7U, 0xbc4019b9bdf3fb8fU, 0xbd9fd151be295bbfU,
  0xbe83db433e064abeU, 0xbe31bac2be944ca1U, 0x3d8df66b3d5bab94U, 0x3d9f1b8fbe4972a0U,
  0xbe1450e2bd899bcfU, 0x3db9ca523d8517bfU, 0x3e18fa2dbe2eec93U, 0x3d96fe783e629816U,
  0x3c4b0aa1bc9ced9aU, 0xbcf37d353e0fa888U, 0xbd9c05f13d953926U, 0xbc13d40e3ce90e6eU,
  0x3dccf2b13dcb1568U, 0x3d6889053cc463c0U, 0x3d763327bdce4321U, 0x3e2883b3be42de03U,
  0xbe1f25a23e1b85dcU, 0xbd216876bdddfaa2U, 0x3d8a17a93dabb68aU, 0xbdcd28bebe2025bfU,
  0xbd480cdabe49e41dU, 0x3e39119ebdf8682cU, 0x3ddaf8aebe48a87cU, 0x3cb77b6f3d1b85d8U,
  0x3ded86b03dec1b31U, 0xbe284c683e19edb0U, 0xbe34063cbd97f3fdU, 0x3df01d36bd83fca7U,
  0x3e05f08f3d849268U, 0x3dc54b3b3d7a24b2U, 0x3d948043bc4b76feU, 0x3d011b72be184ee8U,
  0x3dc01235bd28daaeU, 0x3de68f78bd7fec96U, 0x3cf325ce3e3a405aU, 0x3b26a536bda6c97bU,
  0x3e4b3377bda323ceU, 0x3bc579c7be0ec3bcU, 0x3d89c5f7be25f4f1U, 0xbcad3bf7bc9ef106U,
  0x3ddb31c23db00bdfU, 0xbbfd094b3d7db5b0U, 0xbdf750e83cb48713U, 0x3e297f16bd5453d2U,
  0x3e0b1d713df1ba69U, 0x3d8cb6a73dff8651U, 0xbd219651bbc7ed4cU, 0x3df9c8ccbd81da6dU,
  0xbbd5ea8fbdb2f00dU, 0x3e0e1c53be456b20U, 0x3dee17193e89cff0U, 0x3ca42d6dbdbea1c8U,
  0x3d7a63c33b928166U, 0xbc9e65793d0aaea4U, 0x3cdf6c38bdf7ed8dU, 0x3c2950b4bdf3b721U,
  0x3c8f014cbc80f778U, 0x3d2e3e8abcc5e675U, 0x3cfb4d843e0dc1b3U, 0x3d36f0d5bdbfe5d1U,
  0xbda8fc603d8a6445U, 0x3d4ed8c3bde86928U, 0xbcd058f6bc9bf0b4U, 0x3cb03e4d3da7c07cU,
  0x3bc8b43c3ca29c2eU, 0x3ca4c366bdbe066aU, 0xbd80b15fbd21b6cdU, 0xbe0997c1bd263c4fU,
  0x3dcb38803dfedf98U, 0xbd9197a33dda85cdU, 0x3d21ded83d911e87U, 0x3b93aa723dc55521U,
  0xbdc7ac5bbe022102U, 0xbc5d4092be8156edU, 0x3d974e71bddedd95U, 0xbd124303be27bef3U,
  0xbd645c3fbc31f496U, 0x3d13ed88bcf0d2dfU, 0xbcd81be53d57bd3bU, 0x3e0d1dc1bc63d92fU,
  0x3d91043dbe026128U, 0xbb5e72953e0c7adeU, 0xbd78f7abbdcb8a4cU, 0xbe47e18a3dd673edU,
  0xbe0632893d35d877U, 0xbcd1315b3cfcdc50U, 0xbd7b1be13d504a22U, 0x3d05fdedbc4f6366U,
  0xbe032f073cbcc0baU, 0xbc18b691bc486d31U, 0x3d3e0da2be1ceaf6U, 0xbda704023c0048c2U,
  0x3d8663a93c8e0d4eU, 0xbcbd97023d3e3165U, 0xbc0a6c24bd5d13e5U, 0x3d59833abe369031U,
  0xbd68358cbc8c1355U, 0xbbd608c43d743cd3U, 0xbd91e1ba3e045c4eU, 0x3d00d6cd3d740853U,
  0xbe012c75bc5b2b0eU, 0xbd540f57bda5e7cbU, 0x3d7892a1bdb8d856U, 0xba9526d7bcd54c42U,
  0xbd50ff8c3e09d507U, 0xbe7e637d3d39a1ebU, 0xbe0622f53cbc5a05U, 0xbda0a5edbd604437U,
  0xbccdf5d43cf5102dU, 0xbd7e39933b8536beU, 0xbdfb4e8dbde85bfdU, 0xbe266109be4b3ff7U,
  0x3b9851133d539197U, 0x3be91d3a3da0704cU, 0xbcf72a453c9092d0U, 0x3de3b845bd84c303U,
  0x3d0f1c85be82719eU, 0xbc9eada4bd01d868U, 0xbd062ec13d3acc01U, 0xbd4069ca3de15d4bU,
  0x3cea5549bc97672cU, 0x3e081012be971003U, 0x3dc2ee86be3fa1c2U, 0xbc3f6c223a643259U,
  0xb9ba9e6abcc712e6U, 0x3c8a717abe1837d1U, 0xbc88c1c3bdcb5193U, 0xbe2d2fccbe7c599aU,
  0x3ddf6185be3b9cc0U, 0x3e20809abe3f4416U, 0xbe335c2bbe555415U, 0x3dbff040bde40453U,
  0x3cbf26a83cd074a5U, 0x3d0337003dc20e82U, 0x3d1cc943bddfd8bdU, 0xbdc1de493d9e0666U,
  0xbda61da5bd840c9aU, 0x3ceb8faabd9d5731U, 0xbd2fbb67be50334bU, 0xbd3c30653d5c627aU,
  0x3d347a18be241403U, 0xbc9d0becbde61a47U, 0xbddae854bd971e8aU, 0xbe39e10abe75c3d8U,
  0x3de94399bd6fdee7U, 0x3dc603acbe6d6d39U, 0xbdf9a7373dad0cb2U, 0x3e14b481beb35dc7U,
  0x3df54141be144b03U, 0xbdaea2c5bd819cb8U, 0xbd59d3ddbe1426f6U, 0x3dfffa5f3e075cb8U,
  0xbdc27b1e3ca9472eU, 0x3dc272983d48c7ebU, 0xbb930fb43cd830d9U, 0xbe377f93be340facU,
  0x3c155facbc8b4333U, 0xbdabfddfbd9248adU, 0xbdc9d1f1bda2cd9bU, 0xbe88e1adbdbb80f2U,
  0x3d1d37273e0181edU, 0xbd1c5b02bcfe9e6aU, 0x3e1bf2fbbd092e3eU, 0x3de12bffbe204e0dU,
  0x3d177a08bd10b189U, 0x3d9e78eebdda6db7U, 0xbccd8f4e3e02bd76U, 0xbd16a3ce3e2f8292U,
  0xbbabf44cbdcc622eU, 0x3dc30b053d2dea34U, 0xbdcc6bed3ceba90dU, 0xbd7303223d9ed930U,
  0x3dbb384b3b8cd0f5U, 0x3dc253adbd94ae2dU, 0xbe410e063d8bc89bU, 0x3c1611283e139928U,
  0x3bef00c13dfa28d5U, 0x3e31bb0c3e369cacU, 0x3e1b1d923d466a3bU, 0x3e2a8836bc8b9fe0U,
  0xbcfd6e1cbe1b760eU, 0xbde9982abe23ca55U, 0x3cbeda54be5c10c2U, 0x3cb433e2bc85c9a1U,
  0xbe5ff481bdd96f75U, 0x3c9a2ed4be09ef2bU, 0x3cf07cadbb9d99ceU, 0xbd9eb843bdb26103U,
  0xbd87339abda3b2daU, 0xbdfe48d1be052f89U, 0xbdb1fbd6be233a93U, 0xbe139dfebe1f75efU,
  0xbe2fe23ebb72bf44U, 0xbd5b9157be10ee83U, 0xbe35f862bde22b7bU, 0x3cce5e40be564cd7U,
  0xbe060f573d88050cU, 0x3d26bd913d94d59bU, 0x3e247721bdb08d5aU, 0xbd56e551be41e18eU,
  0x3d64a573bc9e6ba7U, 0x3dfd43b93bfed128U, 0x3d16a4b33e251046U, 0xbd40744ebd160505U,
  0xbc2107efbd9d2193U, 0xbcc02faf3c3df86bU, 0xbe0a465cbc0e3ab8U, 0x3c5b2ba03c99717cU,
  0x3d929ce53e074f5dU, 0x3d829ade3d6db980U, 0xbd9aee72bd570caeU, 0x3e2563133db3fd19U,
  0xbd2574a0bdc8f177U, 0xbe85eae4be6b86a3U, 0x3dcf8fc9be56e382U, 0x3ce9b7dc3d01897aU,
  0xbe02a06b3c639808U, 0xbe128c673cfe40f1U, 0xbe4e3a6c3d48777bU, 0x3cb03b093d9ffa45U,
  0x3d6654d1bc76ac37U, 0x3b19067a3d68e74aU, 0xbd99361bbcaf648cU, 0xbd1243c73c59b861U,
  0xbe328b1d3e0d63c7U, 0xbe13cfd43bef4b1eU, 0x3dd33c663d0684f4U, 0x3e256878bd2960afU,
  0xbe8ad693be7c221cU, 0xbe3fdbd8be498745U, 0x3dc91f59bdd9e77eU, 0xbdc58849be7758bcU,
  0xbe9139dcbe1f152bU, 0x3e8cab563daf4927U, 0xbe8687b93e040a04U, 0x3c4086263d6c8ea2U,
  0x3cf42c833da68660U, 0x3d4adf793de340beU, 0xbe7ddb42bcfe8b6bU, 0x3dd6c1be3ddcaf8bU,
  0xbd85dec73dc890c5U, 0x3e542591bdb056f7U, 0x3e0336b0bd21aea7U, 0x3d9aeacebe1f3947U,
  0xbcf2fcefbcf40fb2U, 0x3ca09faebd388bdeU, 0x3d68319bbe455c7fU, 0xbcaded7dbcdba2d6U,
  0x3c1aa6163b107842U, 0xbd8daf8dbd994b40U, 0x3dc26eaebd9c2e4eU, 0xbca8c2e4be961cc3U,
  0xbe1df1dcbdf2629aU, 0xbe0e7944be247dedU, 0xbd95ae11be37fcb8U, 0xbcdb066cbe28fcd6U,
  0xbcd96beabbe7740aU, 0x3ca3e73fbdbfc4beU, 0xbe0aa7f9bdb6b95aU, 0xbd521bc3be15222fU,
  0x3cc00ef33d4fbeb4U, 0xbd2cbc0c3b63a8e5U, 0x3e36a178bd98380cU, 0x3d1df6f83ddf10e8U,
  0xbdfb5fbdbdd51de4U, 0xbd18cebf3d9a8508U, 0xbdcd7200bdf72c53U, 0x3c74ca01bc02b583U,
  0x3d429eb9bc8d68bbU, 0xbde206a8bd841c00U, 0xbd26a0e33bef9546U, 0x3e3aa9dcbe233535U,
  0xbd6bf8563d32fbf5U, 0xbd975badbe435560U, 0x3b98800f3cd01bc6U, 0x3e1c0e96be3826aaU,
  0xbdcddf58be03a9a0U, 0xbea6b86abde47b44U, 0x3e4143d1bdd26bcbU, 0x3d287089ba8ed7feU,
  0xbe6254fcbe6f5f7cU, 0xbe69aae73e3b70edU, 0xbe02de123df1e3e1U, 0x3db5d746bd298f96U,
  0x3d4585b13d2756c1U, 0xbdeabe193e00cb7cU, 0xbc997313bd328c7bU, 0x3e2d6940bdad3314U,
  0x3d9d34f03dea810fU, 0xbe73a05ebe996726U, 0x3dc915763d209e3aU, 0x3e30291cbe5d20b1U,
  0xbe3fd8a53d4814eeU, 0xbce5ceb3be848002U, 0xbe2d6459be542774U, 0xbe3f88a0bdfe8829U,
  0xbcce2a92bd37b370U, 0xbd8a4877be216554U, 0xbe05f951bca18ddfU, 0x3dcefa4bbda3fc10U,
  0xbd98a9a53d11ab28U, 0x3dc371d3bb1e7d5fU, 0xb9ce3515bd13b20fU, 0x3d0448f93d2bbfb3U,
  0xbd5a4ef5be028373U, 0x3d7dfd34beae5190U, 0x3d150aeb3cc1bbf7U, 0xbe28c1e9be2a66e5U,
  0xbc90995a3e403e70U, 0xbdbeb6c73dd0964dU, 0xbd57d885be1157e3U, 0x3b2e04503e82ef65U,
  0xbe84612ebd888e17U, 0xbdecbe683d6f4742U, 0x3d281fccbddb8920U, 0xbcb8b475bd7d6414U,
  0xbd48ee933dc472c9U, 0xbdca8aa2bd13f508U, 0xbc310097bd8ad1d7U, 0xbd9cf3d3bdf09db6U,
  0xbe4f57573e3fdcb6U, 0xbd5e8711bd3cefaaU, 0x3e29bdd83c915f0dU, 0x3de041f2bd252b69U,
  0xbdd1c8fe3dc20982U, 0xbe90af753dc8abb2U, 0xbdf40c95bdadd919U, 0xbdeb054f3e48e410U,
  0xbc30bcbcbe07435cU, 0xbe5725bc3c28febdU, 0xbd6279b8bdd33421U, 0x3d8dd62abc37f743U,
  0x3d054c6b3e241c25U, 0x3c969ff9bd50aa2eU, 0xbe11337c3bd11507U, 0xbda8718abdac67f9U,
  0xbe77e5df3de8de6bU, 0xbec71c2b3d805cd4U, 0x3e2faebcba5ddf34U, 0xbe413692bcdf04c7U,
  0xbe9b45a83c003867U, 0x3d6facb73d01cb78U, 0xbe32db16bd764023U, 0xbde569a73e0fef17U,
  0x3c87e6e7bd2c8e97U, 0xbbf858b7bc508af5U, 0x3cac94f2bd732f2cU, 0xbcaf0d8d3d940154U,
  0xbd22cd5a3e28ec55U, 0x3d9622e43b80eabcU, 0xbde748163d40ba72U, 0x3c6a23f9bd827f99U,
  0x3bd797b83cf717b4U, 0xbe4eeb3f3c9bd4e4U, 0x3dd2d018bd9c3b2cU, 0xbdade964bcf3da14U,
  0x3d96619ebd1a81acU, 0x3d43fc54bd2c1d19U, 0xbdce3c6cbc3f15d0U, 0xbbe96146bd7ac1caU,
  0x3dde7950bd6f9e40U, 0x3dfb37ec3b888d5dU, 0xbd9acc2abc31d503U, 0x3de837f8be169d6aU,
  0x3d8ea3093e201524U, 0x3e12ddc83c433978U, 0x3d0b48f13d87c660U, 0x3d4d5f45bcc2860dU,
  0x3e004c8abde4186bU, 0xbd6a169f3d97d5bdU, 0x3da14b88bdc1b622U, 0xbd856a413cf75b86U,
  0x3e604c58bbfe9c8fU, 0x3d09d70ebe1c17f1U, 0x3d172f8b3c1bbe47U, 0xbc9ee540bdb20090U,
  0x3d5db35dbde89da9U, 0x3be46404be63470eU, 0x3e078f81be8f2207U, 0xbdcdcd81be4c972bU,
  0xbe3bc9e4be0cf12cU, 0xbe883866bdf79b50U, 0xbeca7160bda75b4bU, 0xbe5a0070be8047aaU,
  0x3c09ef383db519eaU, 0xbdae2ee33ce9a268U, 0xbd6f15cfbd38a4e5U, 0x3d5a2dc7bcc732daU,
  0xbccdf0b03e2ae895U, 0xbe8545b9bcccb2beU, 0xbdb4f817be472457U, 0x3de74d62bdaeedf5U,
  0xbddcc6bfbe087de4U, 0xbe460912bdb08f53U, 0x3ea88e4ebda4b5bbU, 0xbd7be871beab8f04U,
  0xbcfe426fbc501106U, 0xbd96daa83e00090eU, 0xbec23f54bdcd45d8U, 0xbe34f31bbe049e4dU,
  0xbe7656003d99af31U, 0xbe7257203c69bceaU, 0x3da052d6bdabc0daU, 0xbe0744f83e356076U,
  0xbeb0f33c3e0daac9U, 0x3e207e12be730efbU, 0xbe930f30be87f251U, 0x3d8840a63da6a46dU,
  0x3d7260db3e0bf461U, 0xbe60eaaabbf1a38dU, 0x3e2fc7d8bd940d3eU, 0x3c66be36bdc6337aU,
  0x3d9b73703dcc15d9U, 0xba93194a3cdcdc95U, 0xbe7cbd7dbceb783dU, 0xbdd2a80abe75850cU,
  0xbe9ad5c73d656da8U, 0xbe41d00a3c5afaf2U, 0x3d8c54cebe0e6cc5U, 0xbe723a803d886890U,
  0xbe9c412fbdfbbb34U, 0xbc649977be50fd1dU, 0xbebc4144bd8d484bU, 0xbdb4eb2dbd6b9310U,
  0x3e1fd2b73bce8b98U, 0xbe493c2bbce855ebU, 0xbe083e17bd85322aU, 0xbd975a313ca7027bU,
  0x3e0959983d61c896U, 0x3d2742bd3d85b21eU, 0xbeb7cfd7bb8fe0b5U, 0xbd021cf1be894186U,
  0x3e286d24bdb0341aU, 0x3db126c3bd4994d4U, 0x3ca497cb3d68638bU, 0xbe6bba19bccf9754U,
  0x3e51d0f0bec88bc6U, 0x3d451d43bebe538aU, 0x3d744d933d64e9edU, 0xbe26d635be0fe391U,
  0xbd3014f6bd19da39U, 0x3e02af39bea030cdU, 0x3e2a3601bcfa5939U, 0xbe4678e9bd8c49a3U,
  0xbe8a3fa6bdab2d50U, 0xbe987abdbdf608f4U, 0xbe44fc25bd5e2174U, 0xba7993d7bca4acb6U,
  0xbd86a83fbe08500dU, 0x3de443d7bd365ba1U, 0xbe5e99f1bdd3ed37U, 0x3d5cffb6bc26268cU,
  0xbe0133bb3d8554e0U, 0x3c4b0b69bdc00033U, 0xbb982372bd7e90d0U, 0xbeaf48e3be728466U,
  0xbd624357bd3c76cdU, 0xbc878747bee004c5U, 0x3e6f7d0dbe86e664U, 0xbd186b5ebe280df8U,
  0xbe9f975bbe1cbb14U, 0xbe9f9984be2afd96U, 0xbefbc4f7be6fe9a8U, 0xbe5b0817be5161e6U,
  0xbd6593d9bd6fea62U, 0x3de1813cbdc08d62U, 0xbcce625abec62c2dU, 0xbd684fb8bd6d4224U,
  0xbe2e02863e72769aU, 0xbe16ef013d589b31U, 0xbe253baabe4b158fU, 0xbc276842bd91f02dU,
  0xbe204d24bdf31dc1U, 0xbd983791be83b610U, 0x3ec147d4bec1e4edU, 0xbe191a03be31aba4U,
  0xbe7d1831bded7633U, 0x3be67febbe06d81bU, 0xbe5afbf6bdd35a10U, 0xbdf82276be276abdU,
  0xbe8484f03ca67590U, 0xbe5210db3dd8ed87U, 0x3dd2c01cbea52f4dU, 0xbdbd37113e5a6358U,
  0xbeab69b13e505b4fU, 0xbda6f8bc3e28fbfdU, 0xbea8ebc1bdd244fcU, 0xbbeea4d63e34cdf7U,
  0xbe25196abd4893beU, 0xbd591822be299f61U, 0x3e8983c2be0a746eU, 0xbd333ad5be596abbU,
  0xbb92b81f3d7287f0U, 0xbda5562e3cc15968U, 0xbe2e19533c5e498eU, 0x3d1c73eebe1f6577U,
  0xbc4f35f13ce262a3U, 0xba1804723e3bb08eU, 0x3dc36cfebe428993U, 0xbe2d60ca3e3c0b5cU,
  0xbd6f5f26bd698872U, 0xbbda63c7bf1d63e6U, 0xbc443a47be23ac7fU, 0xbee15f4bbec069f0U,
  0xbe6b3036be801be3U, 0x3e2cf81dbeac1e6bU, 0x3d619abcbe2cd0bfU, 0xbdcc4ca2bd23089dU,
  0xbe7f05ebbe1c2e4aU, 0xbe357083be944e33U, 0xbe9af75bbdd2a2b3U, 0xbe817729bdb7d46dU,
  0x3d2ad929bdd66216U, 0x3d9c04ddbea8605dU, 0xbecf53a6be7e21b2U, 0x3d34fe0abeb101dbU,
  0xbdef14a23d85e071U, 0xbd45c008be94d595U, 0x3b903224bdc7f74aU, 0xbee365b4bec925e8U,
  0xbe033bd1be29c668U, 0x3e5fd7c8be5f9267U, 0x3db2e565be7e44b7U, 0xbd8cfbc7bdae3153U,
  0xbe23f0b7beae05b9U, 0xbea18296be408dcfU, 0xbebe8ec0be71e0cbU, 0xbe85505fbdb055d4U,
  0x3d9593f1be3df36fU, 0x3e37ea62bea8b1c6U, 0xbec17a93bde8bc1fU, 0x3dca9b30be3b1e76U,
  0xbe4d94833d791250U, 0x3d9aab253b8673edU, 0x3e3fbfe9be823a27U, 0xbdfae86abe01c252U,
  0xbc911fe4bd7536adU, 0x3dfbe9b7be121c3eU, 0x3eb1185cbe20f50bU, 0xbd8dcf38be9f474dU,
  0xbdb491bcbe6b17d7U, 0xbe9ec9babe060dd0U, 0xbec79e43be77cde2U, 0xbd306096bea7b7c3U,
  0xbd7283ea3d3e51d2U, 0x3daad3febdcd270aU, 0xbd5552453d43c7f8U, 0x3e65ce35bd0f00f6U,
  0xbd378e693e8b6ea8U, 0x3cb480433e519e3aU, 0x3d41afdbbe0196f2U, 0x3d70a7393e1aef91U,
  0xbdabdf7c3dd3a805U, 0xbd4d91a83dacac73U, 0x3e255175bdfc1cb8U, 0xbe272596be075cffU,
  0xbcea7c6ebcce4ae9U, 0xbe292e15bb908710U, 0xbd72f4b4bd99b9c2U, 0xbe3ff76abe288c76U,
  0xbd981e7b3df929e2U, 0xbc0a887a3e25c065U, 0x3e09d75fbc6a2642U, 0x3cf9b03f3e31a109U,
  0x3d3adcab3d8bb974U, 0x3d124311be7e8bbbU, 0x3dc95b0abd3bb5feU, 0x3cc21c3dbe21bb53U,
  0xbd010e0f3cd492adU, 0x3d03b5a43db605f5U, 0xbe35cecf3de1af5dU, 0xbd63758bbdb34e71U,
  0x3d733ee23db887d7U, 0x3d8c36693dc27404U, 0x3c024b90be09c494U, 0xbd965c64bd9badadU,
  0xbe7544923db9f985U, 0xbe508f3ebe3065d2U, 0x3e00d6b33d81790bU, 0x3dce6a83bd5663d2U,
  0x3d0b60cebe51a4baU, 0xbe0edd1dbded49a7U, 0xbcc0a82ebe000e6bU, 0xbc8fc157bd8af602U,
  0xbdafc900bd4864c7U, 0xbe07d3e93c94fe9eU, 0xbd4f5c2f3db35a0fU, 0xbc81fe5fbda6ef16U,
  0x3c7b26983dbae385U, 0xbb1ea00b3d965964U, 0x3c89cd71bd980708U, 0x3cfd31643d18c46eU,
  0xbe217517bddecf09U, 0xbe147db0bdf9b061U, 0x3bee9bb4bd025d4cU, 0x3ce87696bd464e1fU,
  0xbe432d383b045678U, 0xbe3595cebd9cd907U, 0xbde3b3dcbd7099fdU, 0xbe80c755be597eadU,
  0xbe96db90be3fb12cU, 0x3d7d1767bd358a20U, 0x3e00ed1ebdec996eU, 0xbc467a77be04a1abU,
  0xbcd6ed793dc14336U, 0x3da64c543dfb6213U, 0xbe280719bc906639U, 0x3c8fca003cd32381U,
  0xbe1edc5abe7c110dU, 0xbde1f2b5bdd0d752U, 0xbd0240593ce69965U, 0xbd798dadbd4f94f2U,
  0xbead99da3d699950U, 0x3c431c1fbd11ac2aU, 0x3bb05d4abd58377bU, 0xbe77bc5dbe468a2dU,
  0xbcaf95ec3c88bb9dU, 0x3e4221263d0aa66fU, 0x3e113f703c3d8fe0U, 0xbbb19197bc2f15beU,
  0xbb5ee44b3c95a69eU, 0x3e04cba33c21a029U, 0xbdf037783d15b0d0U, 0x3deefdbd3ddaa343U,
  0xbd0fd1c9bcf670f0U, 0x3de27e543c9116cdU, 0xbb449d533daf4f0aU, 0x3d3635743d78ffe3U,
  0xbd5304e03e2b6739U, 0xbdd7f800bd8d4d54U, 0xbe052001bd5f299fU, 0xbd0d31433d7d9693U,
  0xbd93e90bbd926c15U, 0x3d1f527e3d45707fU, 0xbddbd20abde89330U, 0x3d7283a83deebd1bU,
  0x3dd3d8373daecc17U, 0x3d9187053db03979U, 0x3dbf9a16bd936460U, 0x3cab52843c270da0U,
  0xbd993c69bd8a32d6U, 0xbd65f6783cc8e60aU, 0x3d0c763fbc8ec166U, 0x3d85a3a63b2af0ecU,
  0xbe3d82b73d6666c8U, 0xbd3efc793de620bbU, 0xbe12db61bcb7c8caU, 0xbd84118f3c886503U,
  0xbd99e586bdebcd9eU, 0xbd1b0b94bd9ab5b4U, 0xbc153e703c63faa3U, 0xbd1b4871bda95570U,
  0xbb3f8b223c05d486U, 0x3d8e35e7bd6f930dU, 0xbd84ed0c3ccefdf0U, 0x3d94d421bddf7e7aU,
  0xbb9c69bebe1c1f4cU, 0xbbdd74a3be0f5073U, 0x3ca4964ebd8b2b16U, 0xbd30d8b1bdb3e4feU,
  0xbd823165bdd2c7c3U, 0xbd5b21ef3d0cbe08U, 0xbe6ba17ebe0037e9U, 0xbc10d93cbd758a90U,
  0xbceb603abd1743c5U, 0x3b12926dbd6b1982U, 0xbdb480a3bd77e285U, 0x3d6fdf93bde1c533U,
  0xbe2dcede3b5def4fU, 0xbcb6fbd8be03c9baU, 0xbd805a0cbceff13bU, 0xbdd561aabd1d4bd1U,
  0x3b5db61bbe57583eU, 0x3ce333c1be396e44U, 0xbd4ca4713b7344f6U, 0xbda567393c483cb7U,
  0x3c625a6fbc8aa9a8U, 0xbde1986cbe0e3487U, 0xbdf820b3bde77f46U, 0xbdc296cdbe2e4515U,
  0xbb5884f0bd6f35adU, 0x3e036413be8b04a4U, 0x3a583c16bda7ad1aU, 0x3d4d7601bd7bd1a6U,
  0xbe186746bd5edbf9U, 0x3d8829e9bdd10210U, 0xbca1eb99bd417933U, 0xbdfd5f7bbd2a4476U,
  0x3d18a9dcbd33764bU, 0x3d83b7993cbdb05bU, 0xbe26c059bdb810b1U, 0xbc42b2283d050c0eU,
  0x3da3955e3deb0eaaU, 0xbe4007b0bd4a5c99U, 0xbe378391bdb12e35U, 0xbd527efabd808d56U,
  0xbe2081e8be17d11eU, 0x3e26b2ed3ca8d219U, 0xbd9d0f7b3d9758c0U, 0x3d841343be1494c5U,
  0xbd4cec4c3b8422f3U, 0x3d453bd4bd35251bU, 0x3b3bfe8cbd3e1431U, 0xbbc976a6bb55ba9bU,
  0x3d9a622a3e3bce53U, 0x3de0395fbe04b489U, 0x3d9f533d3c8feaf2U, 0x3e38493e3ce90c56U,
  0x3d389de13ddbab2eU, 0xbe3779b83d99f76aU, 0xbe764c0abddae428U, 0xbdf80b753c8e818bU,
  0xbd596c1fbe0b2355U, 0x3e27e0bfbdbc232eU, 0xbc0a5e94bcb77f04U, 0xbcfe2d443daa759eU,
  0xbd1a27043d8cdf2aU, 0x3d8315bcbcc4b898U, 0xbd0c9d89bd421034U, 0x3dcacb9c3c7d5aacU,
  0xbc06055bbd2603ecU, 0x3da3c948bd3ad0d6U, 0x3d9b22edbe187f74U, 0x3e1e93e0bd31f6c6U,
  0xbdbdda273d18f92eU, 0x3e10688a3d97b6a0U, 0xbd516633bd9b3b4fU, 0xbdfe476f3c6680d6U,
  0x3dc089453bce26dcU, 0x3dfaf3febde38f8aU, 0x3da09e18bd415725U, 0xbcfddaf4bbf74277U,
  0x3d6d8b033c056306U, 0x3d3fd323bd5c89fcU, 0x3dc36b63bdbcfb22U, 0xbd754f933bb243e6U,
  0x3de77c1abcf74b9bU, 0x3dd79615bcfc2de4U, 0xbe05b07dbd4a8f9fU, 0x3e0e61793d0e3358U,
  0x3befdd353df5348cU, 0x3ddac42ebe01ca1cU, 0x3d69b1c3bdbee3cfU, 0xbe1cdca3bdd076b4U,
  0x3de04eb13cf4846aU, 0xbcaeca72be4a7f2cU, 0xbc8414873b76a843U, 0xbd8b5f2cbdcf6382U,
  0xbe13b816bceebac7U, 0x3c19290ebe2542e2U, 0xbcdfa947bdfd3176U, 0xbde95f48bd87e8e3U,
  0x3e3ac439bc37d732U, 0x3ddda4dbbe6ca67bU, 0xbe55c372bdb46b7bU, 0x3d8d132ebdd0a1a9U,
  0x3c6330a3bca70078U, 0x3d40e2e2bc28585fU, 0xbd89d100bca6328eU, 0x3e10e54cbde02323U,
  0x3d2339033b848e8fU, 0x3cc16570bd84e584U, 0xbdb9feecbd83d663U, 0xbd0d30543cb02e60U,
  0x3cb97f473d2af5d0U, 0xbc661a103c536f90U, 0x3dff6106bd74b718U, 0x3cfaf93d3d4055edU,
  0x3e3318bf3d8ddd1eU, 0x3d1cd045be712c27U, 0x3d3cd3dcbc40bf31U, 0x3cd34634be4966f2U,
  0x3d5afa203cba8f1fU, 0xbd0680f8bdd3d1bbU, 0xbe0201d8be1c3564U, 0xbd43964c3aaa884fU,
  0xbd8c2964be0a588bU, 0x3da3d2b5be226499U, 0xbe11d9f8bd93a8cdU, 0xbd87b1d23d57efb3U,
  0xbdbb73bbbdb08cceU, 0xbd120217be00d63eU, 0xbc2bc8b3bd6ba8bbU, 0x3d0683ca3d3fa268U,
  0x3d2c071dbd5b7295U, 0x3db7a46bbe2a5dbeU, 0xbe2e0a95be12b7ebU, 0xbd8593c7be836054U,
  0x3da0151e3da90961U, 0x3cfc58733c8d79ebU, 0x3df13134bd7ba7faU, 0x3cc86b2a3bd57a6dU,
  0x3b11d4b2bd765637U, 0x3d8375dbbe4e92b5U, 0x3d92a459be19bd7bU, 0xbd7351473df898e2U,
  0xbc89a5c33b9b2a3bU, 0xbd908b8dbdcfe6ebU, 0x3d4fc321bce63165U, 0xbd2265fc3ce6d55fU,
  0x3e0796483d4f34f6U, 0x3e0bc1ebbd95837cU, 0xbdec621ebd8782e6U, 0x3ddc2803bdd8a033U,
  0x3d5d69323dfad14eU, 0xbc64df4abc83dd1aU, 0x3d72f04ebe3a78ceU, 0xbb9c4c8a3ce988ddU,
  0x3d5c41303d00017fU, 0x3d3e5d9abd586758U, 0x3cb4b8dbbd40e057U, 0xbd679708bded019fU,
  0xbd92584fbd8b2b29U, 0xbc9f7376bdebb0b6U, 0xbe0c71e7bbc8e3ecU, 0x3c28d8f3bdabd704U,
  0x3d7ed33d3d9b4a88U, 0x3dfdf736bd3a4d64U, 0xbe077a2abda8d339U, 0x3e036e1bbd556276U,
  0x3d244c853dbc4bfaU, 0x3d1c9d62bd5bc7b9U, 0xbddabe3c3d1c3169U, 0xbe22b850be13dbedU,
  0xbc83c4fa3c2cbabdU, 0x3e353b07bd5051afU, 0x3de1ae23bd9ab312U, 0x3d234900bda55ea3U,
  0xbc816fb8bd50a4adU, 0x3d2582523d05e13fU, 0xbe12538f3c829016U, 0xbd5f5a3c3cc410e8U,
  0x3d745693be523193U, 0x3d960c73bbe40402U, 0xbe61fefb3d2f9103U, 0x3cfe788d3d332517U,
  0x3e1a6581bcceb2e4U, 0x3d8c62d03a981a43U, 0x3a48b01ebe7908dfU, 0xbe0881a2baa840ecU,
  0x3e1109b03d678bb5U, 0x3c5b248dbe486d50U, 0x3db41649bdbee6cdU, 0xbe3e04e2be701194U,
  0xbe0f7aa3bd245957U, 0xbc74ad9cbd73308eU, 0xbbef4394be63d3acU, 0x3d22bb09b9c7d663U,
  0x3e315d3bbe249259U, 0x3e02b7e5be7ea21eU, 0xbe6b2af7bafb3e2eU, 0xbb5184c5be0d3adaU,
  0x3d724b4b3e00d83eU, 0x3d1c50c73e0350ceU, 0x3e2b4719be7afbe7U, 0xbe94efce3c0c949cU,
  0xbe28bf67bcc37aeeU, 0x3df9319cbd6a7877U, 0x3d66b169be09f328U, 0xbe86b68cbe309b72U,
  0x3cd61063be2542acU, 0xbe14d49bbde1d2b0U, 0xbceb9e86be1234f6U, 0xbdb5ee03be502d09U,
  0xbddba0463d55faeeU, 0x3dc02664bddfcc14U, 0xbda5863e3d0cba1dU, 0x3df8054cbe5e484fU,
  0xbd6864013d7a7dffU, 0x3d5abc223d30e856U, 0x3dd82531bda96bb7U, 0x3cf0dc043deb42fcU,
  0xbdc32e0bbb95d710U, 0xbd63ab613d8f90d3U, 0xbe8e52f23d7485eaU, 0xbd51f9c0bdf1b103U,
  0x3d84f2a73cf1b7e3U, 0xbdb8d7bcbc86d982U, 0xbcfd62edbdcfc8d6U, 0x3cbbbdbbbe016647U,
  0xbdaf7f833e19dec0U, 0xbd82d4b3be1fa7e9U, 0x3da2457dbc4a1e2eU, 0x3e9269a3be46c6efU,
  0xbe6e4084bdc24231U, 0xbde6b7473ed59fa7U, 0x3e2327a2bcebb788U, 0xbe46d82b3e4553cfU,
  0xbe125aecbe261f13U, 0x3c0a5ab2bcc27294U, 0x3da6e23abe4c8e7dU, 0xbd8b9054be709e34U,
  0xbde1b0e7bd3634f9U, 0xbc0b1d5cbdb1c1ebU, 0x3dd42271bd22d31fU, 0xbd82c304bcea1cfeU,
  0xbd16d735bcc4e01dU, 0xbc388576bcbef32fU, 0xbc027b79bdf0315aU, 0x3db2e8aebc7843c0U,
  0x3becd71b3b252760U, 0x3ca72fe03ecd7cf7U, 0x3d73ad7ebd81c52cU, 0x3dc370d13ec0153eU,
  0xbd9e66f63d93c8e9U, 0xbd5e464e3d55f80bU, 0xbdcbd0073dce7fdeU, 0xbe22b7bb3d09831aU,
  0xbd8048f8bd196e2dU, 0xbd0ef30cb9462258U, 0x3e235e213d03086cU, 0x3d7fec53beade01bU,
  0x3db206643e30943eU, 0xbe0e1cb93ca46d1fU, 0x3dfa651ebd545437U, 0x3e3f0a21be341421U,
  0xbe09012cbe6106edU, 0xbd29a0503b5b5f52U, 0xbcb3ba09bdd3f09aU, 0xbc8d71083e3d6142U,
  0xbdb57062bd72a0b1U, 0xbe064309bd8ecac4U, 0x3d18fac83c02cf99U, 0xbd911d073c74c240U,
  0xbd784e483d49d5b9U, 0x3d677c6d3b3ac8a9U, 0x3dc68f273c97e43bU, 0x3de723c4bda2e415U,
  0xbe93ff633d1ad209U, 0xbe02731dbe3c7701U, 0xbc90c4b63ce83fe9U, 0xbbcca586bdf46bdaU,
  0xbd7a31fbbdbc9487U, 0xbe2631cfbda80d8fU, 0xbd0e626dbcd84677U, 0x3e0c3a9a3dae7facU,
  0xbe33e00cbe111c6dU, 0xbcea3c6ebd818ed4U, 0xbc1d4d5dbdc46b8dU, 0xbd6edeebbc97b6d9U,
  0xbd92dc20bcc5cfc5U, 0x3d87eb333d71c709U, 0xbe229e39bc955fe1U, 0x3b3e692c3c0e8b56U,
  0xbd91fd4e3d0d6bbbU, 0xbe7061fa3ba74035U, 0x3dae8cb3bc0fdce9U, 0xbdf5f126bab42e46U,
  0xbdc2c1f6be05b716U, 0xbc8b38203dd9ac07U, 0x3e50ea3fbe9111c1U, 0x3d9bbfce3e0b89faU,
  0xbca01b90bd577f92U, 0x3d4d6541bd9edec1U, 0x3e8a30a7bd72a9e7U, 0xbe3baadcbe5ce61cU,
  0xbdabaab2bdd16917U, 0xbe2150eebd34df0dU, 0xbc47e071bddf71b2U, 0xbe031fd5be12effcU,
  0xbbd6bcdc3df6d47bU, 0x3dd47681bb42012eU, 0x3c585325bd606611U, 0x3d3c9dc13c4c15c4U,
  0x3c14f8843d938982U, 0x3d66ffc7bcf5a6bbU, 0x3d4640a7be1a6200U, 0x3e98656c3e35d766U,
  0x3e01dbbe3d4fd851U, 0xbe1ce0b73d2a4267U, 0x3e24f121bd42bbc5U, 0xbdd7359f3db7ebc7U,
  0x3d0149e93d2ad21eU, 0x3c17f24ebcf56471U, 0xbc1b62b4bcbfbe86U, 0xbe230c393c2a8eb8U,
  0xbe0449d33d703389U, 0xbda39df83e073e54U, 0x3d8a31963ddd99f2U, 0xbd0185863dfebaa7U,
  0xbe6d0d923c86b4b3U, 0x3e02f631be84f1dbU, 0x3dd36d48be2674adU, 0xbc8f01ba3dc8b6d7U,
  0x3de3ac043cf69684U, 0xbe79282e3d317901U, 0xbd6176e2bdb76f0eU, 0x3c05e8d2bdd346a7U,
  0x3e3369e83c9469d5U, 0xbcfb2b363b24cadaU, 0xbe1f3209bd9a83b4U, 0x3cb70133be095452U,
  0xbe2c0f3cbd8d21feU, 0xbe9b60bb3d2a614cU, 0xbd166dc83d15b3b5U, 0x3d16fb8b3d13d9daU,
  0xbd4820f2be4c921bU, 0x3da425cabd775ca9U, 0x3dfbfdf2bd4e31f7U, 0xbe472fc9bdc0100fU,
  0x3e533d333e56e4c8U, 0xbebe0bfb3e2d5b31U, 0xbe877f543ddb3644U, 0xbd535b43bd073e26U,
  0x3d5838713d93c177U, 0xbd3cee6d3c8ec2a3U, 0x3c0499c5bc703f8eU, 0x3e0d4e09be8a1986U,
  0xbda66298bd2c4d03U, 0xbe47c82fbe067396U, 0xbd5cf9893e068597U, 0xbd1e5e21be004016U,
  0x3d9d0940bebd65fcU, 0xbe12430ebd9ff5a1U, 0x3e7ad0033d4e898eU, 0x3d9b7e4d3de86a11U,
  0x3bae0534bd5e6b71U, 0xbd45f23f3e14ad61U, 0xbd8dc704bdfb42f6U, 0xbe762083bd2041d8U,
  0x3d97f314be2cdffbU, 0xbe7b9a70bdbf827fU, 0x3dbecc4fbe21aeb0U, 0xbddfde07beb0097dU,
  0xbd96d0763e097757U, 0xbd7a9fd0be85d54aU, 0x3cb4abd13d13e41fU, 0x3eac6a4cbe8e7618U,
  0xbe5f9103bdb9863fU, 0xbd68a9c8bd1403e4U, 0x3dd44ef2bde42779U, 0x3bfee2d03bb961c1U,
  0x3e056313bc34dafdU, 0xbe2dedb63dceeafcU, 0xbdfb09613e07a131U, 0xbce55501be650859U,
  0x3dd09a20bd0122c3U, 0xbd440d0a3db7b199U, 0xbd22203ebe08874aU, 0x3e06a063bd5ebc3cU,
  0xbe88f2833e041b92U, 0xbe125f2ebe2d7c21U, 0x3d06781d3d41de46U, 0x3e369bccbe1af2ddU,
  0xbd8fbb9dbe10db00U, 0xbe172a20bd4c715aU, 0x3d3caed6be52bd9aU, 0x3d0860163d080c14U,
  0xbcc1e07fbe0290ecU, 0xbe1f65b43d1bde82U, 0x3dae5e23bd36b700U, 0xbb592699be5a9394U,
  0x3dc6f1603d5813fbU, 0x3c87c07f3def719aU, 0xbc0c3b503be55716U, 0xbddb927ebdbfcd9aU,
  0xbe62c63bbd93ae0cU, 0xbd777929be1ffb51U, 0x3e01d4453c8e9c0cU, 0xbdc74afcbd1ac2c7U,
  0xbdde6b1e3e2d72f7U, 0xbd8a93113d0870e6U, 0xbc177c81bce0a623U, 0x3c94530c3da3c11bU,
  0xbe0075cfbd09f8dbU, 0xbe326440bca1c0c5U, 0x3db875ec3b0a485eU, 0x3da7b947be79be38U,
  0x3dc7912f3df69a3fU, 0x3c0338213dac003dU, 0xbd0cc685bb05812dU, 0xbda9f472bde97fe0U,
  0xbddce5d2bc55cec3U, 0x3db156dcbda48844U, 0x3e3528acbd8270a5U, 0x3d8569febd2a46a8U,
  0xbe81605fbdb2411aU, 0x3bfe3a10bd03dc8bU, 0x3d0574fdbdcb63ecU, 0xbcb1e37f3d042947U,
  0xbb5a430dbd735bceU, 0xbd87c73b3daab438U, 0x3d3779ea3bf08fe9U, 0xbd747aaebdfef5b0U,
  0x3ca9780e3d3eaf5aU, 0x3bfb49403d99ea07U, 0xbe2da0febd1e30d3U, 0x3d2afd61bd57b91fU,
  0xbdfd760f3cf3e5dbU, 0xbe1a465cbd44d130U, 0x3d535c243d2cfb40U, 0x3da03c6d3dd7b462U,
  0xbe2331b7be14b0baU, 0x3e18a9b63cbeca9bU, 0xbd8cab5dbd03fe51U, 0x3d9e520dbd026209U,
  0x3c6d7ade3dcfaa6cU, 0x3e062ea43da7c823U, 0xbe074d8b3dfc8182U, 0x3d983075bc2b46fcU,
  0xbb6e8edebcb848a0U, 0xbb2f1a96bd24b548U, 0x3d4a5368bd87a41aU, 0x3d81afd8bdc9dbcaU,
  0x3c4f4979bc79d2e1U, 0x3e25442ebdb348fdU, 0xbc50d4fc3d53d225U, 0xbce88522bc8a691eU,
  0x3e2ee0063d08d0f4U, 0x3d96066b3d5efd21U, 0x3d971610be1cc269U, 0xbcfb60233e85f80bU,
  0xbc0e57733e16b0baU, 0xbda3e59bbe017af9U, 0x3d1ad397bda8f212U, 0xbc9314aabd8e9fb9U,
  0x3da9dd56bdb8bc5dU, 0xbd9a1f43b7a79ca2U, 0x3e2ef273be055851U, 0xbda7be30be4115a7U,
  0x3e452ca43d13737dU, 0x3dd6387bbe0a6d4bU, 0x3c98202e3d1630c0U, 0xbd1d79bdbe24270cU,
  0x3d2f3e17bcc74847U, 0xbe5edb733c323848U, 0xbc47e362be859b2bU, 0x3d88f1a43dd848beU,
  0xbe3462bbbdb68d3aU, 0xbe649da43d0b91e2U, 0x3d19924bbc87f7e7U, 0xbe183398bbe64deaU,
  0x3d47c95e3ce94dcdU, 0xbda296d23d33265dU, 0x3ca4821e3cbcf3faU, 0xbd0111a03d52210bU,
  0xbe8bef6a3dc0bb8bU, 0xbde1309f3e174932U, 0x3d86e9bf3d8547e5U, 0xbdba48f5bd976465U,
  0xbdb86607bbc88181U, 0xbdbe403abe870873U, 0x3d670293be04848eU, 0xbd93f078bdfed10dU,
  0xbdb85fffbe23c4f0U, 0xbd7c8d863d97a0a5U, 0xbd5207afbcc02819U, 0x3c172a2bbe9d1921U,
  0x3c831a1b3ce90da0U, 0xbc4d5e083d8b4988U, 0xbdf1a673bcce8dafU, 0xbd666a9dbde1ab09U,
  0xbeb7b4df3cbb7c42U, 0xbe69f331bd5493abU, 0x3dbb03f13d86fe6aU, 0x3cbb5560bd36726bU,
  0xbbc57160be26eb3aU, 0x3d199a543da57687U, 0xbdf987afbdecdbdeU, 0xbdf09eeabc9d13f7U,
  0x3dbc74bb3d3e0980U, 0x3d264f4f3d8217fcU, 0xbd9330d43cd48931U, 0x3e0e1577be853483U,
  0xbb152770bc10f984U, 0x3d5b62cfbd379fb0U, 0xbd2d2400ba561019U, 0xbc8bb9a0bded1755U,
  0x3dc146643d4fcf50U, 0x3e0f5694be7c04c8U, 0xbd92ee7e3d8172a3U, 0xbe41ede5be24dc6dU,
  0x3e127fe3bd5ad4c5U, 0x3ba375ec3d9a1a99U, 0x3d90eac3be191424U, 0x3e437b5f3e8f681dU,
  0x3c7cff503d2a96f8U, 0xbe241073bdf17feeU, 0xbcca0691be0ef347U, 0xbd0a93a7be344887U,
  0x3be67344bd31718aU, 0x3cb16350bd8a6dcdU, 0x3e484398bd99c524U, 0xbdb2d484be31c63cU,
  0x3dbce1b03d581061U, 0x3b6de999bddb0645U, 0xbca82a063ca0252dU, 0xbde8c17fbe290a22U,
  0x3d9bb40d3d394f0eU, 0xbdb8bbd5bd920c03U, 0xbd636260bdbb27e9U, 0xbc7cb6d6bbae1655U,
  0xbc7d348bbcf76015U, 0xbd862e2abd7a76a5U, 0x3d695069be50a065U, 0xbd9395d9bde7cbc3U,
  0x3d26e43fbcb31c90U, 0xbda8591bbcb62cdcU, 0x3e26e398bdb28f68U, 0xbd84484ebdbbaa5eU,
  0xbd65aa87bdb13ba7U, 0xbe0ac1513e01edc6U, 0x3c85036b3d02febfU, 0xbc7c6680bce71b7aU,
  0xbc822b8b3dd5d0feU, 0xbe52e758be19335dU, 0x3d9a437ebc4a13a2U, 0x3d84a6dc3d6d0283U,
  0xbe8265e1be7fa51dU, 0xbd832448bdfd68f9U, 0x3d23a3a7be336f82U, 0xbd31d1b9be8c0cc5U,
  0xbdd8343bbcc2f885U, 0x3c8d2c363d163470U, 0xbe5272f4bc51157fU, 0xbd619946bda0791aU,
  0xbedb7fb73a80d752U, 0xbea56e2e3de98d2cU, 0x3d9fe4c7be755df1U, 0x3ccb4e0d3dcb9334U,
  0xbdeb3a0c3c11be69U, 0x3d8357b93d40d461U, 0xbe3d99b5bd6a6019U, 0x3d03cccb3d809c40U,
  0xbcc5ad553dcb44d2U, 0x3e42b98abe62598cU, 0x3d7fca09bca59a39U, 0x3d37f535be21586cU,
  0xbd1f90893cd59da0U, 0x3dba0d0b3dc1f844U, 0xbe0cb01fbd7a9e7aU, 0xbc0e899ebe0698baU,
  0x3d94f810be00eee1U, 0x3e40563abd083e8dU, 0xbc7d78f63d167fc9U, 0xbe247ed4bca62acaU,
  0x3d1c4cbbbc2b6cd4U, 0x3d3cd9a63ccf6235U, 0x3d1398eabdbac0eaU, 0x3dd0d9043e8bf5ccU,
  0xbd7fb65dbc82de95U, 0x3d988692be96972aU, 0x3d65de00be5ddc1cU, 0x3d1a53f1bd4a138cU,
  0xbdcec606bc823924U, 0xbcd1bdc73cb684a4U, 0x3d83f7c4bdef412eU, 0xbd8c99bfbd98c5e1U,
  0x3e359115bdab9900U, 0x3e00b895bde20664U, 0xbd43147bbdb2b5d5U, 0xbd770b63be034531U,
  0xbc870e823d93ad29U, 0xbc1bf8aebc953b1dU, 0xbd998bcabe1ff479U, 0x3d192d62bba9744bU,
  0x3c0520753b8023c9U, 0x3d93016fbe4bd01aU, 0x3df87f23be4dfafcU, 0xbd938cbcbdeeb52bU,
  0xbd820b78be0fda16U, 0xbcb5058bbdb09dc9U, 0x3df16510be52eb74U, 0x3d044cabbcf79230U,
  0xbc8ce7e4be0b0c13U, 0x3d59f12c3c7ff43dU, 0x3d1d00f5bce5e4c9U, 0xba4ad39dbd8d624fU,
  0xbcb0de943e05f445U, 0x3dcf9f07bea13ad8U, 0x3e861947be1b2d8aU, 0xbdbf518bbdf1d4d9U,
  0x3d4bb6bb3d34dc6aU, 0xbc89d3d13e27b390U, 0xbbe8b938bc963ff3U, 0xbb30fa09be6ae943U,
  0xbcb234a6bd368d3aU, 0xbde331503d9ae9aaU, 0xbd34249abe3e21efU, 0x3c1bb1d4be055aeeU,
  0xbee60c2c3d991a67U, 0xbec7308cbcc5fb31U, 0x3d52fe923d3a7a1dU, 0x3e63587abe197f25U,
  0xbd9db5f1be023ae8U, 0x3e0f742cbd924a21U, 0x3d0be85bbe1564b8U, 0xbe71df5bbcd1fdd1U,
  0x3dd8a8e93e27c716U, 0x3cd62e6f3e007933U, 0xbde748e7bc69dbe2U, 0x3df012e4be873c98U,
  0x3de5594dbd88bad6U, 0xbc8b719d3dcf48e4U, 0xbe24ccb0bc4e38e1U, 0x3cc5b437bd20cc18U,
  0x3c2597e1bd6fffc2U, 0x3df9ede7bda3825eU, 0xbd8677443d1025b8U, 0xbdc012a6bdb678f2U,
  0x3e5be0dabd8269b8U, 0xbe2db8463df09913U, 0x3d9848f4be3bf218U, 0x3d140a7e3e0dcdfcU,
  0xbdc39f67bd60f85bU, 0x3d2439c53db157f7U, 0xba218805bc87ddeeU, 0xbc138bc3bdab6c62U,
  0x3d2f1a9dbd9e6405U, 0xbbb70f933b5ac061U, 0x3e4a5bc4bdf4b5b5U, 0x3be85b51be318516U,
  0x3e0461a8bc56c6a4U, 0xbcb7c5c4be3b0236U, 0xbd16755b3d6ffb41U, 0xbc5e0d36bdc71fc3U,
  0xbd9a77773d78d45fU, 0xbcbbd4debe0f1e23U, 0x3d9aebd9be09cbb7U, 0xbdd079a4bdd6868dU,
  0xbd6530ec3ceda6faU, 0x3d9ed9193d5d83afU, 0xbd5a0aaabdab9325U, 0xbaa16a89bdc3383aU,
  0xbd10001cbe262ce0U, 0xbe11b03fbcd46e63U, 0x3dfb0833be3dc94dU, 0x3d593488be85fd7bU,
  0xbdb36f66bdf98f8eU, 0xbd8309b5bea72225U, 0xbe2bcfd83d7f63a9U, 0x3e0b4093be9dda92U,
  0xbdaf48c23d5c8871U, 0xbe91b94bbd61d81eU, 0x3dc1a2afbcd2c225U, 0xbd5d639f3ce632e0U,
  0xbe1512e1be9aafc3U, 0x3cf110c6bc1f34f9U, 0xbd2d1cd4bcbb1e5fU, 0xbcdd1b2fbea6a4ccU,
  0xbd9ddf57bca13764U, 0xbe4add59be0756e9U, 0x3da6554cbd1e3c0cU, 0x3d339e46bdb5da00U,
  0xbd219ab93d6ffb2eU, 0xbe26d038be390e2dU, 0x3de7f33bbe2c0c6aU, 0x3da6cfb3be2eaf4cU,
  0xbe688deabbc5264fU, 0x3dc1cc10be41e9c8U, 0x3b1b5062bddbd00fU, 0xbc6922d5bb004335U,
  0x3b28d3eabcdb938eU, 0x3d8057023d68693aU, 0xbe4e531ebdd18a33U, 0x3dc6f095be39840bU,
  0x3dec30273d66e29fU, 0x3d3b051dbd4664d9U, 0xbd581981bce62c09U, 0x3d8348efbe5be34dU,
  0xbda9cb1abd0e7a4cU, 0x3c908045be1f1c67U, 0x3d5eba24bd472080U, 0x3d64dc34be2d3c28U,
  0xbcfd3b30be46b3e3U, 0x3e4bfab73e949800U, 0x3d9094b1bdf728eeU, 0xbe023b543da64aa5U,
  0x3e0565d43da11a2aU, 0xbde4cab0bd6b2dddU, 0xbd2ffe83bda22d8cU, 0x3df98c70bd6bb762U,
  0xbce5a7743d6a9428U, 0x394ed2f4bc85c0eaU, 0x3d5388a9bd8ee398U, 0x3d622581be1ff3beU,
  0x3e869c18be4d7fdcU, 0x3e3e8435be024d4eU, 0xbdbe6601bd3194aeU, 0xbe4b9f95bd788fcfU,
  0x3e32a87b3d4baadaU, 0xbe46fa6f3d6aef1eU, 0x3da919efbe3c800eU, 0x3dadb6833e2aa3ebU,
  0x3ca605cbbdabe03fU, 0xbe7b6cb2bd8b7796U, 0xbd57067dbdd61ebfU, 0xbce9de73be2d7a42U,
  0xbbb36b0abe02be07U, 0xbcca61b6bdab05ebU, 0x3d8665bbbd13e429U, 0xbd108b803a5fce9aU,
  0x3d372c403ba3a3cdU, 0xbe358cc83cfbbf62U, 0x3c9e84d93db058f4U, 0xbd799518bd2e32b9U,
  0xbbb405503c6abf0fU, 0xbe16439fbe151597U, 0x3de13632bda314a2U, 0x3d7ffcef3d97162dU,
  0xbe8235f2bdcc56ffU, 0xbd582309bbb7f853U, 0xbd6630e43d15b386U, 0xbd217ab73ad8f19cU,
  0xbdbb0f1ebd0aff96U, 0xbe0d31bdbc29848aU, 0x3e2cdf92bd2685d2U, 0x3da0b50a3cbb0c97U,
  0xbe03c7173ded92bcU, 0xbe00decbbd7878d7U, 0x3d33ff483d92ed27U, 0x3d27a9f6be1f5f0cU,
  0xbe1e5859bdda43a1U, 0x3c06091fbca19331U, 0xbe002dc3be08f39eU, 0xbd1259f6bd110e0bU,
  0xbda8aab6bd312d3eU, 0xbcba2db2bccd87c5U, 0xbdfec98fbc647c0eU, 0xbc83107abe502f93U,
  0xbc048b1e3cad872bU, 0x3cdbe9d73d445f3fU, 0xbcfcddd3bd4eae2dU, 0x3ab58984bdbf5e3fU,
  0xbcbed581bc9dcfd5U, 0x3c61c329be0fa838U, 0xbca0dbbdbcfb74afU, 0xbdb26dedbcf34c72U,
  0x3d9bd392bd90c93fU, 0x3e0b6ec83d8e680eU, 0x3d393f45bdb78617U, 0xbde5d6093e248ea3U,
  0x3d3f08a53e34bee7U, 0x3d849346be054ff5U, 0x3c86210fbd14406cU, 0x3bda7694bd05f0ddU,
  0xbd16e0eb3d287b4bU, 0x3d8378dbbd409810U, 0x3cd0089bbd69b49aU, 0x3c37bdb5bda9ecebU,
  0x3e1009b6be0a465aU, 0x3e4986ecbdecb91eU, 0xbddbd994bd7cba8fU, 0xbdba0facbdc65b16U,
  0x3df19378bc6686b2U, 0xbc341f3e3d2fdbbfU, 0x3e1843cabddde93fU, 0xbd20756c3e4ecbb9U,
  0xbc393be13bf6ad26U, 0xbe106b30be265fd5U, 0x3ce08068be5c5837U, 0xbd9c7fe0bdca7486U,
  0xbcf2c932bdfe14e6U, 0xbda3dab6bd8932ddU, 0xbc5936a7bd59cf05U, 0xbde47458bdf7ad40U,
  0x3e3241a4bd6fcc84U, 0xbd14b7e2be1b5af5U, 0xbd7e6bebbd531925U, 0x3d992c7ebdf693f5U,
  0xbdbf9c203e0782f2U, 0xbd8d66c4bc2af827U, 0x3e11bc0cbd312c88U, 0x3da222813e38df96U,
  0xbe9bf86ebe4f0106U, 0xbc231cf5bd7431e3U, 0x3be3df64be7d6ccaU, 0x3c87db8d3c8bc2f5U,
  0xbe2586b8bd1bbab7U, 0xbe0813d9bdd25d89U, 0xbe1ad2d93bc6e44aU, 0x3c851d08bc13f13dU,
  0xbe4ab497bcc83c2eU, 0xbdddac9fbbf02eacU, 0xbce17f10bd80a01bU, 0x3d8ff156bcca382cU,
  0xbe801091bdacafa6U, 0xbd08abefbd47de4bU, 0xbdfda7adbd6c6c80U, 0x3d2274733d73e6feU,
  0xbdf04537bdf7f456U, 0xbab0ed24bd2fcff0U, 0xbc37f260be1fbdb2U, 0x3da15d3dbec0b6eeU,
  0xbe2a8c0dbcc01f8eU, 0x3d1c144dbc70016bU, 0xbd8c1b81bce9cb38U, 0xbbde6bf0be46866aU,
  0xbd5b6df2bda487a3U, 0xbd8dbd9abd993201U, 0x3dbc69b4bb803ae3U, 0xbd21e0d8bb8bc423U,
  0x3c6d0e15bd2f098eU, 0xbc0781353ce8705fU, 0xbc5a4394bd8787e8U, 0xbc20ba013d51613fU,
  0xbbb8b9c93db078d3U, 0x3d503c95bddb4da7U, 0xb90b27303d5ed0d3U, 0x3df43f97be040bb3U,
  0xbd3b201fbc88c4bcU, 0x3c9b6328bd837aecU, 0xbc66802abbe9fbaeU, 0xbc8ce648be6701a5U,
  0x3bff28f0be1b31faU, 0x3d91673bbdcd3b34U, 0xbe073599bc00519dU, 0xbe1b4792bdd6cee2U,
  0x3d6da9943c73ababU, 0xbdde9a993cab6d50U, 0x3c6976a8bd779659U, 0x3cb5eb2e3e386d8fU,
  0xbda0fab33d13c3eeU, 0xbd1bc655bde82bdaU, 0x3d8955d0be1e7ea6U, 0xbd161c7bbdf8f413U,
  0xbd344b2fbdbd984bU, 0xbdbf45533cc69c79U, 0x3d9977f7bd422308U, 0xbe4b1ef0bdec715cU,
  0x3d56285e3dcd25faU, 0x3a64acf4be2a1402U, 0xbdb2bf843d89a47fU, 0x3d1bcde5bcd26f33U,
  0xbe2bdf573e6e7e36U, 0xbe388705bd22740fU, 0x3e592f81be185374U, 0xbe08ec8e3e03a6eaU,
  0xbde5de83bea72f14U, 0xbe442d54bcbd8918U, 0x3d3f587abd0f4851U, 0xbdc4e075bbe1ceadU,
  0xbdbd58d6be1af601U, 0xbe508cdfbe8df84aU, 0xbe864402bd04bb25U, 0xbe0ce769bd122a2aU,
  0xbeec78f53c92990bU, 0xbea05ad63df80f1aU, 0x3c00f95fbe1cd9a4U, 0x3e3e7185bd438f41U,
  0xbeb7539dbd046b3aU, 0x3cb17c783b9de992U, 0xbd78861ebd1a4e21U, 0xbd0b87f6bd1f75a0U,
  0x3d2fec4cbd936400U, 0xbac8d9333db48fd0U, 0x3c9e3358bdc2ad48U, 0xbcf60e41beb162dfU,
  0x3d837de8bd050e23U, 0x3ba42679be295b6dU, 0xbcc09cd93d99b8beU, 0xbd9e87e7be05b3dcU,
  0xbc4f337d3b712f26U, 0xbe23acc23d2f75feU, 0x3d18c9283c07bd85U, 0x3b0064173be3e857U,
  0x3e11e91bbcf49609U, 0xbdac11c63cc2b9c7U, 0xbd2054fcbe578194U, 0xbd979b693a80c98dU,
  0xbdccd2dd3d0e6bbcU, 0x3d492a78bda1447cU, 0x3d3a0c3abd877e5dU, 0xbcf9c9f73d15837bU,
  0x3cf0a112bd8c854dU, 0xbd051672bdb914a9U, 0xbd9d7e2bbe1c7f27U, 0xbd7362ebbe643593U,
  0x3d7b1444bdf1e63fU, 0x3d7d87b6bd2d1027U, 0xbe93fe8ebe016d76U, 0xbdcb7028be2dcf58U,
  0x3c900fbb3d84f18eU, 0xbe911f153e02194cU, 0x3cfe586fbdf5124fU, 0x3bcdfa513bf852ccU,
  0xbe5ae22ebe47bed7U, 0xbd813c81be599d25U, 0x3d77b07ebe236a72U, 0xbdeaf0adbd91c651U,
  0xbded3b96be42015aU, 0xbdef2494be75bfeeU, 0xbcb16e6bbccb5f01U, 0xbe9bcaa8be43e944U,
  0x3d8728113cba33d9U, 0xbdabacd4bdab75fbU, 0xbd8e80e0be8818b9U, 0x3e149a18bc25f658U,
  0xbe9789943de96afaU, 0xbe7771253bfbec7bU, 0xbcc0ded4bdbabce2U, 0x3c8f4836be523da2U,
  0xbe34c7b6bdb44926U, 0xbe2ace323dadcc3fU, 0x3d38a21ebd9508c4U, 0xbd901a4ebe1915e7U,
  0xbdd8dee9bdfef751U, 0xbe396c4ebccd4306U, 0xbdad037bbd942517U, 0x39722497bd939e3eU,
  0xbe4104043d8147aeU, 0xbe1437b23cc83114U, 0xbcc0fde53e2c03a2U, 0xbc8a04df3d4756f5U,
  0xbe00ecd23d79d9b1U, 0xbefa0b12be44a89fU, 0xbe07b8c1bd8efa55U, 0x3cd90121bdf14a65U,
  0xbe9043db3dbb6751U, 0xbec6f4343ba2147aU, 0x3daaa215bc3bdabfU, 0xbd64fb6dba6c50d3U,
  0xbd39fd8dbc97c0b7U, 0x3c19aee53dac74baU, 0xbe9050413d1eeafcU, 0xbced10aa3d0df2f8U,
  0xbe4cfb633de2f392U, 0xbec30ab33df50f0aU, 0x3defa63f3d5d5a8fU, 0xbdbdfc923dd3c283U,
  0xbeec680d3e276570U, 0xbd9011a5bebccec6U, 0xbe215cb9bda2d831U, 0xbd542084bd738c42U,
  0x3db15b673a1a931eU, 0xbe1fc098bc9052c3U, 0x3d070757bc42b2d3U, 0x3cd058f6bccc075fU,
  0xbca2b94d3def9bcdU, 0x3d41c3383cc8e96cU, 0xbdfc67c83d2bce29U, 0x3dc949ad3cfd8a6dU,
  0xbdae143abd85da1dU, 0xbe64cbbf3d41ffd4U, 0x3e03b851bdd7d777U, 0xbe9399783d517cefU,
  0xbd9d38d13d997b1fU, 0xbe47bdcdbf036f8eU, 0x3d200f4c3d3c4d14U, 0xbe270797be4298f4U,
  0x3daa83233d2f42f0U, 0xbdf0c41e3dba0615U, 0xbd9bf9a3be2ea0c9U, 0x3dae069bbe2c3046U,
  0x3e8c27273cd8f7f1U, 0x3db013173cf31cc0U, 0xbe01a1b8bc7b5aeeU, 0x3ce5c41abe4657dfU,
  0xbce27eaabe120918U, 0xbdf4d3433da42c95U, 0x3d9b2d7f3d925a9eU, 0xbe391c2f3d62826fU,
  0xbdf4fcc6bdcb9ac6U, 0x3e604968be570679U, 0x3dcb721a3e0baf01U, 0xbebf57eebe2ecd8bU,
  0x3dcffaf53e1cb6d9U, 0x3d801792bdf9ecebU, 0x3c8236f6beb69e07U, 0x3dffe0dbbde516fbU,
  0xbc0ef579bdb31bb9U, 0xbd0ac45abe4ad97bU, 0xbe1f7486bd9afd27U, 0xbd75fc34bddd8fc0U,
  0x3d1668c2bdb05063U, 0x3da2ff503e0835a1U, 0x3dac9bd93dad8621U, 0x3e12a76abd7cc468U,
  0x3d1c417a3de11868U, 0xbd374cbbbe826d3bU, 0xbdcbf3ebbd9226c7U, 0xbee104a6be8bbadbU,
  0xbd47bfecbdaac112U, 0xbe6202b7be65bc70U, 0xbd44aac7beca3794U, 0x3da601dbbdc40bf5U,
  0xbe38570fbdfffd9eU, 0xbd527da5bec75912U, 0xbecedefdbdf3f95dU, 0xbeddc6d3be0e7bf4U,
  0xbe0d4838be64629cU, 0xbd8c2e603e13724aU, 0xbcafa933be3ef520U, 0xbc673e0c3e101829U,
  0xbe9f27373e3856dfU, 0xbccce3f53d98da0cU, 0xbec0394bbdb4c8f9U, 0xbea7ff0cbc86a591U,
  0x3c90f8603d3e8705U, 0xbe2d05dfbe605257U, 0x3d7ce4f6be2f0380U, 0xbe1134aebe8fd8faU,
  0xbe9f17c4bcd29854U, 0xbe12e6dabdcce40dU, 0xbf274668bcb68215U, 0x3cdd3782be44d120U,
  0xbed3bce1bd1de0fdU, 0xbe5b65da3d16ac74U, 0x3d32f531be23cb43U, 0xbe6e02943e28a251U,
  0xbe5b1a0a3d62bebeU, 0xbe6d987b3d7f11a0U, 0xbed790d0bcb9afecU, 0xbe0840c3bd922a54U,
  0xbe479d7cbe52e69dU, 0xbed18c19be3acec1U, 0xbc056ede3dd18e47U, 0xbda9e3cfbe1007deU,
  0xbddab61b3d6e5b3aU, 0xbd9f106d3e000b6dU, 0xbe4701603cb2c831U, 0x3d851a4bbd83a0aaU,
  0xbe8786213d62dbbeU, 0xbeb629c23d8406f1U, 0x3d9e5351be5fc064U, 0xbe7a782e3d9d83f7U,
  0xbe330e9fbdba1851U, 0x3d927d9bbe820888U, 0x3d4204bdbdbb2897U, 0xbe38d01ebe3a65cbU,
  0xbe3349d03d3a6782U, 0x3dc52325bddd5d21U, 0x3d9d8296bdf03340U, 0xbd2122cdbcf54a12U,
  0xbdc7d81bbd4e064aU, 0xbd825763be2ceba7U, 0xbde69b03bdfd98d8U, 0x3d033d55be2efe8fU,
  0xbd775329bd03925bU, 0x3d86ad49be35c01eU, 0xbddce3653dc57f7cU, 0x3d27797dbe1fedf1U,
  0xbd19a925bc6863b9U, 0xbe0cdb83bdde7884U, 0x3d30f3a7bdd18d12U, 0xbe84f3d0bf016e9aU,
  0xbdf0d1edbde5a79dU, 0xbd04502abe3bc3bbU, 0x3cf549a6be26d192U, 0x3ce676c9be617282U,
  0xbe1f8eddbdc75a83U, 0xbdc955fcbc6a27a2U, 0xbe4400dbbe18fdfeU, 0xbd5e9557be94829bU,
  0x3c240c9fbc53c6c1U, 0xbc9faaf5be888be8U, 0xbe153371bd6f7447U, 0xbd215f11bdb7de40U,
  0xbea27ad2bd1452f2U, 0xbdd84de63db8bcbaU, 0x3ca3af22bd2bb623U, 0xbde4d94dbd284196U,
  0xbdf0290dbd8266e9U, 0x3d547c8cbd1657cfU, 0x3e10aeef3d282e0cU, 0xbe154c37bd37ada3U,
  0x3c48376ebc0a5b31U, 0xbe61e55d3dde8bb2U, 0xbc83e556be46a4d6U, 0xbd4f65e7be2b037dU,
  0xbd69cb083e3ead83U, 0x3bf06204be24c668U, 0x3d2dcf203dbb6e09U, 0x3deb5e3fbe4854a0U,
  0xbe9918083dd2b59cU, 0xbe0644a3bc07dd67U, 0xbd22fb12bd2de2e5U, 0x3d13fc8ebc892712U,
  0xbd6062f33d02c13cU, 0xbcfaf3ce3d2e6c37U, 0xbd9b65263dd07f3aU, 0xbe41f8de3db1f438U,
  0x3c9861ed3d673d7eU, 0xbc1aabe33d76fbebU, 0x3de25e1cbc24a843U, 0x3d84dc893d51295aU,
  0xbe0cd9ec3e442da1U, 0xbda44f3b3c78da43U, 0x3d30903cbd974e8fU, 0x3d22beb7be0db534U,
  0xbe0608953c2bccfaU, 0xbb5bf72fbe631f85U, 0x3dcedec0bded5608U, 0xbe8cadeebdef272bU,
  0xbe0250adbd5c1bc7U, 0x3deb268cbe67eb29U, 0x3dd2e709be3c48f0U, 0xbe165b00bd278fa9U,
  0xbe1f8d70bdd1bfc5U, 0xbda6b1dbbe74abb2U, 0xbe08fbb6be0cd938U, 0xbe0da693be4e34aaU,
  0x3cc099933d6ecf73U, 0x3d944902beab3569U, 0xbe1f428bbdc596b0U, 0x3d846fc6beb6deb0U,
  0xbdeb49f33c84e0cdU, 0xbe08f39dbd827bd3U, 0x3e3dcaf6be039e9fU, 0xbea7f16ebe18baf7U,
  0xbc9cbfb6bd8a659dU, 0x3df15e483af4ca01U, 0xbd3e1545be2299d9U, 0xbcb01b49bdc369eaU,
  0x3df75bb2bdcd8184U, 0xbde18dc6be2e1916U, 0xbe2e32bebe554750U, 0xbe28e126be472a67U,
  0xbcb6be2a3ca5753eU, 0x3d09144cbeaa06ffU, 0x3b46fe10bcdc1be9U, 0x3e35fe02bea60596U,
  0xbe5e9b1dbb8dfd91U, 0xbd94b5ff3da3cdc1U, 0x3e6d5ec2be1a4afbU, 0xbd2c74913da6662bU,
  0xbba3acb9bd5dd2a7U, 0x3e25c7d73cfd55bcU, 0xbd408f7e3da9d2fbU, 0x3d64eef8bddb7b90U,
  0x3cff2cc63cdeacb1U, 0xbd65a14d3d1bc7e5U, 0xbcacf70fbe65e5faU, 0x3e6929bdbdad5702U,
  0xbd14b4d43d9ff249U, 0x3d94447abd779ccfU, 0x3da50dc9bc3693adU, 0x3e3cf7ffbe237aabU,
  0xbda960d4bd3057a8U, 0xbe0d0cc03db4ccf3U, 0x3d972f7dbddc404eU, 0x3d545c693db2e119U,
  0x3b2a0fa3be3e5213U, 0x3e5ca28bbd80d0b0U, 0xbd8f8ee93d0e5659U, 0x3dabd028bdd5d011U,
  0x3dcea4fe3cb64eaeU, 0x3dea08643d9203d3U, 0x3e0e8683bdd31f89U, 0x3d3c06693d98aeb5U,
  0x3e5657653da0f8f7U, 0x3dd4e59ebd8ace7aU, 0x3d557cc33cc50b68U, 0x3da7d6c4bc9d4553U,
  0xbd8eb821bd04bbedU, 0x3af4441e3d085a23U, 0xbbacbeb83d167f96U, 0xbc926823bd8ea10fU,
  0x3d3a147abd96b526U, 0x3d5a1650bcbc8eabU, 0xbc2418f73c8d4fa3U, 0x3deb7effbca99d3fU,
  0x3d3814de3dbee357U, 0xbd1d91a6bd830894U, 0xbe7d4971bdd4c91dU, 0xbdd449efbce11301U,
  0x3df064a03e23a3beU, 0x3cff38b4bd13e56dU, 0x3dc24e96bd99907fU, 0x3e35c982bcaf9a5cU,
  0xbba6cf0d3d6da204U, 0xbe811b32be0d41a3U, 0xbdbbcad0bdb377e8U, 0x3c97bbedbd6d2b43U,
  0xbe8ad183be042b58U, 0x3d39807e3d753d84U, 0x3d670af33e077a4aU, 0x3e23098bbdab8104U,
  0xbd6938563d57f4bcU, 0x3deec0253d407da3U, 0xbe61e5ba3d84faf4U, 0x3d8ad613bc53c81cU,
  0x3d9551613e0c3b8bU, 0xbd66e1323d466364U, 0x3e506320bd72b0e4U, 0xbdb9f6aa3ba57c90U,
  0x3d15479dbdeb72bcU, 0xbe086596beaff3dbU, 0xbe3e2c47bbce80e8U, 0xbe689bfdbdd00dacU,
  0xbc0b0345be0a5d3cU, 0x3cae4b0c3c2c29a4U, 0xbd7c044abd05c6a9U, 0x3df0a6bb3db4a07aU,
  0x3d197e643dc8a3c7U, 0x3df9d94dbdb9b7a2U, 0xbd8ab2673de9ebe5U, 0xbda5fd10bdf43ceeU,
  0x3de81a8bbe106a10U, 0xbd560b26bd7ab12cU, 0x3e0822193d144698U, 0xbeb81340bdbcf1d6U,
  0x3d28a2f1be443cd6U, 0x3e023c50bda62c64U, 0x3d9b2df63da98d16U, 0xbee8b9d2be41304dU,
  0x3de9f7193d4cb9feU, 0x3e31d8053d8141a3U, 0xbe6980bbbc9b1616U, 0x3d802415bdf03911U,
  0x3d9bcfcf3e04776cU, 0x3dbc25f9be2041c9U, 0xbaada1403d6308b8U, 0x3b3b11f3be16b338U,
  0x3e05627ebd318257U, 0xbdbaa4e0bc04e5c5U, 0x3db9eefc3deecfeaU, 0xbda5edccbdff7d71U,
  0x3df2a394be390fe1U, 0x3d60ad7dbe0caba9U, 0xbd647cb9be39131aU, 0x3d26c7fc3d10f9d4U,
  0x3d91240cbd4c5199U, 0xbe329358bdac778fU, 0x3d914346bd8f923eU, 0xba2070b53c6e521cU,
  0xbd8355e0bdbe1511U, 0xbe5ef80abdfe9daaU, 0xbe013e9cbe26199cU, 0x3ce902f73b9b54f4U,
  0xbe039e26bc80a95bU, 0xbaec2eb83dae99e4U, 0x3d45cae43da91922U, 0x3d2cfd2dbd233894U,
  0xbc1d5ac63e59adc0U, 0xbe21a2cbbe118f19U, 0xbe8f5cc8bd8f7e59U, 0xbd9a4e21be4c3d93U,
  0x3ccea7e6bd9e2c76U, 0xbe0e89acbeb8870cU, 0x3dce0f5abe2d5f88U, 0x3e1cb7b23d54f744U,
  0xbe6731b4bb2462fbU, 0xbd29bd6cbdfc2b60U, 0xbe9a81fbbddd9d38U, 0x3b46fc02bd258f2aU,
  0xbe3261edbe09d734U, 0xbe0975293e03f112U, 0x3cdb1f72be77e85eU, 0xbe31c81cbc4c7756U,
  0xbe36dec83e88bbe2U, 0xbdb78e023ddf8267U, 0xbebaaaccbdae82fbU, 0xbdb30421bc17cd92U,
  0xbe0fcdbbbdc11fdeU, 0xbe39a3d9be2b32daU, 0xbcb22fa5bc4e5e79U, 0xbd5c3d2cbd5c41dbU,
  0xbd3ed7d93ca79481U, 0x3b0dc7403c872bedU, 0xbe896de8bde9c644U, 0xbc1e5667be0d98ffU,
  0xbe0e5547bd0ef793U, 0xbe01b536bcc175f2U, 0x3da4e1b1be89b702U, 0xbe1f94293da805f6U,
  0xbeaa74c6bb645669U, 0x3d8fd02fbde6afecU, 0xbe96d7f7bd883c08U, 0x3d92fa97bda9ae0eU,
  0xbc37a8943e008296U, 0xbe1c0f21bd70a597U, 0xbbc0b0593bdbd547U, 0xbdc85b3abdf7dc03U,
  0xbb8e39433d867458U, 0xbd8cba2b3da3e440U, 0x3c3c3f5dbda0a13cU, 0xbb75d820be147c04U,
  0x3cbc2f42be0de0aeU, 0x3da6db4d3d12e849U, 0x3db5d3ff3ce79e00U, 0xbdb47c34bd260287U,
  0xbe791293bdf2d856U, 0x3e28ffc7beb2444aU, 0x3da7f5babc2fbc67U, 0xbe10aba5be757fa3U,
  0xbb2093d83d0ea495U, 0x3b2b6cf5be7255e5U, 0x3d2435bdbeb0f678U, 0xbdfe386fbd7aee33U,
  0xbd6f5c77be3c0c7eU, 0xbe085ed5be83a539U, 0xbe966464be198a33U, 0xbe68596dbea25b10U,
  0xbd4bfc24bdac5ab8U, 0xbc9b9456be303930U, 0xbe20a0fc3cf00b89U, 0x3ddde136be56d1b9U,
  0x3d241e373c517115U, 0x3d8fb826be4b52e0U, 0xbce57a9ebe217cd6U, 0xbde0f2b3bea1efa3U,
  0x3dafa7db3e038bddU, 0xbd947949be4eeef5U, 0x3e1e0abcbe6a1267U, 0xbe8408ddbe78ed81U,
  0xbd636e80be7cc1f6U, 0xbe889dccbdf7babeU, 0xbe8a2920be3a4d82U, 0xbec3113dbed2905fU,
  0xbd9792e73c92cff6U, 0xbc74aaa4be564eccU, 0xbe205177bd7bf100U, 0x3c773cc1be216b9aU,
  0x3a48e546bdcc3a00U, 0x3e126e61bcd97cfdU, 0xbd6044bfbe498c41U, 0xbc3778c93bd99789U,
  0x3e87ad263ca35e06U, 0xbe2a3acabc96c2acU, 0x3e3663fcbdd62818U, 0xbea245e7be287b28U,
  0xbd2d220cbddc56afU, 0xbe932fecbcb01cabU, 0xbe484760bddfc6e7U, 0xbe709050be44107eU,
  0xbe8b66533dbfa996U, 0xbe0e65033de218eaU, 0x3d140d6bbe1731cdU, 0x3dc6db65bd914550U,
  0x3d2069463d674bc3U, 0xbd901437bd69d6dcU, 0xbe75c375bdd1c001U, 0xbe28dd283d3a32d3U,
  0x3cfff364bd012176U, 0xbdfcfb5f3d22f29cU, 0x3c8dea61bd128af6U, 0x3c4182743c04aca6U,
  0xbda7af77bceb7b4bU, 0xbd811d25bdac38c4U, 0xbe2607f43d087716U, 0x3e04e661bc91054eU,
  0xbe9d89e33e0e9fedU, 0xbe78cced3e1a6ec2U, 0x3c92b640bd90df89U, 0xbd7dcd44bdacd5ebU,
  0x3ccdbd473d7b7ffeU, 0x3d250158bed1987aU, 0x3d9c55e5bdb515aaU, 0xbe8cfdbebe9aa247U,
  0xbdaa351fbbcf2b72U, 0x3d007181bea4f426U, 0x3db49633be0ff886U, 0xbe7b7658bdea9a18U,
  0xbe3e8f05be60bad7U, 0xbe033365bd9adbfeU, 0xbe8fd7c1be1bd01aU, 0x3d3f56dbbc4cbc3aU,
  0xbdb9ae2ebe2b5265U, 0x3e620cc5bd945d45U, 0xbe68d3dbbde82599U, 0x3c9978553c9af770U,
  0xbda37de03ddc338dU, 0xbdcf35b1bd57f532U, 0x3e24cbd4beaee3d7U, 0xbc51a970bea6de33U,
  0xbcfa6fb0bb6aef17U, 0xbb3304bcbdc3a747U, 0x3d7e94adbe8d9e74U, 0xbe37572cbd584fabU,
  0xbdf52535be69f831U, 0xbe69a4e1be000552U, 0xbe67f8bbbd631cc3U, 0xbc9e33e7bd081f09U,
  0xbc908257bd341cc9U, 0x3e145ea4bcf29897U, 0xbe28f433bdbe83d9U, 0x3c06b58d3c677dd7U,
  0xbe374af13c8869f3U, 0xbdb7eb2f3d7fffa5U, 0x3dcde347bd868314U, 0x3e4c9c963db163a2U,
  0xbe116556bd9db505U, 0x3c8b1d3a3d5162e7U, 0x3cfc0b0ebd896466U, 0xbe602823bd86b8f2U,
  0x3e03c0eebd3ff709U, 0xbe8970dc3dc5fd5bU, 0xbe25bda8be0ddf02U, 0x3e099f98bdca32bcU,
  0xbe5b601f3dda8f88U, 0xbd172c2b3e07cd7aU, 0x3e1e97723debfa33U, 0x3e2e72873e3593b0U,
  0xbeb65a52bc50d981U, 0x3dae506a3d3af577U, 0xbc4537e6bd837772U, 0x3cb6dc713c72b1a3U,
  0x3d493f813e1c4609U, 0x3da893e63d6a4206U, 0x3caa24cfbd4c760bU, 0x3cac3e5f3d6cd59cU,
  0x3e2c81f63c2df989U, 0x3d5d330a3dbaec5cU, 0x3cc48651bda96421U, 0x3c8827393c0e6dd9U,
  0xbe1114213dd15424U, 0x3e39ade53d513dd6U, 0x3dc83fe43da3159fU, 0x3d97a3d73cc84a03U,
  0xbc8b534e3e125eb6U, 0x3bab74d4bd1a9e7fU, 0x39ca3f323cccc928U, 0xbb2080223da249aaU,
  0xbd92d64dbd9a7f39U, 0x3de0809fbe262e86U, 0xbd9475f6be17c234U, 0xbd8098043c3c9b2fU,
  0x3cd944f9bd8e8418U, 0x3d547560be0744beU, 0xbd1af38c3d63c030U, 0x3ca59383bd727041U,
  0x3c3923e5bd4a68a9U, 0xbd62d5eb3e13bacdU, 0xbb9a8215bddaaad3U, 0x3d86a725bb2efa1bU,
  0x3db082ee3d0547b6U, 0x3bbb5db8bca0a6faU, 0x3e1921893d33c6beU, 0xbdaca34ebd3d4639U,
  0x3d93fcddbba717f0U, 0x3e0706e8be530c81U, 0xbd4ed9ebbe6c58b6U, 0xbd66f5aebd211f07U,
  0x3cd5e4ffbd9e6f2cU, 0xbbae9949bdf570b1U, 0xbe3997393d128344U, 0xbdac29a6bc1a754aU,
  0x3dc8cd08bd521c3eU, 0x3c0fe43ebd6d31cdU, 0xbdb17c8dbd37d26dU, 0x3d93137fbc0cce84U,
  0x3d9698393af65422U, 0x3d9a31483d7c7a68U, 0x3cfcd36e3cdf2436U, 0xbd7d14443da245a1U,
  0x3ca09dfd3bc922fbU, 0x3e204a50bbdcf789U, 0x3dafadd2bd8c3382U, 0xbdb262363d4df5acU,
  0x3cec3272bdb355e2U, 0xbd85dc3cbd767033U, 0x3c70860cbddbcda4U, 0xbc630436be42415eU,
  0x3d7d98b73d4b0d69U, 0x3d5e224abd85dfbbU, 0xbcb92809bd601546U, 0xbd0111dcbdfe11a0U,
  0x3e05d7b2bddd723cU, 0xbd8e0a733d3cc5a4U, 0x3d8ba631bdcec753U, 0x3dafce703e075c88U,
  0x3b714016bd9f89a2U, 0xbdb657f5bd2424b1U, 0x3d52b841be17e4dfU, 0xbe085d15bdf4fe43U,
  0x3c34828fbe523b78U, 0xbdd7b51ebe1b9175U, 0x3ea297e0bdd1f0fbU, 0x3d2ee898bd6f3f31U,
  0xbcea606c3dd95b76U, 0xbde9180f3b9c4499U, 0xbd7d35dcbe0a3917U, 0xbdde6a5cbe26eb43U,
  0xbe2794d13c9da62cU, 0x3da00b66be684c9dU, 0xbcca4340be53eec4U, 0xbd0a0601bd49bc01U,
  0x3c08ae8ebc53a7b6U, 0xbe1457d03d2366f5U, 0xbe6039053d1e7a31U, 0xbd999f773c6f287eU,
  0x3c9251fdbdb19da0U, 0xbd4c9686bd6f9c76U, 0xbcbc5432bd2f2382U, 0x3d3dc9b0bdf832c3U,
  0xbe1d2639bb415948U, 0x3c22bb85be49ac3dU, 0x3b8474d03d8bcba8U, 0xbc8c1649bdf9c6e1U,
  0x3dd2f79dbe1e1b84U, 0x3c18d76bbe64d32fU, 0x3c57cda7be0e8b42U, 0xbd6ab767bdb1b7f6U,
  0x3c09b6dfbdb3ae6dU, 0xbe65074d3d685bc4U, 0xbe6158de3d318a25U, 0xbd4f75c63c1500d1U,
  0x3d2ba255bd2f6257U, 0xbc4d98d73d2ecaebU, 0xbd9425e9bce568bcU, 0x3dc925babc0b20d9U,
  0xbded10edbcbb2f99U, 0xbc8d4415beadb0adU, 0xbc251018bd0d86a0U, 0xbd8f65cbbe97e78bU,
  0x3b14e009be748619U, 0x3db88517bcded5a5U, 0x3c5ccf15be4f516eU, 0xbd1f6b3b3dc8d4c5U,
  0xbaa241e8b9ded104U, 0xbd3456853c379043U, 0xbdeef8113cbcd196U, 0x3b18b11cbbf4adf0U,
  0xbcc632c4bde9062bU, 0xbdac6c45bd0cadc4U, 0x3e81f1f03bc98d10U, 0x3e1ccbc4bcfb2715U,
  0x3dc244f33d2e7ba7U, 0x3d856950bde8cc5cU, 0xbc348c853d71aa2cU, 0xbdd0c1b0be85d58dU,
  0x3e0db7b03bfe1479U, 0xbcc6409d3e0d33fcU, 0x3e05f41c3d470491U, 0x3e0560e43e47b168U,
  0xbe1040a6bc8da054U, 0xbd52a550be014c9eU, 0xbcbc74e5bde24822U, 0xbd23f00dbe3216efU,
  0x3d933db5bd5fddd8U, 0xbd43d429bdde7037U, 0x3e2f1ce8bc38078aU, 0x3d6699c5be5c7456U,
  0x3d2e91c33b92a410U, 0xbdd0f020bcc16a70U, 0x3c67fd79bc58b5f6U, 0xbaa15bb3bdb0f975U,
  0xbdb1c914bd27ed0aU, 0xbd839752bc566f0eU, 0x3b80dc36be0a1553U, 0x3dce29503dd2acc2U,
  0xbd60b072bac1b936U, 0x3d1c2692bb8880adU, 0x3d43d142bcdfa0b3U, 0x3d920fcd3e0fd7c9U,
  0x3ce693ddbd982636U, 0x3d00b258bd8f0615U, 0x3d4376eabda59cfcU, 0x3cd263e13c718ebcU,
  0xbd9f95073d0a742cU, 0x3d957fba3d8126a6U, 0x3cd81b6a3d0188e4U, 0x3cb0c9a2bb639f39U,
  0xbd3f62663c18c900U, 0xbcdeb6883d92cceeU, 0x3ceb35a1bdee7745U, 0x3d804a1b3cb79658U,
  0xbd2cf8093cab39feU, 0x3ccead0f3d7b5a0fU, 0x3cdae9bf3d2b33d5U, 0xbc021051bc21afabU,
  0xbc8c26efbd2b468fU, 0x3d0ba9cc3b111168U, 0x3c801533bde4f23dU, 0x3d6d283c3cb6ce0eU,
  0xbd74a7493db657c4U, 0x3d379a35bdd14454U, 0x3c9c19513d4ce1a7U, 0x3d61e6ff3b68e1a3U,
  0xbd96ee533bcf5523U, 0x3e6808b2bd864907U, 0x3ce83003bdd3ccc4U, 0x3e395c863e1fdc18U,
  0x3e291ee93e240ddfU, 0x3daaf25e3d2defc3U, 0xbcd043023df647c4U, 0x3cd3c167bd0ccaefU,
  0x3d992f9ebd2c14b7U, 0x3d9ab5c93d296007U, 0x3e0def5abdc51bb3U, 0x3d165c53bd8a1e19U,
  0xbc0de20dbd916801U, 0x3e113b31be214bd8U, 0x3cc4548d3e2d87e1U, 0x3b6b0368bd886ebdU,
  0x3e2214ccbdc81390U, 0x3d08f6913c357e07U, 0x3d1e6fb6be58a1d5U, 0x3d838b973dc76b8bU,
  0xbce20fec3e0ca5b0U, 0xbd9f1f113d6b95ebU, 0xbd3c58bd3d033d79U, 0xbd34faf5be06af51U,
  0xbd953953bd84e1f9U, 0xbd7363943c289711U, 0x3e63bc5cbd70e421U, 0xbc1c11a6bdd07117U,
  0x3da74277bcfdc37eU, 0x3cd97870bdb7ac6fU, 0xbd160b28bc2252efU, 0xbd6c783abdf76404U,
  0x3d0d80d73cbd066dU, 0xbd749465bd3a2406U, 0x3d11c7ddbe34cb80U, 0xbda067623e0670ebU,
  0xbde617f1bbff6616U, 0xbb9935d03d2b8a40U, 0xbd80dd9fbc47be3dU, 0xbca30719bdbb0665U,
  0x3e0cddb7bdaa9d99U, 0xbd9e40f0be1f56c0U, 0xbd9b2aa9bdf5699eU, 0xbc348c70be1dfb9dU,
  0xbd515d9e3d0be0fdU, 0xbd21e9dfbdd81426U, 0xbc9ef639bd352be1U, 0x3dc85040be25bad1U,
  0x3df88ec6bdb19fb7U, 0xbd513106bcf947c9U, 0xbcece162bd808c37U, 0xbc8ea05e3df2bb81U,
  0xbd2e42563cd45028U, 0xbcb8186e3e0d90ceU, 0xbd8b63593d1f18f0U, 0x3d85ee90be41b715U,
  0xbbb243603c871d1fU, 0xbd01fee63b1cdd5aU, 0x3c044b9dbde6fab8U, 0x3cb756debe3d5717U,
  0x3d2a24373da5a6caU, 0xbdf8109bbe0c9d10U, 0x3dc4bab03e09ea72U, 0xbcbe838ebe37fbdbU,
  0x3bfa687abe8d186dU, 0x3d934255bce5d562U, 0xbd9a09e9bdb0cda3U, 0x3dbe42893db4c39bU,
  0x3be273ea3e052dccU, 0x3d7d5c283dab09c5U, 0xbe69b9423cd4ec60U, 0x3d947896be488bc1U,
  0x3d1cdc84bd32f423U, 0x3d80213ebb4406bcU, 0x3e4dda26bd89a429U, 0x3e2c8e45bdb49afeU,
  0x3db1b776bb2f4dcaU, 0x3d4cdd46be286aeaU, 0x3b90eca83be3968aU, 0xbb2f240dbe553269U,
  0x3e3d3f99be0c5f64U, 0x3d2994973d497b8eU, 0x3d5cc14bbe18fc16U, 0xbcc448e6bc7702c3U,
  0xbd231e543d844cecU, 0x3d29ebdfbceb892bU, 0x3d83302abd172101U, 0xb8249acf3c785670U,
  0x3c4eea373c9da294U, 0xbc4656dc3d6d2e94U, 0x3dcea4afbdd51a3dU, 0x3d599e33bd162021U,
  0x3e613830bd7fc077U, 0x3dc95f4dbdfb7903U, 0xbca45b823da32a88U, 0xbdb8c3d3bcef808eU,
  0x3df02eda3dbfd3e2U, 0xbd9a3a843a826ce2U, 0x3cf4aee8bd189df0U, 0xbd98b273bba4ad11U,
  0x3c1c48cbbd7c8407U, 0x3e1aeca63d2886c7U, 0xbc0b3c04bd1b74ffU, 0x3da8044fbe7464c9U,
  0xbcd354953d09951dU, 0xbd90f724be2819d7U, 0xbe03b0e5bd37ab97U, 0xbe1bf84fbdde48bdU,
  0x3dce024abd190a8fU, 0x3d3ae0fabd7feddeU, 0x3bf14acdbc9b43d2U, 0x3db42f1fbd72ff2dU,
  0x3e1215cebcd77841U, 0xbd986c5abe1a459bU, 0x3d1a1b28bdab8cdfU, 0xbde0aca2bdfd8916U,
  0xbc83872ebc3e4d3fU, 0x3d8ed7733de07fd9U, 0xbd9538b7be29be56U, 0x3bf29930be850d6bU,
  0xbccd82f2bcd3878dU, 0xbd174096bd045027U, 0xbdf4b0babdf6125aU, 0xbe2449c8bd8489adU,
  0xbd2a82f2bca0c82fU, 0xbd81441ebdb567e9U, 0xbd6d359ebd2b3118U, 0x3db7f9e4bcb1e544U,
  0xbcdd6108bdcea5a1U, 0xbb8a9605be0bb9ddU, 0x3d28a9333c94b401U, 0xbe1a0af6bb3e828cU,
  0xbd9b75acbe0964e4U, 0xbe3671533d467429U, 0xbd49b5653d01d7aaU, 0xbdb147aabe3ae823U,
  0x3db58a8e3d2eb7d2U, 0xbda54daabd2ecda3U, 0xbe3b218cbe06de9bU, 0x3de33686be5ae01fU,
  0xbdf567ccbced62f7U, 0xbd2f0a0fbd32f5a3U, 0x3d9250e03cb08abeU, 0x3db045b1bd366465U,
  0xbdcdef86be1202f9U, 0xbde70a16bd0662daU, 0x3cf4c3edbd86cdebU, 0xbd41fdf1bd4a0f8bU,
  0xbe6640a5be0c3861U, 0xbe1a2e32bd571e7bU, 0xbcf2ca6e3d29474bU, 0x3d631da0be114bacU,
  0xbd5a5501bca22eb6U, 0xbcbcaf973bce1312U, 0xbd9e12733cea229fU, 0x3d86575ebda6f246U,
  0xbdd013713c15dd6cU, 0xbe560fdf3cc6713eU, 0x3d3c7b7abd817107U, 0xbd4d2c9fbd51310eU,
  0xbe3ffa9c3a143d3aU, 0x3e27f9693e337a72U, 0x3e0f801bbc5322f3U, 0xbce7e5913ea57b6fU,
  0x3ceb23d53d1dd958U, 0xbbc3c0abbd8fc2d4U, 0xbe5228543ddc420eU, 0x3d2d45b63df43ec6U,
  0xbdca0c913b0eeb75U, 0x3dd13be03c80c41aU, 0x3e53a1da3d19e26aU, 0x3e73b013be073becU,
  0xbdd629cc3e119b56U, 0xbc6c804abe2e1561U, 0x3de6fa81bcdbab30U, 0x3df07e3cbec17d9cU,
  0xbd8d8575be513ac5U, 0xbd4ffac4bd2984cbU, 0x3e354182b8f11aedU, 0x3d40dd3b3eadb557U,
  0xbd3328c1bdeb080fU, 0xbddcb68ebdd42636U, 0xbec1acbbbde1226bU, 0x3d240dc43d7341efU,
  0x3b20d0283d6bf38cU, 0x3ddbb07d3d4ca30dU, 0x3e18770b3da64728U, 0x3e01eaa23c5cc4c1U,
  0xbe21f83d3dd26330U, 0x3c23aad8be7b4266U, 0xbd92cf2dbcdbbaeaU, 0x3ce859d8be8d35b4U,
  0xbde5b708be842385U, 0xbe7275cabe16b030U, 0x3b223f7cbccf1749U, 0xbd093a9abdab49a7U,
  0xbe8f89bfbe48d174U, 0x3ea06447bdb8c939U, 0xbea4b646bdbe05c0U, 0xbdda5716bde63414U,
  0xbd8a9ab0bb32fba6U, 0x3d6ae30e3d115a94U, 0x3d49f280bdb25b49U, 0x3d708c533d940b8dU,
  0x3a86e6883d9816d5U, 0x3d79d1b1bdecdb63U, 0x3da367cabd919519U, 0xbd0b357dbda5970fU,
  0xbdba29d9bbaaaf81U, 0xbe6f27b5bd2627e1U, 0xbcac60663de49e79U, 0xbda45964bdceb82cU,
  0xbe43878dbe42252cU, 0xba1969333cb9df0dU, 0x3ca729ffbdac86daU, 0xbdb928dfbe715c26U,
  0x3c96e2783d954ea2U, 0x3d6542333caca9ceU, 0xbe094e96bcc78c12U, 0x3d9f34fcbba563a0U,
  0xbe0e28e0be445ac5U, 0xbd99dd24be13bbe9U, 0x3e01e36d3d5787aeU, 0xbd978b81bcca9c49U,
  0xbe8fe7823aed247eU, 0xbdfb77293c5d3363U, 0x3d6c7f1fbde4e224U, 0x3e4c55e73ddfeeb5U,
  0x3d9ac6333e029a1eU, 0xbe073288bd8fd37eU, 0x3e4893edba7812b4U, 0xbce2efed3d547639U,
  0x3c3873413d3ff691U, 0xbdddfe2f3dd5f352U, 0x3dc4387cbd7bb76eU, 0xbd40ec48bd53c259U,
  0xbe29e1c6bd04c66dU, 0xbd733c8c3e241d69U, 0xbd0288dbbce0a9d4U, 0x3d1eab753dd7f6d7U,
  0xbe5535383daecf2eU, 0x3bcb3955bcc9f8a2U, 0xbd8bd624bdca2e3fU, 0x3daa1a4f3d64e309U,
  0xbcd9e52fbded369cU, 0xbded4dba3cdd55bcU, 0x3dc0266bbddaecd9U, 0xbccec180bdfe2515U,
  0x3e094ee9bd03b874U, 0xbbe288403dc7d0ddU, 0xbea266a7bdb85172U, 0x3ca02da4bd894de3U,
  0xbe09507d3d829775U, 0xbe9a3feb3de1a728U, 0x3caea3d7bcefe009U, 0x3d5e82c6bcbaf07fU,
  0xbe0a3c31be06b7f4U, 0x3dedd42fbdcf3521U, 0x3d35ff02bdc4cd23U, 0x3dc652d23cd505b9U,
  0x3d8ddad13df73008U, 0xbea2256f3e0873e7U, 0xbde2bbeb3d5dab5aU, 0x3d6ffb6fbdcd64bcU,
  0x3ddb983bbc33391fU, 0xbc3ad5953d9446f1U, 0xbd660395bd7587ceU, 0xbc7a0e18be1fe406U,
  0xbe0428b1ba5ca698U, 0x3d36bc0a3dc056e6U, 0xbbd202b63dcc9672U, 0x3d9d6a90bd559433U,
  0xbc92c31bbea3725dU, 0x3db3bb1bbd9fed64U, 0x3df839c7bdc8616aU, 0xbde7a8ff3dc663efU,
  0x3d44d9f43dae5781U, 0xbe7da2253d73a771U, 0xbdd68d01bd4a5d9eU, 0xbd5fc3823ba5f2a2U,
  0xbc5a3d133bd7322eU, 0xbb23d0043cd7b5e5U, 0x3d498481bc7904a8U, 0x3d980faabe18f130U,
  0xbe4c0cddbe7ced59U, 0x3dda6c9c3dce1673U, 0xbcadd9ae3dc454f2U, 0xbe41c8083d5d2b62U,
  0x3d66e089bdef7ef9U, 0x3e14c4ffbd9014c5U, 0x3da83228bc9b1577U, 0xbdf093433b97d5d3U,
  0x3e1f79a63ceaf63aU, 0xbd08843c3d970235U, 0xbc80c21c3cab5221U, 0xbe51441bbea62402U,
  0x3de5c64fbc5a5ce9U, 0xbe481b8bbddf8e6aU, 0xbd0bef96be7d3965U, 0xbe3233edbe732db8U,
  0xbe1a115f3e08439fU, 0x3be240f3bc0cc744U, 0x3e02f42cbc911f4aU, 0x3e358700be1ebb69U,
  0x3dd2926fbdbac43aU, 0xbda815183c12fbacU, 0x3c836ae7be34039dU, 0xbd1ee0dabd1a55ecU,
  0xbdaad5d6be0a52e5U, 0xbd5d421a3cc982beU, 0xbcf07d9c3cf412d3U, 0x3c2c0ecfbe0b178eU,
  0x3ad3acd33b11b5c8U, 0x3d252dd9bd7f2a82U, 0xbcdc15f63d53f426U, 0xbe1389543dd9e432U,
  0xbe6675e33da5ea1aU, 0xbe3b57823ccf07a5U, 0x3e36609cbb64d634U, 0x3ca4e2a8bcdbee2aU,
  0x3cd757f43e05f7b2U, 0xbc4682933b627b6cU, 0xbd0bf8b4bd874838U, 0xbdab3291bcb44907U,
  0xbd62f06ebb43402cU, 0x3d63160f3e35d44fU, 0x3df69d563d8a32b4U, 0xbc870bbfbdb3af70U,
  0x3e59c0b73dddfb1bU, 0x3e073d37bca3b98fU, 0xbd90f3de3b08173cU, 0xbdf3bb543c824675U,
  0xbd8d05cf3da20a11U, 0x3e1887673d399da5U, 0x3e0d56ed3d15c61cU, 0x3e40380e3e12b1f6U,
  0xbd23d4c13c9d4202U, 0xbbadca99bd184f02U, 0xbe02c977bd20e347U, 0xbe5d6848bd629158U,
  0x3daaec593dada2d2U, 0x3d8ac2dc3c99d82aU, 0x3dade0c53c7e48a1U, 0x3e2647d5be23dc15U,
  0x3dd766f43d592fb0U, 0x3da44825bd582fbdU, 0xbd0f8629bc94ba38U, 0x3de365c33b8ac856U,
  0xbcc85a7bbda4afabU, 0x3e73ce273cc0c716U, 0x3dd692ef3d2729abU, 0xbc6243f63e523f30U,
  0x3d4a00163cfad327U, 0xbd73c50abd0d6094U, 0x3e156138bd586992U, 0xbe0ebde23b9fa2c5U,
  0xbcdeb4c4be0e0a20U, 0x3d116195be01da16U, 0x353e2900bea200c4U, 0xbd514dfbbd96bf3dU,
  0xbd5f028ebe03a9bcU, 0xbb1b76e8bec0686eU, 0xbe133794bb44b14aU, 0xbe01c2c5bd4c62d6U,
  0xbe11c74cbd4060f2U, 0xbd759cce3e20c471U, 0x3d09ac72be8f1e35U, 0x3e1ab7bebc1dfd83U,
  0xbd83dae3b8d6028eU, 0x3df20d3a3cd50b87U, 0xbcfd06ddbd4003d8U, 0xbdb6c0db3e15cdfcU,
  0x3d1f2892bc9f8a25U, 0x3d191bfabb52adb9U, 0xbcb8541bbd6cf9a5U, 0xbcf25df0bdef3283U,
  0xbe1fda54bd41dc97U, 0x3d58d1d8be739e4dU, 0x3d8eb47b3cf5092fU, 0xbc8eebdebe7ac6e6U,
  0x3dc6115cbd41b638U, 0xbd92d7183ce32e59U, 0xba6344edbe616e03U, 0x3cc3b0543c8c0dbcU,
  0x3d1657bfbdebacd8U, 0x3db7b45fbd843cffU, 0xbdd302e9be0434dbU, 0xbe34ff2c3ba60bb6U,
  0x3db21396bd144309U, 0x3aef3332be676427U, 0x3d709dddbea59a54U, 0xbb3322573d10e348U,
  0xbe34fe08bcde0e1aU, 0xbcb2da9dbe5f901fU, 0x3d2a851fbded75ccU, 0xbdb4a7e9bd89e535U,
  0x3e5e4d18bdff6c13U, 0xbbe8c260bb8b49faU, 0xbd114c1dbe8cb927U, 0x3c29aa32bd4e4207U,
  0x3d8b35c83cf71cdfU, 0xbd8f0360bdff0172U, 0xbd9e5376bcbb35d8U, 0xbde446bd3d025a26U,
  0xbcac6eb1bdfc87a5U, 0x3d0de920bddfb048U, 0x3dd35607bdea7c39U, 0xbdbde944bcd71056U,
  0xbe1cd8163b95e31aU, 0x3d4a1da6be3ed20dU, 0xbddc25793d1873c1U, 0xbe3044d9bd4f51dcU,
  0x3d3d3f9a3c5d5fbbU, 0xbd55f5133e0ae70aU, 0xbc7dda52be7469e4U, 0xbda51858bc79c3e3U,
  0xbe193e663d5e6897U, 0xbdf302213cbb2274U, 0xbc558e83bca3291dU, 0xbb2a1340bdd7afb9U,
  0xbcd8117dbd389293U, 0xbd5ba31b3d5e034bU, 0xbdf40241bc614609U, 0x3ce926c0bdcac442U,
  0x3dd3d0e6bcc47386U, 0xbd9e7a943cb89bf0U, 0xbc070865bd258ceeU, 0x3d9afa82bbce6a39U,
  0xbdb2fff33d8c2798U, 0xbcbe4152bec46ec7U, 0x3db945d3bb213262U, 0x3e43fec4be937cd7U,
  0xbd9b001abe18b63bU, 0x3e27691dbe23ba26U, 0xbd25d05bbe103c16U, 0xbc148bec3e8af9a4U,
  0x3df7dbc53d25601cU, 0xbd8948cebc943b3cU, 0xbe03cee9bc1c8f23U, 0xbc66b74ebcea646bU,
  0xbce076f43d014590U, 0xbce060ad3d097caaU, 0x3e36956dbc9e331cU, 0x3dc1205bbd0f9cd4U,
  0x3d644355bd024c1bU, 0x3d7692ddbe1c3f87U, 0xbdc2a98e3d0fc967U, 0xbe422bf5bde1d9edU,
  0x3d55c1ec3dd5dfe3U, 0x3cd3de203e8dce57U, 0x3e4cd8413d34ae93U, 0xbe8d5501bd8f9518U,
  0x3d2a0a5d3d1a53dcU, 0xbdd79783bd656f11U, 0xbdbac18fbe0479f2U, 0xbd8f041fbd9c1b7bU,
  0xbdf7535ebddca540U, 0xbad8b644bd02b255U, 0x3e033862bdc484adU, 0xbb90305cbdb3aef6U,
  0x3e2b49ccbd9102daU, 0x3d1fbd02be6cbb94U, 0xbe14b528bdf1c8caU, 0xbd065043be1326c9U,
  0x3e1cff4f3d8b877dU, 0xbeaf9d143dda27c8U, 0x3df48808bc9d00daU, 0xbd46cf113cd785e5U,
  0xbeb584a4be653b97U, 0xbdca772abb68f395U, 0xbe255366bdbc27c2U, 0xbcd9d666be52e0d2U,
  0xbcaeee84bc4dfe42U, 0xbe2499e5bd7750b6U, 0x3db10be13ccb8197U, 0x3d93fd19be28a349U,
  0xbd898b8e3d4b1b05U, 0xbe196c40be552be0U, 0x3c9ac590bdefb9bdU, 0x3e19bb1fbeafe34eU,
  0xbedd0353be15854fU, 0xbe42acc639f0d94aU, 0xbd11d6b6bdf7a404U, 0xbc99331bbdf4aae1U,
  0xbe2be2d7bd51c9e5U, 0x3d20b8a73e09fa84U, 0xbdc26bf13da651bfU, 0x3dd61904bd0a7ca7U,
  0x3d1fc9cebb339548U, 0x3d3067433d9708c3U, 0x3e2f36cbbd49a868U, 0x3d00c87c3da21e75U,
  0xbe40fdc03d0f009bU, 0xbc53594ebe3aae84U, 0xbc97636c3d052263U, 0x3d84be72bc4d5a19U,
  0x3d90efe63da25a1aU, 0x3c1432783cd09d1aU, 0x3d92bf04bd3c6451U, 0xbdc19477bdb1a23cU,
  0xbd89b4243d7c45faU, 0x3d5bee0ebd947561U, 0x3d9b6ec33d92ae31U, 0x3db00cdc3ca3191dU,
  0x3d169aa63caa3a85U, 0x3d444d6d3b2dc256U, 0x3e95c44cbc69f089U, 0xbd01ec1ebc9f4a81U,
  0x3d9ba7f4be06aac2U, 0x3dda9e9dbea7dc59U, 0xbe1cfceabc04ef82U, 0xbdcc7dcebd43c665U,
  0x3c82e69a3de515f6U, 0xbbe9baa03dbc200dU, 0x3e6faa55bdc86114U, 0xbe414ffebe025cdfU,
  0x3d3e0b833d0e97c0U, 0x3c2ea7c53c4ddeb7U, 0xbdafb9623c125cfcU, 0xbd29e1cdbe841597U,
  0x3cd03673bd27830fU, 0xbd469d0dbdb46c10U, 0xbd22626cbe12e81fU, 0x392457d4be4e1908U,
  0x3e3fb4c33d52ee40U, 0x3c28f678beb552c8U, 0x3cb0c68b3ccc18fbU, 0x3e1d11a7bd8dc9f7U,
  0x3c83a5783c5b4292U, 0xbe4e209fbe396852U, 0x3e1c6ae4bdba2563U, 0xbc645ede3d85ae6eU,
  0xbe5875a5bea18f55U, 0xbddde42c3dba7b6fU, 0xbe1f3ef93e400ddbU, 0x3dbfa7ee3d1103d2U,
  0x3b96f60c3d25ad7bU, 0xbd633dd03d9943eaU, 0x3da7e76fbd247d05U, 0x3e0ef439bcfe11f4U,
  0xbd26b59b3e4daef7U, 0xbd253b50bcb83594U, 0x3df515373d6080f3U, 0x3ccea4a5be1d4d9fU,
  0xbdcd6a5fbc116158U, 0xbe1e22dfbb8f6538U, 0xbce6ecabbb1eb18eU, 0xbd9a2fb3be4ea544U,
  0xbde50ce2bdcdac1bU, 0xbe6ab4f13d7d9e99U, 0xbd34de94bca4ba7cU, 0x3e1caa12be54070dU,
  0xbd9c63883da88317U, 0x3d8c82173dbabc47U, 0x3cce70a5bce26f62U, 0x3d9c769cbd000e22U,
  0x3cab9356be4273a8U, 0xbe4a6379be2547bcU, 0xbda37d0b3d82ef53U, 0xbe467552be4bec47U,
  0x3d0f7b0cbdcbb705U, 0xbda1fd113d8cb19fU, 0xbde29431be0c5676U, 0x3d0340eabcbc419fU,
  0xbdb4ec883d61eeddU, 0x3cb5a2313d273c32U, 0x3c34e14c3c98cceaU, 0x3e0ccef4be3cab6cU,
  0xbcd2e1aa3ce93f8fU, 0x3d4dd9e03d7b9b82U, 0x3dcdf929bce69452U, 0xbd006de8bd0dd092U,
  0x3dbfd02abdd781e6U, 0x3d22acabbe0b58ceU, 0xbdf44118bd058a03U, 0xbd212763bdcc394aU,
  0xbcf705103d8eafc7U, 0xbd80f4f73e34ffacU, 0x3d4cafecbe1576a3U, 0xbd3608df3d31d76cU,
  0xbd036fe8bdce02d8U, 0xbd27d4163d3f1346U, 0x3dde74f1bdb04a17U, 0xbe01dc53be513027U,
  0xbdd188b7bd5f3c33U, 0xbcb1af15bd8020beU, 0x3df0856abdad7108U, 0xbe25917fbe8da3a2U,
  0x3dc80dc33e2e6877U, 0xbd513a9abd8b35adU, 0x3d894198bc2d2adeU, 0x3dac9ef93c81cf69U,
  0xbde04a573c83fcf8U, 0xbe2c2815be5d493aU, 0xbd2d9a13be4529c1U, 0xbcb2b50f3d014771U,
  0xbe14bfaabe3a1984U, 0xbc8111a9bcc57e54U, 0xbe090604bc982b92U, 0x3e154fc13dabbccdU,
  0xbcd1c5673de9fa90U, 0xbdc0e2ca3d995e7dU, 0xbe5223bebd9f2949U, 0xbcd46d4b3d444d01U,
  0xbe0269973d8604b5U, 0xbdbe2d553b9bcb8eU, 0x3e0973903dd688acU, 0xbd4d468c3d1e74cfU,
  0xbd2c080abcba70fcU, 0xbd074f6cbe83b837U, 0xbc848e47bb4adc0fU, 0xbe3f0bbcbdc468a7U,
  0x3db7de013a0fb5a8U, 0x3dc7441abda14a07U, 0x3df4ff46be2236feU, 0xbb6bc312bd87b0b0U,
  0x3d112e6b3db1155eU, 0x3dab515e3ce6e31eU, 0xbe4497f6bd3c9d2aU, 0x3d1c421a3cee2674U,
  0x3c4df553bdd1b5c4U, 0x3dc26d763d1b0c79U, 0xbc6c4e0d3dfc9b95U, 0x3d3f2e783e2f092dU,
  0xbe8b130d3dfefff6U, 0xbc686583be8ab95bU, 0xbbf7a214bcfc9b07U, 0xbec15739bccdd3f2U,
  0x3d66da78bcbd8c27U, 0xbd6bc40d3d853f6bU, 0xbe0099afbe588905U, 0x3d386f5ebd24f9d0U,
  0x3dce544a3d1bdefeU, 0xbd4107dc3d2e2d5aU, 0xbe15b104bb4a6a1cU, 0xbcfe91abbe0e8a35U,
  0xbd74157fbd475668U, 0xbc090bfabd212df1U, 0xbdb7fb993d9a5f24U, 0x3d8e59e03d532a21U,
  0xbe09b06cbe797157U, 0x3d654381bda70fceU, 0x3d4a8df3bc2ce7a9U, 0xbeff3849bd6bc8e1U,
  0xbbe3b22abb97d493U, 0xbd94ae1c3d44fd5dU, 0xbc4067b8bcf9cf32U, 0x3d487116be85f1aeU,
  0x3da188c4bce9f002U, 0xbdaa15313d4966deU, 0xbd8a95a03d45526eU, 0xbdf1a0dabe84debdU,
  0xbe42ded8bd974a7dU, 0xbdb6c849be202937U, 0x3d5c9b543ded2871U, 0x3e24466abe261796U,
  0xbd8da44ebe36e992U, 0xbd598489be36416fU, 0x3da1ff33bc939626U, 0xbebab890be0db60cU,
  0x3cd12a82bcf39dc3U, 0xbdba18fe3cc0dd28U, 0xbda1b85cbb65049cU, 0x3d0001c0bc2984aeU,
  0x3d84721a3c090fddU, 0x3da4b5c63cbc1e9cU, 0xbdfd1742bb9878eeU, 0x3b8c83f53de6f207U,
  0xbe0abed8bdcdd97bU, 0x3dafb169bd78895eU, 0x3dcb8b0b3d14b215U, 0x3e3a0d33bcd63042U,
  0x3dfac27a3e12031fU, 0x3cbd150ebeae3156U, 0x3cd5d5fdbcb22e39U, 0xbd1552a8bd9acf47U,
  0xbd4f9f92bb835304U, 0xbe1905dd3bc123baU, 0xbd6715d5bd90d69cU, 0x3db3d55fbe3e836aU,
  0x3dba4f343d69ce23U, 0xbc2795e73d83e4d7U, 0xbe7a731fbd6ac158U, 0x3dbec06abe0dc2b1U,
  0xbe42d9c1bcac6d63U, 0xbe6cb9ecbd6cf914U, 0x3af67aa13d4631feU, 0xbd3f998b39edf2e7U,
  0xbde3e7bebe60ff69U, 0xbe2b10f2be9776b9U, 0x3d25020cbd514559U, 0xbde522d6be283eb9U,
  0xbd5b0fadbd56a534U, 0xbdf004503da0d8f4U, 0xbc2a683c3d4aed4cU, 0xbd183522be9c6e68U,
  0x3d0c78e23d0d3949U, 0x3d02184a3e008360U, 0xbe88a58ebd8bd834U, 0x3d6fc08cbdd36623U,
  0xbe9d3f3fbdacab47U, 0xbe35f5a0bd758b9dU, 0x3cf345803d030dc5U, 0xbd8528d1bcc73136U,
  0xbe3afa2fbd6b5d6eU, 0xbe4aefaabe9e5f0bU, 0xbdb46e37bdae9ba8U, 0xbd96d14fbea038adU,
  0xbde62920bd94397dU, 0x3dd1c6febb8ac32cU, 0xbd1a98b13d761976U, 0x3d96a3643d17eb93U,
  0x3dd3424f3cdcac29U, 0xbd081ba73d1b34d1U, 0xbbd81734bc7c7acaU, 0x3dab11e13d67abb5U,
  0xbe8028acbda7e8a0U, 0x3da13958be4014c9U, 0x3d0b2188bcd413b6U, 0xbe32f82a3ccf631aU,
  0xbd37cda63d9b5de6U, 0xbda3fe2cbe1bf7e9U, 0xbcacba79bd5f21b8U, 0xbe6b7282be814ce2U,
  0x3d83270ebc6b9edbU, 0x3cecd2f7bc54c243U, 0xbdf92e063bb2d166U, 0x3d5ff0423dea1d59U,
  0x3e0000b33d852f02U, 0x3dc9cb553d4cc1dfU, 0x3d5e3bd9bdd18cf2U, 0xbdfb0b773e0c3023U,
  0xbc8c5a67bc3233edU, 0x3e110564be980c0dU, 0xbda882783c1614c3U, 0xbb8f25353cfc0a70U,
  0xbd6343d13dcd569fU, 0xbe0381b4be3903a4U, 0x3d853decbd1c197fU, 0xbd66ab02bde88875U,
  0xbe682f183a947a37U, 0xbe539aa4bd8c7c96U, 0xbe1738ac3cfd5a48U, 0xbd22e776be05b23aU,
  0xbde234363d8ccfd4U, 0x3d60d5863db9d98cU, 0xbe2522023c4723fbU, 0x3d0e4783bcaaac41U,
  0xbe1a9b2e3e2dd322U, 0xbe26c0863cc0256eU, 0x3d439872bcd472abU, 0x3b027a9e3ca37057U,
  0xbe2bc9e5be19421dU, 0xbddd6736be411180U, 0xbe153361bd859486U, 0x3c879e12be439fd2U,
  0xbe093cc5be1be98dU, 0xbcd215d3be26122eU, 0xbdce455f3d13495fU, 0x3b42c4babdcbb995U,
  0xbd905b153dddad4aU, 0x3d7c8fa33dc256acU, 0x3de732f6bbdc837bU, 0x3dc28e783d19c6aaU,
  0xbc9dcd703d9e6a0eU, 0xbd2f8f1cbe393d8dU, 0x3dd8947fbe5ef715U, 0x3c3be18abcf461cfU,
  0xbd034ddd3df1fc56U, 0xbe518007be094e21U, 0xbe8b599d3ce0c1deU, 0xbe8c5876be93d28cU,
  0xbe65ffe5be39cc23U, 0x3d220057be624ed3U, 0x3d14025dbdcc38cfU, 0xbc050c273d19598bU,
  0xbd191c983db3d010U, 0x3d3165a03d5cff97U, 0xbe6ce1c53dc4633fU, 0xbcb24cd8bd230c9bU,
  0x3dcb6516bde3e13fU, 0xbd8edc32bdc7704eU, 0x3d6e07c3be1a6e8aU, 0xbd6e741c3daf0629U,
  0x3d3ff00d3e156ae6U, 0xbe173e4dbe1b421bU, 0xbe5748f4bc84b4e2U, 0x3ce678a1bc3f2ab5U,
  0xbd79514ebe26ce19U, 0x3de70f4dbdf5f2c2U, 0xbb9637223be48114U, 0x3cab2cae3e22a4b4U,
  0x3da3cebe3da63a0fU, 0x3d7c7338bc239c5fU, 0xbe325536bd73708dU, 0x3d128fb43dcf4bddU,
  0x3dc3200a3ca08da0U, 0xbc8ec08ebd04f3f5U, 0x3c776fcfbe1d65fbU, 0xbb1a574ebbcf4f51U,
  0x3e1a6e013d64009dU, 0x3d205ed9bd1ae81eU, 0x3d691482bd911ecdU, 0xbc381138bd870e6cU,
  0x3d90d0e73db42d2cU, 0x3d09bf3b3d471f6bU, 0x3cb732013e1da488U, 0x3dbdecd5bd02e778U,
  0x3da1f37a3dfcc96fU, 0x3c89e2543e33b155U, 0x37a9c190bd0b0ce4U, 0x3e5a09243d1a517dU,
  0x3d403b123e335096U, 0x3d026c1cbe2674cbU, 0x3d858cb23d3bf3dbU, 0x3d73619cbe19c9e7U,
  0x3e21722a3e267b9cU, 0x3d5514d7bbc33344U, 0xbe392371be3a3496U, 0x3d3886bebd76f4faU,
  0x3db53000bd6bf3f1U, 0x3d080c68bd0004bdU, 0x3d80fb78bd13ba75U, 0x3dd19c293df86f3aU,
  0x39f7d0e13ca15913U, 0x3d1049b83cc49541U, 0xbd4707513b1eed64U, 0x3ceac1603d7dc3cdU,
  0x3e232b05be26c0b4U, 0x3d61d612be222500U, 0xbdabf7c8bbdf2c4dU, 0xbdcbdecebdc35959U,
  0x3dd74e553e72b74eU, 0xbd38a4ac3e215a41U, 0xbcc5eb25bdbf58e6U, 0xbd9efe4bbe7d3317U,
  0x3c675dabbda5d7ddU, 0x3e57aeca3b1a0fceU, 0x3c0a7308b9024997U, 0xbdaae6be3ddba9a8U,
  0x3c708f20bce20bc1U, 0xbd2f5037bd4f1678U, 0xbdc59a04bd66d6a6U, 0x3d2b4bf4be07908eU,
  0x3d2b7e23bd9c290bU, 0x3d223ffa3c69b885U, 0xbe01f73ebd879f85U, 0x3e437f96bcd8d048U,
  0x3db9fc793d5fb59cU, 0x3dcd04603d4632e9U, 0x3bb7ffc4bcabe6b7U, 0x3d4ee643bd141ab9U,
  0x3d19e3ddbcc6d909U, 0x3c623bc23d46d661U, 0xbd143dd4bcbbeb86U, 0xbd07ffe13e2bf59fU,
  0x3bc1ccfa3d2f65e4U, 0x3ce13ac7bbfc25acU, 0xbd35f7c13af3e4c6U, 0x3e09c677bcfc358cU,
  0x3d05f3ad3d56d9eaU, 0x3dfa5aa3bd589ef3U, 0xbd1017cd3e374c51U, 0x3e46dd0cbe15a830U,
  0xbbbb6f20bd93a5bfU, 0xbd718e7abd5e5e34U, 0xbd645d433bdf8968U, 0xbd2938ee3daccfb7U,
  0xbd60beb1bd7db65bU, 0xbd6df16a3c6fd0e5U, 0xbe1a6349bd5ebb3aU, 0x3d972ad2bd8d4784U,
  0xbb2312133dd3aaf0U, 0x3d10af883cc8e65bU, 0x3bd040b43cfd1ff7U, 0xbd8b753c3bbe981fU,
  0x3cf674a03da360c0U, 0xbd5680713cfb8f5cU, 0x3da99bbfbd8ad5baU, 0xbe2916353daff8cfU,
  0xbd93e3ebbe51036aU, 0xbcf70ff1bdf40362U, 0xbe3ec634bc127348U, 0x3c0a711a3e11296aU,
  0xbdb3857b3d86c9cdU, 0xbd86d4a7bd965c86U, 0xbdc12ff4bb92c799U, 0x3d6e9c6dbc0890a4U,
  0x3d9ee1f53e054b39U, 0x3dd39b2b3d86527dU, 0xbdba4dc03c972389U, 0xbba4af4c3cab761bU,
  0xbd68d786be1d56b4U, 0xbd34069f3d4f8f16U, 0x3e134a91bd850d59U, 0xbdf5d1f03d05de44U,
  0xbd121348bc13801fU, 0xbd78b8a7bd04a06cU, 0xbe84a71cbc5e0d72U, 0xbd521e3cbd6b0bb0U,
  0x3d530a263dc0d09fU, 0xbd8a4ea63dc09b5cU, 0xbcd553033d3ef912U, 0x3ca8f9e7be1990e2U,
  0xbcd9431a3c402236U, 0x3c7944193d44ba5fU, 0xbd8ed4d13d5a65dcU, 0xbb8d4591bdc7873eU,
  0xbd4c2965be56c6bdU, 0xbcef6bc3bcf60f5bU, 0x3d0c17f33d2201ffU, 0xbe964aa63da7c143U,
  0xbd8bfe223d7bd02bU, 0xbc237e133a97f135U, 0xbe9e41cdbc97fe9bU, 0xbe7cbecebd7129edU,
  0xbc4921f3bc0b353bU, 0xbcb78b93bd99c3f3U, 0x3deaa55bbd52da49U, 0x3d2c1805bda23efcU,
  0xbd8cceb2bc19c569U, 0x3dde279abdd8287cU, 0x3dc5add93c33061dU, 0xbde1f2e7bd6e9c46U,
  0x3dd5cd5fbec395baU, 0xbd1711b8bd59db26U, 0xbdf58238bd48d986U, 0xbd4f77bf3cb23fa5U,
  0x3d83ae623e0424f7U, 0xbe5d7f18bd0cbc05U, 0xbe84c2bfbe052859U, 0xbc38a5dfbd3b25b1U,
  0xbe9b95bfbe50fb6aU, 0x3d2033953d936489U, 0xbd7e1e303d9e365cU, 0x3c88159bbd7dae63U,
  0xbcb5bdcd3cb5496bU, 0x3c6a120f3e03ba07U, 0x3dcc216bbd5a8164U, 0xbd3192713df0f84bU,
  0xbd25d3d53df0047fU, 0xbd831109be9d5bdeU, 0x3cb87bccbd5308cbU, 0xbd6647adbd1a5b6cU,
  0xbdaee0b63db1b606U, 0xbe6b4211bd08b319U, 0xbf0dabe0be626df5U, 0x3d961714be342a8bU,
  0xbe1367e2be74902dU, 0x3d508d5ebdd48e0dU, 0x3e0e637ebbb5fb67U, 0x3d85049fbcde8c26U,
  0x3cef748cbd55eab4U, 0x3ccb2a1cbcbeaa18U, 0x3d2c08c0bdd1d202U, 0xbe28b7ac3dc8966dU,
  0x3d5565abbe4d4701U, 0x3cdf8afdbe437ec2U, 0x3d0abb71bdcb0a79U, 0x3d82f8f33d544e5cU,
  0xbd0e5b443e581c7bU, 0xbd9ee69a3dadf64cU, 0xbe89e462be69fe80U, 0xbd7c8561be418842U,
  0xbe06db60bdf93d00U, 0xbcc2d0cfbe98bcb2U, 0x3e5dc1fbbe34117fU, 0xba2b439abd311602U,
  0xbe046c7abcfbd9e0U, 0xbd49085bbe1bce4eU, 0xbe117c96bd6af89dU, 0xbe8f2561bd022a8dU,
  0x3cc00b38be5367a6U, 0xbca0dde3bce74edaU, 0xbd6d1541be054467U, 0x3de2bde63d2090fdU,
  0xbdaf46463e44e460U, 0xbe0115d13e102eecU, 0xbd135af7bd920d00U, 0x3d0dcf4ebe157d34U,
  0xbdfa015cbe0e322aU, 0x3e54b482bd33a8a2U, 0x3e3eef6c3dd052dcU, 0x3d16bdbabe65ab6fU,
  0xbe29e5d7bd6e69eaU, 0xbd758446bdf239a7U, 0xbd850211bcab0061U, 0x3d8700b03cf0f204U,
  0xbd1f28a63df3b579U, 0x3dca0dd73d323bb9U, 0x3d48b588bda8bd81U, 0x3dd324ba3e1c3f0cU,
  0xbd652ca83e0356a4U, 0x3d09c4113da19cd4U, 0xbe811f5dbd4714cdU, 0xbdba24ccbde3c2a1U,
  0x3d9b45adbdf7887cU, 0x3e079a4bbdc3b5ffU, 0xbd0f00a23ccfa749U, 0x3bdb46853e103a03U,
  0x3c8d798cbd430a0bU, 0x3dde0a2fbb80c72fU, 0x3e017184bda50902U, 0xbcc4d9643d1c26c0U,
  0x3e0c7c0ebdb2906fU, 0x3d86d553be91af10U, 0xbe39689e3d3cc1efU, 0xbd10b233be0980d7U,
  0x3e452e103d2c18edU, 0x3ddff2da3d6d7433U, 0xbd2dcb51be736097U, 0xbe08a820be0df8a9U,
  0x3e254da9bd0f31b0U, 0x3e395cafbd80bac5U, 0x3c3201e2be195cc7U, 0xbc04f4323d864dcdU,
  0xbe1c7162bd90ab05U, 0xbd4653bdbe8212f0U, 0x3a878dbcbe2d54f1U, 0xbeacd6a13cdaa4b1U,
  0x3da5d4dabec21692U, 0xba4cd73ebe9ea0f9U, 0xbdc60ae6bd835547U, 0x3dfcc34bbd2d47acU,
  0x3e225d933e0b9a00U, 0x3d34a0743e1bd375U, 0x3e2afef7be31d43fU, 0xbea313c7bdae4366U,
  0x3df419a1bdff4785U, 0x3e49cfcbbda4c13aU, 0x3e030315be274b9aU, 0xbe090537bde46a53U,
  0xbe782f81be98f2c1U, 0xbe15b782bee9b14eU, 0xbe8f029bbe68d001U, 0xbe843393be4daea4U,
  0x3e72acdb3d72baebU, 0xbdb9aabebdd32624U, 0xbe18f1d1be70a2d2U, 0x3e52025cbe131c5bU,
  0x3d5563a63ce3de6dU, 0xbdc89f9d3e106c13U, 0x3bdb7d2cbdfba858U, 0xbe6f2560be244061U,
  0xbdb90314be0afb63U, 0x3d95f836bdf40833U, 0x3cafcae6bdf2f858U, 0xbd98b905be5ac499U,
  0xbe34f186be34a333U, 0xbe2266e8be9e1f9fU, 0x3d957840bc6c1ad0U, 0xbe7a5afebe3b6fa6U,
  0xbc3685a03da1b0f3U, 0xbe048c7bbb821876U, 0xbc67c2edbe8eb4f7U, 0x3e1ce0ecbcab21c0U,
  0xbd64c65ebcc2aed3U, 0xbc7b22e53b5d6e11U, 0xbdd5cc6abd27f7b5U, 0x3e202fd43d9d8f74U,
  0x3c3650e23be3bac6U, 0x3e41808ebdf5c11bU, 0x3cb77a11be175427U, 0xbde9c9cbbc7eff46U,
  0xbd3faa55bd3046e1U, 0x3bfbe0ce3a94f678U, 0xbbdf4b61be237a0bU, 0x3d35b5a9be426a92U,
  0x3db9ca11be457e88U, 0x3e2c14bd3e230c4cU, 0xbddfc36cbda367b0U, 0x3de4e8b53dc4e5b2U,
  0xbda9b993bd520be4U, 0x3e6f909ebcdc5418U, 0x3da32822be2075dcU, 0x3dc3cf67bd2f5e8fU,
  0x3dc4d5c43dcba0cfU, 0xbe0210a9bbbae62dU, 0xbcbe7d04bdc07075U, 0xbe060b87be365cf9U,
  0x3b86b576bd9d225fU, 0xbdbdb7253cb736a6U, 0xbdd247d0be49e230U, 0x3e48601ebe830b51U,
  0xbd5062d3be9798cdU, 0x3e09ea41bc4db29dU, 0xbe8bf13fbc60cdc2U, 0xbd6e8679bc6d4f51U,
  0xbcc4178fbd98ab3eU, 0x3e87a5e6bd6073ceU, 0x3e43aacfbe94a984U, 0xbc4ea9e4be5bc672U,
  0x3daf49d83e14f963U, 0xbe2eacd13c0149b3U, 0xbc7e9436bdebcb2aU, 0xbdf4616cbdb41085U,
  0xbdc75b53be7b46f9U, 0xbe4427cc3d22a428U, 0xbdfd4c95be6bb917U, 0x3dbca0cebe3165dfU,
  0x3d01e6f23d51eab5U, 0x3e09fbe5be559c11U, 0xbe97ec363e03fb4aU, 0xbdfef12fbbdbdc55U,
  0x3c6bccef3e13cac4U, 0xbc12f7a23d8ed12bU, 0x3d6de8bdbeac283dU, 0xbd9b609bbe70ffffU,
  0xbda84c40bc3bb2e4U, 0xbe27ea77bd84400aU, 0x3d28e2afbdb8ad38U, 0xbeb5739ebe147415U,
  0xbd9902c0bea6e5a4U, 0xbeb7ab22be5300c1U, 0x3e2da5e9bd8b1179U, 0x3d3ad1fcbbf81b79U,
  0xbe63afdbbc47d8d1U, 0xbd2264f4bdec1e9aU, 0xbe2208703d1c36d5U, 0xbd861203bdc67e9fU,
  0xbe2f1088bbdec5abU, 0xbd732caf3cc21416U, 0x3d975b6ebea826bcU, 0xbc843bc93dca5110U,
  0xbe070c443da0b0baU, 0xbdd498413cd51975U, 0xbd2ab7c0bda75cb2U, 0xbd7048c1bf068701U,
  0x3ddad126bc8083b7U, 0xbd8127a7bcbec74aU, 0x3e265998be8916c8U, 0x3de70317be49bac9U,
  0xbe283e5b3dab7843U, 0xbe221590bdad49c1U, 0x3db115043dbbf6a3U, 0x3e2ca7a43d5cf4d8U,
  0xbd232b1ebe55b3adU, 0xbc044adbbe7cde87U, 0xbd007266bee8a163U, 0x3df202aa3d96b6cfU,
  0xbcc7f3943c87bfd1U, 0x3dffb3173e47ec19U, 0xbdefa90a3e10b9d9U, 0x3bc9a891be498b5bU,
  0x3df544bb3c9131faU, 0x3c0271c63dde0b0bU, 0x3e0d4182be9f620bU, 0x3e14406abe1f5ffeU,
  0x3d1f7528bd0f2edcU, 0x3cb2f8133d3b75cbU, 0x3c0a028d3d1a1589U, 0xbde27a81bd974051U,
  0x3da493643dbd5ff5U, 0x3d9626e6be179b6eU, 0xbd755a72be73161bU, 0xbe7768edbaccbb67U,
  0xbc073c9c3cbfbe5eU, 0x3ba36473bdc87723U, 0x3d02dbd6bd7ae24dU, 0xbbd000aebd24587dU,
  0x3d3d3babbc719a73U, 0x3d944d3b3d92d54fU, 0xbc407c09bdbfec70U, 0x3d64d5f33c416242U,
  0x3d60c9e3bde6ace9U, 0x3df48ecfbeacb545U, 0xbe722c623d02b239U, 0xbd96abbabe52fd8dU,
  0x3dd6424b3d628e91U, 0xbe14e586be57c1e9U, 0x3c212c31be1e2bdfU, 0xbe8e15e0be621e73U,
  0xbde03c63be732e3eU, 0x3d87de13bdbfdc02U, 0x3d24e1d2be13099fU, 0xbde83aecbdefaab9U,
  0xbd84c636be0ffc15U, 0xbe013459be502b49U, 0xbdd10190bd4e29c2U, 0xbe6aaa17be26ead5U,
  0xbcb1c376bdc6ada5U, 0x3bfd0b6abe8cbb83U, 0xbe5c0383bdac69c1U, 0xbc25d066be878e65U,
  0xbe213dd33da52c8fU, 0xbdb4750d3e05afd0U, 0xbd376279beb02f21U, 0x3cbc59123e8b2fb0U,
  0xbe3080c3bd278b25U, 0x3d296354bd76bd1cU, 0xbdf4609abe2f1acbU, 0xbc3c8e35becc4ffcU,
  0xbd44300bbd2d7d94U, 0xbdce2307be207cd2U, 0x3e93482bbe8be74dU, 0x3d81a6b8be1d3cd1U,
  0xbe67eb0c3db2e818U, 0xbc69c34dbb2f2ab8U, 0x3d33affcbcde409dU, 0x3d9699f03ca6bf4fU,
  0x3caf79a1be5a9e15U, 0xba9857793d9161c6U, 0xbce13f55bebb8327U, 0x3c4c3f1f3d29a55bU,
  0x3d8a97edbda0c49aU, 0x3d3dcb9ebe3f9b7fU, 0xbe485feebe1446daU, 0x3d8ebaa4be80f927U,
  0x3cfcb062be1c6346U, 0x3d0d1a34bd90c7b7U, 0x3e0a6881bea3aed8U, 0xbddb525dbe88b2f7U,
  0x3e6e9b94be24d882U, 0xbc8a88b7bd305d34U, 0xbd12047fbdd41736U, 0xbdbf70ecbdd5af72U,
  0x3de09e51bd14cb48U, 0xbd9e9d68bd67e004U, 0x3d54ecf3bdf6418cU, 0x3b4c62b9be2ff80bU,
  0x3bb85748bd854f69U, 0xbd365733bdc69ad4U, 0x3d7c0f3fb92fa5baU, 0xbda11d5abdd486bcU,
  0x3d18d1423c48e237U, 0x3b0c8981bd5d6c58U, 0xbe87d3d9bdaa4afeU, 0xbddd42eebce43e1aU,
  0x3d9e2e433c7f687aU, 0xbc9295663d7311d4U, 0xbd38a155bd32c7cbU, 0xbd08f78bbd68fcc8U,
  0x3cbd1087bd1f7bbcU, 0xbe20912dbe5f2bc2U, 0xbd89c067bd7bd884U, 0x3da7be33be3c6c99U,
  0xbe7863cbbe28dec7U, 0xbd5ac0303d4a137bU, 0x3bae3c7cbd0bd2f2U, 0xbd99192abda87398U,
  0xbc44ce0e3d33b801U, 0xbda499823e2547a1U, 0xbddfeb213d0a7a1cU, 0x3dc27cde3e019abbU,
  0xbddbc6313c49cc71U, 0xbdba9e433e29bb62U, 0x3dcbce753d62dcf3U, 0x3d80ab773da6745dU,
  0xbe05b00d3e42f05eU, 0xbd8a292a3e53d775U, 0x3dcc9063be96aec8U, 0x3e1156593eb729d7U,
  0xbe7566f2bcf7ef3bU, 0x3d3c759a3dab69caU, 0xbe025e94bcb64c5eU, 0xbc8b09aebe1cf413U,
  0x3d511b81bdb6bda8U, 0xbe2dfb4abcf6031cU, 0x3e948894be554d61U, 0x3cbedeb3be33f7cbU,
  0xbe9dcb493e5f1567U, 0x3c7ae527bdfe85f0U, 0x3daef449bd106794U, 0x3e1c6939be177bf0U,
  0xbcc29c39be4e5fbeU, 0x3cd207503df322eaU, 0x3cbfc199be9cfcf3U, 0x3e19458f3d63085aU,
  0x3dfbde743da9d9b4U, 0x3cda82f33ca756ddU, 0xbdc53a45bdd32be3U, 0xbc16662dbe8751c9U,
  0xba51824abd1a0830U, 0x3c0f88c63cf97816U, 0x3df4568ebe22d934U, 0x3cd4935abe15474cU,
  0x3e2388853d26f71fU, 0x3d106ed6bd4a0d8fU, 0x3d0136503c27f377U, 0xbcf87b5abe032366U,
  0x3dafdb803d8f777cU, 0xbd5ba0eebd3c8a70U, 0x3d6d94b6bea235b7U, 0xbdd61998bd1e0837U,
  0xbd09fa5cbc389e8dU, 0xbd8521cbbd63552cU, 0x3c02d64abc0daa2cU, 0xbd17f843bdecc564U,
  0xbcbd22d9bdce1550U, 0x3d4b509dbce00e1dU, 0xbdaa8badbe47fce3U, 0xbd6a5b6cbe5e99edU,
  0x3d9c87133c035b9cU, 0x3d625af9bdcd57bcU, 0xbc70e73b3d47c05cU, 0x3dc8d431be5a0fe0U,
  0xbd26e9af3df5ba62U, 0xbe18355abe6d1f39U, 0xbd9442bebe835c6eU, 0xbe857f33be6fa452U,
  0xbe192a1dbe01065aU, 0xbd9fca0bbe68c3cdU, 0xbc6ae117be887555U, 0xbdb1d2893d253209U,
  0xbe26e596bda90b18U, 0xbd2e0835be7ea53aU, 0xbe9810fdbdc79f10U, 0xbe64ad2c3d141fc8U,
  0x3c8e986bbd635ca5U, 0x3bdc60d03dbf15a5U, 0x3d3941ad3cc96558U, 0x3de4ea8fbd9097a4U,
  0xbdba9bbd3d6b65aeU, 0x3cf685af3ea0dbe8U, 0x3d9e7d42be5866cdU, 0x3e7bf2173efeaac9U,
  0xbe5e203f3bf2ba53U, 0x3d95a8633cdffc02U, 0xbdaef2f9bdb53292U, 0xbbe6fce2be40d47cU,
  0x3d1ad8d7bdf5104eU, 0xbc585131be20da3cU, 0x3ea0c97dbe453360U, 0x3dc9cbb1be0bbc45U,
  0xbe9c469f3e6141aaU, 0x3d45380dbd907ef8U, 0x3d981917bd1a86ffU, 0x3e0b1cd2be44519cU,
  0x3db0857fbde00472U, 0xbd1916233e03ec3aU, 0xbd05516bbe93aa78U, 0x3e5a095f3c8fadceU,
  0x3db638a83cc4bcaaU, 0x3e012bdebd624c64U, 0xbc082242be215758U, 0xbc337428bee203d2U,
  0xbd0f99273caec742U, 0x3defcb103da47a6eU, 0x3e49be82be69f395U, 0xbd9e44d5beab64d7U,
  0x3e8e754ebdc9a5a8U, 0xb9ea5d1a3d8dcd21U, 0x3dfbf5e2bd857189U, 0xbddc0f74be3a5e0eU,
  0xbd5606ec3d84b53aU, 0xbcb2cc20be57cb18U, 0x3cd6594bbe5a2abeU, 0xbd5463ea3d198366U,
  0x3d8aed3dbd452d17U, 0x3d059b5bbe0ce4c7U, 0xbcd946a4be3b84ceU, 0x3cd4a147be2061a1U,
  0xbd862b81bdb7a36eU, 0xbc1a9ae6bb0d05cdU, 0x3e156383be79591dU, 0xbde3ef4abe765096U,
  0x3d1fb9edbdcbf33fU, 0xbd03e0cebe10b3ddU, 0xbda49923bda022c2U, 0x3d36b1afbe81314fU,
  0xbd8f618d3d6905bbU, 0xbe0036a6bdecd500U, 0x3cca1645be0efa1eU, 0xbe68e733bec27dd7U,
  0xbdfd9c44be2b1aebU, 0x3dad3cc9bdb024feU, 0x3dae9eddbe5725c7U, 0xbe90d98abe7174afU,
  0xbe267445be1e387dU, 0xbd9d827abe07fbe4U, 0xbe92f285be0b933eU, 0xbe7093aabd96a878U,
  0x3d7bd3f3bd065787U, 0xbd60f21cbd740377U, 0xbdd99febbe8164abU, 0xbd205225bc016f5fU,
  0xbde8510c3db0b6bbU, 0xbc62b45f3d901f21U, 0xbd5c4e82bd6c8165U, 0xbdb724e13bb156e0U,
  0xbcbf73e23d1e5ba4U, 0xbe27abd53e07629bU, 0xbe47fc213dbe9e8dU, 0x3d690819be278477U,
  0x3cb5e41cbb471f3bU, 0xbd8a91d63dd8c697U, 0xbd4fc64a3c655e9aU, 0x3da2f7e5bd27baafU,
  0xbe28a939bd2612c3U, 0x3b07673dbe17dbb4U, 0xbd57a72c3d958b46U, 0x3d4c1ef73d3cfc70U,
  0x3d86f5d63c0cc28fU, 0x3e00f49cbd949da0U, 0x3d7f6707bdcbaf9fU, 0x3bf27ae73a2f69e1U,
  0x3d14cc593d6fb5b8U, 0xbdc82e4d3cad6886U, 0xbd6c10c83d25379eU, 0xbc9d6a713d174a5dU,
  0x3cbcb8553d03a6faU, 0x3d1aee0e3e075c45U, 0x3e18245fbdb9fa53U, 0x3df64a513ca22c5eU,
  0x3cc553eebe672cceU, 0x3dc5cb0cbd280d0bU, 0xbe27f2803da7aa88U, 0xbd761d33be5036d7U,
  0x3e1afe153c359486U, 0x3df43bca3d2d80d5U, 0x3e1ea98dbe01d1e1U, 0x3e10e8873e0b0dcbU,
  0xbca20f443d079aafU, 0xbe56503bbdd17596U, 0xbe08df35be5333c4U, 0xbd1979133dd725fbU,
  0xbb67eb34bdc64267U, 0xbd1d0ca13ce3de9bU, 0x3dff66e9be0a090aU, 0x3db17ed83dbb0fa1U,
  0x3d6b58123d2254d3U, 0x3d99c0aa3c2b01e0U, 0xbcb92995bdfdfb9cU, 0x3d3203b4be876560U,
  0x3e64f9f83c85543eU, 0xbc3e33fabd2c881dU, 0x3e3c285abe90889dU, 0x3d244adb3de29739U,
  0x3d9f84dcbccaec7fU, 0xbc355017be9c019dU, 0xbe0649babdf28bf5U, 0x3c76fac03de5e903U,
  0x3caf3162bd313ed7U, 0xbd6295c7be153625U, 0x3c52d2ccbdd1d5b3U, 0xbc2ede023caf8077U,
  0x3c83689e3d2b1bb3U, 0x3c9e5a543d732bd2U, 0x3cf68eb9be2c63e9U, 0xbddfd054be150038U,
  0x3e5a47013c913fc4U, 0xbe37a428bd0c384cU, 0xbdd0bc1b3d463ecbU, 0xbdb968593cfcb56dU,
  0xbe1fa110bdf7d5bcU, 0xbd0127f8be181bb4U, 0x3cc58182bc81e1e0U, 0x3d90a7f3be109c5aU,
  0xbe011bab3d8cde44U, 0x3dea9695bdd4f454U, 0x3d81688c3d490174U, 0xbe149f78bc8b5f13U,
  0xbd6a9b93bd3237a0U, 0xbdf093b8be06b518U, 0x3d93ed923c8ddeddU, 0xbde616583d5fa12eU,
  0xbc462b3dbe0b5489U, 0xbe13f4ef3cb4c2a8U, 0xbd4721d8bd58c283U, 0x3e00fed73cdf064eU,
  0xbd821549be1d3416U, 0x3bc26bcabdcf184aU, 0xbb2d5fcfbd53a88bU, 0x3dc17a26bde4163dU,
  0xbc37781e3c1fc591U, 0x3de09af3bd89f87cU, 0x3c8f7c7fbcb500abU, 0xbe6687e0be22e34aU,
  0x3dd2dee0bdf42bfaU, 0x3d3e43a4bd86500dU, 0xbe4fd4b1bdfbc0dcU, 0xbe818a663d945c9eU,
  0xbc99ae39bd4d6baeU, 0x3e060ac5be14095dU, 0x3d51fb46be31b438U, 0x3d1b09d7bbcf2773U,
  0x3db670b83d8f62c0U, 0xbe1b16653dc6bc0dU, 0xbce33132bdacef99U, 0xbda04147be2bd907U,
  0xbcdd9cbcbd299fa9U, 0xbd6f3bc7baa17e7eU, 0x3d723c8ebe08fd07U, 0x3b83aaa7be732b20U,
  0x3a0006b13dbd88d6U, 0x3d8d3f2bbeab972dU, 0x3e063c60bd0e7b95U, 0xbdee42abbd704fddU,
  0xbdd3b3e0be20001cU, 0x3db6e28dbec790b5U, 0xbaefecf3be255289U, 0xbdab39db3da11fa9U,
  0x3b69100a3da13a0aU, 0xbe9180bbbde17026U, 0xbe1a0be53d41d8c6U, 0xbdacd2bbbe7d7cd2U,
  0xbc10e016bddb8706U, 0xbddfe476bd11014bU, 0x3e256cd9be42ae8dU, 0x3c9e8841be7004faU,
  0xbe8e1857bdf00429U, 0xbc3d7f8cbeb488e2U, 0xbc9858623dbd0538U, 0xbe20f4fcbec068f2U,
  0x3db09c67be31ffb7U, 0xbe3c2b9f3c61124cU, 0xbdd99d09bda2cadbU, 0xbc9dc31c3e0f3ae6U,
  0xbe1d9b14bd6f6480U, 0xbd707475bde0c001U, 0xbd0210c6bc9872a4U, 0x3ddca7b9be27b2feU,
  0xbd8f699b3d135037U, 0xbc7363803d1a2723U, 0xbe1a5bfababefac3U, 0x3bc1b6283cd10563U,
  0xbdb068c13c5efdccU, 0xbe4acaccbd6b4ce8U, 0xbdf50d09bc6a215eU, 0x3dafd683bbf8b7bdU,
  0xbe4d0fba3e1627beU, 0xbe45e33e3d8ce4abU, 0xbe0c1a68be3788aaU, 0x3dce7016be3dbfb3U,
  0xbe7d6648be459badU, 0x3d0a5a03bdb78b71U, 0x3dc9fa81bca95e47U, 0xbdf60c54bd6d02cfU,
  0x3cee4deebab4d608U, 0x3cd46fe03d5ecb54U, 0x3e22df26bd6625dbU, 0xbdbbeeebbb300167U,
  0xbd057d4dbe119c9fU, 0xba9c85b8bdd5a283U, 0xbe22fa893b971d2aU, 0xbddc6fa03da9fe26U,
  0xbde486933e4c9805U, 0xbece8cf1bd277673U, 0xbcdfdfd9bde3e8f5U, 0x3dacc9efbc1b15aeU,
  0xbed6929ebed940cdU, 0x3e5454d03c0e1effU, 0x3de4b53ebda6935eU, 0xbe128060be5f448aU,
  0xbde0601dbda8877fU, 0xbd4df7a9bcab5a1aU, 0x3e147c46be5f1d21U, 0xbc9372e7bdbc76e5U,
  0xbd4fefd43de52a56U, 0xbe1a1bdcbdbc393eU, 0x3e0fbcb9be38d3c7U, 0x3e4c6670bda0a556U,
  0xbe7b87433dde3d19U, 0x3dc5ef32be112d7dU, 0xbd783186be17de4dU, 0x3d96cb5e3e268dc4U,
  0xbc88361a3dadc4b6U, 0x3dff2208be23270aU, 0x3cdcef9bbd80609bU, 0x3dd75885bdedbd41U,
  0x3d380203bc8b2411U, 0x3dab60653b953041U, 0x3e81dfc3bdb243a0U, 0x3e348821bdb72aa2U,
  0xbd754355be0df7f7U, 0x3e0d4d78be07b313U, 0xbdd02cb639e1a226U, 0x3d3d4f56bd813925U,
  0x3e418a593c47f1e4U, 0x3d69c4703e26b4fdU, 0x3cb15735bca2a6f3U, 0x3df1a7083e39ef8fU,
  0x3daa8796bd3c814bU, 0x3e8e28743d8f7e01U, 0x3d939c14bc1a29f1U, 0x3d40be41bddc1265U,
  0x3c41a39fbd502fd5U, 0x3d4dcacabe0c437bU, 0x3dbe5d9b3c17a8c5U, 0x3d54bddabc1a493aU,
  0x3d8110a43d779284U, 0xbcb153233d78f48bU, 0x3dde5cd6bde85aadU, 0x3e62f7b13e111259U,
  0x3e3b433f3e4771dcU, 0xbc90afdb3ea1720aU, 0x3d40c9f2bcb4c278U, 0x3d184ef0bea5a383U,
  0x3b89d9a5bcad613fU, 0x3e66b4763cf28b93U, 0x3e1e52b0be72da1bU, 0x3d93b5cdbde6deeaU,
  0xbd91fde6bda7d315U, 0x3da4fc5cbda6df34U, 0x3e1e4ca7bca1143eU, 0xbdce0b08be01fee8U,
  0x3e41b8b1be1fa9a0U, 0xbd1634f1bbc8139aU, 0xbe0b0516bdb9dcdcU, 0x3e16fcaf3e3cbafbU,
  0x3e13fd09bc98bbe8U, 0xbe59dac13b7a183bU, 0x3d66abd1be1e6fe3U, 0x3d370fc43d5446feU,
  0xbea32794be88d594U, 0xbdb540abbc8b8beeU, 0x3ce84a0cbe363347U, 0xbdbec876bd8454ffU,
  0xbda313f2bdde862cU, 0xbe3eaec8be0b73faU, 0x3db1307cbdbbaaceU, 0xbddd3e4abd90db5fU,
  0xbe13a65e3d8cb20dU, 0xbe8ceffabc9a4ff6U, 0x3e0e753bbe8375a7U, 0x3c883920bdaacc67U,
  0xbeaa15edbd363a82U, 0x3e12f6bcbe3cf062U, 0xbd3d8dafbdeca63aU, 0xbdc0c33b3e5bb999U,
  0xbc33d4ea3dd7133aU, 0x3e445d9cbd44854fU, 0x3cbe79a0be079134U, 0x3d8ff543be2ce71aU,
  0xbd577463bdd9a8f3U, 0x3be4365fbda9ca5eU, 0x3e55031ebde02b8eU, 0x3d6ef40dbdf4bd05U,
  0xbe0d4860be301891U, 0x3e965a8cbdf0a47dU, 0xbd7f30743d5bc68fU, 0x3d098798bda2e196U,
  0x3e48bd283c2c2898U, 0x3dbb3ae9bd40b66eU, 0xbe024521bd9559a4U, 0xbe0429aabd6e6bd6U,
  0x3c9632ef3e09e66dU, 0xbe294d12bd1a6babU, 0xbe9ec30cbcd27a3cU, 0x3dad4e06be296598U,
  0x3d5b4e123e0ac5f9U, 0x3ddc687d3d9873e2U, 0xbd4b78023d348351U, 0x3d31fbd8bdda0ac9U,
  0xbc561904be560f0fU, 0xbd51c566be52c58dU, 0xbd8823923d377614U, 0xbe1b0864bd1feeb0U,
  0x3d9397ddbe2d0cfaU, 0x3dc12acdbd6f0c81U, 0xbc5ee30ebd86cbcfU, 0x3dd5089ebd78d0bfU,
  0x3e0ceecb3d179aa2U, 0xbdd84b133da9a61eU, 0xbe7b1fdd3cd5fb1dU, 0xbc948c03bd85421aU,
  0x3b87d9f73d855b7dU, 0x3dd2b0ee3ca5e385U, 0xbd7290c8be2d1e89U, 0x3df0e32dbcf3a8e6U,
  0x3d712caebe64c111U, 0x3da37754be45e5adU, 0xbe058194bae362b9U, 0xbd8efa12be6d8f8eU,
  0x3d8004c1bdbace96U, 0x3e1452e33e1808cdU, 0x3d97a230bda625bdU, 0x3def3a4cbe0f89bfU,
  0x3dc59afa3df1bf50U, 0x3e0982e9bda8f52eU, 0xbe4fb285bb3d009cU, 0x3d138e233e2388d9U,
  0x3c897537bb26504eU, 0x3d9a11d0bb51259dU, 0xbd1c6d4fbe343493U, 0x3dd2951ebc950a22U,
  0x3e3729bfbdd355fbU, 0x3e583f8ebe58893eU, 0xbea3ed7dbe1d4843U, 0x3e02e8b3bed555bbU,
  0x3e6c6ce43e10f62eU, 0x3db3785d3e806413U, 0x3e8c8e90be1f1c20U, 0x3e824c823e369e21U,
  0x3de0a0b83c8b3e73U, 0xbe02edcebed461f9U, 0x3d13aedfbe6fcdc0U, 0x3c965be03ca87e17U,
  0xbd5275bebe367b76U, 0xbd85796bbe70fd34U, 0xbd5a8df5be8ea3a9U, 0xbbac24a6be36d205U,
  0x3e8521f5bda03f5eU, 0x3e1b8c273cd40d2fU, 0xbcfcbfd8be9b3845U, 0x3db90c69becd171dU,
  0x3e9118ef3e574c48U, 0xbc66bfeebd80da95U, 0xbea7137fbd474c1bU, 0xbda6761cbd097c50U,
  0xbd93e6d3bd8e0c90U, 0x3c556e6dbe8c4d94U, 0xbd569c48ba8dc447U, 0x3d15d9b7be08ac14U,
  0xbc4b95a33db73105U, 0x3d352a5dbc42bc6fU, 0x3dcc0ba83d10196dU, 0xbe20d312bd9c68f8U,
  0xbd9f7ad5bd9e3d0bU, 0xbc869405bd7b2021U, 0x3ca96564be0ceefbU, 0xbe2f54973dd23b16U,
  0xbdbe9d213d5bd5a1U, 0xbd30ecfdbdaf100dU, 0xbe539d00bd00c30bU, 0xbb777129bd5a46f5U,
  0x3d13d563bdba06eaU, 0xbda79ceebea1fb71U, 0x3d0c4b96be62edefU, 0x3d1bb9efbe4a050dU,
  0x3d35e5e43d7640d2U, 0xbcec30803c1aa836U, 0x3cb7e0fabdb59c0bU, 0xbea1f1cabe1f544dU,
  0x3be35836bec47f5aU, 0x3cb8cc5cbd0ab6d8U, 0xbd3f73cdbd1eee1fU, 0xbea0e4b2bc950711U,
  0xbc68fcefbdd4d9b1U, 0x3d803c51bda4c729U, 0xbd9795adbe5408ecU, 0xbe0a6f61be01a02fU,
  0x3d8cb0b63d254f0cU, 0xbe5df0efbe84f5bcU, 0x3de2127cbd485015U, 0x3c65618cbe857fc3U,
  0xbd9df02dbdb64f33U, 0x3b18069f3d12961dU, 0xbd8c865cbb96fee5U, 0xbe57bddfbe64c965U,
  0xbd1a69b7be18026fU, 0x3e6df3c0bd6cd8e0U, 0xbe040f033d1d1888U, 0xbe16c3073d54af73U,
  0x3cccd5e3bc9b3d92U, 0x3e908511be8a3ac3U, 0x3c381892be37b3ffU, 0xbd5faf1dbe84186dU,
  0x3da8b7173e03e102U, 0xbe45c6b4be030e76U, 0xbcb5fcd8bd75643aU, 0xbe5b5ceabe6b0f49U,
  0x3cdc427fbe265586U, 0xbe40b0663bc9c548U, 0xbe4a085ebda7143fU, 0x3d333765be9f56b9U,
  0xbda59fe2bdb72deaU, 0x3e5ad362bed27e81U, 0xbee85c1c3d15378cU, 0xbd84d008be8b1f66U,
  0xbce0ec5dbe2ed1a2U, 0xbecc94bf3dd3c55aU, 0xbecf782bbda3d76dU, 0xbdccb528bd9680a5U,
  0xbea65112bea577a8U, 0x3d25b2f23beaaae8U, 0x3d7200b03e0a55faU, 0x3d3714e0bbcd748aU,
  0xbd8c797abc20e16aU, 0x3c911633bd811235U, 0x3db481dcbb0ae222U, 0xbce107863dee73c1U,
  0x3d73b8cebda73a15U, 0xbd424173be2d0436U, 0xbe0b84b9bd2d5df6U, 0x3dbf1101bd6863b1U,
  0xbdd43a3d3e99b8deU, 0xbec146953e196f32U, 0xbe853619be694d63U, 0x3e319d4ebd6783faU,
  0xbea70549bed231b2U, 0x3e335f43bed8a57aU, 0x3dbc87d1bdd77800U, 0xbc52c76a3d69ce11U,
  0xbdde1689be116628U, 0x3a0b98f8bdb5be72U, 0x3ba7f358bdbb85e1U, 0xbdfaf4773d80af7eU,
  0x3be7e4b4be651dffU, 0x3d1ea281bdb79b93U, 0xbe8f88abbe4beb64U, 0x3e8eb9a4bd58f547U,
  0x3d3814d93e734a77U, 0xbefe2a153e897875U, 0xbd3a09c6be912324U, 0xbca11acb3cf7b439U,
  0xbed3ba3dbef16c8fU, 0x3e520378bea81d4aU, 0x3e4720e13cae9d16U, 0xbcc8f85b3e17f5b0U,
  0xbe10c2c0be087410U, 0xbd767b6abeaf6fb4U, 0xbea79dbabe1034f7U, 0xbeb6d343bdc7b51eU,
  0x3dd13f433c99bb0aU, 0xbdaa9dabbcbddcb2U, 0xbdda30f4be9f1d0eU, 0x3ea6835fbd504d15U,
  0xbe247cbf3de7a405U, 0xbeb620533d90d955U, 0xbccabcefbbf19722U, 0xbd68b54bbd1dfd05U,
  0xbf0d96d7beeed189U, 0x3dc5aed4be31c03cU, 0x3d5d0ae0bc0c0c4aU, 0xbd968b223e0822aaU,
  0xbe361103be103bc3U, 0xbdef1e10bea090ddU, 0xbeb3cf90bd808b45U, 0xbe5c72c4bdc8e378U,
  0xbc622c083da5b630U, 0xbe328ee73d5502b4U, 0xbe16ab3dbea7df31U, 0x3e95e5ed3b71a365U,
  0xbe66178fbc79b289U, 0x3d2d48a33e8b1e20U, 0x3c626aa5be509ec7U, 0xbd8110a9bdef9907U,
  0x3e1f1f73bc9ac219U, 0x3eb25ec2bb655028U, 0x3dde479cbe36c1edU, 0x3d2034423d2b4fc1U,
  0x3c694417bdb49618U, 0x3af7b311bd949c17U, 0xbe753e9bbd958925U, 0xbed178323cd631c7U,
  0x3e8970a9be83ea25U, 0x3e3b9ccabe4122ffU, 0xbdef135fbdebcbc8U, 0x3ea98e4d3c544f9fU,
  0x3e413b6a3e05d009U, 0x3df0305f3e7c254bU, 0x3e28277abe724c99U, 0x3c4ddf3cbc4ac432U,
  0x3df6cb5cbc40c8d0U, 0x3e3afdb8bd651e02U, 0x3dba0371be03011aU, 0xbdcdeac8be983bacU,
  0xbe9248e4be784c93U, 0xbda5cc91beb7d997U, 0xbe534c1fbe3c3025U, 0xbe3ec741be53f350U,
  0x3e15843a3d71a1a5U, 0x3dc22ebabdef1e72U, 0xbe3257f2bd149536U, 0x3e82e592bde721eeU,
  0x3e2812dabce4a1f8U, 0xbe4136b1be272854U, 0x3e363d43be70a554U, 0xbaf68d74bebba1eeU,
