/**
  ******************************************************************************
  * @file    voice_model_data_params.c
  * @author  AST Embedded Analytics Research Platform
  * @date    Wed Aug 28 18:48:18 2024
  * @brief   AI Tool Automatic Code Generator for Embedded NN computing
  ******************************************************************************
  * Copyright (c) 2024 STMicroelectronics.
  * All rights reserved.
  *
  * This software is licensed under terms that can be found in the LICENSE file
  * in the root directory of this software component.
  * If no LICENSE file comes with this software, it is provided AS-IS.
  ******************************************************************************
  */

#include "voice_model_data_params.h"


/**  Activations Section  ****************************************************/
ai_handle g_voice_model_activations_table[1 + 2] = {
  AI_HANDLE_PTR(AI_MAGIC_MARKER),
  AI_HANDLE_PTR(NULL),
  AI_HANDLE_PTR(AI_MAGIC_MARKER),
};




/**  Weights Section  ********************************************************/
AI_ALIGNED(32)
const ai_u64 s_voice_model_weights_array_u64[37077] = {
  0x7f0000007fU, 0x23fdcd01f5c981U, 0x1014200512040ecdU, 0x1120653da9db1845U,
  0x29b087ad607fe99eU, 0x1d7f3bf005eac7a4U, 0xd7bbd13e1c137354U, 0xf12c3436bd6fcfcdU,
  0x3c27fdd8e7e71f7fU, 0x3423124981f47139U, 0x27372dd10f5a0d5fU, 0x3b0b1bb126193bd2U,
  0xdb999f811eb8ebbfU, 0x81df1e5c0e0332e3U, 0x15f6c4f70055ddcaU, 0x71eb9481ec2c0407U,
  0xf62330cf0c23fd9cU, 0x7ffbe631f72c3c4dU, 0x38679b6ecbb483fdU, 0x95b23e0ac181020cU,
  0xe51c102fa7fc2218U, 0x81f02a278d161d17U, 0x26f13300a3113cf6U, 0x704d2091509130eU,
  0x932437537f6f229bU, 0xcff6333381cb2824U, 0xaabdf8fd91c61f25U, 0x231302161d07181aU,
  0x81842c448e3a2903U, 0xa2e6fc1f81d9f203U, 0x114c28f1ad1a2f22U, 0x3dc9fc40bf093946U,
  0x49fd20ad268194a7U, 0x6727ec082636f32bU, 0xcaa8f972ffbc81fcU, 0x4605f206749ee8cU,
  0xf7f39cde73f03f3U, 0xa9b9f23a81b4c705U, 0x1c1d2c16005e6531U, 0x38312a8106cb99c9U,
  0x1bd836f4ba154cb2U, 0x2d3e35e8d339ec2cU, 0x9b681cf361ab745U, 0x44d3ba09ac68f3f5U,
  0xaadb7de181ab66f6U, 0x40b514ba229bfe81U, 0x10013c4e4de435f7U, 0x2269be815af4b701U,
  0x1b09fbba2a2ef9bcU, 0x3674b5a17f12a7bcU, 0xd42eaff98295f62U, 0xe43bbf39c981d112U,
  0xe828f20ecd36f304U, 0x12118eef905ed81U, 0xe0c07fffe0fe2aeU, 0x1f1b34528f81c2f2U,
  0x73d23be3098a04c8U, 0xb4d83b42273a17f3U, 0x81c519fcb1afd421U, 0x23cb950c0081e64aU,
  0x3103e02c31e1ab12U, 0x94f0afcb804390fU, 0x1dbb81cd0a3ffa4aU, 0xee962e2b79a9c405U,
  0xe4d81d2e86810332U, 0xfffffc8a00000008U, 0xffffffddffffffd4U, 0x14fffffff6U,
  0x2fffffffaU, 0x7fffffc12U, 0xffffffd10000000dU, 0xfffffff60000002cU,
  0xfffffea100000003U, 0x6fffffe6eU, 0xfffffffbfffffff9U, 0x15fffffdedU,
  0x4fffffec1U, 0xdfffffc3bU, 0x2b00000009U, 0x30000000fU,
  0x12ffffffefU, 0x1501b41303ded9f8U, 0xf118fb2be50704c9U, 0xefdbfada1008f3c6U,
  0x13e72e2026f52ec1U, 0x3024f501f316cb24U, 0xe7cdf2fa08e4cdd1U, 0xf6eaebcbf7fcf9d2U,
  0x81e51dfde61a1bccU, 0x172ece0c071bf13aU, 0xc2120d200c04feb6U, 0x2b05e7000c281adcU,
  0xf023310aeb29fdedU, 0xfb1cde141c280a26U, 0xaf0c00fdfff2ebbaU, 0x50b00e93f0aeea7U,
  0xca0e2e21e7fae50aU, 0xfafdeb0d0bf7e41bU, 0xd7cb08f7f116e3d4U, 0x22ecf1d40ee802beU,
  0xe8fe1debef16dfdcU, 0x1e1ce6f11b02c315U, 0xcee80204f01feadcU, 0x1ff423be11d624daU,
  0x1ee514f2ec14ef00U, 0x22fc130cfbece00fU, 0xedfc0d18092119ecU, 0x1ce54ae902d123efU,
  0x100dfd03f0190807U, 0x828dc05fde7f414U, 0x22f008b7e8cfc7efU, 0xebcfc804ebd305dfU,
  0xca0a08f2f609d3e0U, 0x29ec02dcf7eddc03U, 0xd4caf1fcefeffdedU, 0x28d0f7da09d0e3d2U,
  0xf40a35fee3e7d0d5U, 0x3003ebff18f9ff20U, 0xfbf2fc0a1503e9ccU, 0x25e929d21dfd0dc2U,
  0xe014fb1519371ce1U, 0x202f0030f27eeecU, 0xd4fb191703021fdcU, 0x20befd20009fed3U,
  0xfa28fe13310214b5U, 0xedfdff191529fbd8U, 0xc0fee9de0ac4ecd4U, 0xfa2cf20e0904f9e9U,
  0xf6fec0dcf4e6f3e0U, 0x17f600f0e0d9d2b9U, 0xe6f2d114eb00fbd7U, 0x1be8fecfe3d2f7efU,
  0xde41befd0e5eac5U, 0x1d071006f6f905feU, 0xf909f5080b0f0bd5U, 0x2bf3200111dd14ecU,
  0x30c31f7150119c2U, 0x21519050f0406f0U, 0xba17020e0c1029e0U, 0x7e229ed45fc18f6U,
  0x3023f334f60a2be6U, 0xe51df8161bf20caeU, 0xef1319dbe6d8cf06U, 0xf4f1eff5e8eb0cefU,
  0x20fcc13eee4e1ccU, 0x150ffe010f03fa1aU, 0x9f40dfc1f03fd09U, 0xf808fffcfbeffb0dU,
  0xfc100701f60808f7U, 0xea13eb140afcf802U, 0xf20105010b060bffU, 0xd0fa1009e0fd05f5U,
  0x1402f60907cc15ddU, 0xf06ee0ef1f2ec0aU, 0xe8fa00fdf90e05e9U, 0x3f5fefff80d06f2U,
  0x4fffbf9fdfe0df9U, 0x4e8f4fff8050212U, 0xf4fceb09fc140bdfU, 0xf806f0f6150e00f9U,
  0xf60e2ae211f307edU, 0xde0ef1ff0924e0e6U, 0x4c604f3eafcddecU, 0xe0f30b04059f08f2U,
  0x38151a1fe1f4e8fbU, 0xe622fbfc13f9e8f3U, 0x4c7f8f7e6f9f2faU, 0xf6e400f8eb941be9U,
  0x102051beff3e5e3U, 0x1106fc16f7fee00cU, 0x5a902f5f106e2efU, 0x4f6ff01f9a413efU,
  0x1fd221bca0bf308U, 0x130f0810fefdfaf4U, 0xfbdf13f9f804f300U, 0x6090402f9d00609U,
  0x1400140cdffbe509U, 0xd8bed4fae3c6ceefU, 0xe708fcf4f00619f4U, 0xb606f6c6c80ad3e9U,
  0x15e42ddfc9d401f4U, 0xfe81f8cccfdcdce6U, 0xd802e7cfeae509e7U, 0xec00f6c6edfde2ddU,
  0x10b00caed0fde9ffU, 0xeda105d8eadde7d9U, 0xecede8dcebc4f900U, 0xf1d4f101eff5f706U,
  0x15c3deddc5f2e107U, 0xdceb08f1fdd407f8U, 0x13d7ecdbd8d1f1fbU, 0xf4e7f8f5e1cfe6faU,
  0xe803e9dceed2e4U, 0xd60b1bfc12191ee4U, 0x1190f01031004dfU, 0xefd50002e12e0601U,
  0xf108d3f04cfe1ee6U, 0x43704060d1a19fbU, 0xff2afa16e41405d3U, 0xe8e8ff0fe3101ae8U,
  0xa14d81b2a141beaU, 0xdafde10507eae7e4U, 0xd7eee511d2fd05ddU, 0xd6b4f3dce1f1ebd6U,
  0xfae8d50307e31fe2U, 0xfda0febe5f911fcU, 0x15d9d3f6e9cadbf9U, 0xfc10fa140cd8e4efU,
  0xf9e30edf0ef3fad7U, 0x2a0ef80e0df8d82aU, 0xe831ecf9fe1a4ce8U, 0x1f0d11dd1de329ceU,
  0x2b16d7ea122308e2U, 0xacebbbf41de2eebdU, 0xe423272fe926340cU, 0xe3f219f5d42ef102U,
  0x44f761f80ce02addU, 0x20d5ebf20de2bbeaU, 0xacd2f2b8fdbdadcbU, 0x19ece2bddbd726c9U,
  0xaff9e7d3ebfed0ebU, 0xedfedb1e051cdef3U, 0xfc0d191f142d14ceU, 0xed1a29e0fe0407daU,
  0x23f5261013e206ebU, 0xfcd6f90e0ff6c403U, 0xcbf1f3e6031507d1U, 0x14d6d1f506c7feeaU,
  0xd401c0e3140f04d0U, 0xb3f3dd1b13fdddd1U, 0xe4e51917ed2013f1U, 0xe3bc03d2ebf2fbe4U,
  0x3506281e00e825ccU, 0xdc25dafaf9f2dbcfU, 0x6d31abaedcf9f1cU, 0xf1d3e7dbe5f801c9U,
  0xe3fd07e80df5d5e0U, 0xeed9bb0403deb705U, 0x11d82514fb212a05U, 0xfb1b27a113d40398U,
  0xe6c7273902f49fedU, 0x1fd60211e2ecbdfbU, 0xf305efedf602f7f4U, 0xf4c810f1dae11ac8U,
  0xc10ceee22f4d9bfU, 0x9e0edb0eedebdad4U, 0xbeceff19f0eb22d0U, 0xaafafaba0adeeabbU,
  0x3dff380edab709d5U, 0xf10e10efdff5f5eaU, 0xe2ca23dc1cc6c9efU, 0xe7f6290e2ef60312U,
  0xa6160ffeded0eb0fU, 0xfae30b17e20c1404U, 0xef061042231bf0e3U, 0x32a2c0f2909ee15U,
  0xd2ec3d1b13fd100eU, 0xf3fdfff1f5c0e50cU, 0xec08d4dddae0e6dcU, 0x10d9f8c4ddbf0fb8U,
  0xe2f209fec71faac5U, 0x81dd0512d7edc1a7U, 0xcbbc021de8eb19c1U, 0xa7ff07b509e6e5b1U,
  0x39086207f3a911a9U, 0xd2f413eae2dfc0d3U, 0xd5ddffd9dbd9c7dbU, 0x1a0501c4daa702faU,
  0x15f30d2ba6d4e824U, 0x7602c06daebfbfdU, 0xf3ef132ffd0701e8U, 0x700b0ecd4f71320U,
  0xfd0d1b10e6e60825U, 0xda02f51610fa050fU, 0xf9fb150c140d1405U, 0xb2092115081cf6f3U,
  0xb06080402f0f6edU, 0xc2ebe0ebeec8dadfU, 0xdff00007d7f203dfU, 0xe3e3e2eed9efe6d9U,
  0xfff113fe03defbe4U, 0xffc10fdaf1d7b120U, 0xd7bef6e9eee809f4U, 0x10ebe3d905d008f5U,
  0xeb603011d09000aU, 0xbe9ee09faf1e712U, 0xce1090c0107fc09U, 0xdfef2df0d021af8U,
  0xf4f2fbfe1bf6bc06U, 0xaa12f10b050c0cb9U, 0xce2060ef206f20eU, 0xadebfc16e1be0efaU,
  0xf1051a1922fb10e2U, 0x1cdbc3eff1e1d0f7U, 0x1be6d8ef02eedb15U, 0xfbfad5d8fdb6f9dbU,
  0xc2d922eb0bffe4edU, 0x2ad0ddf4f008cd28U, 0x4cf01d70ce80107U, 0x1c07bdd91be804f3U,
  0x81d918d90b2ae809U, 0xb07ea02fb10ee1eU, 0xfce90e190d0c13f2U, 0x91202ec13f60af3U,
  0xf60b1b4802100c09U, 0xe7ffccefd4d7e8f3U, 0xdfced5fbd8cbd8ddU, 0xb4f0f3e5f0d6c5dbU,
  0xe2f6efe009ecf6dfU, 0xf9fdf0f8f911fe36U, 0xcbf3f6da15cab4d9U, 0x2104d9f824f90fe3U,
  0x9a071ac51514f70eU, 0x805071e03ca24U, 0xe9f301eb17f4fae4U, 0x1bffe7e01bee17eeU,
  0xc2fefd08081ae5faU, 0xfcfce818180bccf5U, 0xfff3030d05fef9fcU, 0xff0703df00dd11e2U,
  0xe4160c0df005fefaU, 0xe7d5efc6c0cdd8cdU, 0xdbd8e106dddfe8d1U, 0xeed9ebc9ebd6d3ecU,
  0xfacfd5f5e3d9f3ebU, 0x51124f10408dbe7U, 0xe7dcecdf00cfd0f6U, 0x17e9f3faeedd0b05U,
  0xfb16011ed20feef6U, 0xf21241d1201e2f9U, 0x51305f30917f108U, 0xf5f8f70bea061ff6U,
  0xf71fea1cfb0b04e0U, 0xf4fa1a150b11e9d9U, 0xf7ff0e0a0f1908ffU, 0xfef6f80003ed04feU,
  0xef12ddf02c0915deU, 0xf402ddf2fc1512ceU, 0x5f3ffe2040f1aU, 0xdc37e5f1e60dfdU,
  0x2c0316221cece1e3U, 0xe21dfe06f2cdf9f8U, 0x1cece318f2f8fc03U, 0x5cf12daeec0f61bU,
  0xfae23a1d1313e7d5U, 0x11e71bd6f8ef1118U, 0xec1e1e4dee6f3ecU, 0x1df5e6dd1ac2f311U,
  0xecdd50df0425e6eeU, 0x15f5f9100604f50dU, 0x7e5f5ea07dcdc0aU, 0xf9f202f1f5d41be8U,
  0xf2f5efe1160f02f4U, 0x1febfb030dfdeffaU, 0xa01902f703281fe3U, 0x1a0a0fdc0112eed3U,
  0x2d12fafee7dc20eeU, 0xadfd9e50700d5dcU, 0x9814f8f6ff273ae6U, 0xfbe01ad1ed0e0dcbU,
  0x31e6fff3f4ed23c7U, 0x10db01c9dfd8c7e4U, 0xd617f7ebea0541e1U, 0x4ee0aa0faf4c5eaU,
  0x19b849e1011908c0U, 0x1fc60eb6bfc6bd37U, 0xc3b9ba88e3c8e7f4U, 0x26f20fda32bfdfcaU,
  0xe5c00a810949c7b6U, 0x100af42a1bee0ad4U, 0x240e0c031fe6f1U, 0xe9fefa05ea000cf7U,
  0xe820c7ec000714efU, 0xe607ef0909fee9f5U, 0xe5330d0cfa1f2700U, 0xe90e1adbfa2a02efU,
  0xbfdfff111e914cbU, 0xd8f4f3f1ff0b01e2U, 0xd537190af60e40e0U, 0xf5fa17d4f44f10d0U,
  0x31f730f73ade23dcU, 0x13082be5081100ecU, 0xce23e8e2d4e125bdU, 0x220309cd141207d7U,
  0xfdddf4d41e2a150fU, 0xf8ea0af5021dd2f0U, 0xd5e81acc0fe8e5f7U, 0x916c7f10dee220dU,
  0xc31bc1efff16d203U, 0xe6fddf1b0c14deeaU, 0xd504ff0308f7f0f6U, 0xee07e800e2fc0fdfU,
  0x80cbc06e9d9f5eaU, 0xf11cc9252006e9f7U, 0xd41a232e0c151df9U, 0xf7f414fdd61814e6U,
  0x202f130d09d512e3U, 0xeef4eded08e5ed10U, 0xe2100d21fce82107U, 0x17edf8d5f110edf2U,
  0x20fd2df404fb08e8U, 0xb7f5b4fb0504fbd7U, 0x16e50ffff205f808U, 0xc2dd28d6eadcff26U,
  0x4ced2e282f1bdbd7U, 0xd81cf4d524f5f7f9U, 0xe497f6d8ed00c9e4U, 0xcbe1bf2f29d02f0U,
  0x10d33912140ddae4U, 0xfc1f1b11f3f2eddfU, 0x20edf5032030f40aU, 0x12d30cebedc10cd6U,
  0xb30c04d2c3efd8f8U, 0xe831fcfce7fdfaeaU, 0xe429eafe09402ce2U, 0xe1eb35f2f925f2e2U,
  0x15e8f6fee9f405dcU, 0xda00fb17ffe326b1U, 0xa437151f17411cdeU, 0xdee732c7df220fdbU,
  0x13e5d20021c014d9U, 0xd9e200e101e9e0d2U, 0xcd42ec08e6372ad6U, 0xe8bb23fbc0f2cfbdU,
  0x58c9491437ef19bcU, 0x17f423d9c4bde7e1U, 0xdc91f681fac5ebd0U, 0x12c6f7ba069cec04U,
  0xdc3e4e3f421f0d7U, 0xb0efe1413e0f1e0U, 0xed01ee04ef0930ebU, 0xf8d167e2d4f20310U,
  0xec15cfe40ef8eadfU, 0x1e040e2211fa09d4U, 0xcf3103f31a0b3901U, 0xfd06f7d7e02df900U,
  0xc05d2f4fce329dcU, 0xaef6bf16eb06cadaU, 0xd0511b34e44043adU, 0xdafa3d9bb456fda8U,
  0x4add420106b02bafU, 0x20e1bc1f616c4cdU, 0xbe27e2e2c5ec179aU, 0xf60c39aaea2ceae0U,
  0x37be00f412f833edU, 0xfd37360a0301da0aU, 0xdec3d3e4f7e0f6e9U, 0x21f923ecf4ea1ffcU,
  0x7fe0deb010f1812U, 0x2e01d52e2c0bf522U, 0xccf007160c14f6e3U, 0x27fcd9000be82807U,
  0xdc30b018f707f507U, 0xb8f6ca15f8fcf8e4U, 0xbb18393e083732d4U, 0xb9eb2ff7cd020bd2U,
  0x2823d62ee5d7ebdbU, 0xb9ff020a04ebe3c3U, 0xda0e2029d1fb11dcU, 0xddc410e5c912bdacU,
  0x50182700f3bb27b8U, 0x26001fd6c7b6e91dU, 0xf4dadfb4fcb6caeaU, 0x21ee00d704afffe1U,
  0xecdf00abe9eee8c3U, 0x2f04b70e0df2d2f4U, 0xea11f5dd23243410U, 0xf8f717defd1217dfU,
  0x30ede1e2f1dd03b8U, 0xf0ea09eaf7d615U, 0xc33013e9032a44eaU, 0xe60c1ed1191c080cU,
  0x45e90beb271e26c6U, 0xd8081201decdd802U, 0xc40b1615f11347cfU, 0x29fb1abae60209ffU,
  0x17e02df04c0e1cecU, 0xfa1519f9000c19f5U, 0xbed0f8bf11b80810U, 0x12ede9081eddfa10U,
  0xfc15fce3f20f9e10U, 0x1a18fd0419f62408U, 0xff03033de0060bfeU, 0x19c3eb180def12dbU,
  0xf511c60f0afffbddU, 0x1b240317fa0c1514U, 0xec10ec0def0916fbU, 0xd60101341ae8dfU,
  0xe9fbd4171f0c31fbU, 0xc222d9e9e7e607c9U, 0xf84afc13f023fee1U, 0x20d4dbf7d545f3caU,
  0x2ec10ee0fe20cf4U, 0xf6df2fc4d6ebcfe1U, 0xd026dcccedd308f9U, 0x7dfb3c2da3b1213U,
  0x3dcc929eeceebf6U, 0xfbff9e3c59fcb27U, 0xf50df7b904de13ebU, 0x19fcfed0cc22cc03U,
  0xf0f0d9e4cd05bde4U, 0xc9bdf7d2c7c394fcU, 0xf8f60ae7fcf4fee1U, 0xc82e11c2f106def1U,
  0xd7d6f0c09be9dac1U, 0xbeb2cbdce2d898a8U, 0xdde7ecc90fe0f3f3U, 0xb7eff5bda907d7f3U,
  0xcfcde7b284ccd69dU, 0xc58118cecac41dabU, 0xe32107fcd2d015c4U, 0xdad202d9c216fce8U,
  0xdfd203d008ace0c8U, 0x3a1354000c480f41U, 0xf32f42209fedee8U, 0x39ecf60400472e04U,
  0xfd21e90f784424e9U, 0xd432fcfc241a16caU, 0xf2060519f0f1e3e3U, 0xd5e1d2d7f71d34d0U,
  0xe80ecb176afc13cbU, 0xae28bd1e080afaafU, 0xcf23f7fb01ebe5b7U, 0xc1ebf5e7a20a28b3U,
  0xd535bc1560c106b2U, 0xd828e409ede70604U, 0xd1efbfff620e8cdU, 0xbb1e08020a3e10ceU,
  0x16f220eb6ae004d1U, 0x1e0608fed6e4d7f9U, 0x27fe0f03040b0d03U, 0xffe9ffd8def4e2ffU,
  0xe0170210e0d6dfabU, 0xd5edc6ffceea11d7U, 0xf6f5182a0e1809fcU, 0xb9f311d9e71cf2e9U,
  0x22fe180500a5fec8U, 0xc3e7d3d4cdb613a5U, 0xe0d9f6eedbe6f0edU, 0xa7b1c2e9c7fcc1e9U,
  0xdbcff5dfd0c4e5c0U, 0x5eb09c5c1a0fbf6U, 0xeda6dedced81bfe8U, 0xeaf5cadfd69bdcd3U,
  0xa6baa4accdc0c2edU, 0xfa00e102fa15ebfdU, 0xe2ed0f1021ebf9ceU, 0xc72216e4ee1c0ad1U,
  0xa9f2f3d11fff0d0cU, 0xdc07eb06f9151114U, 0xe9def8f611fbfbc1U, 0xcbf40e04f51ff5e9U,
  0xbb15bef3ecf4fd19U, 0xd631bbfd221611cdU, 0xf102e70e0d0a0abbU, 0xd5fffa0be016fdc6U,
  0xd418b313ffad0e2aU, 0x531e5fa05fd09acU, 0xe326ea2cbe1cf5c7U, 0xe7bb32f0eee2fecfU,
  0x1adbe91b372c0408U, 0xd424c51b0f12ecfbU, 0x3af23e40a06cd13U, 0xd3e7340bf4d100eeU,
  0x14f1111304c1dc2bU, 0xa70dc50b0f04c0feU, 0xbc102e2f80cea07U, 0xbcdf0fe5faa611f9U,
  0x5ec3533d8f4b70aU, 0xac21dc0edecff31bU, 0x1d20afa0901d015U, 0xdef61e08cac408e3U,
  0xbe1f2814cfd1d2c8U, 0xe2f3c111dabefaf3U, 0xdf30719f8ff35e8U, 0xc021f3f1edf4b9baU,
  0xd6e932c2fae6eeaaU, 0xd41aeb160cf111e4U, 0xf14703dc1d3c3c07U, 0x5f1330500282d08U,
  0xc1e02f63b0924baU, 0xf214de112112d71cU, 0xce6623e7f7133cd4U, 0xdcfa52e2225e0805U,
  0x32e919fb38be2becU, 0xc30916f4f319c405U, 0xf4f4f20ef00012e7U, 0xc9f7f1ddb711f9e3U,
  0x26dd1209f5f1f6ebU, 0x1d0d0ee8fcdd111cU, 0xf50a04d6e8eee6U, 0x142fe4ec01e8e0e9U,
  0xa0334062307e8d5U, 0xd0e2fdb7c6d3fae4U, 0x9dcd6fdcddaedeeU, 0x2bebd31718fce0c9U,
  0xfda1a03c50aecc1U, 0x12ecebd9d8dd12d6U, 0xd8f310c4fb2ee3bcU, 0x12c131b9f701beb7U,
  0x1acbe71cd41bf5abU, 0xbacbd21515fdfda7U, 0xba24071100f6eee6U, 0xf6f1de10f106c300U,
  0xdb03eff5fdee1cf5U, 0xbd151afcfdbdc5c2U, 0xa0e124efc5d8ebbaU, 0x1eea88acea06fdffU,
  0x630cd419f2870d34U, 0x2dbcbdec80ff016U, 0xfb06c6aceac5cae6U, 0xd2c7b0fef7b7daf9U,
  0xd1ca07f1e7d9eddfU, 0xd5e208140cfcd3bdU, 0xcaf9d0de01ebad19U, 0xf8dc0b0bd6f31b19U,
  0xdcccb9daff04f100U, 0xf3cbc6fde9cdbefeU, 0xdb15f30eebe111U, 0xd8ed1508d1010defU,
  0x11e7c4d60f1a0213U, 0xe80dd3e6c9fe15b4U, 0x2cbfdfd0cf4e60fU, 0xd2ccc5c5ccfee8c5U,
  0xb1c4d5bd07c9dbc8U, 0x19121302d8ddf4fbU, 0xf2091cf20222b3d8U, 0xf0d3101a1fbdfafbU,
  0x2820dfb0190bdbfbU, 0xe71afefdeef1ededU, 0xe9dbe70ed5f1fed2U, 0x14e4ebecdd09d9f3U,
  0xeadbd4dcf8f8c8e2U, 0xa6e710eb1bfbf025U, 0xeff7f8b9f3fb0fc5U, 0xae14ccdc1113e514U,
  0xd7f9efc3ed0eedc2U, 0xc6f3cdbbf5dcce8aU, 0xecc3ddfce303defaU, 0xfaf3f3c6d5fde6fbU,
  0x16c1c7e7b5d8110cU, 0xd426d10c0de202c5U, 0xf4d1f6e1e0ddaaf6U, 0xd0612082b8fe513U,
  0x1101cccfcc2502f6U, 0xc5d8130a1e20d5feU, 0x172afde7201bff0fU, 0xf117d415f8e41fffU,
  0xdde80511f8e9cddbU, 0xc825e6f30af615deU, 0xc6230bfdc838f606U, 0xe2f1d80d2318c2e6U,
  0xdfcee00f1610e9caU, 0x94e5f1bdde08c7d9U, 0xde1e1ab8e2eb1100U, 0xc0dec5b9db39eedeU,
  0x2f600b00081d08cU, 0x200f329fd0601fcU, 0xf502222024180f15U, 0xe1ef200be4150dfdU,
  0x220eb14ffcdf4e2U, 0xed0100100fe5eddaU, 0xdb040c07070bede8U, 0xc5d00bedd4ed0decU,
  0x719f3040ee004ecU, 0xdc1cdb25fdd8eef4U, 0x3111a24f21ff8eaU, 0xccd007e8e5ed13dbU,
  0xfe2cee0509dffee4U, 0xc00dae0ffacdf7daU, 0x10f40f16d62a01e2U, 0x98dfececcee2d0e1U,
  0xe6faf80d0cc628e5U, 0xd11bf90bf4fcddeeU, 0xf8bc1a18fbf8d802U, 0xd1c00ef1ec940bf3U,
  0x90d3825d90bebf0U, 0x51bfa03f2c6c404U, 0x9afa07ee05d0e6U, 0xf0b114c7038105ddU,
  0xe0150915c7f0e6e2U, 0xfbe60c09ebd7f4dcU, 0x15af0f05e003e41eU, 0xc7ae081beb9c0f0aU,
  0xe111310ce7e8d6efU, 0xd3fadd00f6c233ccU, 0x34b6e102d7e1d20dU, 0x9ae3e30ed2b1f610U,
  0xbbfe13d0dfecebd4U, 0xdab2edc49e8ca1f5U, 0xcfc9dbf5cbb8eac3U, 0xc9d7f7a9e5d3bfe0U,
  0xf2a432c98d0ae9c4U, 0xf29212b5b59fe4ecU, 0xdaadd1d0c4c3e0d2U, 0xe1e0f5ceefa1e7d4U,
  0xc7a7d5becb19b1d2U, 0xdb2f7f2d7bbf6e7U, 0x1b1f4e8eb9fc906U, 0xcdd3fad2eabfe9e7U,
  0xc6bef7caf011d2f7U, 0xeadaedf0e1cc0cf3U, 0x7b8f4eecfb2d8e3U, 0xa3e7d416dbaef006U,
  0xcbe1c2d0e1e5e80fU, 0xeaedffc5ec04ecdbU, 0xc20ff107cfcb0795U, 0xd1a6ecdbf10df1b5U,
  0x1d7e1ec2a170be0U, 0xf7f217c5dfddfaf1U, 0xc2d5cf079ad5e7a9U, 0xbfaef6e5fab5f4aaU,
  0xdce2b6e609100bdbU, 0xf9e7ffefe4a4f7d5U, 0x1c6c9f0a8c3ccebU, 0xc6e2f01cf8baf2dcU,
  0xd9e4c7e50c0bf0fbU, 0xfebffcecf5cee9daU, 0x2cb8dff7c3ccddfeU, 0xc2f4dd09ecb6f5ffU,
  0xd4c8d9e8f202f2f3U, 0xda0bd21301130803U, 0xf4f600ca08e9dcfcU, 0xd0fef5feedf40903U,
  0xe31dc90032faeee4U, 0x16fde40cfd11ecf8U, 0xdde30be925ffc004U, 0xfafa0fd1070f12e8U,
  0xd2edd5f416d6ecdaU, 0xf3e70a19101af01aU, 0xd1d130ee24f2bcf3U, 0xf5181a0afdfc0e0bU,
  0x106c416f4e2f7efU, 0xa11cf4fc2905feddU, 0x2afb1614ed1ff7f5U, 0xac02ebfde0fa0ef8U,
  0x1c0bdd42dad4f9f0U, 0x14ded309111be5daU, 0xdeab1cd913bdb7e0U, 0xe51506c5faf900edU,
  0xc6f7fbe7e9d2d1f8U, 0x17fad5fd1131dfe5U, 0xdfb40f0f010eb9f3U, 0xcf703fe17ddf901U,
  0x1109c61ec3bebb11U, 0xaf2aecfa07f5eaf5U, 0x15f50b35dd2fedf1U, 0xe1ce0eedf5d610edU,
  0x25fe3743d2cafff8U, 0xe5f8d7f0dfb9d8e3U, 0x19f4001fd61ee8e8U, 0xded01ac3d6ddc8dfU,
  0xd0fe1d29aea7e4d0U, 0xc13e51f1914dff6U, 0x5e91bfd0b21d5efU, 0x1ff012fd1ed227fdU,
  0x1c00ed3dcde8ec17U, 0xcf26d0160bdffafcU, 0xfcf41028e821fa09U, 0xdee114e6eddb06e8U,
  0xec242c27bbf8efefU, 0xb5bae3eab8caefc9U, 0xf8e4ee23f11bfddeU, 0xaec602d9d6f2c9ddU,
  0xeff33bcee9ad0cc1U, 0xebcef0d7ddf3cef8U, 0x81f4c108cdea07b7U, 0xdfd9edd705fdd9b8U,
  0xbd5efde17f6fdf8U, 0x226023520f50606U, 0x1504fd41fc2812f8U, 0x10d525f00d0110e6U,
  0x22134435ea0117fbU, 0xe30fe115ebf3f3d4U, 0xe029fe01f10cf8ecU, 0xe5de08e1d509e8e0U,
  0xf6e9fbd7f3dc0cc0U, 0xd9fce5f3f3f8d9d9U, 0xc32ff109d51efcdaU, 0xb8e90dd1e427e9b3U,
  0xbe6eee813b62edbU, 0xacef2e1f3dbef1eU, 0xe431e423d91a13d9U, 0xe5cdf5dc0722e0d9U,
  0x1fdfeade14040de2U, 0x2fcedbf9e7d7a63dU, 0xe4c9bddf16eee1d9U, 0x41f5a6ae46e222caU,
  0xf8ee1ff7e5490a00U, 0xa25ca2721e2cd0bU, 0xd8f208fa1a2a16f9U, 0x29cf25c3010905d8U,
  0x11ebe1f9f73413dfU, 0xf304c11216ecec02U, 0xd707220ce03635ceU, 0x17fc2bd3fd04fceaU,
  0x270b4c0b2df90adcU, 0x2527ed04eec9e31eU, 0xdae4eec60fc6c4fdU, 0xfe1f2f600b3f2bfU,
  0xe6de1e09f01e32f6U, 0xff01a07edf2cb21U, 0xd1eae4c9f1eaebedU, 0x41d1aaea05b71badU,
  0x7f913d0ed41d1d3U, 0x1ad9d4eb15ebbdc4U, 0xcf2b212ad31947d6U, 0x3dd23ad61709f0feU,
  0xa240028edeaf4ddU, 0x624d4fde2f3f9acU, 0x6c2f038c81d38c6U, 0xfe23004e703f6d6U,
  0x4c047a0ae8b00dcfU, 0xf1f8e9cc15f9fd09U, 0xf0eff2b2d5bcabe3U, 0x15d9d6eb20bf1cd9U,
  0xc5cbdce0ca0527eaU, 0x22d81701e1dce11bU, 0xb9eeacbbf2d3d9c8U, 0x42d3e7dc0ca51ebcU,
  0xe3f10eb0d73aecc0U, 0xfbfac1fee8d5b8f0U, 0xc13e0a22044d2be4U, 0x4c239de10fc14e4U,
  0x33f8fd13410bf4a7U, 0xf704e715d3c2bdd8U, 0xf7f1fa32b92a2ff6U, 0xf6ce2dfc141beedeU,
  0x26057ff514ec14d4U, 0xf1800d3ebd4c500U, 0xfbcfd5e3d3d6b0f9U, 0x13cde4f8f7a9f0d8U,
  0xdc0907ffac1f0ac4U, 0x48e50ee6f0e00331U, 0xbee7b6a1ef9afae0U, 0x43d8bcb9e0b311baU,
  0x34c93bb0ef3bf8b1U, 0x3efdfc14eae2fd2eU, 0xef301636ec463be1U, 0x31cf39a12f032cb6U,
  0x3fef0c17f31eeeceU, 0xbaf9d30acaefea04U, 0xdb0a0a2ec53303e0U, 0xbcfb5af40618c3d9U,
  0x17f8640212e420dfU, 0xe3fa1ccbbfafc5ecU, 0xd7dfd4c0c09fb5aeU, 0xf9e4f1b80cd0f2acU,
  0xdce1e5ccce030ca8U, 0x8ee8e2bc9bc7e9b9U, 0xd6c1bdcdd5bdeaccU, 0xb3c89aa98ec9aaf7U,
  0xcfc2c9c6feb3fac0U, 0xb2ebc0a79a9bd0b9U, 0xb6e4c2d9cae2e0aeU, 0x81d9e2dfb6e5dbe2U,
  0xd4aebcc703950eb3U, 0xdcc9fdcddadbfb05U, 0xefeac3fcf1e6e9d5U, 0xf5ed15cfd30af3ebU,
  0xf5d8e2e805f114e9U, 0xf80112f5d1fa0b0dU, 0xe1f2e9f8e2f6d901U, 0xf613e602f3e5e5fdU,
  0xfc01fee4ec16f7c2U, 0xf1f3e9e8cee5e9daU, 0xccffe90901f209fcU, 0xf5e9d1f1f3f4dbe0U,
  0xffeccbf7e9def1ceU, 0xddf40ee0ece9feefU, 0xfd06cfd5d7ebe5cbU, 0xe1d11cc6c605deebU,
  0x1cc2eac70fe8ddc2U, 0x10e20ee4f0f1e1efU, 0xbdf4ee0cde0efad2U, 0x13f21bba04daded6U,
  0x8e0ea0d210de1d8U, 0xea0ef9e3f7d8dcebU, 0xd9dd0603dfdc10f6U, 0x6de03ca0902ff08U,
  0x9fb090cf1fc18dbU, 0xf4e5dcf012e8e123U, 0xc14af1f31bf436d0U, 0xea1904a2dc2c08d5U,
  0x24ca35d733ff0102U, 0xfecad003e0dfca06U, 0xc83709ee0a1837e9U, 0xe4f9fcc7db2202c9U,
  0x6db02ce2add26e9U, 0xded0dfe7121fdf38U, 0xc91e1331fc033cccU, 0x40d0fdb0b4314e5U,
  0x47f812e7e5f936faU, 0xe2fc13fde6dee1f1U, 0xbf28f827f80701cfU, 0xddf50d06c017dbdaU,
  0x2bfc0808f4d2fe01U, 0x250fd7400c2cdf0cU, 0xf733302026071befU, 0x3e8f6e50f5c1ed8U,
  0xf945dd1124e21ef3U, 0xde13e8333b03fee0U, 0xc63c2200060a1ec4U, 0xc8fb1dfffd4117dcU,
  0xeb35e31f2bf913edU, 0xe901d4232c25cdd6U, 0xde2a0937fc2c47c3U, 0x9cb25c2eb5d19daU,
  0x3221d71929ed1bf9U, 0xbae0e81f1603fed3U, 0xe61b0c23ca082ecbU, 0xdcd028c3de0d0ca0U,
  0x3de9031a11bc08e5U, 0xcf0460babf22c511U, 0xf0308405f2b1adf2U, 0x142759273c318797U,
  0x3e8ebef51d7f47baU, 0xe2c202e786b38f50U, 0xcbb8d4a1180eff1cU, 0xfc078392b392e3c8U,
  0xb225c12f55f225e4U, 0xcd4cf7e20199df11U, 0x360a9722b6384c2dU, 0xb82c1c1311dc142bU,
  0xc34ef0b70cc4a52cU, 0x14c620369ff01358U, 0x1fc7c6230049d7ccU, 0xb1b8a4d439fde3d4U,
  0x2eeec7f6082bc218U, 0x3525b3eeddab8653U, 0xf7faceab33d29ae1U, 0xc3d48c0dc2af2633U,
  0x99860e95d126db4dU, 0x98f107ae98382c97U, 0xab181e0e04d4d7adU, 0x33ddf7d8ddf49b28U,
  0xb89b1a3012a8af16U, 0xcd1e18420e011cc1U, 0xcfa716e2444d05daU, 0x9633c5b7022424feU,
  0x98cd234f13271ae6U, 0xdc0f50cc93e9e6a0U, 0xccd416643bade2e0U, 0xdec923dfd51f05bcU,
  0x33fa9299efb4352dU, 0x64c41f3eafb3d95U, 0x89c91efcccefee3eU, 0x3f32b2c82fc8e50fU,
  0xfcff91b2efd43b42U, 0x2eee00044cd2c5b1U, 0x9b55f427af51bbb1U, 0x2cb74a9702d1ae32U,
  0x18ecfc97eda7bed8U, 0xbf28c4c60b4e2e21U, 0x269ec6c21fb9a94cU, 0xf09ef0d6a7cb3320U,
  0xccbcd3df1d373eb2U, 0x1e2bdfa81701ecb2U, 0xcdbe0825a70ab001U, 0xc3232121fc34e8e3U,
  0xd8e7e5c129330a2bU, 0xe8bccdbe0efd3647U, 0x9ac23be1bdafebafU, 0xdbefd9d5c2034baaU,
  0x3baffa421ffe036bU, 0x3636a7daeef698f2U, 0x250bbe960aa8d1eaU, 0xc3d6c11cbe09d69aU,
  0xed06add0cf99eb9dU, 0x48fbb9b0a7cdf6fbU, 0x9adc24bb840d103U, 0xbc91af330293d5f2U,
  0x9e4215f22fe121a5U, 0xc94341a0eaeac6eaU, 0xf2143dc8e326e039U, 0xd8da2c124e0f36a6U,
  0x1ce8acaebbc5aab9U, 0x151800f600e43018U, 0x180ffa0ce207080aU, 0xecffe0ef50cf91fU,
  0xe10e2ff5322000c9U, 0x23e4ebe00ee0f417U, 0xf90ceacddfcfd30bU, 0x5d8e6f6f0151ae5U,
  0xc7e40dd64824e6d0U, 0xf9c5dc0f05f1ca02U, 0xebf1f2aa0bd7d816U, 0xd808e8c5f60e0de2U,
  0xd2f7ddd302db04c9U, 0x5e603f0eb0ae502U, 0xf3df01c801e6e0f3U, 0xf3ff0fbdff021707U,
  0xebdde6e81d08bdfdU, 0x12bff31b11fda407U, 0xbcd0139f01ccde05U, 0xfc09f3e50ffa1d0bU,
  0xf3f2e1d927180c15U, 0xecaed90503f8e5ceU, 0xdfaffc9feda08107U, 0xdfe0eef8edf61804U,
  0xd0f7b1d6fbfdf0dfU, 0xf0cfbe1a1b14eae2U, 0xe3b811c914be881dU, 0xedfee0fff50c1e0cU,
  0xbe0dbc0f0eefffe6U, 0xdfdebe031919e107U, 0xf9bd30df23ae901eU, 0xe6f8fafadd0c091cU,
  0xd10ee82925d906e4U, 0x1632fe200f1a281fU, 0xf50d15d11810e9deU, 0xf808fe12010c10e3U,
  0xf11ed7f81228f9baU, 0xf602fa2403fe021fU, 0xdf011dd2fe09eae5U, 0xfd0605d9d40b09deU,
  0xe1f9ddeafde6ecc9U, 0x14f1f81ff412d220U, 0xd7f50de906fa06daU, 0x90d09d60dfa15dfU,
  0x60cda0fc3fb04edU, 0x919d917110ccb23U, 0xdef27f3f9210bf0U, 0xf71020ea16111b0bU,
  0x14ecfa3fdbf3f305U, 0x27e4e42d1410d50eU, 0xf7ec340138eacb11U, 0x200c0df5101e18eaU,
  0xd408d915bde4cc01U, 0xf0dee2c1c05df21U, 0xff9352f3702d4f3U, 0x1717f3e9f8141f06U,
  0xdd2eac13fff3f603U, 0x171bf1102512d4dbU, 0xf20a3314292cf1ffU, 0xf9e8fde118f30a07U,
  0xd111adfdfcdc0202U, 0xf203e42514f200f5U, 0xf320023a0d3334e0U, 0x15db27e0edf517ecU,
  0x92ad009ff010f05U, 0x3402e3f6fde1c025U, 0xedd7e5d9eef6e705U, 0x47e9eaef20de03b9U,
  0x16ec50dbfd1bffe1U, 0x110c09fb142cbb4bU, 0xdfd310d72b39f1caU, 0x3318f4f3101d29f9U,
  0xb1bff18ba33eb01U, 0xb12ce8180903e8c2U, 0xfb112d1ced292bffU, 0x171529fdf721e2cbU,
  0x2417311adbe131c6U, 0xf104e6f2ebddf81aU, 0xf017e110cc0e2407U, 0x22e13bd528d3cbc6U,
  0x25ea5bde114610f0U, 0x2d1a00ea131cd33fU, 0xcea600cd0cfdfcefU, 0x2fcef4f737ba1dceU,
  0xbaf12bf008309d15U, 0xbb2de82c20f8d02bU, 0xd7c40b1f05f2fee7U, 0x25bad7e3edc006bfU,
  0xe311052d13091900U, 0x8d26ab06d7e6f29aU, 0xdbc9e73ad408ef06U, 0xa1f50cd6ec8ed3deU,
  0x19173ff3f7e41aacU, 0xebc6c8dcc0c0cccaU, 0xc1bef111cafb0bbdU, 0xceebdad607c8f7cdU,
  0xebf223d6fefa0ebaU, 0xe4092501ec04f4eeU, 0xbdcedd9fafd0cccU, 0xf3b60ad1f3d52addU,
  0x263615d3df47d8bfU, 0xb7f511000b04dc81U, 0xdcd5f90aea33e2e1U, 0xc6b53a97c4dbe5d7U,
  0xe7f2291bec089fU, 0xadc9f1fcd3ddabb5U, 0xb7c6d30bc50a13a3U, 0x9ae1fab0d7babcbeU,
  0x11fd0dfbecea04c2U, 0x4c705b5bfc4cbc4U, 0xb8acddd5c7c8bab8U, 0xffec0eb8e2c505b2U,
  0xdfcfc9c8e3d3dad5U, 0xbf1220ffae2ece4U, 0xe3f021dceb1026cdU, 0x6ba0cdbfdb420f3U,
  0x1c15f5f21b12f0aeU, 0xa81c2be1e9baaea5U, 0x7ee0c34da0de5d4U, 0x97ab0ebcabb1c2d7U,
  0xc0fe91bf9cae4abU, 0x5eef8bbaeaedcb7U, 0xd2bbcdfac9ddf0b6U, 0xdfd7fed1daaed7d3U,
  0xf5d1fd11faaef2d9U, 0xffc21d8e0d4cf09U, 0xd1dcd40ce1d9ebe5U, 0xeef8d1c2dae8d5f3U,
  0xd0eedbe11df50318U, 0xc2e9b9e5a2a409d1U, 0x29e50232def5f9f8U, 0xa29ed7d8d9ef8f1bU,
  0xe31a1209c7e988U, 0xd0c0d2a3bebfd0f6U, 0xe7f7a0caa4b0cad7U, 0xb9d2d2e2dffeb1ceU,
  0x9ba8c3c30cddf39fU, 0xe6cac0b1cea9be15U, 0xc72bc7baba00d2caU, 0xece2f4c5c922e3ddU,
  0xaf9bf4a326f1e8f5U, 0xf7b100ea13e8b846U, 0xf0ea10abeabec80fU, 0x2b0f33ea0ae90014U,
  0xf9bbfb0a2117dc3dU, 0x29ba90fe3e2b6e7U, 0x2f115020d000e24U, 0xeffd2eefe00ae1eaU,
  0x13b4fd0a2ff1e3c5U, 0x20c6abe1d5d1f903U, 0xf9dcecdc01ecda1fU, 0x9c1eafe0adf080aU,
  0xedd61bf4261feaccU, 0x2c5bafd07e1fef2U, 0xfebf1edffe9e7f9U, 0x2ded0505ffde20f8U,
  0xe00131fb3604f4ccU, 0x8ff96f509060013U, 0xfac8210dfb0b05e4U, 0xf9e70f0828f51ff0U,
  0xf4f1053a15230113U, 0xe5fee92e0b07ba2dU, 0xbb4bfffe141541cfU, 0xfa08f7bff92006bbU,
  0x2de7f710e8ff3dabU, 0x25edd22717078a2fU, 0x815602fa22012abfU, 0x290706b61b4f29a3U,
  0x1fde23f9d70213d5U, 0x2603f6231902e82aU, 0xd93e2afc212f37bcU, 0x390b18dd0b0c1ad3U,
  0x2e141a080d180dd1U, 0xf906dcff1721f727U, 0xd910270efb1c32dfU, 0xcea0a000b17ebc9U,
  0xf1fe0009e91e0bf9U, 0x2f17002a3bfce515U, 0xde1d2f3c09141afeU, 0x7fde6eefeef47e0U,
  0xd947bf26e8f313fbU, 0x2b16d55541fee50eU, 0xd0313b33143b0ee3U, 0x4702dbdbfa2b23c1U,
  0xde47bb0b06fdf5f5U, 0xfd3ee2503936e3fcU, 0xb65f2436374652adU, 0x39d240d1f0313dc2U,
  0x2115bb18fefa08e8U, 0xdbfc042a29f7c3b5U, 0xca2e2a1d081723fbU, 0xad632d3bf361ef8U,
  0x111d0105f2c338c8U, 0xee01ecf2f1ff0500U, 0xf6e1f615f6e809faU, 0xd7060afbf2e6e9fbU,
  0xd5f3e6e61af9f6e9U, 0xce2f802fefdf7efU, 0xe2e9ece7ffd5e9deU, 0xcf511e1ecfe0bfbU,
  0xfdf4ffcad5f2dcf0U, 0x19fa1c021612e1f8U, 0xcfe512be01dfdbe8U, 0x26e8e9e00af810f3U,
  0xf416fce9cc0681f4U, 0xeb021d2d290af704U, 0xf9f00ae5fe0401e4U, 0x160cf203f8ef2106U,
  0xce2fbede1804c7fbU, 0xdcfaebf5fa04fe0fU, 0x20d5e8ef11d9fa16U, 0xc40303f0e9e8f4f6U,
  0xd3f207eaede6e5fdU, 0x8d7f3f6f4f508dfU, 0xedff03ecf3e0f1e9U, 0xfbe3dbe9e4f10ae7U,
  0x31f8cd0af1d6e2e4U, 0x40429fb0a0404e0U, 0xf7ea17d7ecafdbdaU, 0x2dae0e5f3dd01e5U,
  0x150cc30caff1d9d7U, 0xafb301d0d0eecdbU, 0xeafe19d10fdcf2f4U, 0x1400c4fe0104100dU,
  0xea18b607830309ccU, 0xe525e521110a2507U, 0x6ebf21d10dceb0cU, 0xb7db0610e9e1fbf3U,
  0xf1f7f2080fd8050bU, 0xeaf9d4fefc060fe1U, 0xf8fbf4ffd9e7f5e3U, 0xc3e70311cfd4fbe9U,
  0xe7feabfdfbcae1deU, 0xf5f3efe5ced0e39cU, 0xc9e000fce6bcb5edU, 0xceac0fd9d2aacff4U,
  0x20d39213ccc8eacdU, 0x250f2ffee9eb48f3U, 0xfde5eadbf8b9dfe8U, 0x15f607f8f4f211e4U,
  0x4e090fdffd04efd8U, 0xe6fa1c030c05d2U, 0x24c5081f04d9f511U, 0xb9fcfe04eddafc1cU,
  0xcf16fd0f15d2e3eeU, 0xf1fcec02eaf114f6U, 0x15f4ee1105fbdc0cU, 0xaef30ffeccdbf7f2U,
  0xdce4c6f9f9e2caefU, 0xa2f7c7d7b8b3e3a7U, 0xdbede110bedfb9e4U, 0x91bffbcac4d3c5dfU,
  0xe5cd9ef2e6a3f2daU, 0x1be232cbd3e40be5U, 0x1ed6f313ccbdc804U, 0x50f390d0acaea26U,
  0x65df34f602f8e5edU, 0xea06fef405f7f406U, 0xf1f106f100f5fbfbU, 0xf50810fe0af01007U,
  0x10805fd0107e60bU, 0xecfffd01fde6fef9U, 0xfbea07f1ee06fff7U, 0xefee01f1dbe60ee9U,
  0x6faf104030301deU, 0x4ee090eeef9ecf4U, 0xc8fc15f702fbf5d5U, 0x1af612e607f609e6U,
  0x9fb04040603def3U, 0x7fc1b150e19f904U, 0xecea08bb14fe09e9U, 0x2700e0f719022000U,
  0xf30ce2fd0afbb6f0U, 0xe600e303fbf70afdU, 0xf901eef80cf2fcfaU, 0xee02f3fe08f305eeU,
  0xee01f6dd13e41007U, 0xeaddeb15fa03f708U, 0xe9f6f3eb01e0dff5U, 0xec02fafcf3f100f8U,
  0xf0f4e5e7080ff6edU, 0xd1ecff1104fe08d7U, 0xecef02efec0103d2U, 0xdb5e1dbd9f703dcU,
  0x2bf4cf08ece5e7d3U, 0x14ee24ffe9fdfae7U, 0xf2ff1ce5feccf9f8U, 0xfddceadaeaf007f8U,
  0x8f5f022cee7f9ceU, 0xf6fa01ff15f30912U, 0xf5eff70007e2fcf4U, 0xf50cfaff07fd05f9U,
  0xe3f5f3e407f4f903U, 0xf901e91502100a02U, 0xece6fd001af3f2f8U, 0xe80812fff30d07faU,
  0xca01daf8fff9ef0cU, 0xafeddf12fbf3f1acU, 0x5030109e0f601fcU, 0x93da13f9b6fbe2dfU,
  0xe20ca600f2aaf4d6U, 0xe2c211d8d0c2ffebU, 0x6beebfad2cfddd0U, 0xebdceec1d0b6dccbU,
  0x34cc27e40cd4ebbcU, 0x4fcfa111512f30dU, 0xf6001c0307f7fcf7U, 0xea051cf80df9090fU,
  0xf200fd10fbedf00dU, 0xef09f80f120f040dU, 0xffdf11f30ffce0f3U, 0xddee0309ede507fbU,
  0xdc0aea0706f4e305U, 0xa0ff9211fde00ce0U, 0x7e6120ee0fcf4fdU, 0x81dd1ef9c6e4f4fcU,
  0xda09be0e10ce09e0U, 0x19cd06dbd6d9f001U, 0x316eefbddfed3edU, 0x31bdafd07e403U,
  0x35c52dd62bcee7ccU, 0x5080bd602eed904U, 0xc011d11ef40e07d4U, 0xd3e223e1ed05d2feU,
  0xebdcdf1401f003e1U, 0xaddaebddc3dbf7d5U, 0xe414ea26e8f1f9daU, 0xc90401d5ca08bafeU,
  0xcaf6f0e832c7f9d8U, 0xc401afd1e8cab823U, 0xe4eec8fcd833febdU, 0x10c1ad9cfaf4efb4U,
  0xd6d8efdc3efaf3eaU, 0xfcaef1f0ede5d10dU, 0xd8dc31af00c3c0f3U, 0x7ebc89d30f01ae9U,
  0x11b9121148e9ef06U, 0xfbf8f1f8fadfdb0fU, 0xe610e808e4cef413U, 0x10d4f6e3df120cf3U,
  0xe1f20203f502ecf7U, 0x91a07e3f1f3ce37U, 0x23f1f612bdd5b918U, 0xfc11090001eef6deU,
  0xfb0a2a3c2d2bf7e5U, 0x460d060cc5dbf012U, 0x40cb15e8fbbde926U, 0x3622e2f9e8a11116U,
  0xafe765be11100ee4U, 0x4a1ace18fc0fcf40U, 0xd0e7f3c7f0efd8f2U, 0x3113330025e015d8U,
  0xfaf93e45f6015c1eU, 0x20f7e6050f03d31fU, 0xca190d0102db0af7U, 0xcf9defffef3e3f4U,
  0x14eafc0de526deebU, 0xc1bea08de13c718U, 0xaee803e8cffec4bfU, 0xe3e706b604f7cfd3U,
  0xc2f83c06ed0bc5ceU, 0x30fd22d713179a32U, 0xa3192bae1e16f6d7U, 0x36db2de313d00b19U,
  0x3d030af4003e1002U, 0x853071d2308e415U, 0xf72ff1810426b5ccU, 0xa0d1bdfe84c07e6U,
  0xeb5405c5d439f9c4U, 0x2ef617f4e7fdfb2aU, 0xfb1013221e0fefe5U, 0xce0e0f40c0bfee3U,
  0xeb0c15fc321c01deU, 0x8f51611ec1ea734U, 0xc85012eb15121ac0U, 0xfe717cd324d2bc8U,
  0xf3eafccb2708e0aaU, 0xfdf8e83728f7cc27U, 0xcd27e5e6280b18c4U, 0xcdd1eba0d282ac6U,
  0xebffe6ef3c0e14b5U, 0x2afaff2c28f9c914U, 0xf50df5b736c1bb00U, 0xf6f6ebcffa2d1dd1U,
  0xe730f4d4f1fff5deU, 0xa2a1d09ec7e0f3c4U, 0xd68dc3fad28792beU, 0xc2d3e4e6e687d3e8U,
  0xd598bfb2eeddc1e2U, 0xc0e01aacf3dd97cdU, 0xb295eebfd6b2b3fcU, 0xf9c029f4b1991017U,
  0x59ac8125a6cceb2dU, 0xcc18150cefac00e0U, 0x29f81601dc071717U, 0xeed5f8ffcce0e724U,
  0x2002d733d7e4dbbcU, 0xf4dcd9e9bdb9f81eU, 0x12e0f9e2ec06fae8U, 0x1beaf8ebf9d8e8e1U,
  0xfef34bfe1016b8b2U, 0x9a00bfc207e1d29bU, 0x36adf20693d9cc03U, 0xafa4f6e9b589b0d8U,
  0xcdd8f0252fcc02c3U, 0x1dec9ad1e4cce91eU, 0x1ad7aa0406b49a10U, 0x1ef588d0d19be096U,
  0xbaa148e82412bbfcU, 0x36d9bdfdfff3c421U, 0x24c50b3522e02beeU, 0x1b09d8d4f0020ec3U,
  0x9efa180f0109fee0U, 0x2304cb08f421f31eU, 0xd27f342fb201f0bU, 0xfc0c2507ff2bf0b4U,
  0xe4f5223c030b08e4U, 0xeeefaadebccfed00U, 0x3d4e219da03e9daU, 0xc51e2ed6eee59a9fU,
  0xa1d55ddf3de710c2U, 0x7d8d90c1047e954U, 0xba0cea8f1ad7b0e2U, 0x3615e7dd37df17eeU,
  0xa2e82bc50f57a40fU, 0x20ded06111ac256U, 0xfc052015261c0efcU, 0x1f0b5aef1ff52300U,
  0xece60f322627bd0dU, 0xe812f8171df9edfdU, 0x19d2f60dfcf023ebU, 0x11110a1509e51df7U,
  0x25005dfb1c041804U, 0x10f403decd07a7caU, 0xcb06defcd2f0f9d0U, 0xf3e923c30400e8e2U,
  0x25d00efe06d101ecU, 0x2a191810201c1509U, 0xba20ddb01dceb6efU, 0x22cccafb120e35e1U,
  0xc930e525ed17e809U, 0xf60e1e2d0b00d211U, 0xa75282c10465302U, 0x4f632f60737090aU,
  0x110df10e2df711e4U, 0xb01f923050acf07U, 0xe6111a2909314cf1U, 0xe3e932010e2010fcU,
  0x42013224ae322c4U, 0xfe17f4121707fafaU, 0x50e09d80fe7070aU, 0xe615e815eb1b15f2U,
  0xd81af6ddff1101e9U, 0xf0f7f2141c13ede4U, 0xecfd00df08fb07dcU, 0xe50a0bffe91507fdU,
  0xe4f7c0e1d7e5eb02U, 0xf71af31a1103d9dbU, 0x1010ffff914e6e1U, 0xe0e207db09fc0ddfU,
  0x30dd908d8bbe219U, 0xa81bec0713fcdad9U, 0x15120a29de30fdf6U, 0xb6c71bebd0fc02faU,
  0x16f3e82402e7e611U, 0x8f5f3090705cad6U, 0x13df13db0cf0d909U, 0xe8f013e808ff1bf4U,
  0xe60cee1a03dc0004U, 0xf411ec09f7e7ccdfU, 0xfef816f60af4d810U, 0xe8d201f9efd4ff17U,
  0xf718e01cf2e0e7dbU, 0xed0d1e10f4cdfce4U, 0xeef505f80f03fbf7U, 0xd3dc0f01eb0305ffU,
  0xcb12e309f4d9e7e6U, 0x9af0ce15fdf610e1U, 0xdf020a2bec141ed5U, 0xc6f1ebfdf012ece4U,
  0xdb16cdcd17f509e3U, 0x1d22f902111ef754U, 0xfdca12151816d9e7U, 0x11d20f421d91af7U,
  0x13f91927d2edfa04U, 0xf22e0dfdfd24e80bU, 0xe3e20723f003fee8U, 0xf4050efd39c410d1U,
  0x1d002e400607e305U, 0xe270bfd0504d3ebU, 0xf6d6fd12e7edced8U, 0xef010cdbf4a803d9U,
  0x2ce8482d0216f321U, 0xee0809eef7f8def6U, 0xf8f07f2d8e4c508U, 0xdefd0902f881f311U,
  0xdef5261cb809b3eaU, 0xc019cf1606f0d3f7U, 0xf4fff51bfd0905efU, 0xdce82ad6efe901f1U,
  0x2613031aa4e7ee01U, 0xa9e9e1ded4d2f9c5U, 0xfa01022bf60107f0U, 0xabdc15d8ccf3def6U,
  0x22e9380cbfc5e9f1U, 0xcde3e4dfb8c6dae3U, 0xebbcd08c8e7d704U, 0xd8c9d0e6dacac2ecU,
  0xf9d719f8b3f3e4f2U, 0xdbbad2b1d2bbf0eeU, 0xf7baabe0b9c7b4e1U, 0xc0ecaae6eac3a3d6U,
  0xc3c9e0daf4f4d7e2U, 0x113e8fb130a04ecU, 0xf7ee0efb07fcf708U, 0xe0e3020105df0806U,
  0xf0206fef6e4dfdfU, 0x521e4020bfb0519U, 0xfc0106fd08fbfe02U, 0x30cfc0703ea03f9U,
  0x404191309f6f7edU, 0xf6f8ede5fc01e9f1U, 0xfffefc11e7f91104U, 0xedf4f6ee060af2e9U,
  0x1b062900ffef0c05U, 0x13fe0ef2fef8df0bU, 0x7f5e9db03b9deebU, 0x2518c9f6f2d115f4U,
  0xb80e25ccf60f2afaU, 0xf0d8f9edfcfee4e0U, 0xd500fee7f3f91905U, 0xf4fb1ae0fb09fef4U,
  0x14050df20ce8fcf9U, 0xfef106e8ebdbe8d7U, 0xdffafce3fceddaeaU, 0xfdd1e9eac2d90ae3U,
  0x4e9ecece3ffe7e3U, 0xd4eadef7dbd8e99cU, 0xeac9e6edeef3e0ddU, 0xc8e8f6eedaccc3ccU,
  0xc8ffe3c0bdd6f1c6U, 0x21ed19e6260ab6fbU, 0xd9e7f2e8f9fae70aU, 0x1ae90c0afcd91715U,
  0x22fd13d79518f0ecU, 0xfc0c180d05fae9ecU, 0xe4290416020c1bf9U, 0xe00519e4fc22f5f5U,
  0x1bf90ef50de635e3U, 0xf5f902fc0611f8f0U, 0xcafb00fcfa0408d2U, 0xe7020ac6d11d0bd8U,
  0x2e2ede9fb0205e6U, 0xb5d4d2e3f7e9ee81U, 0xdfe0fdf7c0e2fad8U, 0xa9cadedbb7eddbc5U,
  0xe7f4b3f1cab8f1e1U, 0xffda0fd1e5e8e8f0U, 0xf27e5e8faf3e8e5U, 0xbf5fdf4edf2f6fdU,
  0xeed707ef05fe00d6U, 0x4170215111bf3feU, 0xef151429f5090ef1U, 0xf7fa19fdff2819feU,
  0x219fe1c18e71de7U, 0xd30cea03181bebe7U, 0xe2f90e0e060701d7U, 0xebfaf0e0f41615d4U,
  0x1612011b0df5fafcU, 0xbaf4b4ead4f1f2c0U, 0xfdc6e7f6cedce0ebU, 0xa9f2e1ffb9eac2faU,
  0xbee5cfe6f3acebcaU, 0x11281fdbe0fc0e09U, 0x825dcf50802eafbU, 0x1819dae91920f806U,
  0x16e614fd0cf7edffU, 0xec08e30a11fbcf07U, 0x5bbf5eb2cf5d701U, 0xe405fb0205f01f18U,
  0xb91bdb0de417c9eaU, 0xeb21be15f8fd04e9U, 0xfa1422271c371604U, 0xcac832d80afffde2U,
  0x1712f20a23e00ddfU, 0x1e15d2f5e908dcfdU, 0xcffafa1bf0081ce9U, 0x121deed080ee7ecU,
  0xfdd93ef8031b03feU, 0x1104f50018f8e914U, 0xc0d4e0f525f0d4e2U, 0x2c27cbd208022c06U,
  0xeee113dee32af616U, 0xb929d8fb262fc7dcU, 0xe58410fcf708dfecU, 0xd8f2fafb02aa01dcU,
  0x3c19123ce8feebe8U, 0xb02a12f30407ead5U, 0xf1d10326e9f80ae3U, 0xd9eafdebea8108ddU,
  0x16281004f4ddc8f4U, 0xf414eedfe3d5cc1aU, 0xc6f5dc060bfbeeebU, 0x1f0bf0e1efcf04d3U,
  0xdaef2f01130dec0bU, 0xde5f70a1c21cc1bU, 0xc8eefaec1204ebf2U, 0x12e5eef305c40400U,
  0xd000c513d104e6f8U, 0xb616090fe7aaddc7U, 0x1b16ec17f0080c04U, 0xacdf20c6c4e4deecU,
  0x35eb372dc9bc19d7U, 0xdb95f5c8c8bfc7beU, 0xf9bde7efebcd00e5U, 0xefeedbd8cfbeb4e2U,
  0x7c214caa5e4dbf1U, 0x39c11abeea03f836U, 0xedbd0dbdca4e1edU, 0x1d0afaf928991424U,
  0x4ec45d9d233e7fdU, 0xcbf60ff706e2ef11U, 0xef0a0637d71ff307U, 0xedc22ad7f6c0f9eeU,
  0xd708e0131019f1e7U, 0xcdfd0eef06fd54e2U, 0xfa3cf00318292bd7U, 0xf7f1ef15035fefeaU,
  0xcebf8b74a0046e0U, 0xe621feebff2c0d1eU, 0xbc450c1eef0b28adU, 0xc9181de0fd49daddU,
  0x180fe2ea23db3bfbU, 0x23f82bfe03f1ed2dU, 0x1f1ff103f9ef0e05U, 0x915ef050811f5e5U,
  0x21133bea35322fd1U, 0x40f03e905edd417U, 0xa2bf91502132402U, 0xcff819da132cf7ffU,
  0x15f7f7173e0009dfU, 0x38f0dd0bef301d46U, 0x92b0f14060d1ac4U, 0x3411fa222e0d0fe9U,
  0xe6f3d1fe222e05e5U, 0x17e5c8e3f0073fffU, 0xfc4717270e235fc1U, 0x93311e4173feeffU,
  0x71de371b394f1be4U, 0x1daa38c0c3e8373fU, 0xc7e8c6bfd481dea9U, 0x3830cc09eeddcaf8U,
  0xc3b9368af15dd63aU, 0xa0eebd504f0db1cU, 0xe816c305fcc323f8U, 0xfc1906c61221f7e9U,
  0xced5d1d8142736daU, 0x3906fbd21d041b08U, 0x1bdee42ad121120aU, 0x42e0fdd93ef50be1U,
  0x4f9171c03f5f0ddU, 0x2d1fe3f7f0c6f3d0U, 0x1bfce91be326f9cfU, 0xfcdf39f808c1fbc3U,
  0xeccf2bd9fd2930bbU, 0xd1def2d4c5ebf1bcU, 0xe607b0d5c6d9dc07U, 0x1a06eabedebdeff9U,
  0x4c22ca011002f06U, 0xda17ecd6d1d9dbdfU, 0xa1ddecbeed060cc8U, 0xd6120bb9d2e80ca2U,
  0xf4b319c821d112a4U, 0x2cea1dedebf4d3e5U, 0xd91bee0418f30000U, 0x33f3e7d80558fcafU,
  0xe5d98ab024fde0dbU, 0xe5bcb91e1b22c81dU, 0xceffced3d2071dc1U, 0xd6e40fcef61edecdU,
  0x1409dbe7fcedfff1U, 0xe5dd3dcafeeac0e9U, 0xb32c08e112acf8a3U, 0xe3f8e9dbbf1ee8b0U,
  0xfc00ebd6e8e7e9faU, 0xe221c3fdf6dc1fe6U, 0xe715d9ccd41641a0U, 0xd01f19d7c327f7b7U,
  0xf52c04f8ff24afU, 0x24fd1736ec2a1a42U, 0x171e2e4b0f3e372bU, 0x757f51bf73406U,
  0x141fd6166c54198aU, 0xea0cc2271e06c003U, 0xfd3fe1a1ff5f8f5U, 0xcde7bb171ce5e9U,
  0xeaceef39fae11898U, 0xedf82310eaee9deeU, 0xb4070cae11f6d3baU, 0x15d302b5eecd11b4U,
  0xecf805c2fce6fad9U, 0xd301da181ed6f914U, 0x270be1de0a012d1fU, 0x32402d9e53019aaU,
  0xe6245bdb34071af7U, 0xe411b3f7dfc0e223U, 0xd9990727af260d27U, 0xd0f7da1ad5f61fb3U,
  0xf60cd4c5b4ffcad7U, 0xe830dbf7da3120cfU, 0x3233cd4a24f1fbcfU, 0xbae224c70f29c6cdU,
  0x18cbf0f104252dffU, 0x2a1025da14c8f1d5U, 0xc1f510d92641ebd8U, 0xd408d4dc2d15dacbU,
  0xd0ea14130de714abU, 0x27dfb4f8d1edb7deU, 0xaa331f02b5f5cec3U, 0xec1ae2edcafcd703U,
  0xb90cc8c7f2e12522U, 0xfcebebee0ee7b021U, 0xd4c4d8b9c5be9eecU, 0x37dfc327e1c0fcf1U,
  0xd4c604f5b7e09830U, 0xbffc0b1cd8e4ec30U, 0xdf1921ffc6c516e0U, 0xfce9c4e7edee01edU,
  0x428ded8ef26b8f2U, 0x110436bbe825fbc9U, 0xb043306daca2ac3U, 0x2a08c5d62518ccc9U,
  0x37d6f9f30200f603U, 0xf5e82eb61314c708U, 0xd114d1c2fc1be903U, 0xe1cdd3d80cea16c9U,
  0x302026f00dbc06e6U, 0x38f313bcb3f926c0U, 0x31d7e3000fad8117U, 0xbef016f31be0fcfdU,
  0x8a1d0fe3c5e3e5e4U, 0xd4022ef5aee8cbb6U, 0x2233ffd80bfe25d2U, 0x1d1fccd7c413bfe6U,
  0xac081ded29cde8b5U, 0x261c2e15060ed7d2U, 0xce0f06d407e0b71cU, 0xc3d6fb2eb4052ec8U,
  0x1ac5d5c634bd1b18U, 0xfcf603cd21b8ebf6U, 0x352df9f3c204fffbU, 0xbfbeb3ebc4d8251aU,
  0xcb14c2c0ccbcd4d9U, 0xe231d9b521293217U, 0xddebf3ee11ed0615U, 0xd624edfddebbdb33U,
  0xcbbbabf503c62456U, 0xc0122af0f8d328bbU, 0xfd6e115e638adabU, 0xf3e7020ae71f2812U,
  0xdc17efccd430050dU, 0xae4d2250dea0d27U, 0x132ee61cd621caadU, 0x23100bff01dbbec5U,
  0x8f923bffde5b616U, 0x7e0d713b5dbe9b5U, 0xb80c311927bb1227U, 0x27dbb2bbb815ddceU,
  0xe1bd0025bc1bf219U, 0xf73ef70c00f611fdU, 0x1526f8bc1720e2fcU, 0xfeffcc14f33421cdU,
  0xad26a6f7002008e5U, 0xdffef0b0afcf6e2U, 0xee0df1ef07e5e4d4U, 0xe1e0eef100e206U,
  0xd2f7bdb2e1e400b8U, 0x38e00612fa15fb0bU, 0xe922e5f00e44ee0cU, 0x7f00200062d2e23U,
  0x2409da0dbefbf612U, 0x841170d2616220fU, 0xdd3ef3fb0b5d32f7U, 0xdee92802eb26090eU,
  0x3024e7f1e810e0f3U, 0x2f0ee0613e3e1cfU, 0xe19d0eaffeb3ba02U, 0xf2fdfadaf9a81716U,
  0xa806b8c5e1d9d9ccU, 0x801e4151edce7b9U, 0xede4110711ecedebU, 0xdee2ec0ae1c6f6e9U,
  0xef228125f1c0dae5U, 0x8301df2f5d8d2ccU, 0xfec1191f0025ef0eU, 0xedc7f4ef08e9f1d6U,
  0xac09af04f9dcfdc2U, 0x1303e31911d0e6ebU, 0xdefec47dc371ff8U, 0x12fabff2f7ea03c0U,
  0xdc12a3a7e7d4e6e5U, 0x1511df0d2912c34dU, 0xc0d51d20f1122dffU, 0xda175cec270b1e05U,
  0x5ce4e72911fcf620U, 0x132ff4e91426d0e9U, 0xfcb91ef8dc0dc6f6U, 0xf0eb2bd213d7ebcdU,
  0x1210eb0df5cd0be4U, 0x380c0be5d40eb1f9U, 0xf0bfde01e1fdcdb6U, 0x25e116dd0fbcd7bfU,
  0x3ccb1326d4fafe20U, 0x2123ff10f4080f20U, 0xfff8dbd113fdd817U, 0x2c060a080de419ecU,
  0xcd10dd01df1fe1dbU, 0xcd403111152f04f8U, 0xf4300c3a1a2c480bU, 0xe6040e19010c0ec0U,
  0x4e15fd21e8fc570aU, 0xed1f14f1eaf7f693U, 0xde1fe429f50e3915U, 0xe6eb1c0ef82ecb0cU,
  0x3ae03b14c2de0cd8U, 0xfae630f9e0cce7d1U, 0x1f0dce5c9f7fbdeU, 0xe9c0120de6e9f1dbU,
  0xdaddeadfc507faaeU, 0x17c633dfe9f41fd2U, 0xed1fefe606e6fcedU, 0x47c4ad2bdfde0601U,
  0xcffdbd6e30ffefeU, 0x11052be60bf700e6U, 0xd9f7002602d2f403U, 0x13e2e6e102d812edU,
  0xf8ee01f6eaf9e903U, 0xd2eff1b15f3efeeU, 0xe6ec1bc319e8d602U, 0x4e3fcf2f6242b10U,
  0xda19b4e8c200cf03U, 0xf90df72124edeab1U, 0x50515d901051502U, 0xfaeafde5e30619ebU,
  0xf51596dfd8dcfdf4U, 0xf418f5121f06f7d6U, 0xf02e130017302009U, 0xaf227dce5201de8U,
  0x2703dfea05c409f3U, 0xfd001ddbcbeddadbU, 0xd904e60901f0f9d8U, 0xbe1f7edf8f3f5f4U,
  0x30ebc614e3f2ef03U, 0x70c22fb05ddf8c3U, 0xec03fcdb02a5dc05U, 0x13d910e9ced515f1U,
  0x110ca522a308c1dbU, 0x17f51e120ff8fd93U, 0xe10fccc1adb07ebU, 0x14c42108db2c0e13U,
  0x32991f2aac0edd3U, 0x210a112c1d0b038dU, 0xe72019150f134705U, 0x21d6fb07142f1309U,
  0x2722bed901c817f0U, 0xe7d1eae9def005f6U, 0x4d7d41cf6e0cde6U, 0xd3cd1405dcccd5ecU,
  0xf8d9c40b0df2edf0U, 0xfaf12ad5dde50dc7U, 0xebe7fd0bdcacc8d6U, 0xe5c212f6ebfed6e4U,
  0x50ded6fdd3e7f0e2U, 0x101420faf2cc43daU, 0xf7ecdac8fcb1bddbU, 0xecdf2e9cc08fff6U,
  0x170cd7bcfdf6ebc7U, 0x2f419080ccee3fbU, 0xd61c07dcfc0a16feU, 0x22eb06cedd070cf8U,
  0xfffbf1f2c5fdfc0fU, 0xd0e6cdc1c5b2ffd8U, 0xf4a3c728d1d28de8U, 0xc9d4f4e6da9ac8ffU,
  0xd8d2b50ce3d5b5daU, 0xdbf3ffb2b7cefff8U, 0xd8d9cc1bdcd081d6U, 0xdedef1dceed7d0f5U,
  0x6ac1e6f721e3bdcbU, 0x34cb2bebee081615U, 0xfffdf7d207b3aefcU, 0x19010c0c19fd0606U,
  0x50f40ddf0802fcdbU, 0x2e02401c012d2e1bU, 0xce20c0c11fdbe02U, 0x15fe2407001efc10U,
  0xfa2ee9ffe303f6f0U, 0xede8cedbebe4fbfbU, 0xf40eeb10cfeef6cbU, 0xbcccd7e0cef5eac9U,
  0xe6e2f3ed10ea10b9U, 0x218dde2e3efd0U, 0xdbe9fbeff6cde3dbU, 0x2ddea7c413da14f5U,
  0x3dd7d02aeadbf9f4U, 0xfe1627edffddd614U, 0xfed412bc25b7e7deU, 0x2feb84d3f1cf2209U,
  0xf8e90825c700ddfdU, 0xd023017f2f6d3c8U, 0xfb0b23c825df0928U, 0xee9b100e00e190dU,
  0xef00cb1ac4be1c01U, 0x6c4d1d8dddef2beU, 0xcbfcdffcddeafdcbU, 0xc8d2dcf7cadbe0f5U,
  0xf4dbedd8f1decbe9U, 0xfceeddccd8b8d5b9U, 0xdeccd7eeeec9dc01U, 0xc0edfad5f2ccd5c4U,
  0xe2c8eddce7cee4c4U, 0x25d61adcd906e4f5U, 0xccf2f9e9f6d0ddfbU, 0x33e8eddefff30f07U,
  0x4eeb10ffbf0733f0U, 0xc070d12060d1110U, 0xdfe7c6ff06ead5ceU, 0x15f829fdebddf7c0U,
  0x2d1307e90d2322d3U, 0xeef5f2f3fa0bfbf2U, 0xdf11021c00f406fcU, 0xcdfadcfbe4fd00e4U,
  0x1aed04010b070103U, 0xe0e0f3d5cfdef5c8U, 0xf2d9fdfbd0e9f2fcU, 0xd0e2d0f2cfdff3f6U,
  0xfbc5c507fae9fed2U, 0xdce416d0dad5d4aeU, 0xdfc8e215b5d1fdeeU, 0xd9ca33ebf8a8e2e9U,
  0x12d6bf00fdb90ccbU, 0x2cd735ebe6fb14cbU, 0xeba61414d2d504edU, 0x24e7f7fbef810401U,
  0x2defff0cc3010de2U, 0x1fdd70e0405fbd8U, 0xed08210de41927d7U, 0xc0e201f7c70cf3e3U,
  0xf1ae7211ad1030dU, 0xceecfaeccfdbe9c4U, 0xf0d30c1bf1cff3eaU, 0xa1dedc03d4bdcbf7U,
  0xd8fbd508e7bcfbedU, 0xc7fabbdcd4e927ebU, 0xebeae112e6cbdac0U, 0xb2c1bcfdd8e1c6b9U,
  0xa7d6f2f230dfe3a5U, 0xcbc8d3c1cdd91e26U, 0x9f9abf1dfd7c5b6U, 0xe024e2dae825dab6U,
  0xe1cf3fcf6507f2cbU, 0xceeedff2000601ebU, 0xfbc3f5dec5a7b5d8U, 0xb8bbc5e5eed605d2U,
  0x94efb4e2f9ece8b9U, 0xd8fafefb01042a04U, 0xeebe03f4f3a3bbdfU, 0x9b0db08e8c817e9U,
  0xc0acf212214f1fdU, 0xd112414081511f4U, 0x3a81fc0fcd5bc12U, 0x9e21f0100e00910U,
  0x3121eb25f40ef500U, 0x1be9231f081e07e3U, 0x12e212cdf6eefc10U, 0x8e71cecd71c0601U,
  0x2633b7f207effeefU, 0xbe00bc1f231c07acU, 0x11d3f9def4f0c607U, 0xa906e900c9f3050eU,
  0xe00fc12b1ec71ee2U, 0xbcf9fc0d0017efc6U, 0x5fe101a090cfa09U, 0xeffa18efe5fb0f07U,
  0x14ebd92715e3ffc4U, 0xf2f21200ed0108bdU, 0xf6fb02f0d7fd0ef3U, 0xe3c1e800ccfcf7ebU,
  0xfe4e61b0ac0eba9U, 0x22f622e6ede205dbU, 0xd50bd8f0facdd80cU, 0x15e7d418c7180408U,
  0xddecd8c7b905eacaU, 0xa2dfd204ecebe329U, 0xfe15180f15082c0eU, 0xbefb150f0d0c0efaU,
  0xfffefdddccd1fcf2U, 0xd1ecc2ece8fcccd9U, 0xc027fa21ff0b10d5U, 0xbcdc02c6b2fddaefU,
  0xaffe6f4e9be01edU, 0xdcdcebe7b19bdbf7U, 0xe1dee814ae02f4d9U, 0xecc3f3bceae5dfd5U,
  0x15d4e60815cde8d6U, 0x20db2707eaf2210cU, 0xab6dfe91f9a92fdU, 0x3fbf00921e7ed06U,
  0x11e404eb34fecefbU, 0xc52d0017f2f5f4caU, 0x4dd0b38f0231ee7U, 0xd6cefd03dad920feU,
  0x1f11f22f03db2cddU, 0xe81bd21f01e0fb0aU, 0xfe01f448ca130905U, 0xabe3ec16f9e2e5e5U,
  0xfc32091e23e926e2U, 0x11ead2dacae60640U, 0xd1e1b7fcdbedb6c4U, 0xeafec5cd03e7f1b2U,
  0x81ea13d44511e3ccU, 0x1fcef60afef4a43eU, 0xe4d204d821a8beebU, 0x9150bd523e024e2U,
  0xbe01ce61b10c71eU, 0x622010dfedcdce7U, 0xf808260d22f31317U, 0xfcdcfc091bef151eU,
  0xa0af004efccf4dfU, 0xf60a2e2409f5f1edU, 0xc52329f8194245feU, 0xce322ef01fcfe0eU,
  0x2525ef0903f520ecU, 0x1829fa1b03f5e614U, 0xf131f501151c06e2U, 0xfee2f9dce810fdd8U,
  0x10190201db0810f8U, 0xff1ec50c21fdd012U, 0xdf090ae11714f7ebU, 0x17f73eee21fe0df7U,
  0xf800d4d5cfcd1007U, 0xe21f080ef808f8d1U, 0xf2d9fe17caf206f5U, 0xfeca03e3f7a9eef5U,
  0x5e0b1c3dcbc7ffeaU, 0xa1b13ec0eeac1d5U, 0xf7cffc19db1c03e8U, 0xf9ca22efd88106e1U,
  0x2f15ef3ad0ece4f9U, 0x1a13151603fdfa10U, 0xf0c4ef030f0fe1f3U, 0x201019f1fec20e00U,
  0x130b4207fafe11f9U, 0x2c310d1ceff2f8daU, 0xb14e8100f1118fbU, 0xf7f9fef0f72c09f6U,
  0x1d05ccf3d4ecfef7U, 0x9abccbf1b6a4cabeU, 0x23d510f11139e9U, 0x99f903a1b71a95d3U,
  0xfbb92ecfd0ae20d6U, 0xb593ec8d9493ddbbU, 0xae0cdae0cabf0fb5U, 0xd9dafcb1acd7b6cbU,
  0x1c82deac9bbee0c6U, 0xedb820a1e5c3c3e3U, 0xd1e0bed7e1b1f901U, 0xfe220cee2aeecf2U,
  0x30c109c9c112f4e9U, 0xea0c34dbfdbdffedU, 0xfa2ce7ced412e90dU, 0x7e926e7e501f8f8U,
  0xf2e4fce3c611fed2U, 0xa808f9fb062915b4U, 0xd718f601d513f6c4U, 0xa1c1f508d247e3d4U,
  0x529cefd43c444e6U, 0xd602c8ecf7e2170dU, 0xe71de613c6ec11cbU, 0xbbc1d7eecf27bdc4U,
  0xebf7ca185af22bdfU, 0x19d1ecdddde7f611U, 0x303d3f0efc5fee2U, 0x30c03f3111ad1e8U,
  0xcde41a6411118ceU, 0x37c3fefcf9081c25U, 0x307f8e4290618e6U, 0xdff181818350912U,
  0x3cfdfcb51718f503U, 0xfeb8e5f9d8dce3f0U, 0x34b0fefdcfc11d3U, 0xfb73096e348ded0U,
  0x2bdf00ca18e6ffc2U, 0xe7bebed0c2d5d024U, 0xc556fed3ea232cd2U, 0x9b7fbb8174ceca4U,
  0x13c329aa161ada8cU, 0xebbceac4e8d7c0e6U, 0xba3206eedffd3ea6U, 0xe7b336b5082fe181U,
  0x4dac4ed302cc3c8fU, 0x14d0f1dd14bfdd11U, 0xd90ac2a6cfacf50bU, 0x2cff06c605040de2U,
  0xeafa15b9fe2206f8U, 0x1f032bf6dc0caa00U, 0xb03301cbee231cb7U, 0x29e710d1100dffbeU,
  0x47e1d102440c15b0U, 0x160ef6e70f03b407U, 0xab1af4fdd50839bcU, 0x14c425a9361805bdU,
  0x21fb18f969340b9aU, 0xe0d60f1005e4e105U, 0xc91dfe05f52f46ebU, 0xf9a639dd2a0506f2U,
  0x20f431f578180ab3U, 0xe0fdce9fcedeadeU, 0xf5fe14e0d1d70ef8U, 0xfce54ddc08d9f8e6U,
  0x15e407ee6c0e13f6U, 0x1ffc2afc17c4eaU, 0xb223133ed42922b5U, 0x1b06febbfc1f11b5U,
  0x3702ecf1fb193adfU, 0x2b0ef6f707f2de20U, 0xc92cf8fdf31b2ac8U, 0x3bd5eecd0cfb21bdU,
  0x130b26f006011f97U, 0x2d1df0faf1f4a527U, 0xa611f216f33827abU, 0x1ced3d9f16261c9cU,
  0x3d0b6007f60156c0U, 0xf409d701e1d1c3dbU, 0xb3f3e90fe8e9fcceU, 0xddf4dfcdf4ffe8c6U,
  0x45c320fb0cdc1beeU, 0x40bd5181502c3d1U, 0xe72d21021f262eeeU, 0xbc402c0fa3611dfU,
  0x3023eaecf4f2f6f1U, 0x2be9e7170ffd9f1fU, 0xd119ea011cfc1fdeU, 0x4eaffb96f8f30ab6U,
  0xafa0e04c8101b9dU, 0x3011c7071ceecc44U, 0x9e332a12de0d31ceU, 0x29e01cb2fd4722ceU,
  0x510f3a21f6d8f9c2U, 0xcddca7f6e0e3c6ddU, 0x98fc2813e30126baU, 0xd6b7f7b2d639f7bcU,
  0x31da2d13eaade6c2U, 0xf24ff06040ce8caU, 0x170921fa25fee517U, 0xdfd50bf021e91810U,
  0xeb1dda0a04f2f0c8U, 0xcbfd300dfbe0dabeU, 0xeedf22ec2c00dc0cU, 0xf4d80cf8d2f0090fU,
  0xea17c804e5dddadfU, 0xea0d0e21f5d3e79eU, 0xe0f00918f6fde8eaU, 0xf0c80904d1e2eae2U,
  0xcf0bc10aeab1f6ebU, 0x8cb0f05e2d9fbefU, 0xecd2fe40e523240aU, 0x2d3f601e7b8f806U,
  0xfd04f9f401071b15U, 0xd52b070d152bddebU, 0xf1c6210602ead0e2U, 0xbcd6fded04c705e2U,
  0x38012152ffe3c1fcU, 0x9040281b1812d5bbU, 0xedc117eef9ffabeeU, 0x9af025ea0b982afcU,
  0xd10163b28ebf7dfU, 0xc932c7140cebd2fbU, 0x5bcdf202ff1cd713U, 0xee0014cee48be2cfU,
  0xac0862344319fd9eU, 0x29d7c7e1d719c713U, 0x3ec9d1effed70a0fU, 0x391acfc801d3f5e3U,
  0x94cc6fa82b2cf7dbU, 0xa8f100f6e6ce9df1U, 0xe5fa010adf052bf0U, 0xc70416afe2d1f2deU,
  0x60a3a17ace3eadbU, 0xd7c4d8eabcd9c6d9U, 0xd6c9e9fdcee1ebd6U, 0x81d8e4b0abbad4cfU,
  0xeee6f3cee7d8ca9cU, 0x1ad0d6d0c10fee21U, 0xbc93d2eed8c9cff0U, 0xf50c10c833a5d3f1U,
  0xcb4db002efb9efU, 0x1f0f13e62314b83eU, 0xbfb304d8f3e4b3d3U, 0x321311fc21c62cf5U,
  0xc5f828de093ab41dU, 0xcc0118ebf4eee8bfU, 0xea25fb22e61b1bcdU, 0xb4c403d2db1eebceU,
  0x15fdde003ad80eceU, 0x204efe0d5f503f2U, 0xe3eac6e1c6c5d0d6U, 0xa9b7cacdbbe7f2b5U,
  0xfdceb8e30c031af8U, 0x2f517db13eedefaU, 0xe1cadbdfefb5add9U, 0x23e8e3e0e7d5ecdcU,
  0xc5fe11c526f9f9e5U, 0x82c051b0500ebf7U, 0xec340cba1cf9defaU, 0x1bfcbf0004fd0dffU,
  0xcf2c110d2b140ce7U, 0xd9deeadadae5dcdfU, 0xcddef106e8daf4c2U, 0x1d8d6b5cef5e9c7U,
  0x14dae81213e7e9d3U, 0x110d3708fc06faf4U, 0xfbcd151bfda8e5feU, 0x1fe414e6fcd518f2U,
  0x3c1fdc2e21ec0becU, 0x26f32a210afb00d3U, 0x726141001df05f1U, 0xf1d830e8f0ea0304U,
  0x302ac00bf7d4ecddU, 0x38180f1402f625f4U, 0x9f0f7f4f412e504U, 0x1ceb1f12dd2ffb01U,
  0xdd1da3c7f0e1fae3U, 0xe3de00f1d9bbe4daU, 0xedcedf10dedfcce5U, 0xfeeaced8e2d2f5bdU,
  0x3ee2fafde9d7e6d9U, 0xf3d9fdeae7e3faefU, 0xeff1e008e2cfa8d8U, 0xd8e902f8e0eadfc8U,
  0x6e2e720fceac9bfU, 0xfef8edfbec3603U, 0xcd35f4ebec0fe3c8U, 0x13f4ededd42901c0U,
  0x4f2f2e8ce02e8d3U, 0xfd027f516c7e6e4U, 0xdf0df2ee02fb08daU, 0x1eed07dcd1fc20efU,
  0xf4d8d4c3c7e9cc0bU, 0xdecce2ddd3d111eaU, 0xfbcceb17e9ccd0d7U, 0xc1ecc5fd04cecad4U,
  0xdcd1e1f83f05f3f2U, 0xbd1e8f7c1eacf08U, 0xce9dbf0df2c39eefU, 0xe3e7cbe409edceebU,
  0xfeebfef60ce2b900U, 0x1af10608f60d0a3aU, 0xd1cff0fc11abc8e0U, 0x1cf700e53b080e03U,
  0x241111164135dfe9U, 0x27dc00120f110f1bU, 0x49f1a17fad3d8e2U, 0xf70a090e2edd08eeU,
  0xfc15022548f4f4f6U, 0x80bfbd1e1e304cdU, 0xfe9ddf0bdba3b4eaU, 0xd4e3ddf005acd9ceU,
  0xcf010a080af3e804U, 0x91fba0be3fa0134U, 0xdbe4dbf50cdd81dcU, 0x1609c2df28e614cdU,
  0x9bf80ed94b0fd701U, 0x2af7e1140d0cb851U, 0xcaea01c81dcfb5d3U, 0x150cf1b71d002accU,
  0x96de2de6351be2d5U, 0x4f8ce1319f89325U, 0xcbd41add15f1dfc3U, 0x1d2103c20de629e5U,
  0xe2e80f11dbfcb7fdU, 0xf372129080a18fdU, 0x131a0106101bf906U, 0xddeb06fb081a0f19U,
  0xbd35b6241d1ae7c7U, 0xda18e91af0140f1aU, 0x15ecffde20daece1U, 0xf8f8caded01ef2d4U,
  0xc7eef1c145ead5b2U, 0x6d8c2f30b0bd708U, 0xd3e9f5f72ae1d1daU, 0xfa1118c6d21307cfU,
  0xd6f8edbcd3f5f4d4U, 0x33e6ec162031f314U, 0xedf01ff726f1f60eU, 0xf2fa17da2b0ffaffU,
  0xf909e12ae706f82bU, 0x7caedf3eddfd4afU, 0xded603d50ce2bdeeU, 0x4e0a1cf15fc07dcU,
  0xa8dbb5b5d4f1c2dbU, 0xefc6d40fea35dec5U, 0xc68103bcfac5b1ebU, 0xf70ef800fba200edU,
  0xde09be17e2f0c003U, 0xed03ef0b260edde2U, 0xfeac2a191713dd08U, 0xead7f6e817a324e8U,
  0xe312b238beedc4ddU, 0xd201bafe251cefc5U, 0xfdb8e7190b0febe3U, 0xe6bc080f12b01ed2U,
  0xc81ec92bdac5cb02U, 0x25f1f3fe0c04e515U, 0xf1dc13e2fc05f3faU, 0x20f408f70fc91ee7U,
  0xcbf8fdf3002507fdU, 0xfd2dba280635f62bU, 0xe6d7f6dd0729df01U, 0x24f427e332df06c6U,
  0xf8f51d32efedec17U, 0x18f9c91ef512f63dU, 0xe0e129ff273cd5dbU, 0xd3f740d60ef3faf5U,
  0x20ee191f1ff2fcecU, 0x1fbdbfa0024d201U, 0xd4f2ebee0b1fe9daU, 0x17eef5df06ea04d6U,
  0xfde204f607d9f603U, 0x240e13fefc2be5c5U, 0xdf250a0f012c29f3U, 0x13cc3f10d9eafff4U,
  0x3204c021cafcf6e0U, 0x1d1125122511df17U, 0xfbf7f7ddf93014e5U, 0x1e0412f923e90504U,
  0x190b151e9005fbcfU, 0x24072715140ef0d2U, 0xd91f13ffff270ad4U, 0x1bcefc1003db1ed6U,
  0x3bfbe5f5df1326cdU, 0x10091c0f02f5e1a7U, 0xd932e3ede5151008U, 0x11cb2e02f6e70e01U,
  0x1905d7e2d4e7f7dfU, 0xf1eb45f5ebeeb5e9U, 0xf4d2f208cdcb07ddU, 0x16b5e8dbf7f1070eU,
  0x3fea1b1cfcfa2700U, 0xa38301907dce4f8U, 0x15d2f5fac9f8f90aU, 0x1cb9100ac7c725feU,
  0xe9feec34f61ddaabU, 0x81f3def3c8a7eef3U, 0x3406f53ef02f0b13U, 0xf1dd0ae0ddd1d7b6U,
  0xdf183d121dfee4baU, 0x27cfe4f7f0edc307U, 0x1bf7b6d20dd8da22U, 0x230e06cc0ec913f3U,
  0xcee72bae0f2fd512U, 0x5aafcaede405c42dU, 0x2cc9fee115bd2005U, 0x401107beeac1eed0U,
  0xe6c238dd2222f8e5U, 0x33abed120d05ec1eU, 0xffe807d00aebff1bU, 0x2ffbdd071e09faf8U,
  0xdf09d103252b0ddaU, 0x9816e51703f709f0U, 0x1b2e1a3ae653140fU, 0xb1f426f31407edd6U,
  0x171fe60f2800f6e6U, 0xd4dde7d5fa000ffdU, 0xf9e6e20d04e6190cU, 0x1bfa04ed04ebe6feU,
  0xcdf251c30317f2f2U, 0xe131f3fdfb0ecd51U, 0xb420e30deb0a06dbU, 0x1c209fe31215fbddU,
  0xf6076af828502608U, 0xe7df0b210412db32U, 0xce0205e7f229eed2U, 0x62bf7d80cd61bcaU,
  0xdf07d3fcf909eeeeU, 0xead0e51d0803c4e8U, 0xf307fd2bec2845f6U, 0x1e3deec60dfbd6U,
  0x1ffd3e1b0ce017e5U, 0xeea06e6edfbcbfcU, 0xbed7e4142cf64404U, 0x3916dc0b1bec1201U,
  0xeed33de21230705U, 0xfee2a17f11900faU, 0xd5c811dffef0ebf0U, 0xcfee118fede02fbU,
  0xc521fae0da21fae3U, 0xeeeb11270ff7e1d3U, 0xc7eb2ff113efd20cU, 0xccd71be30a2409U,
  0x9d24e1ebfce51aeaU, 0xb911d31011f90cc3U, 0xe8eb1d1ee02737ebU, 0xd0ccf90501d7f2c6U,
  0x2017e50330f8fdddU, 0xf91fe00a05c80f07U, 0xf6c8f3dddaebb4ecU, 0x1af89a00e5c8f6dfU,
  0xe2f9e201362cf9ecU, 0x34d9c4112344d8ffU, 0xc8d423020d09ccf9U, 0x1110ee922de0ffeU,
  0x3e3cf13e4d10f07U, 0xe046a2120f41c81aU, 0xedad121a0c22d6ddU, 0xafb1cd513c611e3U,
  0x45edfb43b4dfb005U, 0xbb4ace181214eff1U, 0xfaa7ec21dc38d20aU, 0xbe90efde49cf8e8U,
  0xf218533381ceab33U, 0xe8f3dd00dbd1e3f3U, 0x1f4e82af01b1207U, 0xc4c705fbf5b3c1e1U,
  0xedfd5504afcedfeeU, 0xe444e9131be11cdbU, 0x72f0dfe144617e8U, 0xfbe81a17ecfb19ddU,
  0xf503c522e2c5edf6U, 0xe10bf608fd00ede7U, 0xe71102fdef3e0ad3U, 0xfcf009eaf2ffe6e3U,
  0xf3f70115d9d7eaf6U, 0xe7f5f7eef700d7f2U, 0xf51c0cde0dd9eceaU, 0xddfee9fe0c00e0e4U,
  0xc701eadae0fcf701U, 0xf3fdddfaf906f121U, 0xda15f2000912e2d1U, 0xca02e4f7f51501c7U,
  0xf0e8e80601d1ee01U, 0x1305190a00df0fb0U, 0xf103fdc809101b1fU, 0x22cdedd9fdd903e2U,
  0x170aa2b7d4c1de02U, 0xfbf90c1517e2dab2U, 0xf5190fd91d0f2be7U, 0xfcf719f908140be3U,
  0xf11aa30002ea3bf6U, 0xe800f0e806e7ccdcU, 0xf9f609f01001e312U, 0xe4ea15dcfc0af4f0U,
  0xea13c0fe17e718e9U, 0xd05e6ffe41211feU, 0xefe41ef220f31d1aU, 0x90a2ffd1cfdfe07U,
  0xf103c4152bf8090cU, 0x3be31c02d9e32defU, 0x27b2fcbaf1c5b70aU, 0x2cdef11112cae8f0U,
  0x1309d0cfd500f706U, 0x41250af427f5000dU, 0x1f1af6d10c261c07U, 0x23ec4fe704fb2cdcU,
  0x2920c016dc1d26feU, 0x120615fe2b01f3fdU, 0xe6171f18070d2fe5U, 0xea0026e429fc1de4U,
  0x49f5081c1efc3c09U, 0x72d16160f1208faU, 0xf40302e70d0ffc0dU, 0x1e416e51e21f911U,
  0x27e31a282d2131f7U, 0x3c1fe2d619d30921U, 0x35cecbe3b6a710ceU, 0xe6b7d2fb04d5adb7U,
  0x29031d2a012ef1f1U, 0xe6dfbc1d341e3de6U, 0x3deaf7cbabceff23U, 0x3134d1dfcfbd3018U,
  0xcbaa1516bf0b3a07U, 0x36b101f02dfcec03U, 0x1219c42ef5e53233U, 0xcbf8ff0e1bd1ceb6U,
  0xdcdfbf719e8e5d1U, 0xb4a335b6051e8133U, 0xf71fc23738d0f3ceU, 0xee1028e019a2be33U,
  0xb6b832c51411cfb8U, 0x4514e4c0ae3ed722U, 0xaaaecd1da9cadb09U, 0xb10a011300d63c24U,
  0x37dd30371ce0bfecU, 0x28fa0127cc0fff45U, 0xc2cdc8fcbcdfbbc0U, 0x8afd9b72e36cee3U,
  0xdf2426b20b17352dU, 0xe71ed01e1724efeeU, 0x1d4afff4f5e13034U, 0xb7eae52fc1021df6U,
  0x1708053844f3cff8U, 0x9af92712cce815d4U, 0xcccd3417bd30ee05U, 0xddae25bedbea110bU,
  0xebc2fff1e5981709U, 0x2c3b232adde6d5fcU, 0x31cb42fd1b37ea12U, 0xbfc00009dcb2f936U,
  0xc51bb4ea02043bf7U, 0x2ff9fcc5d8b3e9b4U, 0xb032bf32f6d6af27U, 0x3819dc02cd12201eU,
  0xe310d7bedc08120aU, 0x5421af919bdcd00U, 0xf1bb224f9322ee9U, 0xd02641ef2d0801c7U,
  0xd53f3f47ddffd01bU, 0xc4bb0cf1ecbbc9c4U, 0x29eee5d10d272b0cU, 0xba0351b6bdd1fcc8U,
  0x9a0d0fd3cb29e812U, 0xcde5d5c418e015b4U, 0x2c0eb612c3f8b6d1U, 0xe9bd25d7ca0cc6fcU,
  0xf9d21533d8b82d0fU, 0xe621b40c17042319U, 0xe70f17d617dc9e29U, 0xfefe0ce2c6c4fc1cU,
  0x14e6cff63402e909U, 0xe7d624feec282f10U, 0xb2e61cf81011cdc6U, 0xcfb5d1b0b0133b2eU,
  0xf800100519fbd6fbU, 0x1821dbbad0c8fba6U, 0x121bd92f2bed35c6U, 0xc6d5cd16aed8bc1cU,
  0x34b8bb1dc5ee4303U, 0xfbc00bdfd7f2f208U, 0xdaf2040e05c9ded6U, 0x19e6f3fafcf00ee6U,
  0x12e2f7fbea05d3d9U, 0x16e41e1c1606f9ddU, 0xd5ee2bbf06dac6f4U, 0x30f4ddf3f91f2af9U,
  0xf823ec04c40d8d16U, 0xeef123241bfbe7c9U, 0xfffb1de4fafc1f00U, 0xf5d4030e09ef26f4U,
  0xf710a0f507efe2f7U, 0xff0808262904f3ecU, 0xb050cfb201f1510U, 0xecef05ffe5130deaU,
  0x2068be135cfe8d8U, 0xebebefb9dfece9e5U, 0xd2def923dddc05d9U, 0x8dae4fceadfffd6U,
  0x47b4a1ffe1f301e6U, 0x42423f2edda17caU, 0xaecf2d9e39beaf3U, 0x1c2c1ddb4fb08f0U,
  0x20edca309ee5e1d2U, 0x10fb1517e5f017aeU, 0xff2f0fb101e0f0fbU, 0xffcbbe02d7470efbU,
  0xdafbb6f681c8e5c7U, 0xf9dd19070a160086U, 0xdaf51afa18f21b02U, 0x25e9d40d21f925f6U,
  0xe21394c3c1c7ea04U, 0xd6e0c5e2f5dcf1d0U, 0xf3cbd432f201f4e5U, 0x99ce0fffcfd8d1dfU,
  0xabde8e0703c4e4d5U, 0xddc717bea8bd1089U, 0x2adf926dbbcd6cdU, 0xdec0f6f1b6b5d2d8U,
  0x70abc9e7e6b6f2daU, 0x280e30ef02f03709U, 0xf3f5dbf601cbca02U, 0x11dced0aeceef5e4U,
  0x3d04fce7060c11e2U, 0x26fe1bf8fd02eaecU, 0xf0d710ff05f4d7eeU, 0xbea04c5fe010ff0U,
  0xefde501f5f2eaf5U, 0xbb04c7f2f0db14e6U, 0xf4c80738fd09d5faU, 0xa5da07ffdad1ed00U,
  0xc8e5d022fae8e5f5U, 0xb002c8d2c1b8f4edU, 0xe5fabd16cadcaad0U, 0xbebfdbc9d0f2c8e1U,
  0x27b7e70821b6f0bfU, 0x7e014e2faf6ec33U, 0xfffce3d7e8dac8e9U, 0x90403f4f70af90dU,
  0x51e230d5251dedecU, 0x10072009f301ea26U, 0x10d4fceb1b01e0f4U, 0x27fc0b0710f222fbU,
  0x1cf1111cd014c711U, 0xd90ddef20efed6e4U, 0xfe04f818f20b1ae2U, 0xfbd30ce8e2f5eecdU,
  0xd1e3f8e2fcdadcdaU, 0x2bfd1c0314e8d10fU, 0xe0d801bd13dcd5e0U, 0x371a0edb2ad43104U,
  0xfcf12ef1a31ebbf9U, 0x5221e191115b9f1U, 0xe3dd10e5031810dbU, 0x36fbe1f42ee826e7U,
  0xf01426daca1db4e8U, 0xf01413292a08ec0bU, 0xe60007eb083506fcU, 0x7f41afe0bff37d8U,
  0x14cfe810fbf4e2U, 0xe4f9fdeff3f8f7dbU, 0xfeeedfde8fce102U, 0xcde4e6e3faf30b03U,
  0xe6f100f806ea02e5U, 0xe8ef1908f8eed5b3U, 0xe8c2f1f7f4f8e2e1U, 0x3cde500fcde19faU,
  0x11f4cd22d0dedfe2U, 0x13f2301804eee6b6U, 0xe7f127dff1e203f6U, 0x14e5efdfeff00a0dU,
  0xb07b3e8aed4e4daU, 0x25e32012f41718b6U, 0xef2b030f08f224f8U, 0x11ebfa0be1fb0c05U,
  0x431abe7c1181ed4U, 0xe622fc05fb0904e1U, 0xea8f2330403d606U, 0xe3f519f811dbe021U,
  0xec0a0603eef90810U, 0x95eed6ddebc5ff97U, 0x9c0f400cbdec4e9U, 0xbca603e3b0b3c2daU,
  0xfbd38114dbb3d5c5U, 0xc7d621a9cd9ed3b9U, 0xe007f4deb5e4c4cdU, 0xc8a3e3a2b2bcd8e0U,
  0x51cdf504eb9ed0a5U, 0x1aee38c9e8a1dd13U, 0xf739c3b005b8e5e6U, 0x9d008b5d9da02dbU,
  0x18c3dddbc910e8dfU, 0xd503dff4f0da1bd5U, 0x1a9cfc4215d1c00dU, 0xb6e82104e3a8f8f8U,
  0xa4deee18fcf7f8f6U, 0xbc1091f9d2dafbefU, 0xf6fff2040efcb4d6U, 0xa2f807e9cbe7b4c7U,
  0x9ffb03ec14d3dfcbU, 0xef25f3c2dbf61420U, 0xf14abedfe100dee7U, 0xea0af8002644c5e5U,
  0x4ad920f931fc02c9U, 0x1bdf45e6ef1d2e32U, 0x105f10efcd4dfe7U, 0x9ef431b2c5f0510U,
  0x5a0e19041b20d40eU, 0x24f7111c16f5e2f7U, 0xf6fe0feb14271921U, 0x2df1cb02091319e7U,
  0xe1fcdac8e411f50bU, 0xc103b81df4ee00efU, 0xe72cfc0401291112U, 0xe2081aeff3291905U,
  0x1518f5fd0ceb1bb4U, 0xb9169900f00cfaf3U, 0xe20c1414eb214ce9U, 0xdaf265e9fa1de521U,
  0x41e857fa15da21f9U, 0x6111be4def1ed32U, 0xf9adc3b9f787b300U, 0x5ff6d8ed189ffef1U,
  0xebde3bbff257d4ffU, 0x70400fe0efb1ad8U, 0xee0fe8d1f3defb10U, 0x13cad5f4fce711e0U,
  0xc010abbcfc14d5abU, 0xb01fd100dd8e9ceU, 0xe23c14faf00c29fcU, 0x5e20af5e0fb15f9U,
  0xea0eccdb0b0506bcU, 0xcb07e80803eb09ccU, 0xab4d002ef6495aeaU, 0xd0db5be3f733f4bfU,
  0x2fe51ef94fe847afU, 0x30f519c507c9aab9U, 0x9016d2dddc0412bdU, 0x24f14dc800020eceU,
  0x39cb0b06001405deU, 0xfeea20d6cac101d7U, 0xc8b7cabee58ba5fcU, 0x9d2c2d3c7840be3U,
  0xdbe9fbc7eb14b9c9U, 0x21d80918fbd7b0deU, 0xe1e410e6eaf5e601U, 0x1dd306e804b81beaU,
  0xdc09bab3e101e3ebU, 0xfe02fb0204e7dbfdU, 0xcf402825104547c3U, 0xed38cff11a01b7U,
  0x2c17f3ed0ad619bdU, 0xdbdbfb07e3d2e5ceU, 0xc5141508e3003ed3U, 0xfde01c0f433dbb0U,
  0x39fb3c09fdde2dceU, 0x33cd28d0e5be0f13U, 0xd605dfa3df819915U, 0x3e9ccf8e3c5e7e4U,
  0xe5e112d3f31cd3d1U, 0x27c6f914f11bf52fU, 0xffe4e2a3ffc8b50aU, 0x271aeaf20de81debU,
  0xb8f5e2f2c621c6dbU, 0xea20ce131517d107U, 0xc90a202c1b053aefU, 0xdb091ad1f61b0cf9U,
  0xc0efb25f0e4e006U, 0xc7f0f103ebdff7d7U, 0xc3cd212e051d2edeU, 0xe8db03fff1e7d6e0U,
  0x3c080d03e7d2fef5U, 0xff07e215242ae5e3U, 0x1fdf0bd5fee0daf8U, 0xf60902f1f3fb1912U,
  0xe005d203f2dd060aU, 0xf51c04081215f1d0U, 0x5f620ed14f8e4fcU, 0xebea0df1e5f22402U,
  0xe9fadf08e4d7f7fcU, 0xd4091e1af2fcf9cbU, 0xfcf31c11100fffedU, 0xe2dbe9fcd5ed1008U,
  0xef06e8fdeecaefecU, 0xbf20ebf308dbfcc0U, 0x1aef0a2bde15ed10U, 0xcac9fcfcd2dfeffaU,
  0x3f1e20ee9d105ffU, 0x111fd1fc182dd212U, 0xeeb724fa0803d70eU, 0xf9de20ed2fd0fcf9U,
  0x1109f212f2dfed08U, 0xe43005090011bffbU, 0x5bef3f2071de9ddU, 0xdbda18ed05a8f0dcU,
  0xfa100726b4e9daf5U, 0xf32cf914efe2d9fdU, 0xf1e4ec0ada09efefU, 0xf7fa19e7fcd7e7f5U,
  0xf412310bd9e7f70aU, 0xf9f4effccee9ecf4U, 0xf0e8ea22e60bee03U, 0xeeda10eadcd8e4d3U,
  0xe5f00603c60aec04U, 0xe32ee71b2601ed31U, 0x1afefc23f90dff0bU, 0xf2fc17f40fcd0dd6U,
  0x151c4619aa1adc0bU, 0xc615e7ece9d6ced7U, 0xdf0ae01ee41bf6eeU, 0xbf0c18c900e8d4d6U,
  0x8d6591ba5c00014U, 0xe3ae02becdc7db04U, 0xe8cfe305eacff1e2U, 0xed0ae6eaf9a8de11U,
  0xeb944fed3fce210U, 0xf3e00adce1ce28f8U, 0x2badff1ebe5c606U, 0xd7e4e902d0c4f80bU,
  0xdde8bfd4f31ad712U, 0xd8edeb0ff6ddedc0U, 0xfe0c00fae7fd17f8U, 0xc0eff8f4d924e0f0U,
  0xd635f70bd80bffU, 0xd2f0e3f3d7ea01d6U, 0xfd07f813d0ff16e1U, 0xc3f9e2f2091fe4d6U,
  0xfee210023ef115c6U, 0x10f220c2d6da0510U, 0xe6f4da05bcfcdbdcU, 0xe1e3d8ed011fceccU,
  0x1fcbf0ec28192be2U, 0xfbd9f7e9e7e3e404U, 0xbe9cef7dcced8e2U, 0xd0edd104eadbede9U,
  0xf2e681ec18feebf9U, 0xdb10edebddd42ef1U, 0x33c8f231e229e813U, 0xc2dae100e0d7cfe1U,
  0xa1f61801fdfeefd0U, 0xffefdcd9e600da2bU, 0xe2c0cb15baedb9caU, 0xf608ffe825cce4f6U,
  0x1ed436e12022d5ebU, 0x27f709f50219e75aU, 0xcff0fef7e0ddb5f6U, 0xf20b201ae9f30aU,
  0x1ce5f6f12860c804U, 0x1e0611190917203fU, 0xffffeed7fbfde1feU, 0xfbf2ce21eb1c05f0U,
  0xf8fe0e031f41d7ecU, 0xd4cc22170a2a0605U, 0x7cceed716a1b019U, 0xbe58e0bfde2102aU,
  0xfb0a810b1a04e0e8U, 0xd7ee011f051317d9U, 0x3313ecd327ecf00bU, 0xf5e1a5ec011027f5U,
  0xc4ffa50138db1cd7U, 0xf4c5a714f21afa10U, 0xfc0414df1fdcc5e3U, 0xe9f799c8fdfa03d1U,
  0x8de8d6f92dfcecd6U, 0xbcbcc1bfb2bc617U, 0xe402060120e2dff1U, 0xf8199ee01b2124dfU,
  0x9b11e0f01fe6f2e9U, 0x17ef16ddefccbfeeU, 0x3f207e9f6acc1ebU, 0xf2d6bfdfdedeea04U,
  0xb5f1b329e9ecf3d0U, 0x20f524fb0100da03U, 0xe8dbf0f704fef0eaU, 0x31e3d11514ea020eU,
  0xe413e2fbf4f0f6d3U, 0x1f91e2a0f15dc00U, 0xf3c22bf6fdf009f0U, 0xcf0caf228ce10f5U,
  0xbe10c8ecec0edcddU, 0xfdf1d7052633e919U, 0x2bd1ce127ebf310U, 0xdebfcee12bf17fbU,
  0xe610ae36defdcaf0U, 0x29d5fcd3f005d924U, 0x11dbfb1f0cecf0e0U, 0xfde5e7f918fdeff9U,
  0xdbf2eee42c05dee1U, 0x39ec130701faca31U, 0xfdf5f61310f600e0U, 0x24fc15e10b0b04e3U,
  0x1ce6f405093505e9U, 0x3c13e818f40def2fU, 0xf61ef8c7230ce8dfU, 0x1fe125c9051815cdU,
  0xde0ad7ffdd0d04edU, 0xf629fe19f329e8dbU, 0xdefd00e60c0feef3U, 0xea0121cc12141b09U,
  0x819c1fae8f7fed7U, 0x2fe523f7130eee27U, 0xca2b2b1a0e1b16e0U, 0xdc1c4c06ef09e204U,
  0xfd17f818fb09f122U, 0xd2d1ffedd0d9b9cbU, 0xd5f6fffecbf308e2U, 0xccf9f9c7eff9d9d0U,
  0xecd915ed00ce0eecU, 0xfc1fddfdfb9e019U, 0xdd14eaf3fbec17f6U, 0xebc2bad2fd0bd9feU,
  0xe4d6d2ea070202e5U, 0xfac6f5fdfbe4cd1bU, 0xe4d519b611e5f5e6U, 0x29f9d4d70f0b0ff3U,
  0xe9d6e2e31309dd17U, 0xc022f519e9ea17bfU, 0x23f81438de211502U, 0xbbd30011d4dbd9e2U,
  0xf82f0426f5da1acdU, 0xfbf3bdceb7ede8ddU, 0xdddbd719c7ed02cbU, 0xc7d9e3cbe8e2cfccU,
  0xadc2f7d815f60f94U, 0x191be0f3d505e013U, 0xb6f3f1d1ff0123b6U, 0x1febbcdd1f22f1e7U,
  0x81f9fac1fc12eee0U, 0xfc11fb1e082d1530U, 0xf2fe03b20001f4c1U, 0x2117d0ed090efac2U,
  0xba0717f6fe060f12U, 0x9fcd3d7a1b5f923U, 0xfeaaf232bdf8c7dfU, 0xe7aee0f5da9baaf0U,
  0xe3eb3404f4f7f4aeU, 0xeffadfd3efebb43eU, 0xb80cacfbfad3bab8U, 0x29e7d3b3f6e317e1U,
  0xb3c7e68f372e04dcU, 0x25defcf80ae5d136U, 0xe4ebf3aa1bccf701U, 0xee909eafd0d08edU,
  0xdf12d8aefb19daecU, 0x1fe3061830ffef07U, 0x7d911ad0bd9cf16U, 0xf7e6ebe22ee82b08U,
  0xe516d5dc1305f9faU, 0x579f25a6bfa0a74cU, 0x8ad5c1d3ff9bb6aeU, 0x56cfc4b400dff9cfU,
  0xbdb5e8bbf236f0dcU, 0x5505191b101ab155U, 0xcdf9d3b532ecc8eaU, 0x51fedccc3c1e1fb5U,
  0xf41c2dbb4f3916d4U, 0x451be036250ebe43U, 0xf32922950ae8eeebU, 0x90be7e4172515ceU,
  0xdf31daee2a0cfbe3U, 0x12f6d0232143ef08U, 0xcd0320d10420dccdU, 0xe8fa3ada1e122c00U,
  0x221fb12901d5e0d3U, 0x2effd20bcefc0947U, 0x11f2e2f2d0080fc2U, 0xded4bf03d50edaddU,
  0xe411f3eff7f4bcf7U, 0xe7dbf0c1fddaa000U, 0xd411dcc00de1c0feU, 0x9122af9ea02a9f2U,
  0x2422c3ad96f9bf51U, 0xffd3daf0fde9cdeaU, 0xcf14f8faded5bed0U, 0xd1a619f1cafe13ccU,
  0xfb0bc1b39cf4efa0U, 0xa3f3cacfc0f9dff3U, 0xd2e398a10305fbd4U, 0x97fce59abbadddb4U,
  0xf4bdb4a9a6a3e4b9U, 0x3ee70607f6efd537U, 0x2fa1b34bff5439eU, 0xf1bb13a803d3d8c2U,
  0x3aff0623eb573ac4U, 0xbb21981619cbcca9U, 0xc900f41adf07caa8U, 0x7c8e911f7ea12c7U,
  0x22bff1260ca434b9U, 0xd3ddacd4dbadaebaU, 0x5d1eb23d7b7d8c0U, 0x21e09ed8e9390db9U,
  0xca02d4cb07d902a2U, 0xc7ded100e7d2dab6U, 0xdcbcaec505eeb2ffU, 0xc201b8e8c80fc4abU,
  0x5ec85e0afd1aafcU, 0x405f0e312fc19beU, 0xe71eff0ef51003dcU, 0x18f0612f11df0f2U,
  0xfcb8a4e911ea0da6U, 0xce10abb704b2eda3U, 0x11d0a5bdf21df3d0U, 0xd8afb7f5e5cebfd6U,
  0xcf7f6f2fbbaf8deU, 0xe7b6e2cc09a1d0f9U, 0x1dc9c6e9cdc00ee6U, 0x109dc3eed3cad9caU,
  0xd4d3dec10cf119dbU, 0xb7aee3fc0604ebe1U, 0xd412e4ae0604feb3U, 0xc4ae28a60dbb0cebU,
  0xd6f6c4d0de09bfa9U, 0xeffce8e8b1de1600U, 0xe3f0b4e2d23a25caU, 0x81a2ae99c519bbc7U,
  0xd3dec5e9309fcccdU, 0xfec3b0a3dbd2e41aU, 0xefc201beaafea0d8U, 0xffa49defece0c98aU,
  0x9a9e7ca03d20012U, 0xede50becc80cda37U, 0xf0dcb31be2f7cef6U, 0xccefc120518d7ffU,
  0x2ee5d5bd2729cdcbU, 0xa3bff9c2e318c19bU, 0xed2b15f7d80702bfU, 0xe3e6c6cebbfa2107U,
  0xcdf8a9af29b3a8e2U, 0x10cfbddedca3fd41U, 0x81fc9fcadd91600U, 0xdecae5f10b19d604U,
  0x7e238e93ef6f8edU, 0xff4acc7abbacd51U, 0xd534ace7d0d001eeU, 0xc2b8c1c7e332cdf4U,
  0xef9feac54bf9f891U, 0xe4b4e1eff0d50345U, 0xf23dba9cde6eac0U, 0xe1e8ebcc1d2cd9b6U,
  0xe6aef4c936e610e1U, 0x60cccf4d6170a2cU, 0x7330eccfc0a1309U, 0x10729e4201ceabeU,
  0xf8e047ac54290cf9U, 0xe7d8c2fcf5d0b616U, 0xe210dde306dddaf1U, 0xc706d6e0e3e0d5e0U,
  0xe4d5ffca33d704dfU, 0x22ffd3140ff4b440U, 0xebdbe09bddcfe2c4U, 0x23efb39f37f213f0U,
  0xc0fbd5f42507e0abU, 0x1407c7fa04f2ed21U, 0xe4e304c311f4a2f5U, 0xd8edeae1f213fbf2U,
  0x9ad2bdd419dcdec7U, 0x715ef2ffd2fe9f3U, 0xda0a16e40310f0f1U, 0xeb1241f5f60814f3U,
  0xe903dc151cf0ef0dU, 0x2605c5ea1d14121fU, 0xf2da12de1200f1ddU, 0xf9d1e1fbfe1c0ac3U,
  0xd0f02da32fae39eU, 0x3dfe1f22fc07bc14U, 0xbadd26eb0ff6dddcU, 0xf2df14eced2b18e2U,
  0x728b7eded0cbfe9U, 0xef0b0f0b2013c22eU, 0xd20c29f81f03d1ddU, 0x1eba23d2eefd2ec9U,
  0x3104bc1ae0dbcccdU, 0xbd31050efb06e9fdU, 0x2b2832170a0e0ddbU, 0xcdcd4bfff1fb02fcU,
  0x272ac83015dceaf3U, 0x1d04f02b1ef4c51eU, 0xbd10eea637f9bbe8U, 0x7e610ce261639abU,
  0xf3d8e4de0806d2bcU, 0x1e1dd6093efab310U, 0xd10412ef2e07f6d5U, 0xecfb2cc7171e4be3U,
  0x1a1a811022d8ffa7U, 0xf0fbac261f1cd613U, 0xcb1119d1fb1212f6U, 0x2dfe10ad09151ed3U,
  0xfe24c1f8cae1fdd9U, 0xdf20cb1e01099fe4U, 0xdf502c2d2a5e53efU, 0xec1c30afcd291ceeU,
  0x210bf50234e617c7U, 0xa0417fc0b290428U, 0xf7f4f5f017fef2f5U, 0xff9f1151b13f2U,
  0xc923f8dfe50ff303U, 0xd02fb141c09ececU, 0xe4eafebd18e0e3e8U, 0x312d8f401271af7U,
  0xad01f7f5db0aedefU, 0xf9faee0f1efee2e0U, 0x7e709cc14ffd5f5U, 0xdc12f0e8f6010efcU,
  0xc60ad2fde9e2d913U, 0xcd1ee8202402f0beU, 0x31b1a110f2a07fdU, 0xb6e407fcfd2015eeU,
  0xfc10e1260cf9f919U, 0xfbf7ff120902d2ecU, 0xf7e216fb05efcd18U, 0xe3e9f006ebb61bf7U,
  0xdef9ec05feeceddcU, 0x808ee0beff5cf07U, 0xe6bd16d226e2e0edU, 0xfbddf00717b2f508U,
  0xda0fbc1607e1eec6U, 0xbb0c0a0114dbdbdfU, 0xeccb11f127fceaf2U, 0xd6ec0ae0f5e7fd0cU,
  0xda07e5080adfd2c1U, 0xb5030723e1ece4d2U, 0xefee210efe161701U, 0xb2c918decb13f9e1U,
  0xc808d1f102c013b4U, 0x1824e916053dce2bU, 0xecc51d00fcf3f0e5U, 0xe70523ea32f212d2U,
  0x518ec15ebf6edfdU, 0xe420e7070139c611U, 0xe8b5fa0dff0ac9d0U, 0xd0092afa23dc0cdeU,
  0x2bfef72908ebeeefU, 0xe1231af70922c3b8U, 0xcfe1fbf7df0af2ccU, 0xc6e525d20ec2e9caU,
  0x4e13122f02f30416U, 0xff3d23dffbfee1d8U, 0xf0da0219dc16e303U, 0xc6c21feee29befe8U,
  0x250d3c56d6f8eb11U, 0xd42efc072924c00bU, 0x151006f70e09f8U, 0xed0329ea1efd1aebU,
  0x23121f25c2f40b02U, 0x8101fff8f9debbdaU, 0xc05f126e3110deaU, 0xa2e326c4c503dfe4U,
  0x30ed0b2ca2abcee2U, 0x97e3f9dedacaefc5U, 0x2bd8e841d5070afcU, 0xa2b7f9dfa8ddade1U,
  0xf5d45608a7c1cce7U, 0xf4abeebca0cbf509U, 0xecc60db7e2ddfeU, 0xbed7d8e2dcef90e5U,
  0xf0b933e9c811dfefU, 0xc6ccddbee1f3fcd6U, 0xefd5d0f1e4eb01ebU, 0xddd0f9d9dad6eaebU,
  0xeac215d9e6f0edd8U, 0xe8f0e6ccb9bbc9e4U, 0xbeaad1d8ead9b0e2U, 0xb804bdc5e2d3bfc1U,
  0xabead1d4c1f3efc4U, 0x91cfaea6c9e1e2c1U, 0xbe9dd6d8c5c6d3daU, 0xd5d8a0e5afb3dfc7U,
  0xb0c911d1d3be01afU, 0xfeda0ad9d98c8c2aU, 0xe5add5d9c6f1f8ceU, 0xf8c3f8be0dd7f8ddU,
  0x2b811eeb2ee7fde7U, 0xfbd421f7fe1f19dcU, 0x4b8eaf5fab8f80dU, 0x400c7ffdcf00f14U,
  0xe204fff61917f1ebU, 0xa40bedff1909fef5U, 0xf2f4f9d1f3c1d001U, 0x9eeaec2910c2f21eU,
  0xbc088a2128fe14d7U, 0xdcdee5f0f5d5c1f7U, 0x49bff802d0e3ed00U, 0xc6ecf4f7c290d3d7U,
  0xc1b8454f580a53c5U, 0x48f1e203c8d8c12eU, 0x3ec7c1fbf0e028cbU, 0x4e20cfbc1de215e7U,
  0xa7f779ee0e304ae0U, 0x14df14f8f6ffda2dU, 0xbdb6f3d8ddb3c9c4U, 0x34eb0ff1e2b0f0d3U,
  0xf71303fb0e15f0efU, 0x3fbbf190ee6fcf5U, 0xefd3f9dcc3edb0e4U, 0xa2d661eee3d7e5b8U,
  0xa52ee6fd01f7e39eU, 0x14cbc5eff038c933U, 0xd9edfae5cf2ef9e3U, 0xf2143edf37d900ffU,
  0xae96a922511dadfU, 0x3a35f412143dad7aU, 0xc1e3fd8c03e1f5edU, 0x34111a0534c42df2U,
  0xf71132b7d158f503U, 0x571f1904d2ddee29U, 0xfff8d503d7eadae7U, 0x31e5ebf0f9edf6cfU,
  0xf1d709dd1037d0dbU, 0xe5180a13f5f7bc23U, 0xd902e5e3f6e5caf3U, 0xfbd914f5ee1923fcU,
  0xc2e5c5eae60cf4e6U, 0x1affee0d1fd0bbfdU, 0xd5120b0ee41a37ddU, 0x24e518f608fb25e3U,
  0xed0422e74019dfe8U, 0x2e33fe1e0722091cU, 0xc336019c080915caU, 0x35dce8cf01e919c4U,
  0xde0c2feb44213cf5U, 0xc1f3e808edf0f8d0U, 0xed4d05dbef2037faU, 0xcff85bd1e538f5f8U,
  0x14e900de12c8ffaeU, 0xfa313d0edd2c8daU, 0xc51ef8d2e6170dcaU, 0x2b0734d21b2bebf9U,
  0x34c11bc9f5f90404U, 0x1afe04fe00dbeb0bU, 0x28d4e8b121b90a07U, 0x26f1ddeffedf150aU,
  0xe2fd11dcf721ebf7U, 0xf71af2162df2cef3U, 0xf5d411e101082b1eU, 0x1812eae0fa0325fbU,
  0xf30ddcf102fbe511U, 0xf4f4e81004dac2edU, 0xcb12f0edfb172cd8U, 0xdfc0dece5f206dfU,
  0x34f306e203b803c8U, 0x917f5f600f31120U, 0xd92d120afa3326f5U, 0xe90638fc1cf8f6d7U,
  0x41ee0a231e2d0cd9U, 0xf6f225eee4f313ecU, 0x1407fe07fae9320dU, 0x1107030d0aebf42fU,
  0x4fd7590117ff1bebU, 0x25051e1d0df8f5f9U, 0xf8f6edc5f8f806fbU, 0x2309210d01d50d11U,
  0xf817cff6f7291200U, 0xef05ef17fe0df8e5U, 0xfa19ee24e018fe08U, 0xf0ad1f0ed1121feU,
  0xd40fe101fecc1ee4U, 0x906e70001f110fcU, 0xe0361035e3251ecdU, 0xce9f7ca0b2a14d4U,
  0x111815fa0f1632e8U, 0x80bebeefc06ecc0U, 0xe04b0e27cd0231ebU, 0xf6082ed1f540d3d4U,
  0x4205331d42b43acbU, 0x281414d7fd1207f1U, 0xd50ad99ee0a9e0d3U, 0x18d1c9f2eaf906f3U,
  0xe201cfdfe64117d3U, 0xe4d7e6ff0d02cb08U, 0xb22aecef2def08fdU, 0xf001e9e8d02616deU,
  0xbaf4d8e1ef0ee8d5U, 0xfd7e01617f7cc0fU, 0xa41428171c032ad1U, 0x14fd33e3ff3cfeeeU,
  0x1421dce8effdf4edU, 0x9d12d30de8d4e981U, 0xf20d0917e50834e6U, 0xbac407cacd15bdecU,
  0x18f4250917a81bc5U, 0x9c32ed1d5b6d70bU, 0xdcfeead3c5c6d2ebU, 0x12d104ced9e7e404U,
  0x4ae001fbd6efcdcfU, 0xb0e0e0bf717131cU, 0xeeef100a261209feU, 0xdefcf90b1322f106U,
  0xeb19d103fbf0fbebU, 0xcf20e9ec0d03f0f9U, 0xf81a0634f1270ed6U, 0xc5f8eff9ee1306bbU,
  0xfdf6ec0b25d716f4U, 0x410f8e509f200ebU, 0xe41ae31eeff907f8U, 0x18fae5f8f6130ddfU,
  0xfcf031fa32f8330fU, 0xb2a0eea0beaf7fbU, 0xf9ec04eb01fb01ecU, 0x15f217dfe0f2f312U,
  0x39f2e531260409faU, 0x8437dd1d2a06cf0eU, 0xf5bdf6ffe212e505U, 0xcaf6fbf8268127d3U,
  0x160d324fd4f1d326U, 0xfa06c602e2b0edf5U, 0xefaefd19e41ee1e8U, 0xf3eaf5d8fc83fbd2U,
  0xb500171ccb09d4fcU, 0xfbcde8e4ecf4ef0aU, 0xe4d1fd03ffe5e6d5U, 0x1faebf5f69decddU,
  0x9fec2be1cc0ae905U, 0xdac3f2f2e7d8dcdeU, 0xf1cde2edbaf2d5c4U, 0xda03f9dc00dfe1e6U,
  0xc0000fc3fdd9dfe9U, 0xb8abf1f7dcd1b1d0U, 0xbf60e08dd011113U, 0xd0e1efcbd705c70dU,
  0x4ea5beec8ed07c3U, 0x1a727cdc7efd104U, 0xe6cae0ddd6cdf9ddU, 0xf1dfd2daf1e9f3d1U,
  0x1bce9e0a114d9f0U, 0x6dd26fa0cf7060bU, 0xf9cae2f7fdb3bd1cU, 0xeae2ed2512ce1702U,
  0xc6f1dde9e11beff2U, 0xf40feaf501d1cf18U, 0x7e2eb04fcefccd5U, 0xdd12fbca0fcafbe9U,
  0xd3e441091c0009edU, 0xdbffff19130edbfeU, 0xdf4efefd06163ddbU, 0xc4022fe1de4c1900U,
  0x1e04e2dd33dc30f8U, 0xec03ef0b19c92bU, 0xed381d00f81a26b9U, 0xf1040dd513360be7U,
  0x1c000f07170b17ddU, 0x30705f6ff0afd1dU, 0xe2cb04f5dbdd0ce1U, 0xcafa13f1f0e1e804U,
  0xf410fc07effc09f4U, 0x27030906f50aec21U, 0xf6d510ef02cbd5d2U, 0x1f10ddcf1bd70fe8U,
  0xc6ec2b0f15ff0303U, 0xe0ead71f12d9e2dfU, 0xefec0be7151028d5U, 0xabebe9e2fcae04efU,
  0xd404e0f2f608f2cfU, 0xcbc7f5f00000e8f6U, 0xf6e003f9e5d525e5U, 0xd1eddbe6f0b3eae9U,
  0xe2f2f7d700fad9f2U, 0x8e414ed0304f3d5U, 0xfc4eee7f2c2dd06U, 0xf2f6dff0159804eaU,
  0x2dfe00ae7e5f602U, 0xf9f901eefcf4dce7U, 0xdfc9fe1ae0ee0afaU, 0xfeccd6e4d1dbfbfbU,
  0x12de0efdd9f2f4e8U, 0xfbe2e4f2ea08f9e3U, 0xf2d005f2fad7fd04U, 0xd4f1f5ff02b5faebU,
  0xe9e5e1e4e507dbfaU, 0x2cfa0f130afcea1dU, 0x90be8ff0ef6f211U, 0x211df0f314e10ef1U,
  0x1f230bee0308082fU, 0x301e7e8eef0ecfeU, 0x2ad7e01ec9fa1704U, 0xd6161308fcaee3fbU,
  0x1eed241b20f522f9U, 0x3c17fae2d508f000U, 0x10e40017f6cbf7e4U, 0xf1af806f4d0e304U,
  0x81f855f4e40952ecU, 0xf4ebe41809cfc4d6U, 0xc1d1f704ffdf20daU, 0xe3f7f7fdf8eb37f3U,
  0xf0dde0e3f104d6f9U, 0x1bfbfd2517e9ecccU, 0x9fc0d03140215e6U, 0x3fc3500fe021520U,
  0x7fae6ff0c0bd511U, 0xd125df02d3e3d0e2U, 0xefcd07ffd40cf8d3U, 0xe11107ba09cac9d8U,
  0xff134acdeae5e706U, 0x23fe1af318fad037U, 0xc62600190dd2f4e7U, 0x29f44216edbe0c07U,
  0x2c1f43c8e651fd1fU, 0xe1ee06272de7febdU, 0x1fdd02f8edf518e0U, 0xb1d61bffe19b37e9U,
  0xe9f7e8fd0ddeedf9U, 0x14e61e0500bee9d2U, 0xf0ecfb15e9e92d0eU, 0xceea0b03f3bf00f9U,
  0x1211ec041610d309U, 0xe2f3d31413df0d28U, 0x2c8ff2f6f8f2e5f9U, 0xd2fbe5f5149ae7bfU,
  0xcf021cf042fde5ceU, 0xf5d9f92c00e9f91dU, 0xed0409f311fadfdeU, 0xfc140deb0d0bf7c0U,
  0xb9064fdc3c022ac9U, 0xbf0fddf2e7f03ec2U, 0x13cbdb3dedf60e28U, 0xf5e3f008f9d5caedU,
  0xe7eb00e9f3d7e6f9U, 0xeefe25f9dcf506e1U, 0xf106e721f604e002U, 0xfecfd107b70912ffU,
  0x39f3caf8e0f0f004U, 0x28eb43dfe1a8d810U, 0xf0ea031d070809f6U, 0x1cd1c4afa2cc15d8U,
  0x105bc1bdcea0af4U, 0x46fc1f3ae9c1c4b7U, 0x410509302750fb39U, 0x2bec14e2c1dde918U,
  0x100ef1ea99acccccU, 0xa8fdba190be60915U, 0xca21f1f1f622f7caU, 0xaedef0e1f6081bb8U,
  0xc7e5d0d715e014bdU, 0xf906db06fcf0e338U, 0xd82ed7f40be7edb2U, 0x4f1e6ac032c07d3U,
  0xd2defae207ecf0e8U, 0xb082ce10afddf23U, 0x9be2fbd3f2e9e9beU, 0xdf14faf6f31813edU,
  0xd011efbd00f9061eU, 0xe94ae5f72426261eU, 0xd632d6332e0724d1U, 0xca08e6d4ff0805dfU,
  0xdae0f3fde0bff4ecU, 0xde5f2200121e1a8U, 0xfaf0add31d5cd0bU, 0x9cddbee21e3e9e6U,
  0xcf14e3f805f0a8f1U, 0x2faf6e70ef6fb03U, 0xd0f300eb131bc0fbU, 0x5f106fc3aee19e8U,
  0xe1b9a060dd0e2f5U, 0xfa15d3fdf02fdadcU, 0x19cbf8ed0b1acfffU, 0xe00518d8e910eedbU,
  0xdb04c00d04cdcb23U, 0x29080035290e05b6U, 0x1db012130af3d209U, 0x22fd11183bb21711U,
  0xe712c80b1eb5d41aU, 0x1e1ffe061a01022eU, 0x1e3f6fef50a1215U, 0x301221f240e9f306U,
  0x23f83e16140de701U, 0x23382dec15f40651U, 0x155a1dce1111040fU, 0x251723e4073d2afeU,
  0xfc11fbecf43511d8U, 0xb3ddf2501e3de07U, 0x107ff8d7ed561fe8U, 0xe6f742cc10310cf6U,
  0x49fd21eef7e9020eU, 0x1709e31b0002ce04U, 0xe92413ee22051d17U, 0x92832e5250606e1U,
  0x310bf002de11cad9U, 0xe4acb3d0e0bbde0cU, 0xf3bcbe21e6c9d1d1U, 0xdfe1c3c2dfb4ceb0U,
  0x8ba32bb83b03dfe1U, 0x2ccce7e51005c551U, 0xc7e4f18623c2c6b1U, 0x4115c0be0ff518e7U,
  0xa1de3bcc0f2221ddU, 0xdeeadbf9151ba402U, 0xb9122e23ec0f15f5U, 0xf902cc0b1021feU,
  0x2d1cfef4e1f70fdbU, 0xe505eae617fad4cfU, 0xe5f4fa1de22215e7U, 0xf1fc10dbdd05dad0U,
  0x23f23110040204e3U, 0x1a09dee3dbd9dd18U, 0xc4cacb12f1e800ccU, 0x29fb0efb2fcbf6faU,
  0xd8bc36e5200d11f6U, 0x19f2f4eff713cb14U, 0xabf6e8b9010fcfd0U, 0x2cd4fcf03ae41fedU,
  0xed20f10ce617ddfcU, 0xdff3fe1d1c19c7fcU, 0xfe201e49f92b08f1U, 0xf7b7faeeeee81ed9U,
  0x2a0f46090ee606c7U, 0xf007e9f7d2e3e70fU, 0xe1d8f133d01e48c6U, 0xe2d9ebd8e8f2f7d6U,
  0x11fe381105f303cfU, 0x252309c3cfdde50bU, 0xdfabf8f9f8c9d1c2U, 0xceeedb11b4000cU,
  0xf0c6fd100701d0f7U, 0x1a192e1d050cee18U, 0xd1ed08bdd6edd9e5U, 0x24dff907deecf5ecU,
  0xe90df705f72fbddcU, 0xc8fefb13ebf0d9e2U, 0xe4dbf418e90613b9U, 0xa8d20dd5cf11e7c5U,
  0x20a3dfd2ac02692U, 0xeed8e3e3c3e9d2c7U, 0xd6ca0317e5e0faadU, 0xf2e0decd0202bbacU,
  0xed716df0ed715d8U, 0xfcf631dabebde8e5U, 0xeda1d92fe9afa2d6U, 0xedd3f4ebe59bd704U,
  0x3e7fa03300bd5c2U, 0xb280aecf0c9ff16U, 0xf927f9c1e3ffb9e9U, 0x12b005ea0f15f8c5U,
  0xf5f0ecf57f1203daU, 0xc9f9ccf9edfcd2ffU, 0xed10f325c022f8eaU, 0xa2de4fd8fc1be3e0U,
  0xf5160632e1e7c0U, 0xb8ef09dbc4bae4bfU, 0xc8e2ff14bddef0c7U, 0xd708d29ad70fe2c6U,
  0xf5ca34fe13eb02caU, 0xdd5a805eedabfe6U, 0x29b31932da053015U, 0xc02e61397f3ecU,
  0x4e26e0c4c000be8U, 0x25c5c9eb211f8b47U, 0xecc819cd12c6c4d3U, 0x142e99e04abc20d7U,
  0x8ae41329194bdefbU, 0xc912fafb2621b114U, 0xe906111f272a2bf3U, 0x8f30df016ee11e2U,
  0xe202090d221814e2U, 0xcac0413f7b90bU, 0x2716fc550a264100U, 0x131742c203f7ffc0U,
  0x27f16734430e11c7U, 0x13e3f0d4ee0ae31bU, 0xc6d5f3450e294de8U, 0x2e05f5cb21e4f1dfU,
  0xb2a44df4ec1910f6U, 0x12fb0d15f3ffc813U, 0xb4e9e9aa1d04dac1U, 0x2f08a8d305e813c3U,
  0x81071eedd523f7dfU, 0xe003d20e04f2aec4U, 0xbf0a00070c1c15e7U, 0x220f9f7f6d3f9e6U,
  0x7141103f0fc1ef9U, 0xeed216f1eac501U, 0xd803154ffe246ce7U, 0xff0f2e607090ddcU,
  0xff035f19111310e5U, 0x11f531daeef5cbe1U, 0xb530e6271a402ef2U, 0x1aece9ded2150c09U,
  0x33d22ee2bdcb150aU, 0xfb06311d1bfaf8d8U, 0xeff426d7170dcafaU, 0xf6d4db070bfa0310U,
  0xd710fae4f715fcedU, 0xdcf51903f4f2ce93U, 0xf2d91d28e82c3dffU, 0xffd50c03dae50412U,
  0x92bf01a22f01dc7U, 0x13f610f90be0f4c6U, 0xe9db1128ed1628eeU, 0x28e8c4fc06f4f9ecU,
  0x200a3d02270d1fefU, 0xb218dde0e19ccb9eU, 0xc813f805e31617c5U, 0xdfc8f2bcc300d1e3U,
  0x1bc2f10cf8a921e2U, 0xe9fd36fb059b94e9U, 0xe92c078ff5c69200U, 0xe8d2f1cfd6f2eee7U,
  0xd3fc021c30e7d4baU, 0xbe02e4ffebaec707U, 0xdcfb0be1f121ec00U, 0xaff439d9d4eedff1U,
  0x4e7fd1afad7e798U, 0xd7e31bf1d3b5c8f0U, 0x39af0cedeead7eaU, 0xfafdca9fafaff8cbU,
  0xe3df400cd1e9dbdbU, 0xce0403df11f000e3U, 0xdad9e50ac61a1ec1U, 0x15f703def4dce5d7U,
  0xedc23e3e5dfffd9U, 0x37e7351c2ad9f7f7U, 0xd8f9ef8decc5b0f0U, 0x4308f5ccd4b92fe5U,
  0x153d16e3d63f251cU, 0xd82a1031ebf5d8cfU, 0xe839203c026e63bcU, 0xfde309d1232c1fedU,
  0x190e78041fd043deU, 0xf21d16010a01e201U, 0xa20914b627f50accU, 0x41fcd1e3ed3a3a02U,
  0xe7e8d7f2d213f6f2U, 0xf0e4f9d1cadfea07U, 0xf7050dd212c000U, 0xd0dac1e4d5fad5f7U,
  0xae300e4f8c00dbaU, 0x16cd0ae810e0e501U, 0xf6b3ee84e7cc81c8U, 0x20d31beedaed0eddU,
  0x1e2103d2ddfb0cf3U, 0xc80a07ebe0c4efb0U, 0xd5ee0e0ed716ebeeU, 0xf2a21ccbcaf10fc5U,
  0x63fbf9ffe0a507e9U, 0x112d41f1edf4d0d3U, 0xcee81f04dee117d8U, 0x20c4adb80f231dfcU,
  0x3813ba3d14d2f5f6U, 0xe9d6d2fbbfc3dfd7U, 0x2aaf119cdf09cceU, 0xbfdbf4e8dadde2ffU,
  0xcaf6db0a1fb0c4d1U, 0x11faf0ee06d6ebeaU, 0xf3bde7dfd1ccbdfeU, 0xff337c1b6b6d8c0U,
  0x24fcd6f6dbf5fbc6U, 0xd709ea11dae001acU, 0xe5f7cbf6e9d5c4d1U, 0xaae7f4c6e0f7c1e9U,
  0xe2cfd8f3ebb2f8a0U, 0xbce59d9c2cc01d1U, 0xfdd80ac7db0a07U, 0xeddb21bfee0be5ecU,
  0x6cf2f016f9d3dba1U, 0xd2d3c202cbf6d3feU, 0xf6cde607ebc2e50eU, 0xd5f0f1edf3bdde03U,
  0xb6fd0e200fe7eae8U, 0xfde8e708eec3d1e5U, 0xf8e704f2dac9f1f2U, 0xf9d322ef05bb07d1U,
  0xefdd190b1df0c5e7U, 0xc5cce8d8cdc1e1ebU, 0xf7d90302d2bdc5caU, 0xc5c1f9e1ecd7d7d1U,
  0xd9f796cb04d1c5bdU, 0xd6f3fde0d3d2fca8U, 0xe310db0adf0dfdd2U, 0xd3fb0bd3da26c0bcU,
  0x39d3d6f72c950c96U, 0xe404d6ecdbbd21ecU, 0x1cf9d218f8e5f200U, 0xb2f5000fc2ede9f2U,
  0xe508f6eaf4d8c3a1U, 0xf6ca10dbf6d30aceU, 0x100fdfdc305e6eaU, 0xbeb3418f7f0df10U,
  0x29d1f3dce0d3fff9U, 0x21d30ee1efde1ccfU, 0x4dffceacbcdf7f0U, 0xf2db5813cdaee904U,
  0xe06b4f3f502fb19U, 0xd6f92cfe06d611fbU, 0x5eef91adb2dff16U, 0x14cf23f5d6b2da08U,
  0x9febc10ea0c0613U, 0x1dde0fe8f906ebfbU, 0xcf11100bf42de912U, 0x5ef1d0e3bef0edfU,
  0xff04eeef2b3a0dddU, 0xafd2bed8fa05cfc6U, 0x5d001f4d6ec102cU, 0xa0e231d2e1dcd004U,
  0xfce116fc4811fecdU, 0xdd59feffed5eaffU, 0x4691dfb3f981cd11U, 0x414bbd5119dfde8U,
  0xadc020b4432509dfU, 0x2cccbbfff117c928U, 0x29cd25ed13060709U, 0xf21a4d635f209c3U,
  0xb0ff2ee5583232b8U, 0xe9fef9170f1ad504U, 0xf22a04fbe9fa0c11U, 0x217f6f3e7081b02U,
  0xf1af9e0fc14fa06U, 0x1f17d9090610fe31U, 0xc718f5fc25071cddU, 0xed2016dd1628e9e3U,
  0x23e960002c0932b3U, 0x33d2eff3131cba57U, 0xd6d108d32dafcbc6U, 0x1c14cdd72efc2ccdU,
  0xf1fe39f51645f612U, 0x21903222722b733U, 0xdac721f9f407ddd9U, 0x103c07e737df1502U,
  0xbc0b09330b1fbaf4U, 0xf8dbf40e0df90cb6U, 0xcd0615230a0f2407U, 0xcdfbcc00d214ff17U,
  0xed3b970f0abaeb0fU, 0xd1a0b0f14fd001bU, 0xeae21a1f041224e6U, 0x2802000325f61be2U,
  0x438131202093202U, 0x106409151416f4e2U, 0xeae9fcea13e2dfe7U, 0x17dcdb1203f326f3U,
  0xb323cc12d41601eeU, 0xdc01ee3a0510e3caU, 0xd624fd272933eef8U, 0xe7e6e5e4e82522f9U,
  0xf81ed805f10ee3ddU, 0xeddbe1cec6d4b3c1U, 0xd3f4dfe6e2fdeff8U, 0xdfd809bbcfd4ffffU,
  0x1e2f9d911cdd3d5U, 0xf7f120defbc4a8f3U, 0xf017f504c529180cU, 0x16b424d9d4d7fa0dU,
  0x30d9a437dfeee8f2U, 0xf011261800baf20eU, 0x2c0ce6f5e0f6d603U, 0x1fa51dedc0e60a0bU,
  0x27f4072011cfd2e1U, 0xca1ddb11e6c6ea13U, 0x2d07e823d9180c0cU, 0x15f319faf6d7e4deU,
  0xfddf43f1f2f6d2c8U, 0x31c189d5e2d1c9eeU, 0xffdb16cf080504ebU, 0x1be411befbf402d1U,
  0xffeb54071116f0d1U, 0x1abd95f5f103c321U, 0x2d90812ee230ae6U, 0x5e31cd511d7f8c0U,
  0xf5c1320e3734f5c2U, 0x2eddbbec1116eb11U, 0xd9052802ff1107e0U, 0x16f3f7e2160f1be8U,
  0xe3ef1ced1914efd8U, 0xfceaba04f42ed2e6U, 0xc180134e63f32f9U, 0xce319eff426f1cfU,
  0x1110083f19f3ebf3U, 0xe00daf8fdfc9d3fU, 0xbd021104192a47d6U, 0x220a16bf32fcfcc5U,
  0x33e94b08132e09dbU, 0xe21cff90efab333U, 0xd4150d26eb1f2ae2U, 0x31e500cc33002abfU,
  0xf8f93011fa370dcbU, 0x1b09e20f2bffb525U, 0xd9070bf4ec34fad3U, 0x11d933da13de2b02U,
  0xf8ec0727fff7d8f7U, 0xa1bc224f309073dU, 0x1f1190cf2331e07U, 0x19ebf6e909f416d8U,
  0x1b0b7f32091406e3U, 0x151af53323eefa0eU, 0xd4332a1d0d4501e0U, 0xad310dc270e01d3U,
  0xfc27372706f728d3U, 0x1818f92b040ed71aU, 0xd5e8221d0f1032efU, 0x2fc9f1ce0ee60ad4U,
  0x122eda19cf0503cfU, 0xea1be908fc17e8d9U, 0xcd21051b092513e2U, 0xe2d707dbeaef20e0U,
  0xf5150a16f7e61ac2U, 0xfa24f021f8f5e5f8U, 0xe0e62138161941e1U, 0x1ef516d41cef09ddU,
  0x21240a0e030405e1U, 0xea0005fdf5d7ecf3U, 0x5dd0bf6f9f3df14U, 0xecde0bfce7c9f711U,
  0xfbffe408ecedd8f5U, 0xf7001309f9d8fdecU, 0x8d004f304f7db10U, 0xfce10d05f5d0fb12U,
  0x10fedc04fefcfa00U, 0xf4f502fdfdd0f7daU, 0xfe30b01ef05ef10U, 0xf1d50705d5ddf4fcU,
  0xe0ff309efefed03U, 0xf1fa0eecfbdaf801U, 0x3e10008e30400f7U, 0xf7ea0a01ead6fa0eU,
  0x2f505fefbf9f602U, 0xc0090901fc1206f7U, 0x16dd0bfdf3e1d105U, 0xcbcf050f03d602fdU,
  0xd811e324211303d9U, 0xe1dfd0e2ffeacdffU, 0xfcdf308e7d4c803U, 0xe6e3d8e1f0c2e4dbU,
  0xbbe9231d3b0803beU, 0x24d4c0e9fde1d821U, 0x15d2f0f803e6f7faU, 0x3f7f3c406d501beU,
  0xc4d128062a25e7daU, 0x20d9d20ef301ea17U, 0xfff5f82e0c041af1U, 0xe08dfec070211d2U,
  0xe6ec0e060c1301ecU, 0xe7e3c3e1f0dbd20bU, 0xcfd9d9e3dcd2d2d3U, 0xe2f2f6c2ffd7e7c9U,
  0xa7d403d00ff9d5cdU, 0x12dbc9f3fbf9de26U, 0xe4f5e7ed07f2c8ecU, 0x1513f5db1ae70dd0U,
  0x81db2cc0100fefe5U, 0x7dfecf6011fea29U, 0xd0e214020c16f7e9U, 0xcfc17e117e80af1U,
  0xe3e82b120a20e204U, 0xfb030f010f02dd09U, 0xe4f7010e06090605U, 0x5ffeffe1bf919f8U,
  0xe700210ff913f211U, 0xaf9f9e8e5f9de0aU, 0xdfeaf1eaeee5d7dfU, 0x9fdf8e9fefff6e9U,
  0xc6eff6daf6f6f1e3U, 0x1cf80fffff09e108U, 0xdce003e908dcceecU, 0x1ff5efed13e416edU,
  0xe3ff1de2db0ada0bU, 0x18330d10131202f9U, 0xdb20fa0a06150ee6U, 0xd02f0fbf50d1be9U,
  0x4130712fc0d08fbU, 0x415f809060ee7eaU, 0xed170e16161726efU, 0x301faecef0d1001U,
  0xed15f5081c0303e1U, 0xece8c5cce39ddd97U, 0xbef3070e93e905ecU, 0xd6b8fff6e8d892c0U,
  0xb5ede1da12d91db8U, 0x2fe9f81601080edcU, 0x2cabd8f016ce00e9U, 0xe2d922c32c9dfe3U,
  0x9eeb2e04f546af2fU, 0xd627fe1be9e9321aU, 0x22ecc331dee0addU, 0xb5c91116f60cea07U,
  0x13f6811becfc021eU, 0xa1402aec7b1fbc2U, 0x1ed9aeceb0a79adeU, 0xe511c2f821b2e5e9U,
  0x5c7f00d18f3f008U, 0xe4e2f3f2fef8f5e5U, 0xfb00e53213e200feU, 0x6b4efb50cd9a0e7U,
  0xc4dbb1bbc102b3c2U, 0x1cf52cbfe1ebdfe4U, 0xaddaf6f2df9f1e18U, 0xf3df0a02ef01dd1cU,
  0xf8c630a3d418b11eU, 0xe82cfb0514083cb2U, 0x2cdc1424f8380de8U, 0xd4cc17fba21d0404U,
  0x15f3f51de9dd07ecU, 0xebded2a1bbccd701U, 0xb5f1f41bf3fdca08U, 0x1ddece4d2b405fbU,
  0x4eeabc1d518d4d9U, 0xe0e8ea1ee4f5c4c2U, 0xd6c7181d17f9dbbdU, 0xfa0b2f0b02e4e8faU,
  0xdebfaac7eef8d8c5U, 0xb5f8d6c70aeec01eU, 0x9eca0309f4fff9b8U, 0x1ef0febb1704e5e9U,
  0x2bcee4fdba120daeU, 0x8d80be200b69bfdU, 0xf6f0cce5cd10f9e0U, 0xa2bff5c7b3dcb0ffU,
  0x2a03fd11f4c20cabU, 0xefcbc2c2eed21d10U, 0xb8adb627160408d2U, 0xe808cfe6e6ce07ddU,
  0xe2f523c1e7d7f503U, 0x71ff8ef21e7f712U, 0xdce4f7fa1ee734dcU, 0xd3c42d002002e8f3U,
  0x812b603adf50baeU, 0xeefbfa13f8001aeaU, 0xd0edfbbbe5bedff0U, 0xb206ffe218ded8beU,
  0xf3e5200dc8ccf503U, 0xe809ffdff815d0ccU, 0xbac8110613d51cb1U, 0x9fd21cac180ce4faU,
  0x17b1f5cea902fecfU, 0xaee1e3ddcad0d5beU, 0xc7f7b4bcc9dac30eU, 0x1403bdccfeb2bbdaU,
  0xdedcc5f10610f1caU, 0xf1031a24f7dbede3U, 0xeae8220722112d09U, 0xf5f71817f50bee0fU,
  0xa1dfef4f5d520f0U, 0xed29061f0bfb0f03U, 0xcc38f31d1b2e35d3U, 0xe9f41f0ef701f9f0U,
  0x91beaf007fc34cdU, 0xfb0d040614eebee1U, 0xee08fbf3fbf308f1U, 0xfff510da0b0a0d04U,
  0xddfc901d7dfe901U, 0xfe1703eb09f5fc0aU, 0xf4ee17fa140a28e4U, 0x20e38fc12ebfeffU,
  0x3206f5ed03160202U, 0xb2df20ded08e0bfU, 0x1dcf0a07dc10dce3U, 0xbdefdf9d3900ee7U,
  0x49170434bdb7af17U, 0xf82006eefc04f5c2U, 0xf3c70217f3120702U, 0xfc214e9f9d2fef1U,
  0x1f12f620c3c7e902U, 0xd62219f3fefe11dcU, 0x819ea2ae7190900U, 0x2cbd6ecff11dddbU,
  0x26f3f30be6d017f0U, 0xe4171d0011fe01c8U, 0xfd240615df0927e4U, 0xf1dbfcebe81ffcedU,
  0x24f6f0f8fce40afdU, 0x98a9d6ebdca6cad1U, 0xd563d3e2fcfb20e7U, 0xbef311a9c012cbf8U,
  0x19bc08e5d0deeed1U, 0xe481eecbcaaec815U, 0xe133c1e0eacb20e0U, 0x8f705bcd91cebf0U,
  0x1d9d13dd9affdc11U, 0x5cb11ebc9c3cf07U, 0xe931e8d8f3042315U, 0xd112ad4ef0de50dU,
  0xf2c5fdd2c5e2e6f8U, 0xe3eae3d7f2fae0ddU, 0xf126e31401fc2105U, 0xf6f205f8d915e705U,
  0xf6d623ecbaeafef0U, 0x11a271bf20d2ce2U, 0xcc4c031af41513d2U, 0xdff9142beb4211e1U,
  0xedf1b6ed4fe62fc9U, 0xfe14221803162ffbU, 0xed390b18f4f81ae6U, 0xf511f406ea5d13ebU,
  0xf912d4fb45f452e0U, 0xe627e8fe2b1f151fU, 0xdf3f0f1df70f03d9U, 0xfeeee02e0637f4ecU,
  0xf0ec4f440d80c02U, 0xeb050fea130a1d12U, 0xf22ee5fdeb27faddU, 0xcf011df5dd1debdbU,
  0xfef3d5f23d150ffdU, 0xfd08e4180312f009U, 0x11fe030b16fe0903U, 0xd0ea0a11df19140eU,
  0xfb0df803dbcae3fbU, 0x98f9ed0515fde4bcU, 0xf50f0c0e111a12faU, 0xb0de05edbe0c05e2U,
  0x1af9e515f4d8f1e8U, 0x180d22f2ede30100U, 0xf514e62eed150fd3U, 0xbf106d7ff03e6dbU,
  0xfee329f014150fe2U, 0x18d61be0f0faf40eU, 0xbc0bdbf1fbed0bf4U, 0x2e9e6f71cf913efU,
  0xe6df12d8120adefeU, 0xfd1eff11ff06f216U, 0xdece0a0e1dfad505U, 0x516f43bba06fcU,
  0x150f1407eef6dc11U, 0xaa1ce1150113eff0U, 0xd5e30810d813fbd5U, 0xd3cf16e727c2fee2U,
  0xf424ed14102911d5U, 0x140ef8f6ece3ed0dU, 0xe6e3e613fdd4f503U, 0x112f4dde8a5e0e0U,
  0xafde3ff3fbfc13d1U, 0x1821ebecdd0ffe07U, 0xcc05f7dfeeea0de0U, 0x2efef4e61110f7edU,
  0xc1102bef02061e0aU, 0xd21d24f10103d4b2U, 0x8fffe16db0a1605U, 0xeff62205e0d0e1ffU,
  0x27fa4034bded110dU, 0xdcffdbeac9bcdeddU, 0x2aaaeff7d4f3d2e8U, 0x9bdb02f4dba6a0ceU,
  0xc7e33105c5e7dfc2U, 0x17ddf0c1d508a4f2U, 0xc792e619ece0cdf4U, 0xffe7fce40d81f802U,
  0xbbe13c7e415cd01U, 0x280004f41f0fd521U, 0xe9e4f5fff7f6f40fU, 0xfe0128f3febd11f8U,
  0xe81f0ecadd2fd711U, 0xc9f5d4f9f2dd0dbcU, 0xa3aef28fe1a2ef6U, 0xc4e802fdde38d4efU,
  0x18ef2bef12b62ccaU, 0x9b200c8bdd3d20dU, 0xd800c8f3dbd004c5U, 0xf4ead6bef6eeb7d8U,
  0x1cadf8c6040de5ecU, 0x1800df0301db044aU, 0xcd9cfd406bccdc4U, 0x1709c7e811e6f1c0U,
  0xc4eb13bf2530fccaU, 0x1fef0419150fe202U, 0xfd150ad310d9c2fdU, 0xf0405040a1507ecU,
  0xc1f411db2b003ddcU, 0x280719f5e8c5ff0eU, 0x21fcfbf2ebdfd7faU, 0x10e7faf9ecf90607U,
  0xc500d005e4fee1e0U, 0xd5dfe0f7e1d809d0U, 0x716f81fe8060deeU, 0xebd11ee5e80fe8eeU,
  0x1b09110002ee09f5U, 0x2fbd2308e4e5eca4U, 0xfae20524e30515ffU, 0xabe4cfb03fbf807U,
  0x40f0e60802f107dfU, 0x2df220f5f3063e05U, 0xbd2ffff02ff2002U, 0xf6f2131bfb06f107U,
  0x2b0cda01ce0be2dfU, 0x13f8e5011024ef16U, 0xd9eaf5060c0003ceU, 0xe311fb0a061208e7U,
  0xd01ce3e1f10905feU, 0xce2ef805170de1f1U, 0xd42df1fc0a0a08d3U, 0xc2f9f70e2022fcd9U,
  0xeb00bdfc02cd021dU, 0x9ef2d9fb0cf2cad1U, 0xe315e6ffd52814a9U, 0xc0f0fcd7b106d0beU,
  0x2f9dff80fcd0ddbU, 0xdfb513afd2a4c41dU, 0xe8ecd2e3f004e9e4U, 0xce2c9b3efd9f2deU,
  0x4a3fcec2e15f2e0U, 0xbd2cd51822f4dbfdU, 0xebc320e207f5cd08U, 0xdbe531f70ee123e8U,
  0x407022bfbf6f902U, 0xb00d0205f5ffe401U, 0x6c4f715121bd9fcU, 0xcbf114f7f2e8fe01U,
  0xc813030502e5fdeaU, 0x809e0fce7d30415U, 0xef19ff18f31d11ddU, 0xf3f7e1e40721f2e3U,
  0xeb0d03fc0cf30dd1U, 0x2bcce3eafa14f314U, 0xdadef2fc10def4d4U, 0x1a12e4e03cf6f2d4U,
  0xf1de3aeb25100c02U, 0xb513e90f1d0afb81U, 0xef161afbf21bf9f3U, 0x9cd31ee5ce1a12f0U,
  0x301b090620afffeaU, 0x52824f6fb14df11U, 0xf9f404fed703e8f4U, 0xdff04e00be4f8e1U,
  0x1afc162b25edf4e1U, 0x323607fde8f6e63eU, 0x6e6f7f1f209effaU, 0x2a01fce329040cd2U,
  0xe30c2706122afbf4U, 0x1700fe231b09d21aU, 0xe50519df24f3f2e3U, 0x301c06f5161d29ecU,
  0x70c0702150bf715U, 0xfb07cd030bf9e5eeU, 0xebe5f0e1f00eed07U, 0xd2ecf7eae3e2fcf1U,
  0xeb04050dcfe9eeddU, 0xf7fdf6f4f8f2f314U, 0x14e7eafc10f80300U, 0x2f2ff0d02e1ff09U,
  0xaf522f2f202dd17U, 0xf8101508f0fbf626U, 0xfef012cff8fce7f2U, 0x21e712eb04d30d0fU,
  0xa031500e6182925U, 0xe0d101a18f4d008U, 0x1be7e9e504c4fa09U, 0x230bfa02efc3f4f3U,
  0xf42a210025143103U, 0xf8fefae7ebf9f5c5U, 0xf2faf3fbfefdfd03U, 0xfbf30fe5dd02f711U,
  0x15f6f9ff0305fff0U, 0xea05f1f6030b03ebU, 0xf6d206dff5d9eaffU, 0xe3edf610fae7ebe7U,
  0xe8e7f1efe513ef12U, 0xf3eeee02fceff6d0U, 0xf2e9eeeedff0f2fcU, 0xd8c7f8fbe5e9f6f9U,
  0x50de2ede3f5f4eaU, 0x35031af2131beffaU, 0x13fbe6ea03f4f213U, 0x9ff401f09dee0ecU,
  0x27181bd7c80e08ddU, 0xd9fdf2fffd04facdU, 0xdbff06e9e2f816e4U, 0xf401fffcce15f5f0U,
  0x5fcd9fb0de208f7U, 0xfbf2f9f9f9e904fdU, 0xf3f0f6fb06f5f20bU, 0xe6f8f0fff10af8ffU,
  0xf0eccaea0bf804f6U, 0xa6f8e2e9cec7e881U, 0xe6eaf910e1f1e405U, 0xa3aeedf5c8eac5e2U,
  0xf6e595f4a1bf05caU, 0x7c71dd2c0c513b5U, 0x1fbbe700d5bbfbf9U, 0xeef6101cedb3d8ffU,
  0x13bc3bc5f8e0ecdcU, 0xf0fff401130809e4U, 0xeb060cf60b1209feU, 0xd1fef6f6fe16f4efU,
  0xff17f2f708de0ceaU, 0xda06f6f1f314f205U, 0x9fa17f602e6e9dfU, 0xf2fcf9e9eb06f4f7U,
  0xe8ecd4f40cf0e9f9U, 0x86e89dfadbcf12b8U, 0x5e7f006c5f0dd04U, 0x84c7d2f9b0f5c9e5U,
  0xabecabf1ebd5d7cbU, 0xbd60dccb4fc0cfeU, 0xc03c904f107fd07U, 0xff2ec41cf81be00aU,
  0x1fba37dc17dce5f9U, 0xdeb2d0fdff025d6U, 0xfeeddfccfed2d401U, 0x17a7ea291feae0edU,
  0xcb10ace2f3f9e7c0U, 0xea2b0e1c03142cb5U, 0x739e646e81310edU, 0xbb02e303c3f806edU,
  0xd703d1e823ec02baU, 0xde1429f9e8e616c8U, 0xccf9fdf5cc0d09b5U, 0x45e2ddcadefceab9U,
  0x12d806dd27f704dbU, 0x340b64c301d8c8c2U, 0xa2e7c3b2cfbecf9cU, 0x67ebeeaf01d622beU,
  0x1fdcad07a00cab1eU, 0xeae7f9040509020fU, 0xbb0bcd81fdbfe3f6U, 0xf805c3f700e328faU,
  0xa70c05d7ebcdbdd8U, 0xe909c81409dff2f1U, 0xd130f8f0073032f7U, 0xeb0512cdfc00fed9U,
  0x4804c41bf7e0e9ffU, 0xcfd51001edfedebeU, 0xcd0202f3dd071fdbU, 0xd1e322d9f7ffe7faU,
  0x290a3812132a1de6U, 0x24b147f0c4defad9U, 0xf8f510c0eeca1101U, 0x44ca20c933d4f010U,
  0x50c438d12534e6aeU, 0x2f13260cf91b13d3U, 0xeb06150713e0ddf7U, 0x2ad7b313220af8feU,
  0xe1edf3ffd5f50df8U, 0xc31be50b1d081dceU, 0x2823253c03fc04dfU, 0xf1e42d06091b0f0fU,
  0x919b42f2dbfe8fcU, 0xbd0efafdec0d23d3U, 0x1611ef26d1f4f8fdU, 0xb4df06dafa0103daU,
  0xe7f0311d67fd59e8U, 0xbd1a03f4e7f0d494U, 0xc422e9ffa9ede1bcU, 0xcce3fac1c723f1c5U,
  0xf5d1cdd259a933b9U, 0x200d20ff1de7fd12U, 0xd311dcca2ddeec0fU, 0x2722fede110f0a00U,
  0xb1f830c21f2f04d9U, 0xcbd0c1070b05eb1dU, 0x1525062203172d22U, 0xe12713d80327fdf2U,
  0x380c32f2ec0ef0e2U, 0xb8d69b04d3fbaedfU, 0xb9f4ff0606ff13edU, 0xcd0604b1ef21ebe2U,
  0xf6e422f085e3d6d5U, 0xbdbff6cdcabeab8dU, 0xb9ded0d3d0a6e4ceU, 0xbbd2d5bfd9e1cac8U,
  0xe8ce16e7b8b7c6c4U, 0xa0fffffffbU, 0x16fffffffeU, 0xffffffe3ffffffd6U,
  0x60fffffff8U, 0x139ffffff7eU, 0xffffffdc00000031U, 0xffffff280000008fU,
  0x5900000053U, 0xbc00000051U, 0x150000004fU, 0x390000007fU,
  0xffffffcf0000001dU, 0xffffff58fffffed6U, 0x6100000041U, 0x7b00000079U,
  0xffffffe9ffffffb1U, 0x2bfffffffdU, 0xffffffbbffffff7dU, 0xffffff41ffffffa5U,
  0x6b00000079U, 0x2effffffd9U, 0x4000000043U, 0x4fffffffe2U,
  0xba00000045U, 0xb500000006U, 0xfffffff5000000bfU, 0xffffffae00000035U,
  0x1a0000003fU, 0x50fffffff0U, 0xffffffb7ffffff23U, 0x19fffffff7U,
  0x1a0000004cU, 0xf5b705b939e02dcaU, 0x39e2bab915ad25acU, 0xdfb5b8183803d231U,
  0xb6b4f8301ae2fd11U, 0xfcdf08f23734180eU, 0xc9f60c161928b4bdU, 0xead3f0bdb3eef7c3U,
  0x31c8ef051beca4c3U, 0xebccf5e3b9c2e6d1U, 0x2ad00f2ee4fe1538U, 0xcc2112c0c230d6beU,
  0xd1031dbed8e41ebcU, 0x220209ea0e27c03aU, 0xd9c4bbd8c80ab9d6U, 0xb7020639eb2826f6U,
  0xacf717d001b3fd33U, 0xe4cabcdd00e7b030U, 0x173bc5a7e1c4dcf2U, 0xca0fc4e2c5ac01eaU,
  0x38b7fc02aef9afb3U, 0xbfe2e8df36dde6deU, 0xb1d52028d2bc00c4U, 0x233eacf6b623dbe6U,
  0xf1cfbdcf30b5b8ffU, 0xb009c3f40e2bbe05U, 0x14b7d2b5dbeac7d8U, 0x20c6b218cdcec422U,
  0xd3b3bcf7c904daeaU, 0xc4de05111313ce09U, 0x10bacc25dbd1d1c4U, 0x132a3cfeb5c7c1c6U,
  0xf6e0c4a7e4ace315U, 0xbe20c036dde8a7f1U, 0x26f01fb437d70833U, 0x5d5342619a732adU,
  0x40b2da038cb7ae2bU, 0x2203b43adf370abcU, 0xbfb335bfcb21f1bcU, 0xd7fed008dcb43613U,
  0xcecb3b300f15d8c2U, 0xfacff0fcbb2dc9f5U, 0xded6382abddbe54cU, 0xc0ca39cec600c1d5U,
  0xf828d83ae21a3f03U, 0x23eecde1beefe30U, 0xed2ca12afe82239U, 0x360aabbcc7af1fe9U,
  0x36ccebc12317f91dU, 0x2120cf090af025ebU, 0xee3b11bbb3d606fbU, 0xeac4edbbce060bfaU,
  0xc5e1cfce1f350306U, 0x1504cbeec90322a9U, 0x341626d3c024b3e9U, 0xe2d41b01e3ebfc23U,
  0x3725cb33a81aee04U, 0xe4d2cad631dfd741U, 0xe8e6f0a7ca00aec6U, 0x2bccdae2d5353e28U,
  0x281ecb4405d5fde7U, 0x9c6f4f224e6eb29U, 0x2a08e0dee33fc82eU, 0xdf2ccabaf71831d2U,
  0xa812c433dc42d914U, 0x24adcacdd8c9bb1dU, 0xf4c0e913010cd211U, 0xcc06b90703f500a1U,
  0xc7d404c30cbdabc5U, 0x38fdcf0bb0a82825U, 0xf0c208c402fe053cU, 0x12ac09c41ccb33efU,
  0x36b0cacc05b80af7U, 0x260716fe16f79433U, 0xbc9ad1ae63d111bU, 0x2201b5d5eedceff3U,
  0xd2c32e1d9c1bd08U, 0x25e92bce03df213cU, 0xf593bbae27f4d20eU, 0x12cfb2ee3bf4d0d7U,
  0x3feac13f2faafdaU, 0xc1cf0cf1b42c8e0eU, 0x281c170ed50410caU, 0x39e11ddc3dbcb53aU,
  0xd839e9e451fff3f7U, 0x11130318c0bdc6feU, 0xe5030f0bef1937daU, 0xbc143c03bcb3f5d3U,
  0x17e82fe0e33d20d4U, 0xcd303caeed12bed2U, 0xbe1b1e06c2abf937U, 0x3abc37b5e21eeed7U,
  0x38e3dbc2cdfeebdaU, 0x32a7aafd33dadab3U, 0xebf43b37aad4d6d8U, 0x34feebd618f5e8bbU,
  0x3affe1bc2b103fc9U, 0xc0cbcffa2106ce3dU, 0xb8141c2ff61d1b0fU, 0x100cddbe1bc6aecdU,
  0x16cfdc1a962abcf1U, 0x2dedb7b41ce3e1eeU, 0x24d1b2062d0cd3d4U, 0xe7081b09b8fd13b1U,
  0xdee630b8173747bdU, 0x2db255302d7d29fU, 0x191a32ee17e9fb17U, 0xc800c038ba1ce70cU,
  0xcdb908339eb62fe8U, 0xdcf42336a5da2307U, 0xc7f90ec4bc1dfb16U, 0xdd1ddcf6d3c0202fU,
  0x2c48ee19263ee5U, 0xebe5b6cdfea6482aU, 0x26aaddb6c00b08fbU, 0xc834bb3cca34c5b2U,
  0xf640e432ba0b2d12U, 0x4a1308cde033f5caU, 0xbef5f1d820e8dc02U, 0xbc1bbee00e33aed1U,
  0xd6b61a041bf9d53eU, 0xc7c701e4bee1d60cU, 0xf43205b4fff53323U, 0x1b13e5fdd02b0fd5U,
  0x913af1291aabfcf4U, 0xe8cbb8b3e0c73ad1U, 0x2c021bef1f31e2b3U, 0x1333b317e6b8aedfU,
  0x2fc80d422ccdf933U, 0x24cc02c9da211af1U, 0x23f1df3a11ee3ac4U, 0x37c6f1be29bbff07U,
  0x10d8d8d5ee1b3f3bU, 0xb3cfcacdaadc4b1U, 0xdbe92325bcc517d2U, 0x222e9402e5b3fec4U,
  0xefdbc315ef2fc3c8U, 0x2bdb4f1f71ad4cfU, 0x13b6b5cbfeb7dae5U, 0x35030defc01a00feU,
  0xd620d8ec2faaeb27U, 0xff1aff0ab9b9f9ceU, 0xab31c5243abaebd6U, 0xfab0ebb8fc0f1415U,
  0x36d5ed25e8370ac1U, 0xbecedd4ef0abbcf8U, 0x2cb32c25dc1cc22cU, 0xc5ac30d1b4c91f02U,
  0x15bcc53809ffc9b8U, 0xe72f192e3836f616U, 0x3a03f21fbbf5c8U, 0xe1c3350ec7fb26e9U,
  0xd6023b303c09bdU, 0x23ddcbe1d7c3d615U, 0xf92b1fb3fda8e021U, 0x9d3f738f7d9222cU,
  0x1c15dff4ab342e11U, 0xe320befbd10625e4U, 0x13392010e1d4d315U, 0x110f1cfc37cdfe05U,
  0xfcdfce1aee2cbbe9U, 0x160af3d53bc2df1bU, 0x2a3637e703b7b4edU, 0x36ae1fe636f0030bU,
  0xde16acaf053124bcU, 0xcb02ef11163021f8U, 0xe7c1d11a0a01d7c7U, 0xef1738f338b41132U,
  0x1f1eab14c035dcf8U, 0x1f2735bd2eaf2d10U, 0x3928d13fc23adccaU, 0xaf0f161916c61ef9U,
  0xbeb9ea1af7a833c5U, 0x1b9f4c39ec9e600U, 0xd2d4cd2915212cdeU, 0x26d2e0e337efbef9U,
  0x3716aa3907bfcbd8U, 0x20e2f93ce60ff1caU, 0xc2eec53bb0cb86d2U, 0xbdfe25c3ea0c2109U,
  0x22e9b3c2da3acdf4U, 0x4c3ddb9ffde0c0aU, 0x2fd928063a1e15e9U, 0xb8e4d2e6b6bff0e2U,
  0xfd3217e8ef3621d2U, 0xaad3fe342edcadb3U, 0x2c0dc8c5950306c9U, 0xb0f0baf8f8412702U,
  0xc5e9dde40fe43eb8U, 0x33ec2214cfb414aaU, 0x33d0cfe9f9a7070dU, 0x3702efe3164501bdU,
  0xe3bcb1c1e9eccfeaU, 0xbe1b1cc1e202a10U, 0x4acfd6bf1d04dfc1U, 0xf0af34805d331c8U,
  0xf1e1d61f09f9b6f5U, 0x12d92503d40febf9U, 0x6dc1c401ee3c6fcU, 0xdbb4039e2937eeecU,
  0xfae8b9281ee890bcU, 0xdfac27c8f4eb0bf2U, 0xdf7ed0b121f39c5U, 0xd6f41c14c103e631U,
  0xb9d9d336f8c3c218U, 0x11f938f0290dc3f5U, 0x23fdc40333f7101eU, 0xc923be1dfcae1600U,
  0xb1ebbee11dbc2f4U, 0xe7bfe5fc9b2fc514U, 0x11b219e02fe58ee2U, 0xfcaff8edab322633U,
  0xb7dc3337beefc4a8U, 0xc7fdb219f70ec604U, 0xb0afdffb6fee3eaU, 0xd1dc203ede8bff1U,
  0xf02bbe1d0fb80220U, 0x1aefd81a24d99310U, 0x131434c31eb5d51cU, 0xd6d7cceb0c1b1bU,
  0xee32d937adfdf9b1U, 0xb2282ffb16b104e5U, 0x1d0ed621f0a933f0U, 0xd835b5bc290b36acU,
  0x34c51704b909d4b5U, 0x1c9f0fcedaabd2bU, 0x21ccb60dd2efbbcaU, 0xf513efc4b6c6c7efU,
  0x1bcb0f0fcf9e50cU, 0x27202c26c43b331eU, 0x20b7ed13341bbafdU, 0xde293320c82807f0U,
  0xf0616c718ca07ddU, 0xb407ca2c27d5c9faU, 0x17d4d8fff0f5d9e4U, 0xdddbdefc34e7d6dbU,
  0x7ed201de919b430U, 0x3bb3e1d9fdd8243cU, 0x1ad6d62e36d3d10eU, 0xbc33d4c2253f22d5U,
  0x291907d9ebecf2e4U, 0x131101d10e2115c4U, 0x261f3708d214b304U, 0xc72e2df834f23d20U,
  0xc0f5e8fbf3ea14f0U, 0x2626ce0223ccc917U, 0xaa3ce51ae0ac26cdU, 0xf2f6b2ea1be8ac2bU,
  0xd5daacd0082811f3U, 0xcfb601d5e2c0d614U, 0x281bb0c6cedfeaaeU, 0xaaa8ae84dc29d3b7U,
  0xf7cbcafdcb001aU, 0x205e1d6cb0f33aeU, 0xe3efb7e228f9cce0U, 0xe40f4400b2272baeU,
  0xdbd1deaaeb201217U, 0xb6ecbafa2baed296U, 0x16d2f13dd63ea321U, 0xaeeab0c8f61ffed4U,
  0xbf9280a19d4b622U, 0xbbc115ffc0b6c935U, 0x2b18ad29d30ab0ffU, 0xf9ba9318bef2ba18U,
  0xb43da7092d182497U, 0xc8321eedc63aaeb1U, 0x49a3e9ed36fb0d35U, 0xe73abec1f5f3fd13U,
  0xfe19baf110371d28U, 0xf8c2e3b21115ce1bU, 0xe0b7113ef8e2d82eU, 0xbb3fbc15aec7faffU,
  0x2fc33ca9b30c94e9U, 0x450d0c3806d5dee3U, 0xb42e1f32bd00efe8U, 0x1d382c25bc1309b5U,
  0xe9ba09db9cdb1132U, 0xc2cdf7bfb635bf3aU, 0xd4d7cd35f8d110ceU, 0xe41d2ebaecd6bc31U,
  0xa8bf3600b222b9acU, 0x1be2bfdc14acd9f2U, 0xe3fddce0cdd28807U, 0xb62fe4c20c04b3abU,
  0xae21bfb1af2e01d9U, 0xccec1caee6f716e0U, 0xeaee1de516d6192dU, 0xf1fc0fb7f305dfdcU,
  0xdfb0fe3ac2129c15U, 0x1c4c9f2ecbae1a9U, 0xaecfb7b7e00c2b20U, 0xe4da18d7e1d903c9U,
  0xacebe400c0b0b3bcU, 0xbb9d53b2af21a01U, 0xc534961ecf0212aeU, 0xeb05c1f70918cc00U,
  0xddfc037e7fc92c2U, 0x2d37b1eb24bb33f0U, 0xaa34003400b9e221U, 0x830f8d02f35b92aU,
  0xc801e6179ab0c726U, 0x15ce18f8fbfc25bbU, 0xcb240caebdc23011U, 0x2ec701a437b1bdc7U,
  0x4ae1f1d240fd0d8U, 0x3ab4f9baaa05c0b2U, 0xccf7f1e812da35b8U, 0x28d5180706c6ecc7U,
  0xd8f5b6d1f61b3df8U, 0x17e2e004e9f73de7U, 0x2efd28f4dcc4baddU, 0xd6dad5e40b2836c9U,
  0x27d3fad8100908aaU, 0xb701eed4123abf81U, 0x23fa452ec71bf22eU, 0x1f12d40eddd43d9eU,
  0xb7f72117e0c2030aU, 0xce03e00da15d7d7U, 0xbcb920ab21f9e6ceU, 0xd3f18af30f0dbcd5U,
  0x94dc04d60538e3b6U, 0xe4a9eedbb9def8feU, 0xc9cdba0ad844d923U, 0xe1ffb0122ac6fdf9U,
  0x93e4d53898e3e4fcU, 0xb493c42ff9fc08f5U, 0x72dba1815231dafU, 0xdb13d1e6c623ca08U,
  0xc5b5004930bcc00eU, 0xae052608e527b524U, 0xf42ce327ea1aa722U, 0x1ed1fc32cf26c8a4U,
  0xe5260b18b7ea2345U, 0xeafa3a353b0af4c6U, 0x3fb327fbb1390519U, 0x62b0baa38f8abe1U,
  0x2f3d0238201dbd2dU, 0x2dc415fcc01ecef5U, 0x8b9e1130bbf09bdU, 0x1f27d5b1abd1ebb9U,
  0x2d2b93221f2ed0cU, 0x1520ccd9e0d0af30U, 0xb1d0300ab9c7cee0U, 0xe63cc332ddf8c9dfU,
  0xf835f4f8d7228db0U, 0x3016ee270f2a1be9U, 0x36bc1fba1311f22cU, 0xff1accc5edcac2cfU,
  0xe62bccc80d3830c2U, 0x18e8fc09d9e0f328U, 0x10dcc4b0c7e6e4bbU, 0x2de61ce21bace420U,
  0xce233ec9c806fd22U, 0x36ff1ef1fcfeeedfU, 0x3ad72f2fbd29e103U, 0xc5b8d4c5f0e6acffU,
  0xf9b3b9d2dffcf61dU, 0xf4e9f4330bb9f3abU, 0x9dadb34a6e632d3U, 0xec06193b1607b9c1U,
  0xee0bc2c4d9020daeU, 0x2e2f15dcdcc231c1U, 0x10bdbdc9bbe2e126U, 0x2df9b82a2cb8ccf7U,
  0xc2b628cde7e910dbU, 0xd9bb1f0cc71a0df5U, 0x3032c624db162999U, 0x22bfc230f91637edU,
  0xf8c3070edbf4f9cfU, 0xfc8c40dafd621d0U, 0xec8ecb7ceb6c53cU, 0xee03bf1ccc291acfU,
  0xfb27f5c6bae3c501U, 0x2637b7dd9529b107U, 0xb0cbe0c72fee0b07U, 0xc5ea0d3b0513ea11U,
  0x9fb5ef2434ef1413U, 0x2cd3b30124b71709U, 0xafdf0252a7bdefc6U, 0xd2dcb1be12bcf015U,
  0x113e02ad08ea0021U, 0xeae835ab47343417U, 0x20cbfc36b9ec280dU, 0x2c1cfeca1c03e3ebU,
  0xa9143ce514ba0ebbU, 0xac3435e518e7c7c0U, 0x299634c632f6be13U, 0xdfefd1c710f6c1e0U,
  0x911cced7c6e5423fU, 0x2de5c5b7f813070eU, 0xc9c6d0eee3bcc638U, 0x3b49c1fdfddbeabbU,
  0x3fdc7d74cf5bbc9U, 0xf343c020c30f25e5U, 0x2a3cded5f9b3ddc1U, 0x2ce9ad2314e9003bU,
  0xc5c0f805b60622b0U, 0x3b16d6f243e61619U, 0x35c3b0e3ed33d102U, 0x15e607f13ca214bcU,
  0x3eef40143efb9819U, 0xfdeb002ccac0eb37U, 0xe0080939fb2e08c9U, 0xadc3ff0b1723e8cdU,
  0xd22ef90dfe16c0c1U, 0xfeabd7b6edf32126U, 0x2624b2cdc5f3bbd7U, 0x2aecfaae3af50d18U,
  0xef52420f4019517U, 0xebbe3a39092515c4U, 0xf11d728d635cfdfU, 0x1719242cbd32b9f5U,
  0xe818a7f21efdf907U, 0xd139281132c1f301U, 0x3be2f6c736e2d8f7U, 0x1b1c13c7bcd73bf9U,
  0x362bbacfffebeb35U, 0xb93308b3311eb0a8U, 0xddf5e3e7dcfbe5f7U, 0x23e017dc0333f99fU,
  0xe2fe91a17d7393bU, 0xaabfa18aed2cfdfU, 0x9bde27fd013a041cU, 0xab01f60d149bdc09U,
  0xf7e62c16ecb2e7e5U, 0x10b8abc9cce9fd19U, 0x12b313c2f5ec0ae8U, 0xb808cce1d9d0b0e0U,
  0x10fbcf43823b2c1U, 0x9d00c5f4b5d3fb19U, 0xe0a498da183d11edU, 0xaabd0e1324e341f2U,
