unsigned char model_tflite[] = {
  0x1c, 0x00, 0x00, 0x00, 0x54, 0x46, 0x4c, 0x33, 0x14, 0x00, 0x20, 0x00,
  0x1c, 0x00, 0x18, 0x00, 0x14, 0x00, 0x10, 0x00, 0x0c, 0x00, 0x00, 0x00,
  0x08, 0x00, 0x04, 0x00, 0x14, 0x00, 0x00, 0x00, 0x1c, 0x00, 0x00, 0x00,
  0x80, 0x00, 0x00, 0x00, 0xd8, 0x00, 0x00, 0x00, 0x68, 0x35, 0x00, 0x00,
  0x78, 0x35, 0x00, 0x00, 0x74, 0x47, 0x00, 0x00, 0x03, 0x00, 0x00, 0x00,
  0x01, 0x00, 0x00, 0x00, 0x04, 0x00, 0x00, 0x00, 0x8e, 0xc7, 0xff, 0xff,
  0x0c, 0x00, 0x00, 0x00, 0x1c, 0x00, 0x00, 0x00, 0x38, 0x00, 0x00, 0x00,
  0x0f, 0x00, 0x00, 0x00, 0x73, 0x65, 0x72, 0x76, 0x69, 0x6e, 0x67, 0x5f,
  0x64, 0x65, 0x66, 0x61, 0x75, 0x6c, 0x74, 0x00, 0x01, 0x00, 0x00, 0x00,
  0x04, 0x00, 0x00, 0x00, 0x9c, 0xff, 0xff, 0xff, 0x21, 0x00, 0x00, 0x00,
  0x04, 0x00, 0x00, 0x00, 0x07, 0x00, 0x00, 0x00, 0x66, 0x6c, 0x61, 0x74,
  0x74, 0x65, 0x6e, 0x00, 0x01, 0x00, 0x00, 0x00, 0x04, 0x00, 0x00, 0x00,
  0x92, 0xc7, 0xff, 0xff, 0x04, 0x00, 0x00, 0x00, 0x07, 0x00, 0x00, 0x00,
  0x69, 0x6e, 0x70, 0x75, 0x74, 0x5f, 0x31, 0x00, 0x02, 0x00, 0x00, 0x00,
  0x34, 0x00, 0x00, 0x00, 0x04, 0x00, 0x00, 0x00, 0xdc, 0xff, 0xff, 0xff,
  0x24, 0x00, 0x00, 0x00, 0x04, 0x00, 0x00, 0x00, 0x13, 0x00, 0x00, 0x00,
  0x43, 0x4f, 0x4e, 0x56, 0x45, 0x52, 0x53, 0x49, 0x4f, 0x4e, 0x5f, 0x4d,
  0x45, 0x54, 0x41, 0x44, 0x41, 0x54, 0x41, 0x00, 0x08, 0x00, 0x0c, 0x00,
  0x08, 0x00, 0x04, 0x00, 0x08, 0x00, 0x00, 0x00, 0x23, 0x00, 0x00, 0x00,
  0x04, 0x00, 0x00, 0x00, 0x13, 0x00, 0x00, 0x00, 0x6d, 0x69, 0x6e, 0x5f,
  0x72, 0x75, 0x6e, 0x74, 0x69, 0x6d, 0x65, 0x5f, 0x76, 0x65, 0x72, 0x73,
  0x69, 0x6f, 0x6e, 0x00, 0x25, 0x00, 0x00, 0x00, 0x8c, 0x34, 0x00, 0x00,
  0x84, 0x34, 0x00, 0x00, 0x34, 0x34, 0x00, 0x00, 0x04, 0x34, 0x00, 0x00,
  0xd4, 0x33, 0x00, 0x00, 0x84, 0x33, 0x00, 0x00, 0x70, 0x33, 0x00, 0x00,
  0x20, 0x31, 0x00, 0x00, 0x10, 0x1f, 0x00, 0x00, 0x00, 0x16, 0x00, 0x00,
  0xf0, 0x03, 0x00, 0x00, 0xa0, 0x01, 0x00, 0x00, 0x88, 0x01, 0x00, 0x00,
  0x70, 0x01, 0x00, 0x00, 0x5c, 0x01, 0x00, 0x00, 0x48, 0x01, 0x00, 0x00,
  0x40, 0x01, 0x00, 0x00, 0x2c, 0x01, 0x00, 0x00, 0x18, 0x01, 0x00, 0x00,
  0x00, 0x01, 0x00, 0x00, 0xf8, 0x00, 0x00, 0x00, 0xf0, 0x00, 0x00, 0x00,
  0xe8, 0x00, 0x00, 0x00, 0xe0, 0x00, 0x00, 0x00, 0xd8, 0x00, 0x00, 0x00,
  0xd0, 0x00, 0x00, 0x00, 0xc8, 0x00, 0x00, 0x00, 0xc0, 0x00, 0x00, 0x00,
  0xb8, 0x00, 0x00, 0x00, 0xb0, 0x00, 0x00, 0x00, 0xa8, 0x00, 0x00, 0x00,
  0xa0, 0x00, 0x00, 0x00, 0x98, 0x00, 0x00, 0x00, 0x90, 0x00, 0x00, 0x00,
  0x88, 0x00, 0x00, 0x00, 0x68, 0x00, 0x00, 0x00, 0x04, 0x00, 0x00, 0x00,
  0x9a, 0xc8, 0xff, 0xff, 0x04, 0x00, 0x00, 0x00, 0x54, 0x00, 0x00, 0x00,
  0x0c, 0x00, 0x00, 0x00, 0x08, 0x00, 0x0e, 0x00, 0x08, 0x00, 0x04, 0x00,
  0x08, 0x00, 0x00, 0x00, 0x10, 0x00, 0x00, 0x00, 0x24, 0x00, 0x00, 0x00,
  0x00, 0x00, 0x06, 0x00, 0x08, 0x00, 0x04, 0x00, 0x06, 0x00, 0x00, 0x00,
  0x04, 0x00, 0x00, 0x00, 0x00, 0x00, 0x00, 0x00, 0x00, 0x00, 0x0a, 0x00,
  0x10, 0x00, 0x0c, 0x00, 0x08, 0x00, 0x04, 0x00, 0x0a, 0x00, 0x00, 0x00,
  0x01, 0x00, 0x00, 0x00, 0x02, 0x00, 0x00, 0x00, 0x04, 0x00, 0x00, 0x00,
  0x06, 0x00, 0x00, 0x00, 0x32, 0x2e, 0x31, 0x35, 0x2e, 0x30, 0x00, 0x00,
  0xfa, 0xc8, 0xff, 0xff, 0x04, 0x00, 0x00, 0x00, 0x10, 0x00, 0x00, 0x00,
  0x32, 0x2e, 0x33, 0x2e, 0x30, 0x00, 0x00, 0x00, 0x00, 0x00, 0x00, 0x00,
  0x00, 0x00, 0x00, 0x00, 0xa0, 0xba, 0xff, 0xff, 0xa4, 0xba, 0xff, 0xff,
  0xa8, 0xba, 0xff, 0xff, 0xac, 0xba, 0xff, 0xff, 0xb0, 0xba, 0xff, 0xff,
  0xb4, 0xba, 0xff, 0xff, 0xb8, 0xba, 0xff, 0xff, 0xbc, 0xba, 0xff, 0xff,
  0xc0, 0xba, 0xff, 0xff, 0xc4, 0xba, 0xff, 0xff, 0xc8, 0xba, 0xff, 0xff,
  0xcc, 0xba, 0xff, 0xff, 0xd0, 0xba, 0xff, 0xff, 0xd4, 0xba, 0xff, 0xff,
  0xd8, 0xba, 0xff, 0xff, 0x52, 0xc9, 0xff, 0xff, 0x04, 0x00, 0x00, 0x00,
  0x08, 0x00, 0x00, 0x00, 0xff, 0xff, 0xff, 0xff, 0x80, 0x00, 0x00, 0x00,
  0x66, 0xc9, 0xff, 0xff, 0x04, 0x00, 0x00, 0x00, 0x04, 0x00, 0x00, 0x00,
  0x10, 0x00, 0x00, 0x00, 0x76, 0xc9, 0xff, 0xff, 0x04, 0x00, 0x00, 0x00,
  0x04, 0x00, 0x00, 0x00, 0x08, 0x00, 0x00, 0x00, 0x10, 0xbb, 0xff, 0xff,
  0x8a, 0xc9, 0xff, 0xff, 0x04, 0x00, 0x00, 0x00, 0x04, 0x00, 0x00, 0x00,
  0x00, 0x00, 0x00, 0x00, 0x9a, 0xc9, 0xff, 0xff, 0x04, 0x00, 0x00, 0x00,
  0x04, 0x00, 0x00, 0x00, 0x01, 0x00, 0x00, 0x00, 0xaa, 0xc9, 0xff, 0xff,
  0x04, 0x00, 0x00, 0x00, 0x08, 0x00, 0x00, 0x00, 0x08, 0x00, 0x00, 0x00,
  0x04, 0x00, 0x00, 0x00, 0xbe, 0xc9, 0xff, 0xff, 0x04, 0x00, 0x00, 0x00,
  0x08, 0x00, 0x00, 0x00, 0x10, 0x00, 0x00, 0x00, 0x08, 0x00, 0x00, 0x00,
  0xd2, 0xc9, 0xff, 0xff, 0x04, 0x00, 0x00, 0x00, 0x40, 0x02, 0x00, 0x00,
  0xe9, 0x5e, 0x51, 0xbc, 0x1a, 0x51, 0x35, 0x3e, 0x19, 0x78, 0x7e, 0x3e,
  0x67, 0x6e, 0xcb, 0xbe, 0xc0, 0x98, 0x05, 0x3e, 0x97, 0xba, 0x1a, 0xbd,
  0xf7, 0x02, 0x33, 0xbf, 0x73, 0xb4, 0x2e, 0xbd, 0xe5, 0xa6, 0xad, 0x3d,
  0xcd, 0xa3, 0x24, 0x3d, 0xdc, 0xaf, 0xd6, 0x3d, 0x8e, 0x9b, 0x4d, 0x3e,
  0x74, 0xec, 0xf4, 0xbb, 0xcb, 0x6e, 0x5f, 0x3e, 0xc8, 0x42, 0xa1, 0x3d,
  0xc8, 0xbc, 0x92, 0xbe, 0xf8, 0x27, 0x4c, 0xbe, 0xff, 0x5b, 0x80, 0x3e,
  0x1d, 0x0d, 0xd0, 0x3d, 0x4e, 0x86, 0xc0, 0x3e, 0x2d, 0xef, 0x9d, 0xbe,
  0x1a, 0xbb, 0x26, 0x3e, 0xc4, 0x51, 0x5e, 0x3f, 0x7b, 0x4f, 0xea, 0xbd,
  0x1b, 0xd5, 0x89, 0xbd, 0x13, 0x64, 0x13, 0xbc, 0xe6, 0xbc, 0x6b, 0xbe,
  0x6a, 0x02, 0xd0, 0xbd, 0xf9, 0xa6, 0xbb, 0x3d, 0x30, 0xcc, 0x71, 0xbe,
  0xcd, 0xea, 0x99, 0xbd, 0xb8, 0x50, 0xf7, 0x3d, 0xf0, 0xd7, 0x5f, 0xbc,
  0x6a, 0xb5, 0x60, 0xbd, 0xc9, 0x1e, 0x3a, 0x3e, 0x31, 0x67, 0x13, 0xbe,
  0xa1, 0x4c, 0xe0, 0x3d, 0x5d, 0x8b, 0x56, 0xbd, 0x7c, 0x95, 0xa7, 0xbd,
  0x00, 0x3e, 0x66, 0x3d, 0xfd, 0x1d, 0x24, 0x3e, 0xca, 0xb2, 0x82, 0x3e,
  0x54, 0x63, 0xb4, 0xbd, 0xa3, 0xf4, 0xbf, 0x3e, 0x73, 0x18, 0x12, 0xbe,
  0x84, 0x78, 0x09, 0xbd, 0x45, 0x7a, 0xb6, 0xbd, 0xe0, 0xa3, 0x67, 0x3d,
  0xf5, 0x55, 0xb3, 0x3e, 0xd2, 0x7a, 0x40, 0x3e, 0x5a, 0x16, 0x97, 0x3e,
  0x04, 0x43, 0x7f, 0xbd, 0x49, 0x49, 0x6d, 0x3c, 0xf0, 0xd1, 0xad, 0x3e,
  0x9d, 0xb9, 0x09, 0x3f, 0x1c, 0xb7, 0xb9, 0x3e, 0x1b, 0xf4, 0x04, 0x3e,
  0xc0, 0x50, 0x4f, 0x3d, 0x8c, 0x8a, 0x94, 0x3e, 0x38, 0x67, 0xab, 0x3d,
  0x7f, 0x15, 0xa3, 0xbd, 0x12, 0x11, 0x39, 0xbc, 0x69, 0xb2, 0x22, 0xbe,
  0x9b, 0xf5, 0x4c, 0x3e, 0x12, 0xbf, 0x7c, 0x3d, 0x7e, 0x46, 0xe0, 0x3e,
  0x96, 0xbe, 0x75, 0xbe, 0xf4, 0x2f, 0x24, 0x3c, 0x64, 0x58, 0x99, 0xbe,
  0xb7, 0x98, 0xb8, 0xbe, 0x1b, 0x4d, 0x1d, 0xbf, 0xca, 0x1e, 0x13, 0xbf,
  0x78, 0xd9, 0x42, 0xbe, 0x89, 0x2b, 0x2a, 0xbe, 0x10, 0x18, 0xc0, 0xbe,
  0xe7, 0xdc, 0xaf, 0xbe, 0x1e, 0x83, 0xaf, 0x3d, 0x3a, 0xf7, 0x77, 0x3e,
  0xc6, 0x90, 0xbd, 0xbd, 0x25, 0x5d, 0xcf, 0xbd, 0x96, 0xc2, 0x60, 0xbd,
  0x66, 0x8f, 0x5f, 0xbe, 0xbd, 0x7f, 0x43, 0xbe, 0xcb, 0x09, 0x44, 0xbd,
  0x2a, 0xa0, 0x25, 0x3e, 0x96, 0x3b, 0x0e, 0xbe, 0x5f, 0x69, 0xe3, 0x3d,
  0xdd, 0x98, 0x35, 0x3e, 0xfd, 0x23, 0x85, 0xbe, 0xf2, 0x39, 0x93, 0x3e,
  0x70, 0x91, 0x0e, 0x3e, 0x5f, 0xf5, 0x2c, 0x3f, 0x1b, 0x2b, 0xf9, 0xbd,
  0x4b, 0xe8, 0x06, 0x3e, 0x38, 0x1f, 0x9f, 0x3d, 0x4c, 0x7f, 0x95, 0x3e,
  0x27, 0x1a, 0x12, 0x3e, 0x8b, 0x5f, 0x8c, 0xbc, 0x09, 0xec, 0x39, 0xbe,
  0xd4, 0xb2, 0x05, 0x3f, 0x55, 0x57, 0x24, 0xbe, 0x39, 0xf6, 0xc2, 0xbe,
  0x6a, 0xad, 0x94, 0x3e, 0x4f, 0xdf, 0x6b, 0x3d, 0x8f, 0x63, 0x35, 0xbd,
  0x3d, 0x1e, 0xc0, 0xbc, 0xc1, 0xdc, 0xee, 0x3d, 0x32, 0xdc, 0x42, 0x3e,
  0x72, 0x88, 0x47, 0x3e, 0xde, 0x97, 0x3b, 0xbe, 0x04, 0x3f, 0x81, 0xbd,
  0x67, 0x42, 0xbe, 0xbb, 0x6e, 0x13, 0x8b, 0xbc, 0x2f, 0xd9, 0x29, 0x3e,
  0xbb, 0xce, 0xd7, 0xbd, 0x2a, 0x2f, 0xfa, 0xbe, 0x55, 0x24, 0xd0, 0xbd,
  0x37, 0xf8, 0x15, 0x3f, 0xee, 0x8a, 0xc6, 0xbe, 0x40, 0x5e, 0x36, 0xbd,
  0x6f, 0x9b, 0x9c, 0xbd, 0xc5, 0x82, 0xac, 0xbd, 0x66, 0x79, 0x0d, 0x3d,
  0x46, 0xb2, 0x4e, 0xbe, 0x62, 0x45, 0xa3, 0x3d, 0x63, 0x44, 0x66, 0x3c,
  0x1d, 0xbf, 0x0a, 0x3e, 0x59, 0x37, 0x7c, 0xbd, 0xcd, 0xf6, 0xf9, 0xbd,
  0x37, 0x4a, 0xc4, 0xbc, 0xa8, 0xb0, 0xe0, 0xbd, 0xc7, 0x6d, 0x6c, 0x3e,
  0xdf, 0x1e, 0x65, 0x3e, 0xeb, 0x91, 0x81, 0xbd, 0xf2, 0xcf, 0x33, 0x3d,
  0x4b, 0x63, 0x75, 0x3d, 0x42, 0x60, 0xdb, 0x3e, 0xad, 0x3c, 0x53, 0x3d,
  0x97, 0x2d, 0x65, 0x3d, 0x1c, 0x93, 0xcb, 0x3e, 0x8f, 0x49, 0x31, 0xbe,
  0x56, 0x38, 0xd2, 0x3d, 0x77, 0x86, 0xa7, 0x3d, 0x3a, 0xef, 0x41, 0xbe,
  0x1e, 0xcc, 0xff, 0xff, 0x04, 0x00, 0x00, 0x00, 0x00, 0x12, 0x00, 0x00,
  0x9b, 0xd3, 0x09, 0xbc, 0x7f, 0x86, 0xad, 0xbd, 0xe1, 0x0e, 0xdd, 0xbe,
  0xe5, 0xad, 0xf2, 0x3c, 0xb3, 0x49, 0xfe, 0xbd, 0xa6, 0xab, 0xb6, 0x3d,
  0x34, 0xfc, 0x0f, 0x3e, 0x4a, 0x12, 0x48, 0x3e, 0x10, 0xa6, 0x49, 0x3d,
  0x37, 0x1f, 0xc9, 0x3d, 0x74, 0xc2, 0x1c, 0x3e, 0x19, 0xf4, 0x72, 0x3d,
  0x63, 0x05, 0xd4, 0xbd, 0x80, 0x67, 0xff, 0xbc, 0x7c, 0x64, 0x80, 0x3c,
  0x84, 0xb3, 0x9c, 0x3d, 0xc5, 0xbc, 0xba, 0x3d, 0x52, 0x28, 0xe1, 0x3c,
  0x30, 0x83, 0xfb, 0xbc, 0x64, 0x33, 0x02, 0x3e, 0x84, 0xb4, 0x24, 0xbd,
  0x67, 0xeb, 0xb2, 0xbd, 0xea, 0x5b, 0x56, 0xbe, 0x63, 0xd7, 0x6b, 0x3d,
  0x60, 0x73, 0x1a, 0x3e, 0x58, 0x03, 0xf8, 0xbd, 0xe5, 0x16, 0x22, 0xbe,
  0xab, 0xba, 0x01, 0x3d, 0xfe, 0xf4, 0xb9, 0xbe, 0x6b, 0xd4, 0xf7, 0x3d,
  0xe5, 0x82, 0x12, 0xbf, 0x32, 0xba, 0x10, 0xbe, 0xe5, 0xf4, 0x57, 0x3e,
  0x1e, 0x4e, 0x74, 0x3e, 0x88, 0x74, 0x76, 0x3e, 0x6b, 0x69, 0xed, 0x3c,
  0x59, 0x49, 0x56, 0x3e, 0xe3, 0x46, 0x1b, 0x3e, 0xb3, 0xe2, 0x40, 0x3d,
  0x70, 0x16, 0x12, 0x3e, 0xad, 0xc3, 0xe7, 0xbd, 0x9d, 0x27, 0x92, 0xbe,
  0xbc, 0x7f, 0x0e, 0x3c, 0x68, 0x0a, 0xc0, 0xbd, 0x0b, 0x36, 0x71, 0x3a,
  0xf9, 0xf6, 0x97, 0xbe, 0xbd, 0x43, 0x56, 0x3d, 0x2f, 0xe8, 0xd8, 0xbd,
  0x23, 0x10, 0x45, 0xbd, 0xd0, 0x40, 0x99, 0x3d, 0xca, 0xd6, 0x6f, 0x3e,
  0x01, 0x3d, 0xc4, 0x3d, 0x7b, 0xea, 0x66, 0xbd, 0x77, 0xdc, 0x86, 0x3e,
  0x91, 0xc8, 0x9d, 0xbd, 0x9e, 0x05, 0x23, 0xbd, 0xb4, 0xfc, 0xe0, 0xbd,
  0x91, 0x1d, 0x6b, 0xbd, 0x20, 0x91, 0xaa, 0x3e, 0xb1, 0xba, 0x96, 0xbc,
  0x41, 0x9b, 0xad, 0x3d, 0x47, 0x7a, 0xcb, 0x3d, 0xdc, 0xa9, 0x18, 0xbd,
  0x4b, 0xd1, 0x7b, 0xbd, 0x25, 0x94, 0xa8, 0xbb, 0x75, 0x59, 0x3a, 0xbe,
  0xde, 0x59, 0xfb, 0xbd, 0x79, 0xb8, 0x95, 0x3d, 0xe1, 0xf5, 0x5c, 0xbe,
  0x3b, 0x4b, 0xd4, 0xbd, 0xdc, 0x18, 0x89, 0x3e, 0x08, 0x89, 0x55, 0xbd,
  0xbd, 0xed, 0x71, 0xbe, 0xe4, 0xa0, 0xee, 0xbd, 0xc4, 0x63, 0xc0, 0xbd,
  0xcc, 0x1a, 0x35, 0xbe, 0xcc, 0xbf, 0x07, 0x3e, 0x2f, 0x3a, 0x57, 0xbd,
  0x2d, 0x56, 0xcd, 0xbe, 0x89, 0xf6, 0xbc, 0xbd, 0x99, 0x7e, 0x22, 0x3e,
  0xf2, 0x24, 0x18, 0xbd, 0x85, 0x1f, 0xfa, 0x3d, 0x6e, 0x08, 0x07, 0x3e,
  0xc0, 0x6d, 0xe8, 0x3d, 0x3a, 0x21, 0x56, 0x3d, 0x78, 0xf6, 0xe0, 0x3c,
  0x6d, 0x7a, 0x4a, 0x3d, 0x30, 0x3b, 0x3c, 0x3d, 0xfb, 0xe1, 0x8e, 0xbd,
  0xfa, 0x40, 0x52, 0xbe, 0x92, 0x65, 0x82, 0xbd, 0xc8, 0xcd, 0x8f, 0xbd,
  0x4a, 0x0e, 0xd1, 0xbc, 0x4a, 0xb2, 0x14, 0xbe, 0x00, 0x87, 0xd1, 0xbd,
  0xe3, 0x79, 0x36, 0xbe, 0x35, 0x3b, 0x15, 0xbe, 0xef, 0x78, 0x89, 0xbe,
  0x0a, 0x09, 0x2b, 0xbb, 0xdd, 0xe7, 0x8c, 0xbd, 0xd1, 0x23, 0xf6, 0x3d,
  0xd8, 0x75, 0xaf, 0xbe, 0xd9, 0x12, 0x5d, 0xbc, 0x18, 0x69, 0x14, 0x3d,
  0x3f, 0x09, 0x5e, 0x3e, 0xe1, 0xa1, 0x74, 0x3e, 0x49, 0xbc, 0x85, 0x3d,
  0xf8, 0xae, 0x51, 0xbe, 0xaa, 0x26, 0x22, 0xbb, 0xd1, 0x3e, 0x80, 0x3e,
  0x20, 0x3e, 0x89, 0xbd, 0x17, 0xfd, 0x21, 0x3d, 0x2f, 0x68, 0xd0, 0xbd,
  0xa0, 0xee, 0xae, 0x3d, 0x04, 0x3d, 0xd8, 0x3a, 0x65, 0x3e, 0x06, 0xbe,
  0x4e, 0x56, 0xfa, 0x3d, 0xb0, 0x84, 0x85, 0x3d, 0x62, 0x64, 0x1d, 0xbb,
  0x2a, 0xb0, 0x7c, 0xbd, 0x35, 0x82, 0x16, 0xbe, 0xc7, 0x3e, 0xd1, 0x3d,
  0xb6, 0x4c, 0x89, 0xbe, 0xd1, 0x98, 0xaa, 0xbd, 0x6a, 0xba, 0x8d, 0xbe,
  0x12, 0xb3, 0xa5, 0xbe, 0x38, 0x57, 0x96, 0x3d, 0xb7, 0x96, 0xd2, 0xbb,
  0x44, 0xbc, 0x67, 0xbe, 0x98, 0x36, 0x8f, 0x3b, 0x50, 0x92, 0x51, 0x3c,
  0x5b, 0x70, 0x49, 0x3e, 0x8a, 0xf5, 0xbe, 0xbc, 0x46, 0x85, 0x7c, 0xbe,
  0xab, 0x1a, 0xd2, 0x3d, 0x1a, 0xdb, 0xe5, 0xbd, 0xea, 0x4b, 0xe9, 0x3d,
  0x1a, 0xf1, 0x99, 0xbd, 0xaf, 0x1f, 0xc5, 0xbc, 0xe3, 0x46, 0x22, 0xbc,
  0x4b, 0xbd, 0x2d, 0x3e, 0xfd, 0x89, 0x80, 0x3c, 0xce, 0xe6, 0x80, 0x3e,
  0x75, 0xbc, 0x59, 0x3e, 0x96, 0xf4, 0x95, 0x3e, 0x4f, 0x2c, 0x41, 0xbb,
  0x28, 0x2e, 0x1c, 0x3e, 0x89, 0xde, 0x92, 0xbd, 0xde, 0x49, 0xd6, 0xbc,
  0xc6, 0x87, 0x3c, 0x3d, 0x3f, 0xc3, 0x22, 0x3e, 0xf6, 0x50, 0xe1, 0x3d,
  0x9d, 0x8b, 0x9d, 0xbc, 0x6d, 0x4a, 0xa2, 0x3e, 0x05, 0xa5, 0x1d, 0x3e,
  0xe3, 0xcd, 0x01, 0xbe, 0x6a, 0x82, 0x6a, 0xbe, 0x5e, 0x6a, 0xce, 0xbd,
  0xea, 0x29, 0x7e, 0x3d, 0xa8, 0xea, 0x22, 0x3e, 0x7d, 0xf3, 0x5c, 0x3b,
  0xb1, 0x88, 0xd1, 0xbd, 0x6d, 0xfa, 0x99, 0xbd, 0x1f, 0xa7, 0xdb, 0xbe,
  0xde, 0x39, 0xc5, 0xbd, 0x1b, 0xbf, 0x01, 0xbe, 0x76, 0x0d, 0x2c, 0xbe,
  0x67, 0xb5, 0x45, 0xbe, 0xac, 0x7a, 0x81, 0x3e, 0x9d, 0x0d, 0xa3, 0x3d,
  0x73, 0x80, 0x48, 0x3e, 0x62, 0xb2, 0x52, 0x3e, 0x84, 0x4a, 0xb4, 0x3e,
  0x35, 0xc8, 0xea, 0xbd, 0x9e, 0x29, 0x9a, 0x3e, 0xd9, 0x72, 0x8c, 0xbe,
  0x14, 0xfd, 0x0b, 0x3f, 0x08, 0xa9, 0xda, 0x3d, 0x86, 0xca, 0x8b, 0x3d,
  0x3f, 0x16, 0x06, 0x3d, 0x49, 0xaf, 0x25, 0x3e, 0x44, 0xc5, 0xf5, 0xbd,
  0x26, 0x5c, 0x39, 0xbe, 0x05, 0x91, 0xaf, 0xb9, 0x95, 0xf4, 0xba, 0x3d,
  0x6d, 0x1d, 0x18, 0xbd, 0xeb, 0x0e, 0x02, 0x3e, 0x8d, 0x8f, 0xd2, 0x3d,
  0xe2, 0x6c, 0xca, 0xbd, 0x75, 0xca, 0xdd, 0xbe, 0x47, 0x9d, 0xe0, 0x3b,
  0x54, 0x5e, 0x1b, 0x3e, 0x9d, 0xe3, 0x63, 0xbd, 0x4f, 0x7f, 0x7f, 0x3e,
  0x6a, 0xe9, 0x94, 0x3c, 0x28, 0x31, 0x30, 0x3e, 0x69, 0xec, 0xf1, 0x3e,
  0xf5, 0xf9, 0xf4, 0xbd, 0x8f, 0x8f, 0xd5, 0xbd, 0x42, 0x43, 0x19, 0xbb,
  0xf9, 0x32, 0xc6, 0xbc, 0x58, 0xd0, 0xb0, 0xbd, 0xd6, 0x36, 0xb8, 0xbe,
  0xbc, 0xb3, 0xa9, 0x3d, 0xa8, 0x0e, 0x39, 0x3e, 0xf0, 0xc5, 0xc1, 0xbd,
  0xb3, 0x2b, 0x29, 0xbe, 0x94, 0x47, 0xcd, 0x3d, 0x50, 0xd6, 0xcb, 0xbd,
  0xe0, 0x56, 0x11, 0xbe, 0x83, 0xe8, 0x71, 0x3e, 0xaf, 0xe9, 0x20, 0x3e,
  0x7d, 0x66, 0x4b, 0x3e, 0x7d, 0x2d, 0xd6, 0xbb, 0xb5, 0x5b, 0x07, 0xbd,
  0x39, 0x89, 0xc8, 0x3e, 0x3f, 0x4d, 0xff, 0x3d, 0x24, 0x14, 0x22, 0x3f,
  0x46, 0x50, 0x22, 0x3e, 0xde, 0xf8, 0x94, 0xbe, 0xec, 0x57, 0x1c, 0xbe,
  0xa4, 0x94, 0x63, 0x3c, 0x23, 0xec, 0x4b, 0x3e, 0x4f, 0xf3, 0x19, 0x3f,
  0x49, 0x1a, 0x25, 0x3e, 0xdb, 0xba, 0xc5, 0x3d, 0xb6, 0x85, 0x83, 0x3e,
  0x4f, 0xbf, 0x98, 0xbe, 0xa2, 0x53, 0x37, 0x3d, 0x14, 0xe2, 0xb7, 0xbc,
  0x6f, 0xd0, 0xdd, 0x3e, 0x92, 0x85, 0x8e, 0xbe, 0xe4, 0x08, 0x83, 0xbe,
  0xe2, 0x4e, 0x23, 0xbe, 0xc3, 0xbc, 0x9b, 0xbe, 0x71, 0xff, 0x33, 0xbf,
  0x6a, 0x0d, 0x9f, 0xbe, 0x70, 0x78, 0x66, 0xbe, 0x41, 0x29, 0x24, 0xbf,
  0x9c, 0x4c, 0xaf, 0xbe, 0x80, 0x27, 0x1f, 0x3f, 0x9e, 0x16, 0xf6, 0x3e,
  0x5f, 0x03, 0x2f, 0xbe, 0xe1, 0x99, 0xb8, 0x3d, 0x09, 0x1e, 0x87, 0xbc,
  0x8c, 0xda, 0x7e, 0xbe, 0xd9, 0xf1, 0x4b, 0x3d, 0xb3, 0x42, 0xa8, 0xbe,
  0xab, 0x1c, 0xb5, 0x3e, 0xc5, 0x6f, 0x7d, 0x3e, 0x86, 0xde, 0xfc, 0xbc,
  0x15, 0x94, 0x82, 0x3e, 0x15, 0x55, 0x2f, 0xbd, 0xf1, 0x8d, 0x0a, 0xbf,
  0x2f, 0xf7, 0x64, 0xbd, 0x8d, 0x24, 0x10, 0x3e, 0x39, 0x6f, 0xa9, 0xbe,
  0x1f, 0x7c, 0x54, 0xbe, 0xd4, 0x60, 0x60, 0xbe, 0xf6, 0x1c, 0x62, 0xbd,
  0xa5, 0x7e, 0x04, 0xbe, 0x8d, 0xb0, 0xb4, 0x3e, 0x20, 0x83, 0x72, 0xbd,
  0x76, 0x9c, 0xaf, 0xbd, 0x7e, 0x97, 0xad, 0xbd, 0x3c, 0x15, 0x8b, 0xbd,
  0x7f, 0x8d, 0x01, 0x3e, 0x4f, 0x8a, 0x27, 0x3e, 0x6f, 0x3a, 0x86, 0x3e,
  0x50, 0xe2, 0xd6, 0xbd, 0xf1, 0x03, 0xed, 0xbd, 0x38, 0xf2, 0x44, 0x3e,
  0x28, 0x5b, 0x0a, 0xbe, 0x81, 0x21, 0x6e, 0xbe, 0xa7, 0xc6, 0xbf, 0x3d,
  0x0d, 0xd6, 0x4d, 0x3e, 0xb2, 0x72, 0xd4, 0x3d, 0xff, 0xa4, 0x85, 0x3d,
  0x41, 0xdc, 0xed, 0xbe, 0xc3, 0x81, 0x01, 0x3e, 0x65, 0xb2, 0xd0, 0xbd,
  0x42, 0x36, 0xbb, 0xbd, 0x5b, 0x1a, 0xab, 0x3d, 0x9d, 0x12, 0x7f, 0x3d,
  0x6b, 0x2c, 0x50, 0xbc, 0x45, 0x71, 0xa3, 0x3e, 0x06, 0x04, 0xb0, 0x3d,
  0x63, 0xe8, 0x3b, 0xbd, 0x2d, 0x6a, 0xa6, 0x3e, 0x9f, 0xaf, 0xb3, 0x3d,
  0x70, 0xa5, 0xb2, 0xbd, 0x03, 0x87, 0x86, 0xbd, 0xac, 0x0e, 0x8f, 0xbe,
  0xb5, 0xd5, 0x89, 0x3e, 0xb2, 0x9f, 0x15, 0xbe, 0xa8, 0x70, 0x24, 0xbe,
  0x11, 0x9b, 0x3e, 0xbe, 0x56, 0x4e, 0x94, 0x3b, 0xc0, 0xea, 0xf7, 0x3c,
  0xe2, 0x85, 0x05, 0x3e, 0x2d, 0x99, 0x1f, 0xbc, 0x1a, 0x5d, 0xcc, 0x3d,
  0xba, 0x1a, 0xdf, 0x3b, 0x1f, 0x25, 0x2d, 0x3d, 0xfb, 0x77, 0x66, 0x3e,
  0x57, 0x08, 0x70, 0x3c, 0x63, 0x4d, 0x00, 0xbe, 0xa2, 0x4e, 0x38, 0xbd,
  0xee, 0xe3, 0x1d, 0xbe, 0x3a, 0x44, 0x65, 0xbe, 0x21, 0x9e, 0xfd, 0xbd,
  0xad, 0x46, 0x55, 0x3e, 0x17, 0xcc, 0x57, 0x3f, 0x70, 0x0c, 0xaa, 0xbb,
  0xd2, 0xd3, 0xa0, 0x3c, 0x78, 0x1f, 0x02, 0xbe, 0xe0, 0xf9, 0x13, 0xbe,
  0xf7, 0xae, 0xc4, 0x3e, 0xe2, 0x27, 0x3e, 0x3d, 0xac, 0xe3, 0x86, 0x3e,
  0x58, 0x70, 0xb7, 0xbe, 0x38, 0xdf, 0x83, 0xbd, 0x34, 0x10, 0x20, 0x3e,
  0x5c, 0xe0, 0xf1, 0x3d, 0xfd, 0x3a, 0x9a, 0x3d, 0xf3, 0xb1, 0x0e, 0x3e,
  0xfd, 0x8f, 0x60, 0xbc, 0x7f, 0x5b, 0x28, 0x3e, 0x2f, 0xff, 0x40, 0x3e,
  0x9c, 0xea, 0x2d, 0x3e, 0x37, 0x1f, 0x26, 0xbe, 0x7b, 0xec, 0xe9, 0x3e,
  0x8e, 0x9b, 0xcf, 0xbd, 0x11, 0x47, 0xb2, 0xbc, 0x01, 0x75, 0x1a, 0xbe,
  0x35, 0xdd, 0xe5, 0xbc, 0x09, 0x1d, 0x40, 0x3e, 0xd2, 0xa2, 0x26, 0xbe,
  0xf7, 0x9c, 0x7d, 0xbe, 0x01, 0xea, 0x09, 0xbe, 0x6d, 0xd4, 0x3c, 0xbd,
  0x9b, 0xf6, 0x33, 0xbe, 0x60, 0x54, 0xa0, 0x3e, 0x15, 0x44, 0x01, 0x3d,
  0x0e, 0x90, 0x81, 0xbe, 0x9a, 0xf3, 0x85, 0x3e, 0xd1, 0xdc, 0x11, 0x3d,
  0x81, 0xfb, 0x71, 0x3c, 0xb2, 0x25, 0x81, 0x3e, 0xf3, 0x7e, 0x06, 0x3e,
  0x92, 0x91, 0x27, 0xbe, 0x17, 0xd1, 0x07, 0x3e, 0xd7, 0xef, 0xa0, 0xbd,
  0xb7, 0xd0, 0x45, 0x3e, 0x55, 0x55, 0x12, 0x3e, 0x9f, 0xf4, 0xa5, 0x3d,
  0xcf, 0xfc, 0xba, 0x3d, 0xf4, 0xc1, 0x7c, 0x3d, 0xaf, 0x82, 0xb7, 0xbe,
  0x3d, 0xf0, 0xf9, 0xbe, 0x2a, 0xcf, 0x0b, 0x3c, 0xe0, 0x3f, 0x0e, 0x3d,
  0x23, 0xc9, 0x07, 0x3e, 0xef, 0x20, 0xbc, 0x3e, 0xd3, 0xf1, 0xaa, 0xbd,
  0x0c, 0xbf, 0xbb, 0xbe, 0x94, 0xf3, 0x6c, 0x3d, 0xfd, 0xdd, 0x0c, 0xbf,
  0x55, 0xfb, 0x44, 0x3e, 0x79, 0xa9, 0xb0, 0x3e, 0xc9, 0x49, 0x52, 0x3e,
  0xef, 0x20, 0x60, 0x3e, 0x34, 0x3b, 0x8f, 0xbe, 0x6b, 0x0a, 0x0c, 0xbe,
  0x95, 0x1d, 0x08, 0xbe, 0x80, 0xe6, 0xce, 0xbe, 0x28, 0x49, 0x11, 0xbf,
  0xa8, 0xd1, 0xd2, 0xbe, 0x2b, 0xf1, 0xd6, 0xbd, 0x1d, 0xb1, 0x83, 0xbe,
  0x30, 0x0c, 0x13, 0xbe, 0xe0, 0xa9, 0xb5, 0xbe, 0x07, 0xb0, 0xcd, 0xbe,
  0x80, 0x6e, 0x67, 0xbc, 0xad, 0x96, 0xad, 0xbc, 0x0f, 0x25, 0x3f, 0xbe,
  0xc7, 0x80, 0xfb, 0x3e, 0xad, 0xa8, 0x4b, 0xbd, 0xa9, 0x2b, 0x3a, 0x3f,
  0x9c, 0xd5, 0xeb, 0x3e, 0xcb, 0x3a, 0xa7, 0x3d, 0x28, 0x1a, 0xc9, 0xbc,
  0xe0, 0xa4, 0xcd, 0xbd, 0x72, 0xea, 0x28, 0xbe, 0x84, 0x88, 0xb1, 0x3e,
  0x53, 0x4c, 0x70, 0x3d, 0x59, 0xa6, 0x0e, 0x3f, 0xd1, 0xd0, 0xa6, 0x3e,
  0xdc, 0xce, 0x46, 0x3e, 0x85, 0x9f, 0x60, 0xbf, 0xe0, 0x82, 0x08, 0xbf,
  0xff, 0xac, 0x22, 0xbf, 0xac, 0x20, 0xb5, 0xbe, 0x54, 0x39, 0x49, 0xbf,
  0x55, 0x15, 0xcc, 0xbe, 0x2e, 0xcc, 0x1a, 0xbf, 0xff, 0x71, 0x70, 0xbe,
  0xbe, 0x50, 0x02, 0x3f, 0x77, 0x38, 0xb8, 0xbe, 0x3e, 0x46, 0x6d, 0xbd,
  0x64, 0x59, 0xb1, 0xbe, 0x59, 0x38, 0x61, 0xbe, 0xe1, 0x1c, 0xbf, 0x3e,
  0x65, 0x3f, 0x5f, 0x3d, 0x18, 0x17, 0x40, 0x3e, 0xba, 0x18, 0xf7, 0x3e,
  0x78, 0x8a, 0x67, 0xbe, 0xec, 0xe0, 0xd8, 0xbd, 0xe2, 0x85, 0xdf, 0xbe,
  0x4e, 0x66, 0xcd, 0xbd, 0x0f, 0xb6, 0x06, 0x3e, 0x80, 0xfd, 0x8f, 0x3d,
  0xe9, 0x00, 0x4d, 0x3e, 0x6c, 0x33, 0x08, 0xbf, 0x2f, 0x5d, 0x3f, 0xbe,
  0xe2, 0xa9, 0xd5, 0xbe, 0xe3, 0x96, 0x66, 0xbe, 0xf2, 0xf0, 0x21, 0xbf,
  0xdc, 0xc2, 0x83, 0xbe, 0x1a, 0xae, 0xc4, 0xbe, 0xbb, 0x43, 0xf8, 0xbd,
  0xa3, 0x5b, 0xa7, 0xbc, 0x3c, 0xf2, 0x28, 0xbd, 0x67, 0x0f, 0xc8, 0x3e,
  0x00, 0x09, 0x82, 0x3d, 0xeb, 0x78, 0x24, 0xbf, 0x75, 0x6e, 0x82, 0xbd,
  0x93, 0x17, 0x68, 0xbc, 0x50, 0xcd, 0x03, 0xbd, 0x06, 0x4e, 0x80, 0x3c,
  0x25, 0x29, 0x89, 0xbe, 0x4b, 0x51, 0x1d, 0x3f, 0xdf, 0x5a, 0x32, 0xbd,
  0xab, 0xd6, 0x2f, 0xbf, 0x4b, 0x9a, 0x93, 0xbe, 0xd6, 0x5b, 0xfa, 0xbd,
  0x65, 0x4d, 0xec, 0xbd, 0xef, 0x5e, 0x8d, 0xbd, 0xcb, 0x9d, 0x4b, 0xbd,
  0x13, 0x0a, 0x23, 0xbe, 0x6e, 0xea, 0x0f, 0xbe, 0x1e, 0xa4, 0xbf, 0xbc,
  0xbf, 0x42, 0x29, 0xbd, 0x07, 0x5d, 0x62, 0xbe, 0xbc, 0x48, 0xa2, 0xbc,
  0x9c, 0xad, 0xcc, 0x3e, 0xf6, 0x48, 0xe3, 0x3e, 0x0a, 0x2c, 0x90, 0xbe,
  0xd3, 0x2a, 0x3e, 0x3e, 0x97, 0xb1, 0xcd, 0x3e, 0x57, 0x43, 0x87, 0x3e,
  0x5f, 0xa3, 0xfe, 0xbe, 0x69, 0xf5, 0x63, 0xbe, 0xf1, 0xd5, 0x81, 0x3e,
  0xc9, 0xc4, 0xde, 0x3e, 0x51, 0x4c, 0x34, 0xbe, 0x0b, 0x03, 0x7d, 0x3e,
  0xcb, 0x90, 0x93, 0x3e, 0x8a, 0xc9, 0x9a, 0x3c, 0x4c, 0xe6, 0xea, 0xbe,
  0xc2, 0x4a, 0x50, 0xbe, 0xfc, 0xc4, 0xd7, 0xbe, 0x3d, 0xe8, 0xb2, 0xbe,
  0x1f, 0x98, 0x93, 0xbe, 0x21, 0x59, 0x5c, 0xbe, 0xf4, 0x2e, 0xb1, 0xbe,
  0xbb, 0x4c, 0xa7, 0xbd, 0x6c, 0x33, 0x95, 0xbe, 0xf6, 0x37, 0x06, 0xbf,
  0x5c, 0xdd, 0x0a, 0x3e, 0xdf, 0xfe, 0x89, 0xbe, 0x8f, 0xba, 0xe2, 0x3c,
  0xd7, 0x2c, 0x67, 0xbe, 0x38, 0x54, 0xf5, 0x3d, 0x4c, 0xc8, 0x55, 0x3e,
  0xb1, 0x5e, 0xdd, 0x3d, 0xa4, 0xee, 0x93, 0xbe, 0xf4, 0xca, 0x49, 0x3e,
  0xd8, 0x5f, 0x7b, 0xbe, 0xb2, 0x42, 0x02, 0xbe, 0x3f, 0x71, 0x63, 0xbe,
  0x5d, 0x2d, 0x8a, 0x3e, 0xa8, 0x54, 0x0e, 0xbb, 0xd0, 0x54, 0x79, 0x3e,
  0x02, 0xd8, 0xad, 0xbe, 0x47, 0xca, 0xca, 0xbd, 0x02, 0x1f, 0x05, 0xbe,
  0x2d, 0xb9, 0x2a, 0xbd, 0x75, 0xf3, 0xe1, 0xbd, 0xb5, 0x09, 0xa3, 0xbe,
  0x40, 0x6f, 0xf0, 0xbc, 0x3e, 0x25, 0x57, 0xbe, 0x36, 0xf3, 0xc2, 0xbe,
  0xbe, 0x5b, 0xc5, 0xbd, 0x6a, 0xda, 0x92, 0xbd, 0xe5, 0x0a, 0x8a, 0x3e,
  0xc4, 0xaf, 0x32, 0x3e, 0x3b, 0xee, 0x0d, 0x3e, 0x86, 0xa5, 0x12, 0x3e,
  0x1e, 0xfd, 0x95, 0xbe, 0x5e, 0xc2, 0xdd, 0xbd, 0x91, 0x27, 0xc5, 0x3a,
  0x32, 0x13, 0x06, 0xbd, 0xc8, 0x69, 0x28, 0x3d, 0x07, 0x65, 0x12, 0x3e,
  0x07, 0xba, 0x8e, 0x3d, 0xac, 0x6f, 0xff, 0xbd, 0xc0, 0x72, 0x6c, 0xbe,
  0xb5, 0x6e, 0x22, 0x3d, 0x70, 0x31, 0xc7, 0xbe, 0xe6, 0x80, 0x05, 0x3d,
  0x24, 0x62, 0xa6, 0xbe, 0x4d, 0xb0, 0xed, 0xbe, 0xfc, 0x54, 0x71, 0xbe,
  0x18, 0x6b, 0xb6, 0xbe, 0x7b, 0xdd, 0x6e, 0x3c, 0xd6, 0x9d, 0x3f, 0xbe,
  0xdb, 0x44, 0xd7, 0xbe, 0x23, 0x56, 0xb9, 0x3e, 0x68, 0xc0, 0x8d, 0xbe,
  0x43, 0x2b, 0x52, 0x3e, 0x9e, 0x40, 0x3c, 0x3d, 0x47, 0x14, 0xba, 0x3e,
  0xb8, 0xc5, 0x39, 0x3e, 0x2b, 0x1e, 0x9a, 0xbe, 0xbd, 0x9f, 0xe0, 0xbc,
  0x85, 0x8f, 0x6c, 0x3e, 0x27, 0xd4, 0x3e, 0xbd, 0xf2, 0xb3, 0x1d, 0x3e,
  0x21, 0x45, 0x60, 0x3e, 0xc5, 0x4e, 0x47, 0x3e, 0xce, 0x3e, 0x1b, 0x3e,
  0xdb, 0xbc, 0xef, 0xbd, 0xc5, 0x3e, 0xdd, 0xbe, 0x48, 0x8b, 0x7c, 0xbe,
  0x99, 0x00, 0x9c, 0xbe, 0xa6, 0xe9, 0x7e, 0xbe, 0x74, 0x0c, 0xc9, 0xbe,
  0x69, 0xc5, 0xc7, 0xbe, 0x18, 0xd3, 0xa6, 0x3c, 0xe5, 0x6a, 0xb5, 0xbe,
  0x7f, 0x91, 0x72, 0x3d, 0x34, 0x9b, 0x91, 0xbc, 0x7d, 0xbd, 0xf9, 0xbd,
  0x2b, 0xf9, 0xbe, 0xbe, 0xe5, 0x4f, 0x44, 0x3d, 0xdd, 0xb0, 0xa6, 0x3e,
  0x56, 0x77, 0x3b, 0x3e, 0xc9, 0xf2, 0x26, 0x3e, 0xbd, 0x38, 0x53, 0x3e,
  0x20, 0x3a, 0xa1, 0xbc, 0x7e, 0x68, 0x1f, 0x3e, 0xce, 0xe9, 0x92, 0xbe,
  0xda, 0x1f, 0x38, 0x3e, 0x93, 0x24, 0xb2, 0x3e, 0xa8, 0xe6, 0x40, 0x3e,
  0x64, 0x9d, 0x3c, 0xbe, 0xb9, 0xe7, 0xad, 0xbd, 0xb3, 0xa4, 0x5e, 0xbe,
  0x71, 0x23, 0xec, 0xbd, 0x9c, 0x8f, 0x3b, 0xbe, 0x4b, 0x5e, 0xd2, 0xbe,
  0xc9, 0xba, 0x73, 0xbe, 0xf7, 0x4b, 0xdd, 0xbd, 0xb6, 0xc9, 0xea, 0xbe,
  0x2f, 0xbe, 0x92, 0xbd, 0x43, 0xbc, 0x18, 0x3e, 0x5d, 0x53, 0x74, 0xbd,
  0x2e, 0x5a, 0xa1, 0xbd, 0xdf, 0xb7, 0x2d, 0x3e, 0xc4, 0x02, 0xf0, 0xbd,
  0x84, 0xbb, 0xc2, 0xbc, 0x0b, 0xc6, 0x14, 0xbe, 0x1b, 0x2b, 0x12, 0xbe,
  0x7f, 0x74, 0xe5, 0x3d, 0xb7, 0xa3, 0x07, 0xbf, 0x99, 0x42, 0xf6, 0x3d,
  0x55, 0xd4, 0x77, 0xbe, 0x88, 0xf5, 0xed, 0xbd, 0x3c, 0xea, 0xfa, 0xbe,
  0x35, 0xfa, 0x47, 0xbe, 0xdf, 0x17, 0x5f, 0x3d, 0xa4, 0xbf, 0xf9, 0x3d,
  0x75, 0xd3, 0x95, 0x3e, 0xb9, 0xc6, 0xcd, 0x3d, 0xfd, 0x05, 0x7a, 0x3e,
  0xb0, 0x94, 0xcd, 0xbd, 0xc8, 0xdf, 0x92, 0x3d, 0x1d, 0x40, 0x8e, 0xbd,
  0x73, 0xec, 0x6f, 0xbd, 0x38, 0xd9, 0x33, 0x3e, 0x32, 0xd5, 0x88, 0x3e,
  0x77, 0xe1, 0xf0, 0xbd, 0x5e, 0xb8, 0x7f, 0x3d, 0x46, 0xf8, 0x4e, 0xbe,
  0xd1, 0x83, 0x47, 0xbd, 0x57, 0x8d, 0xe6, 0x3e, 0x4f, 0x67, 0x46, 0xbc,
  0x80, 0x56, 0xa0, 0xbc, 0x53, 0xf0, 0xaa, 0xbe, 0x15, 0x31, 0x5d, 0x3e,
  0xc6, 0xa4, 0x12, 0xbe, 0xf8, 0x03, 0x60, 0x3e, 0xd3, 0x5c, 0x94, 0xbe,
  0xfa, 0x49, 0xb9, 0x3d, 0xee, 0x5f, 0x3a, 0x3d, 0x72, 0x13, 0x96, 0x3d,
  0x71, 0x34, 0xda, 0x3d, 0x77, 0x16, 0xab, 0x3d, 0xc5, 0x83, 0x2e, 0x3d,
  0xd1, 0x77, 0x38, 0x3e, 0xda, 0xa3, 0xcf, 0x3e, 0x83, 0x5d, 0x2a, 0xbe,
  0x7c, 0x4a, 0x96, 0x3d, 0x0e, 0xfd, 0x34, 0x3b, 0x20, 0x66, 0x4e, 0x3e,
  0xed, 0x46, 0x33, 0x3b, 0x97, 0x8c, 0x71, 0x3e, 0x8a, 0xb1, 0x81, 0x3d,
  0x0a, 0x41, 0x1f, 0xbe, 0xd3, 0xdf, 0xfb, 0x3e, 0x2c, 0x52, 0xbc, 0x3e,
  0xcd, 0x35, 0x58, 0xbc, 0xdd, 0x09, 0xb3, 0xbe, 0x14, 0x58, 0xf8, 0xbd,
  0x3e, 0x52, 0x65, 0xbe, 0x72, 0x1b, 0xf9, 0xbc, 0x34, 0xa3, 0x16, 0xbe,
  0xc6, 0x1e, 0xca, 0x3d, 0xec, 0x4f, 0xb7, 0x3a, 0x61, 0x1d, 0x26, 0xbd,
  0x42, 0xd2, 0xa5, 0x3d, 0x3d, 0xed, 0xbf, 0x3c, 0x61, 0xe4, 0x2d, 0xbe,
  0x09, 0x54, 0xef, 0xbc, 0xb0, 0x4c, 0x3d, 0x3e, 0xd6, 0x40, 0x54, 0xbe,
  0xcb, 0xed, 0xe2, 0xbd, 0x71, 0x1b, 0xea, 0x3d, 0x0e, 0x1a, 0xe7, 0x3c,
  0x59, 0xc9, 0xfe, 0x3b, 0x91, 0xba, 0x76, 0x3d, 0x32, 0x89, 0xb0, 0xbd,
  0x82, 0x13, 0x92, 0x3d, 0x98, 0xc0, 0x82, 0xbe, 0x04, 0xbe, 0xa6, 0x3d,
  0x81, 0x90, 0x66, 0x3c, 0xcd, 0xff, 0xb8, 0x3d, 0x5a, 0x13, 0xab, 0xbc,
  0x95, 0x31, 0x45, 0x3d, 0x24, 0x8c, 0xfd, 0x3d, 0xb9, 0x3e, 0x62, 0xbe,
  0xa1, 0xe2, 0xf2, 0x3d, 0x5f, 0x5f, 0x99, 0xba, 0x79, 0x3e, 0x09, 0x3d,
  0x86, 0xbd, 0x30, 0xbe, 0xd1, 0xfe, 0xca, 0xbd, 0x4a, 0x94, 0x58, 0x3c,
  0xd4, 0xeb, 0x6b, 0xbc, 0x8b, 0xd3, 0x06, 0xbe, 0x77, 0x68, 0x78, 0x3d,
  0x37, 0x34, 0xf7, 0xbd, 0x1c, 0xe9, 0x4e, 0x3e, 0xea, 0xef, 0x2a, 0x3d,
  0x3a, 0xd1, 0x3e, 0x3c, 0x3d, 0x3e, 0x86, 0x3d, 0x33, 0xa0, 0x14, 0xbe,
  0xb8, 0xaf, 0x0e, 0x3c, 0x1c, 0xfd, 0x7a, 0xbe, 0x6f, 0x58, 0x5b, 0xbc,
  0x83, 0xf7, 0x46, 0xbe, 0x3c, 0x3a, 0x88, 0x3e, 0x9f, 0x2e, 0xfc, 0xbd,
  0xe4, 0x29, 0x61, 0x3e, 0xc1, 0xed, 0x13, 0x3e, 0xc0, 0x60, 0x52, 0xbe,
  0x29, 0xd6, 0x92, 0x3e, 0x21, 0x9e, 0x94, 0x3e, 0x0b, 0x60, 0x30, 0xbe,
  0x92, 0x6f, 0x50, 0x3e, 0x33, 0x63, 0x0e, 0x3e, 0x6c, 0x69, 0x84, 0x3e,
  0xfd, 0x1b, 0x59, 0x3d, 0x1e, 0x19, 0x00, 0x3d, 0x98, 0x54, 0x4f, 0x3e,
  0x71, 0xb2, 0x0c, 0x3e, 0x72, 0x5d, 0x3f, 0xbd, 0xa0, 0x52, 0x03, 0xbe,
  0x01, 0x5e, 0xde, 0x3d, 0x8d, 0xc1, 0xcf, 0xbc, 0x7f, 0x6b, 0xbf, 0xbb,
  0x84, 0x37, 0xb4, 0xbd, 0x82, 0xdb, 0x41, 0x3d, 0x82, 0x7e, 0x09, 0x3e,
  0xf8, 0x0f, 0x66, 0xbd, 0xbf, 0x5e, 0xf7, 0x3c, 0xf4, 0x08, 0x6b, 0x3d,
  0xcd, 0xe4, 0x02, 0x3e, 0xb0, 0x22, 0xb5, 0x37, 0x80, 0xb2, 0xc3, 0xbd,
  0x7a, 0x1b, 0xcf, 0xbd, 0xed, 0x12, 0x68, 0x3e, 0x3e, 0x5f, 0x4a, 0xbe,
  0x1e, 0xf8, 0xad, 0x3c, 0xba, 0x94, 0x8d, 0x3e, 0x0f, 0x6d, 0xa5, 0xbc,
  0xac, 0x56, 0xdb, 0x3d, 0xc8, 0x09, 0x37, 0x3d, 0xc8, 0x74, 0x8f, 0xbe,
  0x68, 0x84, 0x9f, 0xbb, 0x4b, 0xa9, 0xa3, 0xbd, 0x5c, 0x1f, 0x57, 0x3a,
  0x86, 0x5a, 0xc0, 0x3e, 0xb4, 0x8a, 0x0b, 0x3e, 0xb1, 0xcd, 0x91, 0xbd,
  0x49, 0x21, 0x43, 0xbd, 0xdd, 0x13, 0xa6, 0xbe, 0xae, 0x68, 0x89, 0x3d,
  0x43, 0x47, 0x25, 0x3e, 0x5f, 0x59, 0xb8, 0xbe, 0x59, 0x3b, 0xc0, 0xbc,
  0x43, 0xb7, 0xb2, 0x3d, 0x17, 0x6e, 0x0c, 0x3e, 0x5a, 0x78, 0xb3, 0xbc,
  0x90, 0x5f, 0x98, 0x3e, 0xf9, 0xd1, 0xcb, 0xbd, 0x69, 0xcc, 0xf8, 0xbd,
  0xfa, 0xd1, 0xea, 0xbe, 0x7c, 0x12, 0x7b, 0xbd, 0xab, 0x3c, 0xb7, 0xbd,
  0xf9, 0x3d, 0x97, 0x3a, 0x3d, 0x2c, 0x16, 0x3d, 0xf0, 0x80, 0xef, 0xbc,
  0x8b, 0xc7, 0x04, 0xbe, 0x20, 0xd9, 0x76, 0x3d, 0x1f, 0xbd, 0x15, 0xbe,
  0xd1, 0xe5, 0xf1, 0x3e, 0x95, 0x82, 0x98, 0xbe, 0x58, 0x99, 0x2f, 0x3f,
  0xff, 0x23, 0xba, 0x3e, 0xa3, 0x8a, 0xb0, 0xbe, 0xd6, 0x61, 0xa3, 0x3e,
  0xce, 0x3f, 0xf9, 0xbb, 0x1c, 0xa6, 0x36, 0xbe, 0x4f, 0x58, 0xe6, 0x3e,
  0x83, 0x6c, 0x93, 0xbb, 0xd8, 0xb5, 0xfc, 0x3e, 0xed, 0x88, 0x2a, 0xbe,
  0x85, 0x3a, 0xa3, 0x3e, 0x26, 0x7c, 0x4a, 0x3e, 0x68, 0xec, 0xe5, 0x3d,
  0x90, 0xd3, 0xb1, 0x3e, 0xc2, 0x3c, 0xf5, 0xbc, 0x28, 0x0a, 0x9f, 0x3e,
  0x33, 0x8b, 0x37, 0x3e, 0x73, 0xbb, 0x1e, 0xbd, 0xc4, 0x1e, 0x61, 0x3e,
  0x37, 0xd8, 0xd9, 0x3e, 0x76, 0x25, 0x25, 0x3e, 0x47, 0x7e, 0x0d, 0xbd,
  0x61, 0x00, 0x07, 0xbf, 0x5f, 0x40, 0xae, 0xbe, 0xc8, 0x45, 0x04, 0x3f,
  0x77, 0x44, 0x56, 0xbe, 0x15, 0x0b, 0x09, 0x3f, 0xa3, 0xa5, 0xb7, 0x3d,
  0xd1, 0x05, 0x27, 0xbd, 0x53, 0x8a, 0x8b, 0x3e, 0xe6, 0x85, 0xb6, 0xbd,
  0xc6, 0x55, 0x85, 0xbb, 0xcb, 0xe5, 0xa3, 0x3e, 0x97, 0x86, 0x7a, 0xbe,
  0xf8, 0x75, 0x37, 0x3d, 0x1d, 0xde, 0x90, 0x3e, 0x7b, 0xf3, 0xbe, 0xbd,
  0x96, 0xee, 0x4e, 0x3e, 0x47, 0xee, 0xa8, 0x3e, 0x3e, 0x82, 0x7e, 0x3d,
  0x5f, 0x2c, 0x95, 0xbc, 0x75, 0x63, 0xac, 0xbc, 0x1a, 0x6d, 0x56, 0xbe,
  0xf7, 0x76, 0xe8, 0xbd, 0x7c, 0xf7, 0x3c, 0xbe, 0xce, 0x7a, 0x03, 0xbe,
  0x8c, 0xc8, 0x01, 0xbf, 0x08, 0x5e, 0xf0, 0xbd, 0xf0, 0xc2, 0x52, 0xbe,
  0x02, 0x13, 0xce, 0xbe, 0xab, 0xb4, 0xf0, 0xbd, 0x21, 0x43, 0x81, 0xbd,
  0xf7, 0xaf, 0xb3, 0x3d, 0xd7, 0xef, 0x00, 0xbe, 0xb3, 0x45, 0x2f, 0xbe,
  0x1b, 0x97, 0x45, 0x3e, 0xf8, 0x8f, 0xa9, 0x3e, 0x2e, 0x45, 0x1d, 0xbe,
  0xea, 0x9e, 0x85, 0x3e, 0x4f, 0xea, 0xd3, 0xbd, 0xef, 0x30, 0x10, 0x3d,
  0xc7, 0x23, 0xb7, 0x3d, 0xff, 0x4e, 0xa7, 0xbe, 0x87, 0x67, 0x14, 0x3e,
  0x71, 0x3c, 0x87, 0xbd, 0x5a, 0xe9, 0x34, 0xbe, 0x6a, 0xf8, 0x53, 0x3e,
  0x8e, 0x78, 0xed, 0xbd, 0xa7, 0xa8, 0x6e, 0xbe, 0x2c, 0xcd, 0x00, 0xbf,
  0xe3, 0x0c, 0x23, 0xbf, 0xf4, 0x12, 0xe6, 0xbe, 0x0b, 0xac, 0x86, 0xbe,
  0xde, 0x85, 0x18, 0xbf, 0x08, 0x2e, 0x00, 0xbe, 0xb8, 0xbd, 0xb0, 0x3e,
  0x9c, 0x01, 0xd9, 0xbe, 0xca, 0x59, 0x6f, 0x3e, 0x27, 0x3d, 0x0b, 0xbe,
  0x43, 0x2d, 0xcd, 0x3e, 0x94, 0x96, 0x5f, 0xbe, 0x57, 0xcd, 0xcd, 0xbd,
  0xa0, 0x74, 0x8b, 0x3d, 0x54, 0xe9, 0x9f, 0x3e, 0x7a, 0xcf, 0x9a, 0xbe,
  0xde, 0x1e, 0x5e, 0x3e, 0xeb, 0x4a, 0x11, 0xbe, 0x78, 0xed, 0xbf, 0x3e,
  0x46, 0xc6, 0xf0, 0xbc, 0x55, 0x47, 0x09, 0x3e, 0x10, 0x48, 0x9c, 0x3d,
  0x0a, 0x42, 0x27, 0xbe, 0xb2, 0xf4, 0x0f, 0xbf, 0xb0, 0x4e, 0xb1, 0xbd,
  0x05, 0xa1, 0x10, 0xbe, 0xb7, 0x9c, 0x17, 0xbe, 0x13, 0xec, 0x1e, 0xbf,
  0x35, 0x63, 0x65, 0xbe, 0x65, 0x68, 0x9c, 0x3b, 0x60, 0x3c, 0x4b, 0x3e,
  0xba, 0x0d, 0x5f, 0xbe, 0xc2, 0x6e, 0xf2, 0x3d, 0x52, 0x6b, 0x18, 0x3e,
  0x59, 0xf1, 0xeb, 0xbd, 0x31, 0x3c, 0x91, 0xbe, 0xf7, 0x9b, 0x9c, 0x3d,
  0x14, 0xc2, 0x4d, 0xbe, 0x2a, 0x47, 0xe5, 0x3c, 0xfb, 0x37, 0x8d, 0xbd,
  0xc6, 0xb2, 0x38, 0x3b, 0x2e, 0x7f, 0xb5, 0x3e, 0x6a, 0xc9, 0x14, 0xbe,
  0xce, 0x4d, 0xc0, 0xbe, 0x16, 0x3a, 0x05, 0x3e, 0x3c, 0xd0, 0x4a, 0xbe,
  0xee, 0xb2, 0x94, 0xbc, 0x57, 0x27, 0x3e, 0xbd, 0x69, 0x28, 0x4c, 0x3d,
  0x9a, 0xb5, 0x7b, 0xbd, 0x12, 0x30, 0x36, 0x3e, 0x5b, 0xe8, 0x0f, 0x3e,
  0x3d, 0x20, 0x94, 0xbb, 0x9d, 0x4b, 0xe4, 0xbd, 0x5d, 0x1e, 0x20, 0xbe,
  0x96, 0x2f, 0xd5, 0xbd, 0x12, 0xef, 0xb9, 0xbc, 0x95, 0xe6, 0x32, 0xbd,
  0x18, 0x2d, 0x0e, 0xbe, 0x0c, 0x70, 0xaa, 0x3d, 0x08, 0x46, 0x0d, 0x3c,
  0xdd, 0x80, 0x65, 0xbd, 0x4a, 0xb3, 0xb0, 0xbc, 0x20, 0x29, 0x5b, 0xbd,
  0x28, 0x69, 0x91, 0xbc, 0x8c, 0x8e, 0xed, 0x3c, 0xd3, 0x98, 0x3b, 0x3d,
  0xc5, 0x04, 0x19, 0xbe, 0xa8, 0x0e, 0xc5, 0xbd, 0x0c, 0x82, 0x06, 0x3e,
  0xec, 0xfd, 0x5b, 0xbd, 0xd7, 0x46, 0x2e, 0xbd, 0x55, 0x78, 0x1f, 0xbd,
  0x14, 0xc4, 0x6b, 0xbd, 0x04, 0x50, 0xf4, 0xbd, 0x3a, 0xf3, 0xf5, 0xbd,
  0xef, 0x9a, 0x29, 0xbb, 0x16, 0x55, 0xdd, 0xbd, 0xb1, 0x21, 0xb4, 0xbd,
  0x50, 0xd3, 0x3b, 0xbc, 0xe3, 0x71, 0x6c, 0x3d, 0x30, 0x2c, 0x8e, 0x3d,
  0xb5, 0x5b, 0xa4, 0xbd, 0x2f, 0x97, 0x04, 0xbe, 0xdd, 0xdb, 0xba, 0xbd,
  0x93, 0x16, 0xef, 0xbd, 0xbb, 0x2c, 0x02, 0xbe, 0xbb, 0x4d, 0x1a, 0xbe,
  0x0e, 0x42, 0x24, 0xbe, 0x1b, 0x34, 0xb3, 0xbb, 0x24, 0xb2, 0x52, 0xbd,
  0xe2, 0x99, 0x8c, 0x3d, 0xe2, 0xac, 0xfe, 0x3c, 0x68, 0x84, 0x77, 0xbd,
  0x60, 0x48, 0xc1, 0xbb, 0x42, 0x5c, 0xc7, 0x3d, 0x05, 0xc5, 0x94, 0x3d,
  0x90, 0x04, 0x6e, 0x3d, 0x43, 0x38, 0xde, 0xbd, 0x79, 0x3d, 0xca, 0xbc,
  0xf8, 0x11, 0xa3, 0xbd, 0xed, 0xff, 0x08, 0xb8, 0x9a, 0x80, 0x2e, 0xbe,
  0xa0, 0x88, 0x73, 0xbd, 0x21, 0xc4, 0xe7, 0x3d, 0x8b, 0xa4, 0x18, 0xbd,
  0xc4, 0xd5, 0xa3, 0xbd, 0xad, 0xd3, 0x05, 0x3d, 0x34, 0x07, 0xbc, 0xbc,
  0x21, 0xec, 0x28, 0x3d, 0xf3, 0x30, 0xfb, 0x3d, 0x50, 0x81, 0x5a, 0x3c,
  0x6d, 0xa3, 0x1b, 0xbd, 0xa9, 0xfe, 0x1d, 0xbe, 0x67, 0x5d, 0x71, 0x3b,
  0x1b, 0x86, 0x72, 0xbd, 0x63, 0xaa, 0xf4, 0xbd, 0xa8, 0x4a, 0xb6, 0xbd,
  0x00, 0x1c, 0x78, 0x3d, 0xfa, 0x9c, 0xd3, 0x3b, 0xb6, 0x1a, 0xb8, 0xbd,
  0xbd, 0xb5, 0x40, 0xbe, 0x4b, 0x98, 0x0b, 0x3d, 0xcf, 0x78, 0x01, 0x3d,
  0x2c, 0x01, 0x2d, 0xbd, 0x75, 0xc0, 0x4f, 0xbe, 0xbb, 0x6c, 0x8c, 0x3e,
  0x2f, 0x3f, 0xf9, 0xbd, 0x27, 0x12, 0x6b, 0xbe, 0x53, 0xd9, 0xe8, 0xbd,
  0x47, 0x19, 0xb0, 0x3c, 0x66, 0xc1, 0xd4, 0x3d, 0xea, 0xb0, 0x63, 0x3e,
  0x4c, 0x98, 0xcf, 0xbd, 0x32, 0x42, 0x0c, 0xbd, 0xe6, 0x2a, 0x0e, 0x3e,
  0xd7, 0x11, 0x84, 0xbd, 0x22, 0xaa, 0x00, 0xbd, 0xf2, 0x5e, 0xdc, 0xbc,
  0x88, 0xfe, 0x05, 0x3d, 0x35, 0x7e, 0x18, 0xbe, 0x07, 0x5f, 0x0c, 0x3e,
  0x21, 0x5d, 0x6e, 0x3e, 0xcb, 0xd7, 0x04, 0x3e, 0x23, 0x45, 0xa6, 0xbd,
  0xde, 0xa2, 0x0b, 0x3e, 0x04, 0x25, 0x0b, 0x3e, 0x63, 0x1c, 0x42, 0xbe,
  0x36, 0x7c, 0x00, 0xbe, 0x75, 0x80, 0x3f, 0x3c, 0xd0, 0x4c, 0xbd, 0x3e,
  0x1f, 0x0b, 0x90, 0xbd, 0x79, 0x6f, 0x8d, 0x3c, 0xa5, 0x64, 0xc6, 0xbc,
  0xf8, 0x5c, 0x02, 0x3c, 0x33, 0x1b, 0xdb, 0xbd, 0x36, 0x38, 0x11, 0xbe,
  0xa9, 0x6e, 0x27, 0x3e, 0x02, 0x57, 0x05, 0xbe, 0x03, 0xde, 0x6f, 0xbd,
  0xb5, 0xc3, 0x97, 0x3e, 0xb0, 0xef, 0x49, 0xbc, 0xbc, 0xcc, 0x31, 0xbd,
  0x9a, 0x69, 0x96, 0x3d, 0x25, 0xb1, 0x93, 0xbd, 0xaa, 0x37, 0x1b, 0x3e,
  0xf2, 0xd4, 0xc5, 0x3d, 0x8e, 0xb1, 0x63, 0xbe, 0x40, 0xfe, 0x43, 0x3c,
  0x1f, 0x58, 0x63, 0x3e, 0x8f, 0x1e, 0xb4, 0x3d, 0x1a, 0x65, 0x20, 0x3e,
  0x87, 0xe6, 0x41, 0xbd, 0xd1, 0xe2, 0x4a, 0xbe, 0x14, 0x9e, 0xde, 0x3d,
  0x1c, 0xc9, 0x6c, 0x3b, 0x04, 0x18, 0x0b, 0x3e, 0x75, 0xd4, 0x97, 0x3e,
  0x34, 0x36, 0x9e, 0xbd, 0xd8, 0xfe, 0x5a, 0xbd, 0x8d, 0xa2, 0xb1, 0xbd,
  0x07, 0xf0, 0x3f, 0x3e, 0x55, 0x77, 0x46, 0xbe, 0x82, 0xbb, 0x3b, 0xbd,
  0x4d, 0x4a, 0x38, 0x3d, 0xa9, 0x04, 0xc1, 0x3d, 0x72, 0xc6, 0xe5, 0x3d,
  0x3f, 0xc3, 0x84, 0x3d, 0xd2, 0x0f, 0xec, 0x3d, 0x86, 0x4e, 0xe7, 0xbd,
  0x57, 0x61, 0x66, 0x3b, 0x9a, 0x80, 0xb4, 0x3d, 0xe3, 0xb2, 0xaa, 0x3d,
  0xe1, 0x8d, 0x01, 0xbe, 0xa5, 0x38, 0x93, 0xbb, 0x5d, 0x14, 0xee, 0xbc,
  0xcb, 0x52, 0x06, 0xbe, 0xda, 0xcf, 0xa7, 0xbd, 0x61, 0x1f, 0x8e, 0xbd,
  0x69, 0x3f, 0xec, 0xbc, 0xf9, 0x5d, 0x0c, 0xbe, 0xbb, 0xc2, 0x69, 0xbd,
  0x0a, 0xf1, 0x38, 0xbd, 0x6e, 0xbc, 0x5e, 0x3d, 0x02, 0xce, 0x2f, 0xbe,
  0x29, 0x7b, 0xd3, 0xbb, 0xe6, 0x71, 0xab, 0x3c, 0xba, 0xd1, 0xa5, 0xbb,
  0x7c, 0x19, 0x0a, 0x3e, 0x81, 0x02, 0xc4, 0xbc, 0x47, 0xa1, 0xcc, 0x3d,
  0x43, 0xb1, 0x0a, 0x3d, 0x18, 0x1f, 0xc7, 0x3d, 0x85, 0xc9, 0x34, 0xbe,
  0x95, 0xa7, 0xb2, 0xbd, 0x9b, 0x4e, 0x08, 0xbe, 0xc5, 0xde, 0x80, 0xbc,
  0xb8, 0x23, 0x0c, 0xbe, 0x80, 0x3e, 0x0b, 0xbe, 0x27, 0x83, 0xe7, 0x3d,
  0xce, 0x84, 0x89, 0x3b, 0x9d, 0x9f, 0x33, 0xbd, 0xf1, 0x02, 0xbe, 0x3d,
  0x09, 0x04, 0x28, 0xbe, 0x16, 0x99, 0xca, 0xbd, 0x53, 0xd0, 0x0c, 0x3e,
  0x79, 0xcd, 0xbe, 0x3b, 0x09, 0x4c, 0x3d, 0x3d, 0x2b, 0xfe, 0x67, 0x3c,
  0xc3, 0xa4, 0xdf, 0x3d, 0xb4, 0xb9, 0x9f, 0xbd, 0xec, 0x7a, 0x4d, 0xbd,
  0x2b, 0xb3, 0x1e, 0xbd, 0x60, 0x27, 0x15, 0xbe, 0xd6, 0xa0, 0x11, 0x3d,
  0x57, 0xab, 0xee, 0xbd, 0x91, 0xb0, 0x2c, 0x3d, 0xc3, 0xa3, 0x51, 0xbd,
  0xc2, 0x45, 0x00, 0xbe, 0x06, 0x18, 0xc0, 0xbd, 0xd9, 0xc8, 0x24, 0xbe,
  0x39, 0xf3, 0xac, 0xbd, 0xd8, 0xa7, 0xba, 0x3d, 0xcf, 0x0b, 0x23, 0xbe,
  0x1f, 0x3d, 0xe2, 0x3d, 0x83, 0xdb, 0x18, 0xbe, 0x2e, 0xf7, 0x41, 0xbe,
  0x76, 0xe8, 0x91, 0xbd, 0xcf, 0x3e, 0x20, 0xbe, 0x49, 0x04, 0x43, 0xbd,
  0xd2, 0xb4, 0x03, 0x3e, 0x05, 0x96, 0x23, 0xbd, 0x46, 0x99, 0xda, 0xbd,
  0xfe, 0x1a, 0xe8, 0x3d, 0x77, 0xfb, 0xc0, 0x3d, 0xe6, 0x70, 0xd0, 0xbc,
  0xf7, 0x05, 0x6e, 0x3c, 0x37, 0x00, 0x37, 0xbe, 0xb5, 0xf9, 0x18, 0xbe,
  0x75, 0xda, 0x59, 0x3c, 0xc8, 0xec, 0xb3, 0xbd, 0xf9, 0xca, 0x01, 0x3e,
  0xb2, 0xec, 0x26, 0xbe, 0x4d, 0xb3, 0x87, 0xbd, 0xaf, 0xc7, 0xbf, 0xbc,
  0xae, 0x8a, 0x90, 0x3d, 0x14, 0xe4, 0x09, 0x3e, 0x0c, 0x13, 0x70, 0x3d,
  0x72, 0x3f, 0x0b, 0xbc, 0xab, 0x18, 0x46, 0xbe, 0x44, 0x45, 0x34, 0x3e,
  0xc7, 0x8c, 0x24, 0x3e, 0x35, 0x28, 0x89, 0x3e, 0xb1, 0x07, 0xa6, 0x3c,
  0xa4, 0xb6, 0x3a, 0xbe, 0xe9, 0x85, 0xf9, 0xbd, 0x6e, 0xed, 0x02, 0x3e,
  0x05, 0x50, 0x8c, 0x3e, 0xab, 0xfc, 0x49, 0xbc, 0xb0, 0x82, 0x78, 0xbd,
  0x12, 0x4c, 0x0d, 0xbf, 0xd6, 0xc5, 0x3d, 0xbe, 0x31, 0xcd, 0x82, 0xbe,
  0x77, 0x28, 0x10, 0xbc, 0xca, 0x89, 0x9e, 0x3d, 0xbd, 0x1e, 0xf5, 0xbd,
  0x7c, 0x11, 0x17, 0xbe, 0x00, 0x18, 0x75, 0x3c, 0x5d, 0x80, 0x04, 0x3e,
  0x4b, 0xeb, 0x09, 0xbe, 0x33, 0xa9, 0x34, 0x3e, 0x7c, 0xf6, 0x08, 0x3d,
  0x4e, 0x7f, 0xc6, 0x3e, 0x99, 0xb8, 0xe1, 0xbd, 0x49, 0x0f, 0x85, 0x3d,
  0x72, 0x61, 0x0e, 0x3e, 0x5d, 0x31, 0x0e, 0x3e, 0x0b, 0xd0, 0x43, 0xbe,
  0xe5, 0xcf, 0xe4, 0x3a, 0x21, 0xf1, 0x80, 0x3e, 0xd0, 0x1b, 0x8d, 0xbe,
  0x65, 0x10, 0x58, 0x3e, 0xab, 0xfa, 0xbb, 0x3e, 0x9b, 0x15, 0xaa, 0x3e,
  0xce, 0x52, 0x3e, 0xbe, 0x52, 0xe6, 0x6d, 0x3d, 0xcf, 0xaf, 0x33, 0x3e,
  0xe8, 0x7c, 0x07, 0xbe, 0xe7, 0x43, 0xa4, 0xbc, 0xab, 0x8b, 0x34, 0x3e,
  0x9d, 0x89, 0x5d, 0xbe, 0xc2, 0x19, 0x01, 0x3e, 0xc3, 0x61, 0x8a, 0xbd,
  0x7a, 0x36, 0x94, 0xbe, 0xbd, 0x6c, 0x7f, 0xbe, 0x12, 0x5b, 0xa6, 0xbe,
  0xbc, 0xaa, 0x73, 0xbe, 0xca, 0x4a, 0xdb, 0xbd, 0xaa, 0x4e, 0xed, 0x3c,
  0x47, 0xe1, 0x88, 0x3d, 0xfc, 0x26, 0x43, 0x3d, 0x87, 0x47, 0x39, 0x3e,
  0x07, 0xdc, 0x03, 0x3d, 0xc5, 0x91, 0x22, 0xbd, 0x2e, 0x41, 0x3f, 0x3d,
  0x0e, 0x11, 0x94, 0xbe, 0x7b, 0xea, 0xc2, 0x3c, 0xe0, 0x32, 0x10, 0x3e,
  0xe4, 0x5b, 0x22, 0x3e, 0x0f, 0x27, 0xab, 0x3e, 0x64, 0x59, 0x98, 0x3d,
  0x7a, 0x6a, 0x2e, 0x3b, 0x49, 0x66, 0xba, 0xbc, 0x4e, 0x8b, 0x9d, 0xbc,
  0x2a, 0xde, 0xff, 0xff, 0x04, 0x00, 0x00, 0x00, 0x00, 0x09, 0x00, 0x00,
  0x01, 0x7f, 0x09, 0xbe, 0x1d, 0x3b, 0xb4, 0xbc, 0x44, 0x05, 0xa2, 0xbd,
  0x9b, 0xd1, 0x2c, 0x3e, 0x2e, 0xf6, 0xbb, 0x3c, 0x45, 0xec, 0xa3, 0x3d,
  0xa1, 0x8b, 0x1d, 0xbe, 0x2a, 0x2d, 0xbc, 0x3c, 0xb2, 0xaa, 0x7b, 0xbe,
  0xde, 0xb8, 0x2a, 0xbd, 0x33, 0xe9, 0x96, 0x3b, 0x42, 0xb6, 0x13, 0x3e,
  0x6d, 0x9c, 0x17, 0x3d, 0x70, 0x0c, 0x17, 0x3e, 0xfc, 0x49, 0xa9, 0xbe,
  0x2a, 0xf7, 0xd1, 0x3c, 0xb4, 0x0d, 0x38, 0xbe, 0xca, 0xec, 0xec, 0xbc,
  0x27, 0xc8, 0x1d, 0x3e, 0x27, 0x0e, 0x1e, 0x3d, 0x69, 0x31, 0xd1, 0xbc,
  0x03, 0x76, 0x73, 0xbd, 0x64, 0xf8, 0x27, 0xbd, 0x89, 0x30, 0x09, 0xbe,
  0xc4, 0xe6, 0xa9, 0xbd, 0xa3, 0x59, 0xee, 0xbc, 0x38, 0x8a, 0x8a, 0xbd,
  0x88, 0x47, 0xe3, 0x3e, 0x6c, 0x9d, 0xe0, 0x3e, 0x73, 0xc1, 0x2d, 0xbe,
  0xd3, 0xe2, 0xa5, 0xbd, 0xd2, 0xb5, 0x07, 0x3e, 0x35, 0x18, 0x94, 0x3e,
  0x81, 0x01, 0x98, 0xbd, 0x70, 0x4d, 0xb8, 0xbe, 0x44, 0xcc, 0x2e, 0x3f,
  0x01, 0xf4, 0xe2, 0x3e, 0x7f, 0x63, 0x12, 0xbd, 0x65, 0x95, 0xa6, 0xbe,
  0x25, 0xca, 0xb3, 0x3e, 0xa0, 0x0f, 0x83, 0x3e, 0xf1, 0x26, 0x38, 0xbe,
  0xc0, 0xf3, 0x50, 0x3e, 0xf2, 0x16, 0x6f, 0xbd, 0x8d, 0x46, 0xa9, 0xbd,
  0x11, 0xa4, 0x27, 0xbe, 0x28, 0x7b, 0x6b, 0x3e, 0xad, 0x2a, 0xe4, 0xbc,
  0x2e, 0x43, 0xc2, 0x3c, 0xea, 0x71, 0xab, 0xbd, 0xb9, 0x3e, 0xb5, 0x3d,
  0x1c, 0x7f, 0x5b, 0xbe, 0xbb, 0xa6, 0xb0, 0x3d, 0xec, 0x54, 0x7a, 0x3e,
  0x2a, 0xf4, 0x18, 0x3e, 0x89, 0xc1, 0x06, 0xbc, 0x0d, 0x0c, 0xb9, 0x3c,
  0xb2, 0xf4, 0xec, 0x3d, 0x4f, 0xef, 0x54, 0xbe, 0xc7, 0x0f, 0xb6, 0xbd,
  0xf6, 0x9b, 0xb9, 0x3d, 0x74, 0xd6, 0xce, 0xbc, 0x32, 0xdf, 0x02, 0xbe,
  0xa6, 0x08, 0x10, 0x3e, 0x5d, 0x79, 0x4d, 0xbd, 0x8f, 0xd0, 0xf7, 0x3c,
  0x9e, 0x92, 0x00, 0xbe, 0x9a, 0xc4, 0x02, 0xbe, 0x28, 0x4b, 0x27, 0xbd,
  0xe2, 0x9f, 0x9e, 0xbd, 0xbe, 0xa5, 0x91, 0xbd, 0x68, 0x0e, 0x12, 0x3c,
  0x04, 0x30, 0x3f, 0x3d, 0x45, 0xfb, 0x93, 0x3b, 0x16, 0x74, 0x68, 0x3d,
  0x01, 0x24, 0x65, 0xbe, 0x02, 0x34, 0x1e, 0x3e, 0x48, 0xa5, 0x22, 0x3e,
  0xe9, 0x50, 0xc5, 0x3d, 0x49, 0x7b, 0xbe, 0x3c, 0x28, 0x38, 0x8d, 0x3d,
  0x65, 0xf6, 0x9d, 0x3d, 0x1b, 0x43, 0xff, 0xbd, 0x55, 0x14, 0x54, 0xbe,
  0xe6, 0xf4, 0x02, 0xbd, 0x93, 0x5d, 0x3c, 0xbe, 0xb6, 0x55, 0x8a, 0x3d,
  0xff, 0xa3, 0xf4, 0x3d, 0x69, 0x6f, 0xc8, 0x3d, 0x33, 0x09, 0x28, 0xbd,
  0x55, 0x37, 0xe1, 0xbc, 0x60, 0xf1, 0x9a, 0xbd, 0x75, 0x4d, 0xf1, 0xbc,
  0x5d, 0x7e, 0x2e, 0xbe, 0xe4, 0x87, 0xea, 0x3d, 0x41, 0x6c, 0xf9, 0x3d,
  0x7f, 0x17, 0x26, 0xbb, 0xcb, 0x92, 0x9d, 0x3e, 0xc5, 0x70, 0xac, 0xbd,
  0x3c, 0x33, 0x4f, 0x3e, 0x97, 0x3f, 0x33, 0xbe, 0xe4, 0x8a, 0x01, 0x3f,
  0x5c, 0x0f, 0x15, 0xbe, 0x1d, 0xf4, 0x08, 0xbd, 0x87, 0xf4, 0xe9, 0xbd,
  0x30, 0x4b, 0xdd, 0x3e, 0x50, 0xe0, 0x43, 0x3e, 0x2d, 0xce, 0xf9, 0xbe,
  0x7f, 0xc1, 0xc3, 0x3e, 0xb9, 0x50, 0x04, 0x3f, 0x50, 0x1c, 0xec, 0x3e,
  0x2d, 0xc3, 0x4e, 0xbe, 0xb3, 0xe5, 0x72, 0x3d, 0xcc, 0xc5, 0x4d, 0xbd,
  0x81, 0x22, 0x09, 0xbd, 0x5b, 0x07, 0xc9, 0xbe, 0x53, 0xa1, 0x6e, 0x3d,
  0x1e, 0xfe, 0xaf, 0x3e, 0x0e, 0x01, 0x80, 0x3e, 0x48, 0xf6, 0x58, 0x3e,
  0x5f, 0xd6, 0x42, 0xbc, 0xf3, 0xba, 0x96, 0x3d, 0x5b, 0xe1, 0xb1, 0x3d,
  0x17, 0x99, 0xc9, 0x3c, 0x77, 0x0c, 0x18, 0x3e, 0x00, 0x2c, 0xb5, 0xba,
  0x07, 0x19, 0x64, 0x3d, 0x32, 0x07, 0x18, 0x3d, 0x03, 0x69, 0x46, 0xbb,
  0xac, 0x53, 0x01, 0xbd, 0x3d, 0x33, 0xfa, 0x3d, 0xd8, 0x52, 0xee, 0xbd,
  0x59, 0x90, 0x1b, 0x3e, 0x4e, 0x34, 0x85, 0xbd, 0x1f, 0x68, 0x21, 0xbe,
  0x53, 0x40, 0x82, 0xbd, 0x6c, 0xb9, 0xaa, 0xbd, 0xec, 0x07, 0xf1, 0x3d,
  0xc5, 0x76, 0x0e, 0xbe, 0x94, 0xf0, 0x63, 0xbe, 0x55, 0x2b, 0x8e, 0x3d,
  0x3c, 0xc0, 0x20, 0xbe, 0x35, 0xce, 0x39, 0x3d, 0xed, 0x5c, 0x27, 0x3d,
  0x9e, 0x39, 0xc1, 0x3d, 0x15, 0x1a, 0x00, 0x3c, 0x2f, 0xbf, 0xec, 0xbb,
  0xea, 0x77, 0x20, 0xbd, 0x25, 0xc6, 0x05, 0xbe, 0x1c, 0x16, 0x60, 0x3b,
  0xd6, 0xf3, 0x91, 0xbd, 0xf2, 0xf4, 0x02, 0xbd, 0x16, 0xed, 0x74, 0x3e,
  0xbb, 0x19, 0x22, 0xbc, 0x72, 0xe6, 0xb9, 0x3c, 0xaa, 0x1a, 0xc7, 0xbd,
  0x89, 0x9e, 0x3d, 0x3e, 0x4e, 0x6a, 0xb1, 0xbd, 0x37, 0x5f, 0x03, 0x3e,
  0x29, 0xc5, 0x12, 0xbe, 0xce, 0x47, 0x09, 0x3e, 0xd8, 0x75, 0x13, 0xbd,
  0x1d, 0x6f, 0x80, 0xbd, 0xc9, 0x83, 0x8d, 0xbc, 0xe0, 0x82, 0xbd, 0xbb,
  0x0e, 0x50, 0xb7, 0x3d, 0x5d, 0x4c, 0xed, 0x3d, 0x24, 0x2b, 0x0c, 0xbc,
  0x9f, 0x51, 0x25, 0xbd, 0xf5, 0x5a, 0xa4, 0xbd, 0x4e, 0x5d, 0x4b, 0x3e,
  0xd7, 0xc5, 0x68, 0xbf, 0xb2, 0x06, 0xc5, 0x3e, 0xe6, 0x2a, 0x51, 0xbf,
  0x1c, 0xd0, 0x0b, 0xbe, 0x6e, 0x44, 0x07, 0x3e, 0x06, 0x31, 0x1b, 0x3f,
  0x05, 0x39, 0x8f, 0xbd, 0xe9, 0xaa, 0x9a, 0x3d, 0x69, 0x1f, 0x8c, 0xbe,
  0xa2, 0x67, 0xae, 0x3e, 0x64, 0xb6, 0x83, 0xbe, 0xee, 0xea, 0xb0, 0x3d,
  0x89, 0x2f, 0xac, 0x3d, 0xc8, 0xaf, 0xf2, 0xbc, 0x96, 0xcf, 0xbc, 0xbb,
  0x6f, 0xa0, 0x00, 0x3e, 0xfb, 0x0e, 0x88, 0x3d, 0x0c, 0xe5, 0x0e, 0xbe,
  0x06, 0x6a, 0x28, 0x3e, 0xa4, 0x3f, 0x8a, 0x3b, 0x76, 0x17, 0x01, 0x3d,
  0x5d, 0xe4, 0x8a, 0x3d, 0x03, 0xd0, 0xd0, 0xbd, 0xa8, 0x37, 0x7e, 0x3d,
  0x5a, 0xb5, 0xdc, 0xbd, 0xf5, 0xa7, 0x39, 0xbd, 0xd9, 0x2e, 0x95, 0x3e,
  0x0b, 0x2a, 0x51, 0x3e, 0xd3, 0x97, 0xf7, 0xbc, 0xc8, 0x59, 0x15, 0x3e,
  0x98, 0xd9, 0xf9, 0xb9, 0x25, 0xfe, 0x1f, 0x3d, 0xad, 0xc4, 0x40, 0x3c,
  0x67, 0x53, 0xc6, 0xbd, 0x2e, 0x52, 0x1f, 0x3e, 0x51, 0x62, 0x8a, 0xbc,
  0x06, 0x31, 0xa4, 0xbb, 0x6a, 0x6b, 0xd0, 0xbc, 0x3e, 0x85, 0x3b, 0x3c,
  0x96, 0xbc, 0x23, 0x3d, 0x72, 0xae, 0xf3, 0xbc, 0x1e, 0xb5, 0xa7, 0x3c,
  0xe1, 0xa1, 0x51, 0x3d, 0x0d, 0x7a, 0xeb, 0x3c, 0x74, 0xaa, 0x85, 0xbd,
  0x9d, 0x93, 0x9f, 0xbd, 0xd8, 0x79, 0x91, 0xbd, 0xbe, 0xf9, 0x38, 0x3e,
  0x1c, 0xdc, 0x94, 0xbe, 0x55, 0xd1, 0x14, 0x3e, 0xa4, 0x29, 0x17, 0xbd,
  0x93, 0xad, 0xbc, 0x3c, 0x16, 0xf9, 0x65, 0xbd, 0x36, 0x9f, 0x69, 0xbe,
  0x20, 0xf8, 0xc4, 0x3b, 0x96, 0xc6, 0xdd, 0x3e, 0x02, 0xa3, 0x3f, 0xbd,
  0x24, 0x96, 0x55, 0x3d, 0x15, 0x25, 0x41, 0x3c, 0xee, 0x60, 0x0d, 0xbd,
  0x30, 0x97, 0xa4, 0xbe, 0xd9, 0x45, 0x83, 0xbd, 0x33, 0xd4, 0x87, 0xbd,
  0xbe, 0xb8, 0xa4, 0x3c, 0x90, 0x68, 0x0f, 0xbd, 0xcd, 0x2b, 0xa4, 0xbd,
  0xe7, 0xe1, 0x20, 0x3d, 0x80, 0xe0, 0x7d, 0xbd, 0xdd, 0xc5, 0x0a, 0x3c,
  0x1c, 0x58, 0x7f, 0x3d, 0x72, 0x2e, 0x99, 0xbd, 0x28, 0xc0, 0xc2, 0x3e,
  0x48, 0xcb, 0x76, 0xbc, 0xa8, 0x51, 0x97, 0x3e, 0x37, 0xd1, 0x8c, 0x3e,
  0xc5, 0x3f, 0xbc, 0x3e, 0x95, 0xa2, 0x09, 0xbe, 0x45, 0x0c, 0x89, 0x3e,
  0x11, 0x24, 0x25, 0xbd, 0xb5, 0xf8, 0xa2, 0x3f, 0x5a, 0xc1, 0x22, 0x3e,
  0xd8, 0x46, 0x31, 0xbe, 0xe6, 0xb0, 0x51, 0xbe, 0x53, 0xf5, 0xfe, 0x3d,
  0xe4, 0xb0, 0x68, 0xbf, 0x1d, 0xab, 0xdc, 0x3d, 0x44, 0x96, 0xa8, 0x3c,
  0xc7, 0x99, 0xbd, 0xbd, 0x38, 0xe6, 0xd8, 0x3d, 0xdc, 0x70, 0x63, 0xbd,
  0x5c, 0xa5, 0xdb, 0xbd, 0xb6, 0x6d, 0x0c, 0x3e, 0xed, 0xaa, 0xa6, 0x3e,
  0xe0, 0xfc, 0x87, 0x3d, 0xf6, 0x73, 0xde, 0xbc, 0x2b, 0x11, 0x33, 0x3e,
  0xf5, 0xf4, 0xd2, 0x3d, 0x4b, 0x7c, 0x76, 0xbb, 0x55, 0x7d, 0x36, 0x3e,
  0x87, 0x02, 0xb6, 0x3d, 0xeb, 0x95, 0xf6, 0xbd, 0xd4, 0xef, 0xdf, 0x3d,
  0xc8, 0x5c, 0x67, 0xbe, 0x20, 0x7b, 0xda, 0x3e, 0x50, 0x54, 0x93, 0x3b,
  0xea, 0x3e, 0xf5, 0x3c, 0x38, 0x28, 0x95, 0xbc, 0xbd, 0x00, 0x16, 0xbd,
  0x65, 0x09, 0x44, 0xbe, 0x7c, 0x05, 0xc1, 0xbd, 0x86, 0xf0, 0x36, 0x3d,
  0xeb, 0x3d, 0xd8, 0xbd, 0xe8, 0x83, 0x59, 0xbd, 0x7b, 0xd6, 0xbb, 0x3c,
  0xb8, 0xfc, 0x08, 0x3c, 0xe8, 0x7e, 0x8f, 0x3d, 0x71, 0xa8, 0x29, 0x3e,
  0x90, 0xa0, 0xea, 0xbd, 0x8b, 0xbe, 0x0f, 0xbe, 0x73, 0x5b, 0xf4, 0xbc,
  0xa3, 0xfd, 0x1b, 0x3e, 0x9b, 0x49, 0x6a, 0xbe, 0xf1, 0x7c, 0x58, 0x3d,
  0xfd, 0x2f, 0xa7, 0xbd, 0x42, 0xa2, 0x00, 0x3d, 0x98, 0x4e, 0x2e, 0xbd,
  0x95, 0x8a, 0x3f, 0xbd, 0x9d, 0xa2, 0xa2, 0x3d, 0xc8, 0x55, 0x7d, 0x3d,
  0x50, 0xb5, 0x31, 0xbe, 0x8b, 0x88, 0x2f, 0x3d, 0xeb, 0xfd, 0xb1, 0x3d,
  0xe7, 0xf3, 0x92, 0xbd, 0x7a, 0xb4, 0xb7, 0x3d, 0x6b, 0x17, 0xbc, 0xbd,
  0x33, 0x0d, 0x81, 0xbd, 0x90, 0xf2, 0xa5, 0xbc, 0x51, 0x5c, 0x22, 0xbe,
  0x94, 0xdf, 0xa1, 0xbd, 0x2d, 0xfe, 0x05, 0x3e, 0x9f, 0xc1, 0xcc, 0x3d,
  0xdc, 0x05, 0x89, 0x3d, 0x46, 0x09, 0x42, 0xbe, 0x9c, 0x65, 0x3a, 0xbd,
  0xaa, 0x33, 0x2c, 0x3e, 0x8a, 0x9e, 0x40, 0xbe, 0x5c, 0x98, 0xad, 0xbe,
  0xa6, 0xa5, 0xb8, 0x3e, 0x8e, 0xe0, 0x68, 0x3e, 0x19, 0xb7, 0x98, 0x3e,
  0x27, 0x63, 0x08, 0xbf, 0x63, 0x00, 0x20, 0xbd, 0x5d, 0x98, 0x16, 0xbe,
  0x5d, 0x00, 0x17, 0xbf, 0x5a, 0x62, 0xb5, 0x3e, 0x31, 0xca, 0x27, 0x3f,
  0x34, 0x4a, 0xb5, 0x3e, 0x20, 0x7e, 0xb5, 0x3e, 0xb4, 0x47, 0x36, 0xbd,
  0x64, 0xa0, 0x11, 0xbe, 0xcb, 0xc8, 0x93, 0x3d, 0x8e, 0xba, 0x12, 0x3e,
  0xba, 0x7c, 0x89, 0x3e, 0x52, 0xee, 0x9c, 0x3e, 0x0b, 0xc6, 0x0a, 0x3f,
  0xe1, 0xe4, 0xd6, 0x3c, 0xe5, 0x70, 0x7f, 0x3b, 0x0b, 0x6b, 0xc9, 0x3d,
  0x74, 0xa1, 0x8b, 0xbc, 0x9b, 0x50, 0x88, 0xbe, 0x24, 0x39, 0x93, 0x3c,
  0x0a, 0x51, 0x6f, 0x3d, 0x88, 0xab, 0x14, 0xbe, 0xbe, 0xab, 0x94, 0xbb,
  0x5f, 0xc8, 0x26, 0x3d, 0xfc, 0xdc, 0xa4, 0xba, 0xec, 0x4f, 0xe4, 0xbd,
  0x8b, 0x18, 0x93, 0xbc, 0xf8, 0xf4, 0xac, 0x3d, 0x38, 0xc8, 0xc6, 0x3e,
  0xcd, 0xd1, 0x77, 0xbc, 0x07, 0x3f, 0x8b, 0xbd, 0xfc, 0xaf, 0xfb, 0x3d,
  0x81, 0x3f, 0xf9, 0xbd, 0xe8, 0x33, 0x27, 0xbc, 0x73, 0xdf, 0x95, 0x3d,
  0x14, 0xbf, 0x08, 0x3d, 0x11, 0x23, 0xf7, 0x3d, 0xf0, 0xbf, 0x4e, 0x3e,
  0xf0, 0x45, 0xb4, 0x3c, 0xd6, 0xaa, 0xb0, 0x3d, 0xc9, 0x89, 0x26, 0xbd,
  0xca, 0xea, 0x47, 0x3e, 0x31, 0x58, 0xcb, 0xbd, 0x29, 0x12, 0x19, 0x3d,
  0xf5, 0x25, 0x8f, 0xbd, 0x46, 0x3c, 0x3b, 0xbd, 0x11, 0x90, 0x6e, 0x3e,
  0xb1, 0x4c, 0xd4, 0x3c, 0xef, 0xb5, 0x94, 0xbe, 0xf8, 0xca, 0xcd, 0x3c,
  0x30, 0x9f, 0x92, 0xbd, 0x74, 0x7a, 0xbc, 0x3c, 0x53, 0xea, 0x26, 0x3e,
  0x05, 0x83, 0xfb, 0x3d, 0x56, 0x55, 0x57, 0xbd, 0xc6, 0x31, 0x53, 0xbd,
  0xf2, 0xbd, 0x6d, 0xb9, 0x36, 0x9b, 0x2c, 0x3d, 0x30, 0xd9, 0xf4, 0xbd,
  0xf2, 0xf1, 0x23, 0x3d, 0x43, 0xf2, 0x1d, 0x3d, 0xda, 0xa9, 0xaf, 0xbd,
  0x04, 0x62, 0x45, 0xbe, 0xd0, 0xd1, 0x3c, 0x3e, 0xea, 0xdb, 0x22, 0x3e,
  0x67, 0x4b, 0xf1, 0xbe, 0x8e, 0xf2, 0xa1, 0x3e, 0xd5, 0xa9, 0x18, 0xbe,
  0xa8, 0x7a, 0xc6, 0x3e, 0x2b, 0x6a, 0x3a, 0x3d, 0x87, 0x66, 0x2a, 0xbf,
  0xc9, 0x50, 0x43, 0x3f, 0x99, 0x25, 0xcf, 0xbd, 0x97, 0xe7, 0xc5, 0x3e,
  0x48, 0x43, 0x14, 0xbf, 0x92, 0x81, 0x3c, 0x3e, 0x45, 0x6a, 0x74, 0x3e,
  0x59, 0xd1, 0x7f, 0x3b, 0xce, 0x3d, 0x23, 0x3e, 0x72, 0x75, 0x0e, 0xbc,
  0x06, 0xe2, 0xcf, 0x3d, 0xd5, 0x1d, 0xc2, 0x3e, 0x88, 0xb2, 0x59, 0xbd,
  0x7b, 0x28, 0x49, 0xbe, 0x83, 0x7e, 0xdb, 0x3b, 0x55, 0x00, 0xec, 0x3d,
  0x5c, 0xb7, 0x19, 0xbd, 0x47, 0x91, 0xbf, 0x3c, 0x75, 0xe4, 0x09, 0xbd,
  0xe6, 0x7f, 0xe3, 0x3d, 0x9e, 0xf0, 0xea, 0x3d, 0x93, 0xe9, 0x17, 0x3e,
  0x39, 0xe6, 0x0e, 0xbd, 0x76, 0x33, 0xde, 0x3b, 0xcb, 0xe7, 0x55, 0xbe,
  0x22, 0xa9, 0xf6, 0xbb, 0x3b, 0x83, 0xa6, 0x3d, 0x70, 0x96, 0x5f, 0x3e,
  0xe6, 0x8a, 0x14, 0xbd, 0x35, 0xe9, 0x5c, 0x3d, 0xc1, 0xb0, 0x30, 0xbd,
  0x26, 0x94, 0x3a, 0x3d, 0x3a, 0x2d, 0x80, 0xbd, 0x50, 0x3b, 0x08, 0x3c,
  0xb0, 0x1f, 0xfc, 0xbc, 0x77, 0x2d, 0x2b, 0x3e, 0x5f, 0x0a, 0x74, 0xbd,
  0xdd, 0xfb, 0xd1, 0x3d, 0x2c, 0x17, 0x8b, 0x3a, 0x7f, 0xc2, 0xe9, 0x3d,
  0x45, 0xff, 0x8d, 0xbc, 0xf1, 0xcd, 0x22, 0x3c, 0xee, 0x4e, 0x0a, 0x3c,
  0x5c, 0xeb, 0xf6, 0x3c, 0x3b, 0x3c, 0xc2, 0xbd, 0x1b, 0x91, 0x25, 0xbd,
  0x9e, 0xff, 0x9e, 0xbd, 0x2b, 0x74, 0x0d, 0x3c, 0x13, 0xb8, 0x2a, 0xbd,
  0xbd, 0xe5, 0xe8, 0x39, 0xe9, 0xb3, 0xf7, 0x3b, 0x33, 0x84, 0x4f, 0x3d,
  0xb5, 0x56, 0x73, 0x3d, 0x33, 0xe3, 0x5b, 0xbc, 0x9a, 0x94, 0x9b, 0xbd,
  0x03, 0xab, 0xd4, 0xba, 0xa2, 0x62, 0x16, 0x3e, 0xc9, 0x6c, 0x96, 0xbc,
  0xe1, 0xfd, 0x02, 0xbe, 0x17, 0x38, 0x64, 0xbc, 0x26, 0x55, 0xc8, 0xbd,
  0x2e, 0x59, 0xe8, 0xbd, 0xc2, 0x35, 0xae, 0x3d, 0x7e, 0x76, 0x69, 0x3d,
  0x48, 0x5a, 0xd9, 0xbd, 0x0f, 0x5c, 0xbc, 0x3d, 0x68, 0x55, 0xaf, 0x3d,
  0xec, 0xdc, 0xab, 0x3e, 0x98, 0x62, 0x6e, 0xbe, 0xba, 0xd3, 0x9c, 0xbe,
  0x79, 0xfb, 0xdf, 0xbe, 0x12, 0x63, 0xe7, 0xbd, 0x36, 0x2d, 0xf5, 0xbe,
  0x41, 0x3c, 0x10, 0xbe, 0xcd, 0x2f, 0xa6, 0x3e, 0xfb, 0xca, 0x50, 0x3e,
  0xb5, 0xa2, 0x67, 0x3e, 0x16, 0x95, 0x66, 0x3f, 0x23, 0x4e, 0x32, 0xbf,
  0x66, 0xd0, 0xf0, 0xbd, 0xed, 0x7b, 0x40, 0x3c, 0x17, 0xa9, 0xdb, 0x3d,
  0xcc, 0x81, 0xbd, 0x3d, 0x8e, 0x9f, 0xfa, 0x3e, 0x49, 0x47, 0x88, 0xbb,
  0x0d, 0xfc, 0xec, 0x3e, 0x43, 0x0e, 0xec, 0xbd, 0xb9, 0x2a, 0x53, 0x3e,
  0x05, 0x16, 0x92, 0xbd, 0xbf, 0x68, 0x58, 0x3d, 0x9e, 0x50, 0xe7, 0x3b,
  0x02, 0x5f, 0x31, 0x3e, 0x7f, 0xbe, 0x23, 0x3e, 0xe6, 0xc0, 0xbc, 0xbd,
  0xcd, 0xc8, 0x34, 0xbd, 0x8d, 0x2a, 0xac, 0xbd, 0x1f, 0xc5, 0xdf, 0xbd,
  0xb2, 0xae, 0xaf, 0x3a, 0x0d, 0x20, 0x4b, 0x3d, 0x05, 0x77, 0xc0, 0x3e,
  0x81, 0x4d, 0xaa, 0x3d, 0xc7, 0xd1, 0xf5, 0xbc, 0xaf, 0x01, 0xca, 0xbd,
  0xa9, 0xfd, 0xeb, 0xbc, 0xdc, 0xd2, 0x97, 0xbc, 0x8b, 0x84, 0x9b, 0x3c,
  0x4f, 0x23, 0x11, 0x3e, 0xdf, 0x71, 0xa1, 0x3e, 0x84, 0xde, 0x76, 0x3d,
  0x97, 0x75, 0xbb, 0x3d, 0xcf, 0x6a, 0x01, 0xbd, 0x5d, 0x56, 0x7d, 0x3d,
  0x72, 0x45, 0xbb, 0xbd, 0xf7, 0x44, 0xff, 0xbd, 0x9f, 0x10, 0xce, 0x3d,
  0xb5, 0x43, 0xba, 0xbe, 0x0c, 0x6b, 0x5f, 0x3e, 0xda, 0x4f, 0x88, 0x3d,
  0xc9, 0x0c, 0x25, 0xbe, 0xa5, 0xf3, 0x67, 0xbd, 0x86, 0x43, 0x7a, 0xbc,
  0x73, 0x54, 0x98, 0x3b, 0x6e, 0xfa, 0x4f, 0x3d, 0xf8, 0x3f, 0x8f, 0xbd,
  0x75, 0x80, 0xaa, 0x3a, 0x37, 0x67, 0x09, 0xbe, 0x95, 0xb7, 0x3b, 0xbe,
  0xda, 0xf3, 0xd3, 0x3d, 0x9e, 0x08, 0x0d, 0x3c, 0xb6, 0x75, 0xa4, 0xbb,
  0x27, 0x7d, 0xdf, 0xbd, 0x95, 0xb5, 0xee, 0xbd, 0x31, 0xe5, 0x92, 0xbd,
  0xa6, 0xfa, 0x1c, 0xbe, 0xa8, 0xa7, 0xd0, 0xbd, 0x49, 0xce, 0x2e, 0x3e,
  0x4a, 0x23, 0x45, 0x3e, 0x21, 0x94, 0x18, 0xbd, 0x80, 0xda, 0x3c, 0xbe,
  0xee, 0x23, 0xa7, 0xbd, 0xa1, 0xaf, 0x32, 0x3f, 0x40, 0x69, 0x14, 0x3f,
  0x99, 0x21, 0xe4, 0x3e, 0x8f, 0x3b, 0x8c, 0x3e, 0xe3, 0xbd, 0x7e, 0xbb,
  0x64, 0x79, 0x3f, 0x3e, 0xc7, 0x80, 0xb1, 0xbe, 0x9e, 0x82, 0x13, 0xbe,
  0x5e, 0x3f, 0xf3, 0x3d, 0xb5, 0x36, 0x01, 0xbf, 0x16, 0x4c, 0xdf, 0xbd,
  0xbe, 0xc5, 0xf8, 0x3e, 0x5a, 0x56, 0xfd, 0xbd, 0x89, 0x97, 0x0e, 0x3e,
  0x82, 0x78, 0xa8, 0xbe, 0xe1, 0x24, 0x16, 0x3e, 0xc1, 0x63, 0x8c, 0xbd,
  0xd1, 0x10, 0xe6, 0x3d, 0x3f, 0x18, 0x27, 0x3d, 0x52, 0x20, 0xde, 0x3e,
  0xb7, 0x8f, 0x97, 0xbc, 0xee, 0xff, 0xbf, 0x3d, 0x8b, 0x24, 0x90, 0xbd,
  0xf3, 0x91, 0x4b, 0x3e, 0x26, 0x39, 0xcc, 0xbd, 0xa0, 0xe1, 0xd2, 0xbd,
  0x95, 0xc7, 0xd7, 0xbd, 0xd1, 0x9c, 0x17, 0x3d, 0xc7, 0x0e, 0x26, 0xbd,
  0xaf, 0xbc, 0x82, 0x3d, 0xb5, 0x50, 0xb2, 0xbd, 0xd5, 0xd2, 0x0c, 0x3d,
  0x86, 0x63, 0xeb, 0x3d, 0xc0, 0x41, 0xff, 0xbd, 0x8e, 0x85, 0x0d, 0x3d,
  0x88, 0x6b, 0xc1, 0x3d, 0x6a, 0xda, 0x91, 0xbd, 0xf9, 0x07, 0x84, 0x3d,
  0xa1, 0xf9, 0xef, 0xbc, 0x3b, 0x5a, 0xac, 0x3d, 0x23, 0xad, 0xaf, 0x3d,
  0xb0, 0x4e, 0x95, 0x3b, 0xb8, 0x5c, 0xec, 0x3c, 0xa8, 0x30, 0x0a, 0x3e,
  0x36, 0xe7, 0xff, 0xff, 0x04, 0x00, 0x00, 0x00, 0x00, 0x12, 0x00, 0x00,
  0x1d, 0xd9, 0x0b, 0xbd, 0xd3, 0x6f, 0x3c, 0x3e, 0xcb, 0x70, 0x18, 0x3e,
  0xdb, 0xb2, 0x4e, 0xbc, 0xa7, 0x24, 0xc1, 0xbe, 0xc6, 0x18, 0x0a, 0xbe,
  0x87, 0x1c, 0xb7, 0xbd, 0x68, 0x34, 0x6e, 0xbf, 0x02, 0xdf, 0x19, 0xbc,
  0x6f, 0x9f, 0x9a, 0xbd, 0x1e, 0x32, 0x3a, 0x3b, 0x07, 0xc5, 0x75, 0x3d,
  0x8f, 0x61, 0x8b, 0x3b, 0x78, 0x5b, 0xa0, 0x3d, 0x99, 0x5c, 0x65, 0xbf,
  0x66, 0x20, 0xc8, 0xbd, 0x9b, 0xe1, 0xe3, 0x3b, 0x67, 0x18, 0x0a, 0x3f,
  0x96, 0xeb, 0xb4, 0x3e, 0xb5, 0x5e, 0xee, 0x3c, 0x88, 0xb0, 0x3b, 0xbe,
  0x18, 0x9a, 0x9a, 0x3d, 0x98, 0x97, 0xbe, 0xbb, 0x36, 0x89, 0x70, 0x3e,
  0xa4, 0xd7, 0xc6, 0xbe, 0x05, 0x7f, 0x86, 0xbc, 0x71, 0xb5, 0x8e, 0x3d,
  0xaa, 0xc5, 0x3f, 0x3c, 0xfa, 0xdc, 0x57, 0x3e, 0x84, 0x3d, 0x8a, 0xbe,
  0x44, 0x03, 0x8f, 0xbe, 0x04, 0x05, 0x7b, 0xbe, 0xa8, 0xd0, 0x97, 0x3e,
  0x76, 0xfa, 0xb0, 0xbd, 0xd1, 0x65, 0x3e, 0xbe, 0x0a, 0xf1, 0xbc, 0x3c,
  0x6c, 0x12, 0x64, 0x3d, 0xf4, 0x9e, 0x13, 0x3e, 0x3b, 0xb3, 0x6f, 0xbd,
  0xa3, 0xc0, 0x11, 0xbe, 0xd9, 0x36, 0x2f, 0x3e, 0xc3, 0x72, 0x00, 0xbe,
  0x8c, 0x45, 0x8c, 0x3d, 0x67, 0x9c, 0xed, 0x3d, 0xf6, 0x55, 0xbc, 0xbb,
  0xaf, 0x12, 0xa2, 0x3e, 0x6b, 0x77, 0x07, 0xbc, 0xa2, 0xc6, 0xd1, 0x3d,
  0x55, 0x6b, 0x64, 0xbc, 0xfb, 0x4c, 0x38, 0x3e, 0xf3, 0x29, 0x5a, 0xbf,
  0x1f, 0xcc, 0x86, 0x3d, 0x7b, 0xd4, 0x3c, 0xbf, 0x60, 0x71, 0xec, 0x3b,
  0x3a, 0x9a, 0xbf, 0xbe, 0x7c, 0x0d, 0x98, 0xbf, 0x6d, 0xf5, 0xab, 0x3d,
  0xa6, 0x70, 0xdc, 0x3c, 0x3d, 0x62, 0x53, 0xbd, 0x10, 0xd2, 0xfb, 0xb7,
  0x1d, 0xe1, 0x75, 0x3e, 0xb9, 0xed, 0x8d, 0xbd, 0x2b, 0x94, 0xb6, 0xbf,
  0x8f, 0xb9, 0xd3, 0xbd, 0xfc, 0xe9, 0x01, 0x3c, 0x1a, 0x5e, 0xe7, 0x3e,
  0x77, 0x51, 0x34, 0x3e, 0x95, 0xb7, 0x72, 0x3d, 0x7c, 0x05, 0xfc, 0xbe,
  0xbc, 0xf3, 0xcf, 0x3d, 0xe0, 0x84, 0x88, 0xbe, 0xdc, 0xaa, 0x63, 0x3e,
  0x32, 0x05, 0x14, 0xbe, 0xc0, 0xb2, 0x94, 0xbb, 0x03, 0x73, 0xc6, 0xbd,
  0x3c, 0x66, 0xa6, 0x3e, 0x45, 0xe5, 0xf3, 0x3e, 0xbb, 0x19, 0xc7, 0xbd,
  0x6b, 0x07, 0x88, 0xbe, 0x40, 0x55, 0x61, 0xbe, 0x80, 0xf8, 0x5c, 0x3e,
  0x28, 0xc9, 0x13, 0x3c, 0x42, 0xb8, 0x21, 0xbe, 0x78, 0x4a, 0x4b, 0x3e,
  0x85, 0xdd, 0x1a, 0xbe, 0x4a, 0x04, 0xcd, 0x3c, 0x27, 0x34, 0x94, 0xbe,
  0x1c, 0x57, 0xd5, 0xbe, 0x7c, 0x80, 0x81, 0x3e, 0xa2, 0x8f, 0x23, 0x3c,
  0xcc, 0x8f, 0xc2, 0xbd, 0xff, 0x9c, 0xfe, 0xbd, 0x99, 0x75, 0x02, 0x3e,
  0xec, 0xd3, 0x01, 0x3e, 0xfe, 0xed, 0xd0, 0xbc, 0x5f, 0x91, 0xcf, 0x3e,
  0x59, 0xeb, 0x35, 0xbd, 0x90, 0x78, 0x23, 0xbe, 0xc4, 0xfa, 0x8d, 0xbe,
  0xbc, 0x9f, 0xd8, 0x3c, 0xd2, 0x1b, 0x81, 0xbf, 0xeb, 0x30, 0x2a, 0xbe,
  0x93, 0x3c, 0x50, 0x3e, 0x0d, 0x1d, 0xef, 0xbe, 0x6e, 0x60, 0x88, 0xbe,
  0xc5, 0xc3, 0xdf, 0x3c, 0x7e, 0x4b, 0x82, 0xbf, 0xf5, 0x3d, 0x4f, 0x3d,
  0xd0, 0x0d, 0xab, 0x3e, 0xdb, 0x41, 0x76, 0xbb, 0x03, 0xb7, 0x3e, 0xbe,
  0x32, 0xe9, 0x0e, 0xbe, 0x7e, 0x0f, 0xa7, 0xbb, 0xcc, 0x6a, 0xc7, 0xbe,
  0xcd, 0x7f, 0x9c, 0xbe, 0xfc, 0x46, 0xa9, 0x3d, 0x11, 0xea, 0x68, 0x3e,
  0xd0, 0x81, 0x06, 0x3c, 0x92, 0x76, 0x6b, 0x3e, 0xf5, 0xbd, 0x22, 0xbe,
  0xae, 0xf6, 0xb2, 0xbe, 0x6f, 0x39, 0x14, 0x3c, 0x99, 0x11, 0x09, 0xbe,
  0x29, 0x54, 0x7c, 0x3d, 0x61, 0x9b, 0x4f, 0x3e, 0x0e, 0xed, 0x76, 0xbd,
  0xee, 0x17, 0x9e, 0x3d, 0xad, 0x35, 0x0f, 0xbf, 0x7c, 0x49, 0x12, 0x3c,
  0x27, 0x7a, 0x71, 0xbd, 0xd1, 0xed, 0xd0, 0x3d, 0x0f, 0x22, 0x8e, 0xbc,
  0x1d, 0xa3, 0x5a, 0xbe, 0x3a, 0xbf, 0x50, 0xbd, 0x79, 0xa9, 0x1a, 0x3e,
  0x12, 0xef, 0x2b, 0x3e, 0xc4, 0x3b, 0x7a, 0xbe, 0x36, 0x4c, 0xd7, 0x3d,
  0xcf, 0xb9, 0xdd, 0x3e, 0x35, 0x91, 0x67, 0x3e, 0xd9, 0x1a, 0x49, 0x3f,
  0x34, 0x89, 0x12, 0xbe, 0x4e, 0x20, 0x46, 0x3e, 0x7f, 0x90, 0xc8, 0xbe,
  0x54, 0x04, 0xbf, 0xbb, 0x21, 0xa2, 0x05, 0x3e, 0x95, 0x43, 0x25, 0xbf,
  0x9f, 0x14, 0xb4, 0x3d, 0x65, 0x3c, 0xbe, 0xbd, 0xf8, 0xd1, 0x22, 0x3e,
  0x9e, 0x3b, 0xb6, 0xbd, 0xae, 0x14, 0xd1, 0x3d, 0x12, 0xf5, 0x63, 0x3f,
  0xc8, 0xba, 0xb0, 0xbd, 0x6b, 0x5d, 0x35, 0x3b, 0xc6, 0x68, 0x83, 0x3c,
  0x2b, 0x05, 0xdb, 0x3d, 0xc9, 0x91, 0xa6, 0xbd, 0x1d, 0x55, 0xdc, 0x3c,
  0xea, 0x45, 0x09, 0x3e, 0x0c, 0x8c, 0xd5, 0xbb, 0x2e, 0xce, 0x76, 0xbe,
  0x3b, 0xe3, 0x4a, 0xbe, 0x9a, 0x41, 0xab, 0xbd, 0x94, 0xf1, 0xef, 0xbd,
  0x5e, 0xbf, 0x24, 0x3e, 0x22, 0x7f, 0xd9, 0xbd, 0xcc, 0x99, 0xa5, 0x3c,
  0xa8, 0x5e, 0x3c, 0xbf, 0xc8, 0xa1, 0x26, 0x3a, 0x4b, 0x3d, 0xe8, 0xbd,
  0x0c, 0x8b, 0xd9, 0xbd, 0x70, 0x39, 0x64, 0x3d, 0x69, 0x02, 0x75, 0x3e,
  0x66, 0xaa, 0x75, 0xbb, 0x34, 0x6b, 0xc5, 0xbe, 0xe1, 0x10, 0x8c, 0xbc,
  0x6a, 0x3c, 0x59, 0x3c, 0x19, 0x5f, 0xb1, 0x3d, 0x00, 0x61, 0x1c, 0xbe,
  0xfd, 0x9d, 0xaf, 0x3e, 0x07, 0x91, 0x15, 0x3c, 0xe1, 0x5a, 0x20, 0xbd,
  0x4b, 0xc2, 0x37, 0xbd, 0x49, 0x9e, 0x1d, 0x3d, 0xf4, 0xad, 0x14, 0x3e,
  0x9d, 0xb7, 0x1f, 0xbd, 0x97, 0xea, 0xfd, 0x3d, 0x1d, 0x2a, 0xaf, 0x3d,
  0xed, 0x68, 0x5f, 0x3d, 0x6d, 0x9c, 0x3c, 0xbd, 0x1d, 0xee, 0xca, 0xbc,
  0x75, 0xcb, 0xc0, 0xbd, 0xc7, 0x73, 0x2c, 0xbe, 0x8a, 0x3c, 0x7e, 0xbe,
  0x28, 0x46, 0xb8, 0x3c, 0xd6, 0xae, 0xb0, 0xbe, 0x19, 0xd8, 0x3d, 0xbd,
  0x0b, 0xb0, 0xa1, 0x3d, 0x70, 0x7c, 0x38, 0x3e, 0x3c, 0xf3, 0x08, 0xbe,
  0xa5, 0x78, 0x27, 0xbe, 0x61, 0x6b, 0xc8, 0xbc, 0xa3, 0xe9, 0x81, 0xbc,
  0x95, 0x19, 0x9f, 0x3d, 0x39, 0x45, 0xbb, 0xbc, 0x43, 0xfe, 0x3a, 0x3e,
  0x8b, 0x18, 0xc8, 0x3d, 0x00, 0xff, 0x33, 0xbc, 0x0e, 0x7b, 0xae, 0xbf,
  0x5a, 0x94, 0x17, 0xbf, 0x60, 0x2a, 0xa4, 0x3d, 0x11, 0x3c, 0xbc, 0x3e,
  0x28, 0x9f, 0x12, 0x3e, 0xac, 0xd9, 0x3f, 0xbd, 0xc8, 0xe9, 0xe3, 0xbe,
  0x5c, 0x27, 0xc0, 0xbe, 0x5d, 0x76, 0xd7, 0x3c, 0xb1, 0x46, 0xf7, 0x3c,
  0xda, 0x38, 0xa8, 0xbe, 0xab, 0x5c, 0x69, 0x3d, 0x14, 0xa5, 0xa3, 0x3d,
  0xb2, 0x30, 0x0d, 0x3e, 0xbb, 0xaf, 0xcc, 0xbd, 0x98, 0x9f, 0x85, 0xbe,
  0xa8, 0xf0, 0xa2, 0xbd, 0xf9, 0xb8, 0xa8, 0x3e, 0xb1, 0xc7, 0x1c, 0xbe,
  0x71, 0x4f, 0x9e, 0x3e, 0x5c, 0x12, 0x7f, 0xbd, 0x0e, 0x56, 0x9e, 0x3e,
  0xa3, 0xac, 0x92, 0x3e, 0xa1, 0xc7, 0x0e, 0xbe, 0x41, 0x0a, 0x97, 0x3e,
  0x4d, 0x48, 0x81, 0x3d, 0x13, 0x0e, 0x54, 0x3f, 0x39, 0x53, 0xbf, 0x3e,
  0xce, 0xb8, 0x90, 0xbe, 0x47, 0x69, 0xe0, 0xbd, 0x89, 0xeb, 0xdb, 0xbe,
  0x63, 0x51, 0xfa, 0x3c, 0x5e, 0xf3, 0x29, 0x3e, 0x37, 0xf6, 0x33, 0xbf,
  0x4e, 0x45, 0x88, 0x3d, 0xa9, 0xcd, 0x34, 0xbf, 0xeb, 0x4f, 0x05, 0x3e,
  0x53, 0x88, 0xeb, 0x3d, 0x5b, 0xe1, 0xb6, 0xbf, 0x0e, 0x14, 0xff, 0x3d,
  0xc8, 0x14, 0xd1, 0xbd, 0x5d, 0x1a, 0xe8, 0x3b, 0x1b, 0xd5, 0x03, 0xbd,
  0x23, 0x3b, 0x9c, 0x3c, 0x1d, 0xa7, 0x69, 0xbc, 0xc0, 0x71, 0x09, 0xbf,
  0xb7, 0x63, 0xbf, 0x3d, 0x70, 0xb9, 0x59, 0x3c, 0x36, 0x68, 0xb0, 0x3d,
  0x3b, 0xa9, 0xae, 0x3e, 0x73, 0x33, 0x99, 0x3c, 0x60, 0xf0, 0x1d, 0x3c,
  0x28, 0xef, 0x81, 0x3c, 0x33, 0x88, 0xc4, 0xbd, 0x4e, 0x26, 0x03, 0xbe,
  0xd0, 0x6c, 0xd7, 0x3c, 0xbb, 0xe0, 0x3f, 0x39, 0x29, 0xfc, 0xdb, 0x3e,
  0x0c, 0xa6, 0x5d, 0xbe, 0x80, 0x31, 0x4e, 0x3e, 0x89, 0x71, 0x6f, 0xbc,
  0x46, 0xe1, 0x87, 0xbe, 0x0e, 0x66, 0x96, 0xbe, 0xfc, 0x71, 0x00, 0xbe,
  0xb7, 0x5a, 0xc6, 0x3c, 0xa0, 0x5d, 0x20, 0x3d, 0xee, 0x46, 0x11, 0x3e,
  0x91, 0xb8, 0x24, 0x3f, 0x74, 0x56, 0x0a, 0xbe, 0x4f, 0x1b, 0x0e, 0x3d,
  0x7d, 0xb4, 0x08, 0xbd, 0x27, 0xd4, 0xbd, 0x3d, 0x69, 0xff, 0xc0, 0x3d,
  0xe0, 0xd8, 0x86, 0x3e, 0x63, 0xcb, 0x87, 0x3d, 0xd2, 0xf6, 0x4d, 0x3e,
  0xd1, 0xf7, 0xae, 0x3d, 0xc1, 0x99, 0x44, 0xbe, 0xe9, 0xe9, 0x50, 0x3d,
  0x9b, 0x94, 0xce, 0x3b, 0x95, 0xab, 0x8f, 0x3e, 0x90, 0x02, 0xa9, 0xbf,
  0x17, 0x1a, 0x52, 0x3e, 0x7e, 0x1d, 0x6e, 0xbd, 0xea, 0x98, 0xae, 0x3d,
  0xec, 0xae, 0x3b, 0xbe, 0xc6, 0x45, 0x9f, 0xbf, 0x34, 0x1d, 0x61, 0xbe,
  0x30, 0xe6, 0xd6, 0x3b, 0xf7, 0x1b, 0xa6, 0xbc, 0xd0, 0x6f, 0x99, 0x3d,
  0x93, 0x57, 0x5b, 0x3d, 0x91, 0xfd, 0x44, 0x3d, 0x53, 0x4b, 0x87, 0xbe,
  0x07, 0xbe, 0xa9, 0x3d, 0xba, 0x74, 0x00, 0x3c, 0x2d, 0x3e, 0x3b, 0x3f,
  0xbe, 0xa6, 0x2d, 0x3e, 0xde, 0xd6, 0x19, 0x3d, 0xe9, 0xbd, 0x40, 0xbe,
  0x98, 0x46, 0x84, 0x3d, 0x89, 0xe7, 0x5d, 0xbe, 0x1f, 0x10, 0xf9, 0x3d,
  0x95, 0xcb, 0x07, 0xbf, 0xac, 0x4a, 0x3e, 0xbb, 0xd3, 0x74, 0x77, 0xbc,
  0x1f, 0xc4, 0x2e, 0x3e, 0xa6, 0x5f, 0x65, 0xbd, 0x30, 0x15, 0xb2, 0x3c,
  0xa8, 0xbd, 0x2d, 0xbe, 0x24, 0x7b, 0xd8, 0xbd, 0xb1, 0x16, 0x95, 0x3e,
  0xf4, 0xc7, 0x15, 0x3e, 0x5a, 0xc9, 0xda, 0xbd, 0x6e, 0x9c, 0xa3, 0x3e,
  0x24, 0x09, 0x96, 0x3e, 0x3f, 0x25, 0x94, 0xbb, 0xb4, 0x37, 0xbb, 0xbe,
  0xba, 0x60, 0xc8, 0xbe, 0xcc, 0x4a, 0xcf, 0x3e, 0x23, 0x95, 0xb7, 0xbd,
  0x9f, 0xab, 0x83, 0x3d, 0xd9, 0xcc, 0xc2, 0xbe, 0xa4, 0xcd, 0x12, 0x3e,
  0xd1, 0x93, 0x91, 0x3e, 0xc8, 0x2f, 0x30, 0xbe, 0x9e, 0x27, 0x86, 0x3e,
  0xf5, 0x43, 0xcb, 0xbd, 0x73, 0xb2, 0xa4, 0xbe, 0xd0, 0x91, 0x60, 0xbf,
  0x75, 0x30, 0xf5, 0xbc, 0x88, 0x7f, 0x8e, 0xbf, 0x02, 0x0c, 0xc5, 0x3d,
  0x91, 0xf7, 0x4a, 0x3e, 0x30, 0x6c, 0x02, 0xbf, 0x82, 0xf6, 0xf4, 0x3d,
  0xaa, 0x64, 0xd5, 0xbd, 0x29, 0xc1, 0xa6, 0xbf, 0x72, 0xae, 0x30, 0xbb,
  0x3e, 0xbb, 0xec, 0x3d, 0x0a, 0x97, 0x11, 0x3d, 0x63, 0xe6, 0x1c, 0xbe,
  0xca, 0x55, 0xd8, 0xbd, 0xa8, 0x62, 0x24, 0xbb, 0x67, 0x40, 0x46, 0xbf,
  0x2b, 0xf3, 0x5e, 0xbf, 0xe4, 0xe3, 0xa2, 0xbd, 0xe2, 0x07, 0x10, 0x3f,
  0x98, 0xe7, 0xaf, 0x3c, 0x85, 0xe6, 0x40, 0x3e, 0x3b, 0x65, 0x61, 0xbe,
  0x1c, 0x2a, 0xb2, 0xbb, 0xa2, 0xde, 0xb2, 0xbb, 0x6a, 0x10, 0x14, 0xbf,
  0x01, 0xa2, 0x7a, 0xbd, 0x4e, 0x73, 0x85, 0x3e, 0xac, 0x66, 0x91, 0xbc,
  0x03, 0xb5, 0xbc, 0x3e, 0x35, 0xc6, 0x67, 0xbf, 0x85, 0xb5, 0x6c, 0x3c,
  0x6d, 0x62, 0x11, 0xbc, 0x23, 0x49, 0x1f, 0x3e, 0x8c, 0x58, 0x1c, 0xbe,
  0xfe, 0x3a, 0xf3, 0x3e, 0x49, 0xc8, 0xfa, 0x3c, 0x18, 0xa2, 0x55, 0x3e,
  0x6f, 0x79, 0x46, 0x3e, 0x0e, 0x5c, 0xa4, 0xbd, 0x60, 0xf7, 0x34, 0x3d,
  0xa3, 0x9c, 0x5b, 0x3b, 0xf2, 0x87, 0x95, 0x3e, 0x25, 0xcd, 0x20, 0x3d,
  0x3c, 0xaa, 0x18, 0xbe, 0xd8, 0xa1, 0xe7, 0x3e, 0xfb, 0xc7, 0x2d, 0xbf,
  0x87, 0x8a, 0x42, 0x3d, 0x3e, 0xf8, 0xe8, 0x3d, 0xb6, 0x3e, 0x09, 0xbf,
  0xfd, 0xc6, 0x12, 0xbd, 0x7b, 0x27, 0x57, 0xbe, 0x16, 0xd4, 0x5d, 0xbd,
  0x11, 0xca, 0xdb, 0xbb, 0x77, 0x31, 0xbb, 0x3e, 0x6e, 0x1c, 0x09, 0xbe,
  0xed, 0x63, 0x29, 0x3c, 0xdc, 0x98, 0x00, 0xbe, 0x05, 0x63, 0xb8, 0xbb,
  0x32, 0xba, 0x60, 0xbd, 0xc4, 0x99, 0xca, 0xbd, 0x46, 0x24, 0xb9, 0x3e,
  0x68, 0x9b, 0x00, 0x3e, 0x05, 0xdc, 0x18, 0xbc, 0x8b, 0xc5, 0x56, 0x3d,
  0x8a, 0xfc, 0xf2, 0xbd, 0x58, 0xe9, 0x61, 0xbd, 0x11, 0x0c, 0xd4, 0x3e,
  0x50, 0x37, 0x24, 0x3c, 0x0e, 0x46, 0x82, 0xbd, 0xe5, 0xe5, 0xa3, 0xbe,
  0x11, 0x1b, 0x6b, 0xbe, 0xa8, 0x60, 0x70, 0xbc, 0xce, 0xca, 0x0a, 0x3e,
  0x8e, 0x82, 0xc7, 0x3c, 0x58, 0x0f, 0xb2, 0xbd, 0x0f, 0x38, 0x9b, 0xbe,
  0x3c, 0x6a, 0xae, 0x3d, 0x92, 0xc4, 0x37, 0xbd, 0xf8, 0x9a, 0x47, 0x3e,
  0x98, 0x5f, 0x9c, 0xbb, 0x1e, 0xf9, 0xe4, 0xbc, 0xd3, 0xad, 0xdc, 0xbd,
  0x02, 0xd3, 0x27, 0x3f, 0x4b, 0x47, 0x9b, 0x3d, 0x3b, 0x58, 0x84, 0xbc,
  0x7b, 0x97, 0x9c, 0x3d, 0xc2, 0xc0, 0x06, 0xbd, 0x86, 0xda, 0xc5, 0x3d,
  0xb3, 0x94, 0x85, 0xbe, 0xd6, 0x3e, 0xc9, 0x3d, 0x17, 0xf2, 0xd2, 0xbe,
  0x9a, 0x9e, 0x9e, 0xbd, 0x29, 0xca, 0xf1, 0x3d, 0x5e, 0x2d, 0x13, 0xbd,
  0xac, 0x79, 0xce, 0x3c, 0x60, 0x86, 0x89, 0x3d, 0xc0, 0xc5, 0x39, 0x3e,
  0xa9, 0xde, 0x1c, 0x3d, 0x3e, 0x14, 0x9f, 0xbe, 0x66, 0x66, 0xcc, 0xbd,
  0x13, 0x53, 0x8b, 0xbd, 0x0c, 0xec, 0x3e, 0x3e, 0x32, 0x3a, 0xb3, 0xbe,
  0xe9, 0x3b, 0x97, 0x3c, 0x0d, 0x07, 0x21, 0x3d, 0xac, 0x41, 0x2c, 0x3c,
  0x8a, 0x9a, 0xaa, 0x3d, 0x0c, 0x16, 0x81, 0xbe, 0xb0, 0xe1, 0xb3, 0x3d,
  0xd9, 0x04, 0x0e, 0xbd, 0x68, 0xcb, 0xa4, 0xbd, 0xcc, 0x13, 0x17, 0xbe,
  0xc7, 0x94, 0x77, 0xbf, 0xca, 0xa8, 0xcc, 0xbc, 0x0d, 0x5f, 0x47, 0x3f,
  0x76, 0xff, 0xda, 0xbd, 0x8c, 0x59, 0xa7, 0x3d, 0x43, 0x9d, 0x19, 0xbf,
  0xa4, 0x22, 0x31, 0xbe, 0xcf, 0x64, 0xcf, 0xbc, 0xbd, 0x41, 0x9f, 0x3d,
  0x04, 0x3e, 0x36, 0x3e, 0xaf, 0xf0, 0x20, 0x3e, 0x28, 0x7d, 0x6e, 0xbc,
  0xe6, 0x21, 0x05, 0xbe, 0xc2, 0xf9, 0x80, 0x3e, 0xcc, 0x8d, 0x0a, 0x3f,
  0xf6, 0x85, 0x58, 0x3d, 0x2a, 0xe2, 0x4b, 0x3e, 0x51, 0xe0, 0x40, 0x3e,
  0x2d, 0x9a, 0xd3, 0xbd, 0xb2, 0x08, 0x01, 0x3e, 0xc5, 0x48, 0x33, 0xbe,
  0xe4, 0x01, 0xe1, 0x3d, 0x0c, 0xcf, 0x4d, 0xbf, 0x65, 0x20, 0x19, 0x3f,
  0x13, 0xe9, 0x67, 0x3b, 0xee, 0x7e, 0xf5, 0xbd, 0x7e, 0xfc, 0xdb, 0x3e,
  0x41, 0x17, 0x80, 0xbe, 0x8d, 0xac, 0xb0, 0xbd, 0xfd, 0x43, 0x8c, 0xbe,
  0xa2, 0x2c, 0xab, 0x3c, 0xb1, 0x2e, 0xe4, 0x3d, 0xce, 0x8d, 0xd9, 0x3c,
  0x44, 0xbf, 0x7b, 0xbc, 0x92, 0xd2, 0x70, 0xbd, 0xdc, 0x5b, 0x21, 0xbe,
  0xd1, 0x0c, 0xb7, 0x3e, 0x69, 0xd5, 0x90, 0xbd, 0xe4, 0x1b, 0x46, 0xbd,
  0x91, 0xb3, 0x62, 0x3c, 0x52, 0x8d, 0x51, 0x3d, 0x46, 0x2e, 0xba, 0xbd,
  0x29, 0x5e, 0xbd, 0x3d, 0x16, 0x47, 0xd0, 0x3c, 0xe7, 0x1c, 0xdd, 0x3d,
  0x4a, 0x8c, 0x9b, 0xbd, 0xf9, 0x0f, 0xe8, 0xbd, 0xcd, 0x89, 0x59, 0x3e,
  0x78, 0xbb, 0x4d, 0xbf, 0xae, 0x7d, 0x93, 0xbe, 0x86, 0xe1, 0xc7, 0xbf,
  0x06, 0xf7, 0xaf, 0xbd, 0xc1, 0xec, 0xb0, 0x3e, 0x54, 0xf2, 0xaa, 0xbe,
  0x67, 0x2c, 0xac, 0x3c, 0x78, 0x25, 0x29, 0xbe, 0x37, 0x38, 0x91, 0xbf,
  0xe4, 0x81, 0x07, 0xbe, 0xf2, 0xa3, 0x0e, 0xbe, 0x4e, 0x64, 0x1a, 0x3e,
  0x53, 0x14, 0x6e, 0xbe, 0x80, 0x1c, 0xda, 0x3d, 0x50, 0xdd, 0x33, 0x3f,
  0xdc, 0x97, 0xea, 0x3e, 0xcd, 0x17, 0xc4, 0xbc, 0x7e, 0x9a, 0x47, 0xbf,
  0xec, 0x56, 0x86, 0xbc, 0xdb, 0x6a, 0x0a, 0x3e, 0xe1, 0xd2, 0x1d, 0x3e,
  0x8d, 0xe8, 0x0b, 0x3f, 0xdf, 0xcc, 0x23, 0x3e, 0x3e, 0x82, 0x2a, 0x3d,
  0x83, 0x24, 0x03, 0xbf, 0x8a, 0x01, 0x5c, 0xbe, 0xbd, 0x20, 0x92, 0xbf,
  0x18, 0x7d, 0x17, 0x3e, 0x77, 0xbd, 0x11, 0xbc, 0x49, 0xf3, 0xfe, 0x3e,
  0x9e, 0x02, 0x40, 0x3d, 0x0b, 0x32, 0x6f, 0x3d, 0x13, 0x32, 0xdd, 0xbd,
  0x13, 0xa7, 0x62, 0x3e, 0x97, 0x47, 0x9e, 0x3d, 0x56, 0xd5, 0xea, 0xbd,
  0x0b, 0xf1, 0x82, 0xbe, 0xa1, 0x0d, 0xc0, 0x3d, 0x25, 0x06, 0xed, 0x3e,
  0x73, 0xc1, 0x03, 0x3d, 0xed, 0x1a, 0xe4, 0xbd, 0xfd, 0x22, 0x4b, 0x3e,
  0x9f, 0x82, 0x2b, 0xbd, 0x04, 0x17, 0x1d, 0x3e, 0xd6, 0x81, 0x8c, 0x3c,
  0x92, 0x80, 0x68, 0x3e, 0xc9, 0xa4, 0x20, 0xbd, 0x8b, 0x86, 0x10, 0x3e,
  0x79, 0xe3, 0xd6, 0xbd, 0x3b, 0x91, 0xfb, 0x3d, 0x5d, 0x93, 0x2d, 0xbf,
  0xd5, 0xf9, 0x87, 0x3c, 0x45, 0xd8, 0x3a, 0xbe, 0x16, 0xdd, 0x0b, 0xbe,
  0x48, 0x7e, 0x51, 0x3e, 0x42, 0x4e, 0x0c, 0xbe, 0xea, 0x06, 0x3c, 0x3e,
  0xa5, 0xf6, 0xc3, 0x3b, 0x8c, 0xa5, 0x2c, 0xbf, 0x53, 0x09, 0x9d, 0x3c,
  0xef, 0x35, 0xbf, 0xbe, 0x4e, 0xa0, 0x3c, 0x3e, 0x87, 0x04, 0x64, 0xbe,
  0xc1, 0x42, 0xac, 0x3c, 0x4b, 0x6e, 0x91, 0xbc, 0x98, 0x00, 0x81, 0xbd,
  0x32, 0x92, 0x24, 0x3e, 0xa6, 0xeb, 0xed, 0x3d, 0x33, 0x74, 0x83, 0xbd,
  0xa2, 0xb0, 0xad, 0xbe, 0x5c, 0x70, 0x80, 0x3d, 0x56, 0xb7, 0xcb, 0x3d,
  0xe3, 0xba, 0x44, 0x3f, 0x9a, 0xf2, 0xb3, 0x3d, 0x5f, 0xfb, 0xae, 0xbe,
  0x7e, 0xd9, 0xd2, 0xbe, 0xa9, 0x34, 0x03, 0xbd, 0x57, 0xbc, 0x88, 0x3e,
  0xeb, 0x6b, 0x20, 0x3c, 0x70, 0x2c, 0xe9, 0x3d, 0xd3, 0xa8, 0x28, 0x3d,
  0x0c, 0x40, 0x24, 0x3d, 0xcd, 0x4a, 0x87, 0xbc, 0x65, 0x2b, 0x07, 0xbe,
  0xf3, 0x46, 0xbd, 0x3e, 0x3e, 0x98, 0x32, 0x3e, 0x32, 0x1f, 0x40, 0x3f,
  0x67, 0x99, 0x54, 0x3c, 0x74, 0xa8, 0x7a, 0x3c, 0xdc, 0x33, 0xd1, 0xbc,
  0x3c, 0xe1, 0x83, 0xbc, 0x55, 0x2f, 0x4f, 0x3e, 0x68, 0x96, 0xaa, 0x3b,
  0x60, 0x1c, 0xf1, 0x3d, 0xef, 0x4e, 0x97, 0x3d, 0xd4, 0x97, 0x84, 0x3e,
  0xaf, 0x2e, 0x33, 0xbf, 0xc4, 0xd0, 0xe8, 0x3b, 0x79, 0x6e, 0x3d, 0x3e,
  0x27, 0xba, 0x19, 0x3e, 0xc6, 0x54, 0xb8, 0x3d, 0xe2, 0x59, 0x10, 0xbe,
  0x2b, 0xc7, 0x07, 0xbd, 0xa4, 0x5d, 0x20, 0xbd, 0xe0, 0x6e, 0x9c, 0xb9,
  0xe3, 0xc3, 0xd6, 0xbd, 0xc9, 0x29, 0x0b, 0x3e, 0xd8, 0x8b, 0x86, 0x3d,
  0x18, 0xed, 0x4d, 0xbe, 0x18, 0x6c, 0x30, 0x3d, 0xdb, 0x38, 0x3b, 0xbe,
  0xda, 0xd7, 0x4c, 0x3e, 0x17, 0x8b, 0x6c, 0xbe, 0x48, 0x07, 0x58, 0xbf,
  0xcd, 0x1c, 0x81, 0x3a, 0x36, 0x3e, 0x00, 0xbe, 0x13, 0x6f, 0x81, 0x3e,
  0x3f, 0x0c, 0x14, 0x3e, 0xd6, 0xbe, 0x32, 0x3f, 0x43, 0x96, 0xd0, 0xbe,
  0x84, 0x1d, 0xb0, 0xbc, 0x34, 0x8d, 0x1e, 0x3d, 0xa1, 0xf3, 0x1b, 0x3e,
  0x96, 0x4d, 0xe5, 0x3d, 0x82, 0x24, 0x44, 0x3e, 0xbc, 0x0c, 0xbf, 0x3e,
  0x45, 0xe1, 0x8b, 0x3c, 0xe8, 0xed, 0xc4, 0x3c, 0x53, 0xeb, 0xab, 0xbe,
  0x55, 0x06, 0xa1, 0x3d, 0x95, 0x73, 0x24, 0x3e, 0x45, 0x00, 0x17, 0x3e,
  0x06, 0xa4, 0xfd, 0xbd, 0xdb, 0xb9, 0x66, 0xbe, 0x37, 0xae, 0x98, 0x3d,
  0x1d, 0x19, 0x7c, 0x3c, 0x24, 0x1e, 0x0d, 0xbe, 0xcd, 0x9e, 0x22, 0x3e,
  0xf6, 0xf2, 0x8a, 0x3e, 0xbc, 0xc2, 0x16, 0x3e, 0xd5, 0xcf, 0x8c, 0xbe,
  0x28, 0x07, 0xf4, 0xbc, 0x79, 0x77, 0x9b, 0x3d, 0x41, 0xc7, 0xed, 0x3e,
  0x7d, 0x6a, 0x69, 0xbf, 0xfa, 0x33, 0x71, 0xbd, 0x94, 0x29, 0x3a, 0x3e,
  0xb9, 0x78, 0x1c, 0xbe, 0x8c, 0x68, 0x82, 0xbe, 0x07, 0x7e, 0x30, 0xbf,
  0xc1, 0xe8, 0x21, 0xbe, 0x85, 0xa2, 0xdf, 0xbd, 0x1c, 0x69, 0xc3, 0xbd,
  0xae, 0x57, 0x7b, 0xbd, 0x33, 0xea, 0x8a, 0x3e, 0xd2, 0x41, 0x97, 0x3d,
  0xf6, 0x94, 0xac, 0xbe, 0xfc, 0xd2, 0x6d, 0xbd, 0x41, 0x14, 0x4f, 0xbf,
  0x23, 0x92, 0xef, 0xbd, 0x63, 0x3e, 0x88, 0xbe, 0x1c, 0x13, 0xcd, 0xbe,
  0xdc, 0x0c, 0x24, 0xbe, 0x26, 0x11, 0x01, 0xbe, 0xa5, 0x05, 0x14, 0xbe,
  0x07, 0x73, 0xe7, 0xbe, 0x43, 0xc6, 0xec, 0x3d, 0xf4, 0x76, 0xf5, 0xbe,
  0x0a, 0x3e, 0x08, 0x3e, 0x60, 0x0a, 0x99, 0x3e, 0x46, 0x08, 0x91, 0x3e,
  0x17, 0x19, 0x2d, 0xbe, 0xe0, 0xde, 0x6b, 0x3e, 0x0e, 0xe9, 0x99, 0x3e,
  0x55, 0x65, 0x7e, 0x3b, 0x39, 0x1a, 0x88, 0x3c, 0x55, 0x6f, 0x14, 0x3e,
  0xcb, 0xd0, 0x6e, 0x3d, 0x57, 0xa5, 0x40, 0x3d, 0x85, 0x11, 0x04, 0x3e,
  0x2d, 0xca, 0x77, 0xbe, 0x58, 0x92, 0x9d, 0x3b, 0x2c, 0xe9, 0x39, 0xbd,
  0x44, 0x55, 0xf6, 0x3b, 0x13, 0x7e, 0xca, 0xbe, 0x0f, 0x73, 0xaa, 0x3d,
  0x20, 0xb1, 0x81, 0x3e, 0xfe, 0x1c, 0x22, 0x3b, 0xe5, 0x71, 0xa1, 0xbc,
  0x3f, 0x69, 0xc3, 0xbd, 0xb5, 0xb1, 0x28, 0x3d, 0x78, 0x5a, 0xdd, 0x3d,
  0x21, 0x85, 0x0a, 0xbf, 0xbd, 0x41, 0xf6, 0x3d, 0xdd, 0xd4, 0x31, 0xbd,
  0x8e, 0x78, 0xc6, 0xbc, 0x5f, 0xda, 0x06, 0xbe, 0x1c, 0x34, 0x73, 0xbe,
  0xdc, 0x3f, 0x04, 0xbf, 0x83, 0x32, 0x97, 0xbd, 0x9d, 0x56, 0x3a, 0x3e,
  0x8d, 0x92, 0x32, 0x3c, 0xbf, 0x26, 0xdb, 0x3d, 0xd9, 0xd9, 0xc5, 0xbd,
  0xf8, 0x0c, 0x69, 0xbd, 0xde, 0x76, 0x02, 0xbe, 0x81, 0x3a, 0x74, 0xbe,
  0x8b, 0x6f, 0x75, 0x3d, 0xb6, 0xd3, 0xdd, 0x3d, 0x32, 0xfd, 0x99, 0x3e,
  0xa3, 0x8c, 0x9e, 0xbe, 0x0c, 0x6c, 0x75, 0xbd, 0xc3, 0xd5, 0x15, 0xbe,
  0x7f, 0x22, 0xc4, 0xbd, 0x5c, 0x8b, 0x8d, 0xbe, 0x9f, 0xe5, 0xb7, 0xbd,
  0x02, 0x71, 0xd2, 0x3e, 0xb8, 0x2e, 0x0a, 0xbc, 0x5e, 0x07, 0x65, 0x3c,
  0x77, 0x86, 0xcb, 0xbe, 0xc3, 0x5d, 0xcd, 0x3e, 0x34, 0xa0, 0x0f, 0x3f,
  0xc0, 0x7f, 0xae, 0xbb, 0x3a, 0xe6, 0x1e, 0x3c, 0x99, 0xa0, 0x19, 0x3f,
  0xef, 0x8d, 0x8d, 0xbd, 0xfa, 0xe6, 0xb7, 0x3d, 0xb4, 0xea, 0x00, 0xbd,
  0x30, 0xec, 0x4f, 0xbd, 0x99, 0x14, 0xd9, 0x3e, 0x56, 0x95, 0xfb, 0xbe,
  0xb1, 0x3d, 0xba, 0xba, 0x0b, 0x1e, 0x81, 0x3d, 0x48, 0x30, 0x84, 0x3e,
  0xd6, 0xba, 0x01, 0xbd, 0x2e, 0x88, 0xba, 0xbe, 0xc8, 0xa1, 0x13, 0x3f,
  0x26, 0x61, 0xb3, 0xbe, 0x9e, 0x60, 0xaf, 0xbd, 0xd0, 0xa6, 0x98, 0xbe,
  0xbb, 0x41, 0x86, 0x3d, 0x1a, 0x58, 0xbd, 0xbd, 0x97, 0xa5, 0x92, 0x3e,
  0x21, 0xae, 0x09, 0x3e, 0x91, 0xdf, 0x47, 0x3e, 0x76, 0xa1, 0x4f, 0xbd,
  0x88, 0xf7, 0xa2, 0xbe, 0xa5, 0x24, 0xe8, 0xbd, 0x49, 0x02, 0xc4, 0x3c,
  0x82, 0x91, 0x41, 0xbc, 0x69, 0x0a, 0x13, 0xbe, 0xb9, 0x5c, 0xb3, 0xbe,
  0x16, 0x02, 0xdf, 0x3e, 0xb6, 0x86, 0x4b, 0xbe, 0xe0, 0x0c, 0x9b, 0x3e,
  0x99, 0xcd, 0x26, 0xbd, 0x63, 0xb6, 0xcf, 0xbd, 0x9c, 0x86, 0xb5, 0x3d,
  0xe8, 0x28, 0x1e, 0x3e, 0x2c, 0xf8, 0xdd, 0x3d, 0x82, 0x96, 0xcf, 0xbc,
  0x56, 0x49, 0x92, 0xbd, 0xff, 0x5a, 0xf5, 0xbe, 0xf4, 0x33, 0x00, 0x3f,
  0x7e, 0x17, 0x9e, 0xbc, 0x80, 0x8e, 0xc5, 0xbe, 0xcb, 0xd2, 0xba, 0x3e,
  0x61, 0xe6, 0x8e, 0xbe, 0xf4, 0xd0, 0x22, 0xbe, 0x00, 0x7e, 0xd7, 0xbe,
  0xdb, 0x30, 0xa8, 0xbb, 0xd1, 0x7a, 0x8d, 0xbe, 0xd0, 0x56, 0x96, 0x3d,
  0xab, 0xb4, 0x42, 0x3d, 0xd2, 0xbe, 0x12, 0x3d, 0x6a, 0x3d, 0xf8, 0x3d,
  0xbe, 0x0e, 0x69, 0x3e, 0x5b, 0x31, 0x73, 0x3e, 0x76, 0xf9, 0x00, 0x3e,
  0x50, 0x4f, 0xde, 0x3b, 0x2c, 0x7d, 0xaf, 0x3c, 0x64, 0x0b, 0x33, 0x3e,
  0xe4, 0x01, 0xca, 0xbe, 0xe8, 0x35, 0x37, 0xbe, 0xdf, 0x76, 0xd2, 0x3e,
  0xd4, 0x5f, 0xfc, 0xbe, 0xd4, 0x76, 0x19, 0xbd, 0xe7, 0xf7, 0x2c, 0xbe,
  0xae, 0xfe, 0x35, 0xbe, 0xfc, 0xe5, 0x36, 0x3e, 0xef, 0xaf, 0x15, 0xbd,
  0x63, 0x81, 0x0a, 0xbe, 0x78, 0x75, 0xa5, 0x3d, 0x6b, 0xe7, 0xb8, 0x3c,
  0xca, 0x70, 0xd3, 0x3c, 0x5b, 0x1a, 0x1d, 0xbe, 0xd5, 0x92, 0xbd, 0xbc,
  0x0a, 0x30, 0x06, 0x3d, 0x39, 0xd1, 0x87, 0xbe, 0xc0, 0x02, 0xf4, 0xbe,
  0x42, 0x22, 0x48, 0x3f, 0x29, 0xd3, 0x05, 0xbf, 0x6a, 0x62, 0x88, 0xbe,
  0x4e, 0x80, 0x6f, 0xbd, 0x77, 0xa3, 0x85, 0xbd, 0xd1, 0x34, 0xb2, 0xbd,
  0xff, 0x16, 0x5e, 0x3e, 0x1d, 0x42, 0x93, 0xbc, 0xd6, 0x3d, 0x2d, 0x3e,
  0xb6, 0xda, 0x16, 0xbf, 0x9b, 0xe5, 0x4b, 0xbf, 0xde, 0x6b, 0x8a, 0xbd,
  0xef, 0x94, 0x83, 0x3d, 0xe1, 0x68, 0xfd, 0xbd, 0xcf, 0xd0, 0x4c, 0xbe,
  0x87, 0x37, 0x6a, 0xbe, 0xba, 0x54, 0x46, 0xbb, 0x5d, 0xc8, 0xb9, 0xbe,
  0xc0, 0x00, 0x7f, 0x3c, 0x82, 0xbd, 0xed, 0x3d, 0x02, 0x0c, 0x21, 0xbe,
  0xdd, 0x86, 0x61, 0x3c, 0x2b, 0x7e, 0x93, 0x3e, 0xcc, 0x55, 0x2b, 0x3d,
  0x31, 0x48, 0xd0, 0x3d, 0x31, 0xd4, 0x02, 0x3b, 0x85, 0x8d, 0x89, 0x3c,
  0xd9, 0xcc, 0xd4, 0x3b, 0xc6, 0xd9, 0x02, 0xbe, 0x14, 0x68, 0x98, 0xbd,
  0xac, 0xdd, 0x11, 0x3d, 0x66, 0x67, 0x22, 0xbb, 0xfa, 0xe6, 0x58, 0x3c,
  0x98, 0x00, 0x09, 0x3d, 0x34, 0xad, 0xbe, 0x3d, 0x1f, 0xfb, 0x4a, 0x3e,
  0x96, 0x36, 0xa4, 0xbe, 0xa3, 0x6c, 0xbf, 0xbd, 0x7a, 0xeb, 0xea, 0xbe,
  0x69, 0x99, 0x80, 0x3d, 0xcc, 0xc8, 0xe2, 0xbd, 0x64, 0xfc, 0xce, 0x3d,
  0xd4, 0x01, 0xc6, 0x3c, 0x94, 0x66, 0x30, 0xbe, 0x11, 0x73, 0x32, 0x3e,
  0x2f, 0xc6, 0x93, 0x3d, 0x46, 0x69, 0x7f, 0xbe, 0xd0, 0x47, 0x86, 0xbd,
  0x70, 0xb5, 0x94, 0xbd, 0xbd, 0xb6, 0xf7, 0x3d, 0xfe, 0xea, 0xc8, 0xbe,
  0x2c, 0x45, 0x46, 0xbd, 0x3a, 0xc2, 0x96, 0xbf, 0x63, 0x57, 0x10, 0xbe,
  0xdb, 0x98, 0x01, 0x3f, 0x61, 0x2d, 0x1b, 0x3e, 0xa7, 0x6d, 0x11, 0x3e,
  0xed, 0x2a, 0xc7, 0xbe, 0xc6, 0xf5, 0xf5, 0x3d, 0x41, 0x7b, 0x9a, 0xbe,
  0x25, 0xc6, 0xbd, 0x3d, 0x56, 0xad, 0x6e, 0x3e, 0xf9, 0x81, 0x7c, 0x3d,
  0xca, 0xa4, 0x57, 0x3d, 0x10, 0x66, 0x62, 0x3e, 0x42, 0xe5, 0x19, 0x3e,
  0x87, 0x66, 0x89, 0x3b, 0xbc, 0x6c, 0x07, 0x3e, 0xd7, 0x2b, 0xd0, 0xbd,
  0x61, 0x3b, 0x45, 0xbe, 0xe9, 0x43, 0x3c, 0xbf, 0x8b, 0x73, 0xc3, 0xbd,
  0xfc, 0x7a, 0x17, 0x3e, 0x75, 0x1f, 0x45, 0x3e, 0x06, 0x75, 0x1f, 0x3f,
  0x61, 0x48, 0x2a, 0xbe, 0xde, 0x34, 0x5d, 0xbe, 0x85, 0x5b, 0x31, 0x3b,
  0xe9, 0x82, 0x26, 0xbe, 0x77, 0x3e, 0xb2, 0x3e, 0xa4, 0xd1, 0x16, 0xbd,
  0xa8, 0x7f, 0xdb, 0x3c, 0x5d, 0x87, 0x50, 0x3c, 0x8f, 0x70, 0xf6, 0xbd,
  0x57, 0x2a, 0x46, 0x3e, 0x38, 0xb5, 0xa5, 0xbd, 0x09, 0xdc, 0xbf, 0xbe,
  0xe9, 0xc1, 0x0e, 0x3e, 0xda, 0x59, 0x06, 0xbd, 0xe4, 0xb1, 0x77, 0x3e,
  0x26, 0x65, 0xdc, 0xbe, 0x37, 0xc7, 0xb2, 0x3b, 0x9a, 0x6a, 0x0b, 0xbe,
  0x36, 0xb8, 0xb4, 0xbc, 0x29, 0x79, 0x53, 0xbe, 0x7f, 0x2f, 0x88, 0xbd,
  0x64, 0x0f, 0x16, 0xbd, 0xe1, 0xb5, 0x25, 0xbf, 0x90, 0x5c, 0x88, 0x3b,
  0x29, 0xa0, 0x2f, 0x3e, 0xbc, 0x77, 0x2c, 0xbe, 0x50, 0xef, 0x0e, 0x3e,
  0xc9, 0x59, 0x1b, 0x3f, 0x3c, 0x76, 0x10, 0x3d, 0xe6, 0xf5, 0x0b, 0xbe,
  0xc4, 0xac, 0x14, 0x3b, 0xa0, 0x26, 0xfc, 0x3e, 0xe2, 0xcf, 0xa9, 0x3d,
  0xc2, 0x3a, 0xa5, 0xba, 0xd5, 0xfd, 0x4b, 0x3e, 0x48, 0xa3, 0x16, 0xbf,
  0x28, 0xe4, 0x75, 0xbe, 0x6c, 0x9a, 0x07, 0xbe, 0x4c, 0x3f, 0x81, 0x3c,
  0xff, 0x53, 0xeb, 0xbc, 0x64, 0x8c, 0x07, 0x3e, 0x82, 0x44, 0x6e, 0xbf,
  0x5f, 0xd7, 0x38, 0x3e, 0xb6, 0x69, 0x74, 0xbe, 0xb0, 0xdd, 0xe4, 0xbd,
  0x83, 0x5b, 0x58, 0xbe, 0x84, 0x49, 0x8d, 0xbf, 0x3f, 0x4f, 0x03, 0xbf,
  0x93, 0x28, 0xb7, 0xbe, 0x19, 0x41, 0x60, 0xbd, 0x2d, 0xc9, 0x43, 0x3e,
  0xf0, 0x5c, 0x19, 0xbe, 0x92, 0xfd, 0x29, 0xbe, 0x2f, 0x42, 0x1e, 0x3f,
  0x91, 0x51, 0x81, 0xbe, 0x79, 0x7e, 0x89, 0xbc, 0x1c, 0x60, 0xf5, 0x3d,
  0x21, 0x39, 0x84, 0xbe, 0x15, 0xb4, 0x6b, 0x3c, 0x10, 0x61, 0x25, 0xbe,
  0xba, 0x73, 0x9e, 0x3d, 0x4a, 0x1e, 0x08, 0xbf, 0xc3, 0x73, 0x9c, 0xbe,
  0x76, 0xcb, 0x23, 0xbf, 0x27, 0xb0, 0xfa, 0xbb, 0x35, 0xa5, 0x3e, 0xbb,
  0x19, 0x35, 0x02, 0x3d, 0x9e, 0x39, 0x01, 0xbf, 0x0d, 0x25, 0xbe, 0xbe,
  0x83, 0xf0, 0xcb, 0x3e, 0x58, 0xbe, 0xc2, 0xbe, 0x2a, 0xd6, 0xe9, 0x3d,
  0x15, 0xa0, 0xd1, 0x3e, 0x70, 0xda, 0xfa, 0x3e, 0xc7, 0xe4, 0xcf, 0x3e,
  0xa3, 0x07, 0x16, 0x3f, 0xc6, 0xc9, 0x61, 0x3c, 0x8f, 0x16, 0x26, 0xbe,
  0xef, 0x46, 0xc9, 0xbd, 0xc8, 0x6c, 0x0d, 0xbf, 0x36, 0x7b, 0xb9, 0x3e,
  0x15, 0x5b, 0x2e, 0x3d, 0xd4, 0x36, 0x3d, 0x3b, 0xea, 0x1e, 0x16, 0xbf,
  0xef, 0xe1, 0x34, 0xbf, 0x9c, 0x1c, 0x21, 0x3f, 0x3a, 0x20, 0x8f, 0x3e,
  0x1e, 0x80, 0x6b, 0xbd, 0x10, 0xad, 0x50, 0x3d, 0xce, 0x7c, 0x96, 0xbf,
  0x9c, 0x65, 0x62, 0xbd, 0xe2, 0x6c, 0x8c, 0xbf, 0x40, 0xd2, 0x7e, 0x3d,
  0xb2, 0x50, 0x4c, 0x3e, 0x15, 0x8e, 0xbc, 0xbf, 0xc3, 0x51, 0xd9, 0x3d,
  0x8f, 0xe8, 0x46, 0x3e, 0x1b, 0xec, 0x29, 0xbf, 0x59, 0xa1, 0x28, 0xbc,
  0xd3, 0x2e, 0xe6, 0x3d, 0x78, 0x15, 0x28, 0x3e, 0x78, 0xc2, 0x84, 0xbf,
  0x58, 0x84, 0x37, 0xbd, 0x05, 0xf7, 0x4a, 0xbb, 0x1a, 0x2d, 0x00, 0xbe,
  0xee, 0x7f, 0x1c, 0x3e, 0x5d, 0x09, 0x32, 0xbd, 0xb8, 0xad, 0x8f, 0xbd,
  0xa8, 0x2d, 0x13, 0xbe, 0x7f, 0x01, 0x70, 0x3e, 0x62, 0xdd, 0x9b, 0x3d,
  0x30, 0xcd, 0x37, 0x3b, 0x9d, 0xb0, 0xa7, 0xbb, 0xdd, 0xdc, 0xd9, 0x3e,
  0xba, 0xa9, 0x8e, 0xbc, 0x7e, 0xb0, 0xd3, 0x3e, 0xa7, 0xec, 0x03, 0x3d,
  0xa8, 0xd5, 0xbf, 0x3c, 0xdc, 0x07, 0x01, 0xbf, 0xcd, 0xab, 0xf6, 0x3e,
  0xdf, 0x76, 0x7f, 0x3e, 0x81, 0x29, 0x4a, 0x3d, 0xcc, 0x5b, 0x4d, 0xbd,
  0x12, 0x53, 0x31, 0x3e, 0x80, 0x2b, 0xd5, 0x3c, 0x1b, 0x15, 0xf7, 0xbd,
  0xd9, 0x53, 0x53, 0x3e, 0x1d, 0x42, 0xcc, 0x3c, 0x5b, 0x5d, 0x97, 0x3e,
  0xf7, 0x55, 0x37, 0xbf, 0x3d, 0x0f, 0xd7, 0xbe, 0x54, 0xf0, 0x8e, 0x3e,
  0xb3, 0x8f, 0xfa, 0x3d, 0xea, 0xe5, 0xcf, 0x3d, 0x61, 0xa9, 0x43, 0xbe,
  0x5e, 0xc1, 0x74, 0xbd, 0x2f, 0xb2, 0x85, 0xbe, 0x50, 0xb5, 0x0d, 0xbe,
  0xd0, 0x2a, 0x09, 0x3c, 0x7c, 0x94, 0xa0, 0xbe, 0xd6, 0xc3, 0xc7, 0x3d,
  0x11, 0xe6, 0x5c, 0x3e, 0xeb, 0xc1, 0xd8, 0xbe, 0x7f, 0x7e, 0x81, 0x3d,
  0xa7, 0x56, 0xdd, 0xbc, 0x9a, 0x1d, 0x6b, 0x3d, 0xb2, 0xdb, 0x4e, 0x3d,
  0xee, 0x06, 0xb2, 0x3d, 0x5f, 0x19, 0x13, 0x3e, 0x4e, 0x69, 0x3a, 0xbd,
  0x0d, 0x06, 0xa6, 0x3e, 0xa2, 0xbb, 0x71, 0x3c, 0xa0, 0xde, 0x0b, 0xbf,
  0x46, 0x8a, 0xa5, 0xbe, 0x95, 0x51, 0xab, 0x3d, 0x57, 0x74, 0xee, 0x3e,
  0x30, 0x95, 0xd8, 0xbd, 0xc9, 0x25, 0x46, 0x3e, 0x46, 0x0e, 0x2f, 0xbe,
  0x8e, 0x5f, 0x0a, 0xbf, 0xaf, 0x45, 0x11, 0x3d, 0x78, 0x9a, 0x7f, 0x3b,
  0x63, 0x7a, 0xa9, 0x3d, 0x5a, 0x4e, 0x4f, 0x3e, 0xd5, 0xcd, 0x0b, 0x3d,
  0x9f, 0xdb, 0xce, 0x3d, 0xd0, 0xa4, 0x76, 0x3d, 0x53, 0x2e, 0x0b, 0xbe,
  0x65, 0x0d, 0xe5, 0xbd, 0x31, 0xdf, 0xf5, 0x3d, 0xba, 0x5b, 0x5a, 0x3d,
  0xff, 0x42, 0xa8, 0xbd, 0xdb, 0x06, 0x1d, 0xbe, 0x14, 0x0d, 0x89, 0x3e,
  0xa9, 0xb8, 0x23, 0x3e, 0x8b, 0x52, 0x45, 0x3e, 0x56, 0x24, 0x17, 0x3e,
  0xa9, 0x51, 0xd3, 0x3c, 0x02, 0x57, 0xc6, 0x3e, 0x63, 0xe8, 0x99, 0x3e,
  0x94, 0x3b, 0x4a, 0xbe, 0x49, 0x74, 0x52, 0x3e, 0x1a, 0x6f, 0xce, 0xbe,
  0xd4, 0x57, 0xc0, 0x3b, 0x84, 0x44, 0xce, 0x3e, 0xf7, 0xe0, 0x19, 0xbf,
  0x8f, 0x78, 0x26, 0x3e, 0x37, 0x4d, 0x9d, 0xbf, 0x05, 0x1b, 0x20, 0x3e,
  0xb2, 0x9a, 0x9f, 0xbd, 0x2a, 0x52, 0x97, 0xbf, 0x66, 0x86, 0x95, 0xbe,
  0xac, 0x45, 0x00, 0xbd, 0xda, 0x61, 0x18, 0xbf, 0xc7, 0xf3, 0x21, 0x3d,
  0x53, 0x8c, 0x1b, 0xbe, 0xec, 0x5b, 0x31, 0x3d, 0xe6, 0xe1, 0xe3, 0xbf,
  0x93, 0x48, 0x4d, 0xbe, 0xce, 0x79, 0xc4, 0x3c, 0x1c, 0x10, 0x6c, 0x3f,
  0xae, 0x54, 0xf8, 0x3e, 0x4a, 0x4e, 0x0c, 0xbd, 0x40, 0x41, 0x02, 0xbf,
  0x20, 0x2d, 0x18, 0xbd, 0x12, 0x0d, 0x2c, 0xbd, 0xfb, 0x5c, 0xc8, 0x3d,
  0x94, 0xc9, 0xe3, 0x3b, 0xf8, 0x76, 0x83, 0xbc, 0xa4, 0x5e, 0x5b, 0xbe,
  0xad, 0x90, 0x4a, 0x3e, 0x72, 0x05, 0x73, 0xbe, 0xb9, 0xbf, 0x9c, 0xbd,
  0x13, 0xa4, 0x2c, 0xbf, 0x04, 0x89, 0x44, 0xbe, 0x06, 0x3d, 0x95, 0x3e,
  0x10, 0x1c, 0xb9, 0xbd, 0xc2, 0x61, 0xe3, 0xbe, 0x2e, 0xd0, 0x54, 0x3e,
  0x74, 0xd1, 0x2e, 0xbf, 0x74, 0xdb, 0x15, 0x3d, 0x3d, 0x44, 0x88, 0xbe,
  0xfb, 0x59, 0xc9, 0xbe, 0xc2, 0xdd, 0xa9, 0x3d, 0x22, 0xae, 0xd1, 0xbd,
  0x41, 0x14, 0x61, 0x3e, 0x2a, 0xc8, 0x8b, 0xbe, 0x75, 0x0b, 0x55, 0xbd,
  0xaa, 0x7a, 0xb6, 0x3e, 0xde, 0x3e, 0xaf, 0xbe, 0x6a, 0x35, 0xae, 0x3e,
  0x3c, 0xef, 0xbd, 0xbd, 0xd0, 0xff, 0x88, 0xbc, 0x40, 0x7b, 0x3a, 0xbf,
  0x6c, 0x1a, 0xa9, 0xbd, 0x21, 0xc9, 0x3b, 0xbf, 0x2a, 0x93, 0xe2, 0x3d,
  0x22, 0x9a, 0xd7, 0xbd, 0x5c, 0xfb, 0xea, 0xbe, 0x1a, 0xc7, 0xfe, 0xbe,
  0xe4, 0x9a, 0x98, 0xbd, 0x04, 0x4e, 0x50, 0xbf, 0x81, 0x0f, 0x84, 0x3d,
  0xcc, 0x38, 0x9f, 0xbe, 0xb6, 0x0a, 0x27, 0xbd, 0xe9, 0xe6, 0xa5, 0xbe,
  0x8b, 0xb0, 0x08, 0x3c, 0xcc, 0xc9, 0x07, 0x3c, 0xbe, 0x38, 0x81, 0x3d,
  0x6b, 0xb8, 0xc9, 0x3c, 0xaf, 0x5c, 0x09, 0xbd, 0x75, 0xd2, 0xa8, 0xbe,
  0x40, 0xa0, 0x55, 0x3d, 0x3c, 0x62, 0xd8, 0xbc, 0x7c, 0x25, 0x23, 0x3e,
  0x0f, 0x1a, 0xc4, 0xbe, 0xe8, 0x87, 0x10, 0x3b, 0x0a, 0xdb, 0x94, 0xbf,
  0x83, 0xbc, 0x38, 0x3e, 0xc9, 0xf9, 0xfa, 0x3d, 0x48, 0xd0, 0xa1, 0x3d,
  0x38, 0x7a, 0x9e, 0xbd, 0x99, 0x10, 0xf9, 0xbe, 0x5e, 0x01, 0xad, 0xba,
  0x29, 0xc8, 0x80, 0x3c, 0x80, 0x94, 0xe0, 0xbc, 0x5e, 0x76, 0x1b, 0xbe,
  0xb2, 0xd9, 0xf5, 0xbe, 0x00, 0x7b, 0x94, 0x3d, 0x53, 0x26, 0x63, 0xbc,
  0xf7, 0x26, 0x39, 0x3b, 0x6a, 0x9c, 0xe3, 0xbd, 0xef, 0x4e, 0x98, 0xbd,
  0x53, 0x68, 0x29, 0xbe, 0xf4, 0x30, 0x02, 0x3e, 0xa3, 0x59, 0xd3, 0xbc,
  0x43, 0xfe, 0xd4, 0x3c, 0x94, 0x36, 0x58, 0x3e, 0x6b, 0xd9, 0x94, 0xbc,
  0x42, 0xf9, 0xff, 0xff, 0x04, 0x00, 0x00, 0x00, 0x40, 0x02, 0x00, 0x00,
  0xe6, 0xf4, 0xa1, 0xbd, 0x85, 0xb6, 0x7c, 0x3e, 0xe1, 0xf7, 0x21, 0x3c,
  0x8e, 0x2b, 0xd4, 0xbd, 0xf6, 0x46, 0x6e, 0x3e, 0x17, 0x5e, 0xf5, 0x3d,
  0xbd, 0x39, 0xb2, 0xbd, 0x07, 0xdd, 0x09, 0x3e, 0x1f, 0x32, 0x88, 0x3d,
  0xf6, 0xd7, 0x63, 0x3c, 0x7e, 0xaf, 0x68, 0xbd, 0x2f, 0x4c, 0x3e, 0x3d,
  0xbb, 0x35, 0x51, 0x3e, 0xfe, 0x77, 0x7c, 0xbc, 0xc3, 0x3d, 0xbc, 0x3e,
  0x36, 0xad, 0x3d, 0x3c, 0xac, 0x45, 0xe2, 0xbd, 0x14, 0x1f, 0xe5, 0x3d,
  0x2b, 0xb9, 0x39, 0xbe, 0x18, 0xda, 0xb3, 0x3d, 0x23, 0xa6, 0xe7, 0xbd,
  0x96, 0x2f, 0x17, 0xbf, 0xde, 0xa7, 0xec, 0x3d, 0x67, 0x50, 0x7d, 0xbe,
  0x8c, 0xc1, 0xe6, 0x3d, 0x46, 0x18, 0x7f, 0x3e, 0x62, 0xf9, 0x14, 0xbe,
  0xd4, 0x4a, 0xe8, 0x3d, 0x46, 0x49, 0xce, 0xbd, 0xdc, 0x4f, 0xe7, 0xbd,
  0x77, 0xf7, 0xb5, 0xbd, 0xe4, 0x10, 0x14, 0xbd, 0xb4, 0x78, 0x8b, 0x3d,
  0xac, 0x79, 0x41, 0xbd, 0x3f, 0x10, 0x9d, 0x3e, 0x67, 0xd2, 0x5a, 0x3e,
  0xad, 0x19, 0xa1, 0xbe, 0x22, 0xfd, 0x83, 0xbe, 0x4b, 0x6a, 0x07, 0x3e,
  0x22, 0x45, 0xbe, 0x3d, 0x71, 0xbb, 0xbd, 0xbe, 0xf6, 0xdc, 0x2f, 0x3e,
  0x34, 0xb7, 0x53, 0xbe, 0xdf, 0x8d, 0xb7, 0xbc, 0x01, 0xaf, 0xf8, 0xbc,
  0xc4, 0x87, 0x31, 0xbd, 0x58, 0xb5, 0x70, 0xbd, 0xce, 0x5e, 0x26, 0x3d,
  0x1e, 0x92, 0xe0, 0xbd, 0xa6, 0xe5, 0xcc, 0x3c, 0x63, 0x79, 0xda, 0xbd,
  0xf0, 0xd3, 0x63, 0xbd, 0x6a, 0xc0, 0x1e, 0x3d, 0xc3, 0x44, 0xc4, 0xbd,
  0x7b, 0x88, 0x36, 0x3d, 0x5f, 0x25, 0x95, 0xbc, 0x6d, 0x63, 0xa3, 0x3e,
  0xc4, 0x07, 0xaf, 0xbc, 0x99, 0x00, 0x93, 0xbe, 0xd7, 0xaa, 0xf2, 0xbd,
  0xd1, 0x19, 0xdb, 0x3d, 0x0d, 0xb7, 0x59, 0xbd, 0x68, 0xa8, 0xec, 0xbd,
  0x56, 0x68, 0x97, 0x3e, 0xe7, 0xa1, 0x42, 0x3e, 0xbc, 0x51, 0x31, 0xbe,
  0xcd, 0x0b, 0x0d, 0xbf, 0xf4, 0x56, 0x0a, 0x3d, 0x95, 0xa4, 0x3b, 0xbe,
  0xbb, 0x57, 0x35, 0xbe, 0x77, 0x8b, 0xf6, 0x3d, 0xce, 0xae, 0xf9, 0x3c,
  0x17, 0x23, 0xc8, 0x3d, 0x6d, 0x7f, 0x64, 0x3d, 0x4e, 0x60, 0x9f, 0x3c,
  0x3a, 0xbc, 0x64, 0x3e, 0x06, 0x10, 0xea, 0x3c, 0x2b, 0xf7, 0x1a, 0xbf,
  0xf3, 0x75, 0xea, 0xbe, 0xd2, 0x38, 0xcf, 0xbd, 0x21, 0xa8, 0x2f, 0xbe,
  0xc2, 0x72, 0xe7, 0xbd, 0xae, 0x52, 0xaf, 0x3c, 0x51, 0xce, 0x5a, 0x3e,
  0x75, 0xcd, 0x0e, 0xbe, 0x0e, 0xa9, 0x97, 0xbd, 0x84, 0xc0, 0x20, 0x3e,
  0xd3, 0x33, 0x58, 0xbd, 0x55, 0xb3, 0xeb, 0x3d, 0x4a, 0xc7, 0x1f, 0x3e,
  0x79, 0x12, 0xf5, 0xbe, 0x9f, 0xed, 0x28, 0xbe, 0x6d, 0x62, 0xa4, 0xbd,
  0x6d, 0xe3, 0x9e, 0x3c, 0x5a, 0x67, 0xb8, 0xbb, 0x7e, 0x2c, 0xc9, 0xbd,
  0x0d, 0x5f, 0x91, 0x3d, 0xd7, 0x54, 0x0b, 0x3d, 0x40, 0x65, 0x4d, 0xbd,
  0xa5, 0x2d, 0x31, 0x3e, 0x27, 0x3b, 0x61, 0xbe, 0x1b, 0xf1, 0xd0, 0xbb,
  0x80, 0xc4, 0x28, 0x3e, 0xed, 0xba, 0x9b, 0xbe, 0xd7, 0x74, 0x86, 0x3a,
  0xd3, 0x75, 0x28, 0x3e, 0x9a, 0xca, 0x8f, 0xbe, 0xc3, 0x31, 0x20, 0x3e,
  0x1b, 0xdd, 0xa3, 0xbe, 0x21, 0x2d, 0x8e, 0xbd, 0xc1, 0xf0, 0xd4, 0xbe,
  0xe7, 0x0e, 0xc3, 0x3e, 0x6e, 0x43, 0x80, 0x3e, 0x17, 0x3e, 0x41, 0x3e,
  0x7e, 0x9f, 0x81, 0xbe, 0x01, 0xa3, 0x21, 0xbf, 0x7b, 0xf7, 0x29, 0x3e,
  0xb7, 0xf1, 0x1b, 0x3e, 0x57, 0xb9, 0x54, 0x3e, 0x6b, 0x22, 0x0b, 0x3d,
  0xae, 0x54, 0xc7, 0x3d, 0x12, 0xfc, 0x48, 0x3e, 0xee, 0xb4, 0xca, 0xbc,
  0x55, 0x30, 0x92, 0xbc, 0x23, 0xc9, 0x61, 0x3d, 0x6a, 0x9a, 0x6b, 0xbe,
  0xa3, 0xb2, 0xcb, 0xbb, 0xbb, 0x46, 0x29, 0xbd, 0x42, 0x03, 0x12, 0x3c,
  0x2a, 0x9b, 0x8c, 0xbe, 0x98, 0xa3, 0xa6, 0xbe, 0xcf, 0x11, 0x17, 0xbe,
  0x5b, 0x4d, 0x5a, 0x3d, 0x5f, 0xc6, 0x42, 0xbd, 0xbb, 0xe4, 0x42, 0x3d,
  0x62, 0x25, 0x09, 0xbe, 0x85, 0x29, 0x0a, 0x3d, 0x90, 0xe5, 0x50, 0xbe,
  0x09, 0x91, 0xe5, 0x3e, 0xc1, 0xee, 0x53, 0x3e, 0xeb, 0x65, 0x7f, 0xbd,
  0x71, 0x4a, 0x01, 0xbd, 0xd0, 0x65, 0x3c, 0x3d, 0xe4, 0xce, 0x29, 0xbe,
  0x8e, 0xfb, 0xff, 0xff, 0x04, 0x00, 0x00, 0x00, 0x04, 0x00, 0x00, 0x00,
  0x0e, 0xf4, 0x1c, 0x3e, 0x9e, 0xfb, 0xff, 0xff, 0x04, 0x00, 0x00, 0x00,
  0x40, 0x00, 0x00, 0x00, 0xd1, 0xeb, 0x1c, 0x3e, 0x33, 0x1f, 0x92, 0x3e,
  0xa1, 0x68, 0x22, 0xbe, 0x77, 0x57, 0x2a, 0x3e, 0xd6, 0x6f, 0x17, 0xbe,
  0x65, 0x3d, 0xaf, 0x3e, 0xcc, 0xe0, 0x24, 0xbb, 0x6a, 0x45, 0xc1, 0x3d,
  0x2d, 0x8b, 0x04, 0x3d, 0xef, 0x33, 0x2d, 0x3e, 0xc6, 0x41, 0xbe, 0xbd,
  0xe8, 0x33, 0x7b, 0x3e, 0xf7, 0x6e, 0x94, 0xbc, 0xd4, 0xa6, 0x3b, 0x3e,
  0x5c, 0xf4, 0xba, 0xbc, 0x6c, 0x89, 0xb5, 0x3d, 0xea, 0xfb, 0xff, 0xff,
  0x04, 0x00, 0x00, 0x00, 0x20, 0x00, 0x00, 0x00, 0x00, 0x77, 0x59, 0x3e,
  0xb6, 0xa5, 0x79, 0x3e, 0x9a, 0xf3, 0xb5, 0x3e, 0x37, 0x0e, 0xaa, 0x3e,
  0x6d, 0x37, 0xb4, 0x3e, 0x5b, 0xa9, 0x86, 0x3e, 0xbb, 0x9f, 0x9f, 0x3e,
  0x02, 0xb4, 0x7a, 0x3e, 0x16, 0xfc, 0xff, 0xff, 0x04, 0x00, 0x00, 0x00,
  0x20, 0x00, 0x00, 0x00, 0xe9, 0x7a, 0x36, 0xbd, 0xb9, 0xb5, 0x30, 0x3c,
  0xa8, 0xfe, 0x20, 0xbc, 0x46, 0x35, 0x76, 0xbd, 0x5b, 0x3c, 0xca, 0xbb,
  0x04, 0xf9, 0x45, 0x3d, 0x2f, 0xf9, 0x33, 0xbd, 0x7f, 0xb5, 0xa3, 0xbc,
  0x42, 0xfc, 0xff, 0xff, 0x04, 0x00, 0x00, 0x00, 0x40, 0x00, 0x00, 0x00,
  0xd8, 0x09, 0x91, 0xbe, 0xa2, 0xbf, 0xb4, 0xbe, 0x0f, 0xd0, 0xba, 0x3d,
  0x9c, 0x9d, 0x3e, 0xbe, 0x34, 0x48, 0x64, 0x3e, 0x8b, 0x26, 0x0a, 0xbd,
  0xd4, 0xf0, 0x70, 0x3d, 0xd7, 0xe4, 0x01, 0x3d, 0x27, 0xbe, 0xa9, 0x3d,
  0xe9, 0xb9, 0xf4, 0xbd, 0xaa, 0x65, 0x8b, 0x3e, 0xbf, 0xc1, 0x1f, 0x3d,
  0x71, 0xa0, 0x97, 0xbd, 0x4e, 0xa8, 0xac, 0xbe, 0xe8, 0x0c, 0xb6, 0x3e,
  0x56, 0x96, 0x8e, 0xbe, 0x18, 0xee, 0xff, 0xff, 0x1c, 0xee, 0xff, 0xff,
  0x0f, 0x00, 0x00, 0x00, 0x4d, 0x4c, 0x49, 0x52, 0x20, 0x43, 0x6f, 0x6e,
  0x76, 0x65, 0x72, 0x74, 0x65, 0x64, 0x2e, 0x00, 0x01, 0x00, 0x00, 0x00,
  0x14, 0x00, 0x00, 0x00, 0x00, 0x00, 0x0e, 0x00, 0x18, 0x00, 0x14, 0x00,
  0x10, 0x00, 0x0c, 0x00, 0x08, 0x00, 0x04, 0x00, 0x0e, 0x00, 0x00, 0x00,
  0x14, 0x00, 0x00, 0x00, 0x1c, 0x00, 0x00, 0x00, 0xfc, 0x03, 0x00, 0x00,
  0x00, 0x04, 0x00, 0x00, 0x04, 0x04, 0x00, 0x00, 0x04, 0x00, 0x00, 0x00,
  0x6d, 0x61, 0x69, 0x6e, 0x00, 0x00, 0x00, 0x00, 0x0f, 0x00, 0x00, 0x00,
  0xac, 0x03, 0x00, 0x00, 0x4c, 0x03, 0x00, 0x00, 0xf4, 0x02, 0x00, 0x00,
  0xcc, 0x02, 0x00, 0x00, 0x70, 0x02, 0x00, 0x00, 0x20, 0x02, 0x00, 0x00,
  0xdc, 0x01, 0x00, 0x00, 0x9c, 0x01, 0x00, 0x00, 0x58, 0x01, 0x00, 0x00,
  0x18, 0x01, 0x00, 0x00, 0xd4, 0x00, 0x00, 0x00, 0x9c, 0x00, 0x00, 0x00,
  0x50, 0x00, 0x00, 0x00, 0x2c, 0x00, 0x00, 0x00, 0x04, 0x00, 0x00, 0x00,
  0x6e, 0xfd, 0xff, 0xff, 0x0c, 0x00, 0x00, 0x00, 0x10, 0x00, 0x00, 0x00,
  0x03, 0x00, 0x00, 0x00, 0x01, 0x00, 0x00, 0x00, 0x21, 0x00, 0x00, 0x00,
  0x02, 0x00, 0x00, 0x00, 0x20, 0x00, 0x00, 0x00, 0x12, 0x00, 0x00, 0x00,
  0x92, 0xfd, 0xff, 0xff, 0x0c, 0x00, 0x00, 0x00, 0x10, 0x00, 0x00, 0x00,
  0x07, 0x00, 0x00, 0x00, 0x01, 0x00, 0x00, 0x00, 0x20, 0x00, 0x00, 0x00,
  0x01, 0x00, 0x00, 0x00, 0x1f, 0x00, 0x00, 0x00, 0x3e, 0xfd, 0xff, 0xff,
  0x20, 0x00, 0x00, 0x00, 0x00, 0x00, 0x00, 0x01, 0x24, 0x00, 0x00, 0x00,
  0x28, 0x00, 0x00, 0x00, 0x04, 0x00, 0x00, 0x00, 0x00, 0x00, 0x0a, 0x00,
  0x0c, 0x00, 0x00, 0x00, 0x08, 0x00, 0x04, 0x00, 0x0a, 0x00, 0x00, 0x00,
  0x01, 0x00, 0x00, 0x00, 0x01, 0x00, 0x00, 0x00, 0x01, 0x00, 0x00, 0x00,
  0x1f, 0x00, 0x00, 0x00, 0x03, 0x00, 0x00, 0x00, 0x1e, 0x00, 0x00, 0x00,
  0x0a, 0x00, 0x00, 0x00, 0x05, 0x00, 0x00, 0x00, 0x86, 0xfd, 0xff, 0xff,
  0x14, 0x00, 0x00, 0x00, 0x00, 0x00, 0x00, 0x4a, 0x14, 0x00, 0x00, 0x00,
  0x18, 0x00, 0x00, 0x00, 0x06, 0x00, 0x00, 0x00, 0x8c, 0xff, 0xff, 0xff,
  0x00, 0x00, 0x00, 0x01, 0x01, 0x00, 0x00, 0x00, 0x1e, 0x00, 0x00, 0x00,
  0x02, 0x00, 0x00, 0x00, 0x1d, 0x00, 0x00, 0x00, 0x0b, 0x00, 0x00, 0x00,
  0xba, 0xfd, 0xff, 0xff, 0x14, 0x00, 0x00, 0x00, 0x00, 0x00, 0x00, 0x01,
  0x1c, 0x00, 0x00, 0x00, 0x20, 0x00, 0x00, 0x00, 0x04, 0x00, 0x00, 0x00,
  0x7c, 0xfe, 0xff, 0xff, 0x00, 0x00, 0x00, 0x01, 0x01, 0x00, 0x00, 0x00,
  0x01, 0x00, 0x00, 0x00, 0x01, 0x00, 0x00, 0x00, 0x1d, 0x00, 0x00, 0x00,
  0x03, 0x00, 0x00, 0x00, 0x1c, 0x00, 0x00, 0x00, 0x09, 0x00, 0x00, 0x00,
  0x04, 0x00, 0x00, 0x00, 0xfa, 0xfd, 0xff, 0xff, 0x1c, 0x00, 0x00, 0x00,
  0x00, 0x00, 0x00, 0x4a, 0x1c, 0x00, 0x00, 0x00, 0x20, 0x00, 0x00, 0x00,
  0x06, 0x00, 0x00, 0x00, 0x08, 0x00, 0x08, 0x00, 0x00, 0x00, 0x07, 0x00,
  0x08, 0x00, 0x00, 0x00, 0x00, 0x00, 0x00, 0x01, 0x01, 0x00, 0x00, 0x00,
  0x1c, 0x00, 0x00, 0x00, 0x02, 0x00, 0x00, 0x00, 0x1b, 0x00, 0x00, 0x00,
  0x0c, 0x00, 0x00, 0x00, 0x36, 0xfe, 0xff, 0xff, 0x14, 0x00, 0x00, 0x00,
  0x00, 0x00, 0x00, 0x01, 0x1c, 0x00, 0x00, 0x00, 0x20, 0x00, 0x00, 0x00,
  0x04, 0x00, 0x00, 0x00, 0xf8, 0xfe, 0xff, 0xff, 0x00, 0x00, 0x00, 0x01,
  0x01, 0x00, 0x00, 0x00, 0x01, 0x00, 0x00, 0x00, 0x01, 0x00, 0x00, 0x00,
  0x1b, 0x00, 0x00, 0x00, 0x03, 0x00, 0x00, 0x00, 0x1a, 0x00, 0x00, 0x00,
  0x08, 0x00, 0x00, 0x00, 0x03, 0x00, 0x00, 0x00, 0x76, 0xfe, 0xff, 0xff,
  0x14, 0x00, 0x00, 0x00, 0x00, 0x00, 0x00, 0x05, 0x20, 0x00, 0x00, 0x00,
  0x24, 0x00, 0x00, 0x00, 0x05, 0x00, 0x00, 0x00, 0x82, 0xff, 0xff, 0xff,
  0x02, 0x00, 0x00, 0x00, 0x02, 0x00, 0x00, 0x00, 0x02, 0x00, 0x00, 0x00,
  0x02, 0x00, 0x00, 0x00, 0x01, 0x00, 0x00, 0x00, 0x1a, 0x00, 0x00, 0x00,
  0x01, 0x00, 0x00, 0x00, 0x19, 0x00, 0x00, 0x00, 0xb2, 0xfe, 0xff, 0xff,
  0x14, 0x00, 0x00, 0x00, 0x00, 0x00, 0x00, 0x01, 0x1c, 0x00, 0x00, 0x00,
  0x20, 0x00, 0x00, 0x00, 0x04, 0x00, 0x00, 0x00, 0x74, 0xff, 0xff, 0xff,
  0x00, 0x00, 0x00, 0x01, 0x01, 0x00, 0x00, 0x00, 0x01, 0x00, 0x00, 0x00,
  0x01, 0x00, 0x00, 0x00, 0x19, 0x00, 0x00, 0x00, 0x03, 0x00, 0x00, 0x00,
  0x18, 0x00, 0x00, 0x00, 0x07, 0x00, 0x00, 0x00, 0x02, 0x00, 0x00, 0x00,
  0xf2, 0xfe, 0xff, 0xff, 0x24, 0x00, 0x00, 0x00, 0x00, 0x00, 0x00, 0x05,
  0x30, 0x00, 0x00, 0x00, 0x34, 0x00, 0x00, 0x00, 0x05, 0x00, 0x00, 0x00,
  0x00, 0x00, 0x0e, 0x00, 0x14, 0x00, 0x00, 0x00, 0x10, 0x00, 0x0c, 0x00,
  0x08, 0x00, 0x04, 0x00, 0x0e, 0x00, 0x00, 0x00, 0x02, 0x00, 0x00, 0x00,
  0x02, 0x00, 0x00, 0x00, 0x02, 0x00, 0x00, 0x00, 0x02, 0x00, 0x00, 0x00,
  0x01, 0x00, 0x00, 0x00, 0x18, 0x00, 0x00, 0x00, 0x01, 0x00, 0x00, 0x00,
  0x17, 0x00, 0x00, 0x00, 0x3e, 0xff, 0xff, 0xff, 0x20, 0x00, 0x00, 0x00,
  0x00, 0x00, 0x00, 0x01, 0x28, 0x00, 0x00, 0x00, 0x2c, 0x00, 0x00, 0x00,
  0x04, 0x00, 0x00, 0x00, 0x0c, 0x00, 0x10, 0x00, 0x00, 0x00, 0x0c, 0x00,
  0x08, 0x00, 0x07, 0x00, 0x0c, 0x00, 0x00, 0x00, 0x00, 0x00, 0x00, 0x01,
  0x01, 0x00, 0x00, 0x00, 0x01, 0x00, 0x00, 0x00, 0x01, 0x00, 0x00, 0x00,
  0x17, 0x00, 0x00, 0x00, 0x03, 0x00, 0x00, 0x00, 0x16, 0x00, 0x00, 0x00,
  0x06, 0x00, 0x00, 0x00, 0x01, 0x00, 0x00, 0x00, 0x00, 0x00, 0x0a, 0x00,
  0x10, 0x00, 0x0c, 0x00, 0x08, 0x00, 0x04, 0x00, 0x0a, 0x00, 0x00, 0x00,
  0x0c, 0x00, 0x00, 0x00, 0x10, 0x00, 0x00, 0x00, 0x03, 0x00, 0x00, 0x00,
  0x01, 0x00, 0x00, 0x00, 0x16, 0x00, 0x00, 0x00, 0x02, 0x00, 0x00, 0x00,
  0x00, 0x00, 0x00, 0x00, 0x15, 0x00, 0x00, 0x00, 0xba, 0xff, 0xff, 0xff,
  0x1c, 0x00, 0x00, 0x00, 0x00, 0x00, 0x00, 0x3b, 0x1c, 0x00, 0x00, 0x00,
  0x20, 0x00, 0x00, 0x00, 0x02, 0x00, 0x00, 0x00, 0x00, 0x00, 0x06, 0x00,
  0x08, 0x00, 0x04, 0x00, 0x06, 0x00, 0x00, 0x00, 0x04, 0x00, 0x00, 0x00,
  0x01, 0x00, 0x00, 0x00, 0x15, 0x00, 0x00, 0x00, 0x04, 0x00, 0x00, 0x00,
  0x14, 0x00, 0x00, 0x00, 0x11, 0x00, 0x00, 0x00, 0x10, 0x00, 0x00, 0x00,
  0x0f, 0x00, 0x00, 0x00, 0x00, 0x00, 0x0e, 0x00, 0x1a, 0x00, 0x14, 0x00,
  0x10, 0x00, 0x0c, 0x00, 0x0b, 0x00, 0x04, 0x00, 0x0e, 0x00, 0x00, 0x00,
  0x24, 0x00, 0x00, 0x00, 0x00, 0x00, 0x00, 0x20, 0x24, 0x00, 0x00, 0x00,
  0x28, 0x00, 0x00, 0x00, 0x01, 0x00, 0x00, 0x00, 0x00, 0x00, 0x0e, 0x00,
  0x08, 0x00, 0x00, 0x00, 0x00, 0x00, 0x00, 0x00, 0x00, 0x00, 0x04, 0x00,
  0x0e, 0x00, 0x00, 0x00, 0x01, 0x00, 0x00, 0x00, 0x01, 0x00, 0x00, 0x00,
  0x14, 0x00, 0x00, 0x00, 0x04, 0x00, 0x00, 0x00, 0x13, 0x00, 0x00, 0x00,
  0x0e, 0x00, 0x00, 0x00, 0x0d, 0x00, 0x00, 0x00, 0x0d, 0x00, 0x00, 0x00,
  0x00, 0x00, 0x0e, 0x00, 0x16, 0x00, 0x00, 0x00, 0x10, 0x00, 0x0c, 0x00,
  0x0b, 0x00, 0x04, 0x00, 0x0e, 0x00, 0x00, 0x00, 0x18, 0x00, 0x00, 0x00,
  0x00, 0x00, 0x00, 0x37, 0x18, 0x00, 0x00, 0x00, 0x1c, 0x00, 0x00, 0x00,
  0x00, 0x00, 0x06, 0x00, 0x08, 0x00, 0x07, 0x00, 0x06, 0x00, 0x00, 0x00,
  0x00, 0x00, 0x00, 0x02, 0x01, 0x00, 0x00, 0x00, 0x13, 0x00, 0x00, 0x00,
  0x01, 0x00, 0x00, 0x00, 0x00, 0x00, 0x00, 0x00, 0x01, 0x00, 0x00, 0x00,
  0x21, 0x00, 0x00, 0x00, 0x01, 0x00, 0x00, 0x00, 0x00, 0x00, 0x00, 0x00,
  0x22, 0x00, 0x00, 0x00, 0x70, 0x0d, 0x00, 0x00, 0x08, 0x0d, 0x00, 0x00,
  0x9c, 0x0c, 0x00, 0x00, 0x48, 0x0c, 0x00, 0x00, 0xf4, 0x0b, 0x00, 0x00,
  0xa0, 0x0b, 0x00, 0x00, 0x54, 0x0b, 0x00, 0x00, 0x04, 0x0b, 0x00, 0x00,
  0xb4, 0x0a, 0x00, 0x00, 0x64, 0x0a, 0x00, 0x00, 0x14, 0x0a, 0x00, 0x00,
  0xc8, 0x09, 0x00, 0x00, 0x68, 0x09, 0x00, 0x00, 0x14, 0x09, 0x00, 0x00,
  0xc0, 0x08, 0x00, 0x00, 0x74, 0x08, 0x00, 0x00, 0x28, 0x08, 0x00, 0x00,
  0xdc, 0x07, 0x00, 0x00, 0x98, 0x07, 0x00, 0x00, 0x54, 0x07, 0x00, 0x00,
  0x0c, 0x07, 0x00, 0x00, 0xc0, 0x06, 0x00, 0x00, 0x58, 0x06, 0x00, 0x00,
  0x90, 0x05, 0x00, 0x00, 0x24, 0x05, 0x00, 0x00, 0x54, 0x04, 0x00, 0x00,
  0xe4, 0x03, 0x00, 0x00, 0x2c, 0x03, 0x00, 0x00, 0xa8, 0x02, 0x00, 0x00,
  0xf0, 0x01, 0x00, 0x00, 0x6c, 0x01, 0x00, 0x00, 0xc8, 0x00, 0x00, 0x00,
  0x60, 0x00, 0x00, 0x00, 0x04, 0x00, 0x00, 0x00, 0x2e, 0xf3, 0xff, 0xff,
  0x00, 0x00, 0x00, 0x01, 0x14, 0x00, 0x00, 0x00, 0x1c, 0x00, 0x00, 0x00,
  0x1c, 0x00, 0x00, 0x00, 0x22, 0x00, 0x00, 0x00, 0x34, 0x00, 0x00, 0x00,
  0x02, 0x00, 0x00, 0x00, 0xff, 0xff, 0xff, 0xff, 0x80, 0x00, 0x00, 0x00,
  0x18, 0xf3, 0xff, 0xff, 0x19, 0x00, 0x00, 0x00, 0x53, 0x74, 0x61, 0x74,
  0x65, 0x66, 0x75, 0x6c, 0x50, 0x61, 0x72, 0x74, 0x69, 0x74, 0x69, 0x6f,
  0x6e, 0x65, 0x64, 0x43, 0x61, 0x6c, 0x6c, 0x3a, 0x30, 0x00, 0x00, 0x00,
  0x02, 0x00, 0x00, 0x00, 0x01, 0x00, 0x00, 0x00, 0x80, 0x00, 0x00, 0x00,
  0x86, 0xf3, 0xff, 0xff, 0x00, 0x00, 0x00, 0x01, 0x14, 0x00, 0x00, 0x00,
  0x24, 0x00, 0x00, 0x00, 0x24, 0x00, 0x00, 0x00, 0x21, 0x00, 0x00, 0x00,
  0x38, 0x00, 0x00, 0x00, 0x04, 0x00, 0x00, 0x00, 0xff, 0xff, 0xff, 0xff,
  0x10, 0x00, 0x00, 0x00, 0x08, 0x00, 0x00, 0x00, 0x01, 0x00, 0x00, 0x00,
  0x78, 0xf3, 0xff, 0xff, 0x16, 0x00, 0x00, 0x00, 0x6d, 0x6f, 0x64, 0x65,
  0x6c, 0x2f, 0x63, 0x6f, 0x6e, 0x76, 0x32, 0x64, 0x5f, 0x34, 0x2f, 0x53,
  0x69, 0x67, 0x6d, 0x6f, 0x69, 0x64, 0x00, 0x00, 0x04, 0x00, 0x00, 0x00,
  0x01, 0x00, 0x00, 0x00, 0x10, 0x00, 0x00, 0x00, 0x08, 0x00, 0x00, 0x00,
  0x01, 0x00, 0x00, 0x00, 0xea, 0xf3, 0xff, 0xff, 0x00, 0x00, 0x00, 0x01,
  0x14, 0x00, 0x00, 0x00, 0x24, 0x00, 0x00, 0x00, 0x24, 0x00, 0x00, 0x00,
  0x20, 0x00, 0x00, 0x00, 0x74, 0x00, 0x00, 0x00, 0x04, 0x00, 0x00, 0x00,
  0xff, 0xff, 0xff, 0xff, 0x10, 0x00, 0x00, 0x00, 0x08, 0x00, 0x00, 0x00,
  0x01, 0x00, 0x00, 0x00, 0xdc, 0xf3, 0xff, 0xff, 0x52, 0x00, 0x00, 0x00,
  0x6d, 0x6f, 0x64, 0x65, 0x6c, 0x2f, 0x63, 0x6f, 0x6e, 0x76, 0x32, 0x64,
  0x5f, 0x34, 0x2f, 0x42, 0x69, 0x61, 0x73, 0x41, 0x64, 0x64, 0x3b, 0x6d,
  0x6f, 0x64, 0x65, 0x6c, 0x2f, 0x63, 0x6f, 0x6e, 0x76, 0x32, 0x64, 0x5f,
  0x34, 0x2f, 0x43, 0x6f, 0x6e, 0x76, 0x32, 0x44, 0x3b, 0x6d, 0x6f, 0x64,
  0x65, 0x6c, 0x2f, 0x63, 0x6f, 0x6e, 0x76, 0x32, 0x64, 0x5f, 0x34, 0x2f,
  0x42, 0x69, 0x61, 0x73, 0x41, 0x64, 0x64, 0x2f, 0x52, 0x65, 0x61, 0x64,
  0x56, 0x61, 0x72, 0x69, 0x61, 0x62, 0x6c, 0x65, 0x4f, 0x70, 0x00, 0x00,
  0x04, 0x00, 0x00, 0x00, 0x01, 0x00, 0x00, 0x00, 0x10, 0x00, 0x00, 0x00,
  0x08, 0x00, 0x00, 0x00, 0x01, 0x00, 0x00, 0x00, 0x8a, 0xf4, 0xff, 0xff,
  0x00, 0x00, 0x00, 0x01, 0x14, 0x00, 0x00, 0x00, 0x24, 0x00, 0x00, 0x00,
  0x24, 0x00, 0x00, 0x00, 0x1f, 0x00, 0x00, 0x00, 0x54, 0x00, 0x00, 0x00,
  0x04, 0x00, 0x00, 0x00, 0xff, 0xff, 0xff, 0xff, 0x10, 0x00, 0x00, 0x00,
  0x08, 0x00, 0x00, 0x00, 0x10, 0x00, 0x00, 0x00, 0x7c, 0xf4, 0xff, 0xff,
  0x32, 0x00, 0x00, 0x00, 0x6d, 0x6f, 0x64, 0x65, 0x6c, 0x2f, 0x75, 0x70,
  0x5f, 0x73, 0x61, 0x6d, 0x70, 0x6c, 0x69, 0x6e, 0x67, 0x32, 0x64, 0x5f,
  0x31, 0x2f, 0x72, 0x65, 0x73, 0x69, 0x7a, 0x65, 0x2f, 0x52, 0x65, 0x73,
  0x69, 0x7a, 0x65, 0x4e, 0x65, 0x61, 0x72, 0x65, 0x73, 0x74, 0x4e, 0x65,
  0x69, 0x67, 0x68, 0x62, 0x6f, 0x72, 0x00, 0x00, 0x04, 0x00, 0x00, 0x00,
  0x01, 0x00, 0x00, 0x00, 0x10, 0x00, 0x00, 0x00, 0x08, 0x00, 0x00, 0x00,
  0x10, 0x00, 0x00, 0x00, 0x0a, 0xf5, 0xff, 0xff, 0x00, 0x00, 0x00, 0x01,
  0x14, 0x00, 0x00, 0x00, 0x24, 0x00, 0x00, 0x00, 0x24, 0x00, 0x00, 0x00,
  0x1e, 0x00, 0x00, 0x00, 0x88, 0x00, 0x00, 0x00, 0x04, 0x00, 0x00, 0x00,
  0xff, 0xff, 0xff, 0xff, 0x08, 0x00, 0x00, 0x00, 0x04, 0x00, 0x00, 0x00,
  0x10, 0x00, 0x00, 0x00, 0xfc, 0xf4, 0xff, 0xff, 0x66, 0x00, 0x00, 0x00,
  0x6d, 0x6f, 0x64, 0x65, 0x6c, 0x2f, 0x63, 0x6f, 0x6e, 0x76, 0x32, 0x64,
  0x5f, 0x33, 0x2f, 0x52, 0x65, 0x6c, 0x75, 0x3b, 0x6d, 0x6f, 0x64, 0x65,
  0x6c, 0x2f, 0x63, 0x6f, 0x6e, 0x76, 0x32, 0x64, 0x5f, 0x33, 0x2f, 0x42,
  0x69, 0x61, 0x73, 0x41, 0x64, 0x64, 0x3b, 0x6d, 0x6f, 0x64, 0x65, 0x6c,
  0x2f, 0x63, 0x6f, 0x6e, 0x76, 0x32, 0x64, 0x5f, 0x33, 0x2f, 0x43, 0x6f,
  0x6e, 0x76, 0x32, 0x44, 0x3b, 0x6d, 0x6f, 0x64, 0x65, 0x6c, 0x2f, 0x63,
  0x6f, 0x6e, 0x76, 0x32, 0x64, 0x5f, 0x33, 0x2f, 0x42, 0x69, 0x61, 0x73,
  0x41, 0x64, 0x64, 0x2f, 0x52, 0x65, 0x61, 0x64, 0x56, 0x61, 0x72, 0x69,
  0x61, 0x62, 0x6c, 0x65, 0x4f, 0x70, 0x00, 0x00, 0x04, 0x00, 0x00, 0x00,
  0x01, 0x00, 0x00, 0x00, 0x08, 0x00, 0x00, 0x00, 0x04, 0x00, 0x00, 0x00,
  0x10, 0x00, 0x00, 0x00, 0xbe, 0xf5, 0xff, 0xff, 0x00, 0x00, 0x00, 0x01,
  0x14, 0x00, 0x00, 0x00, 0x24, 0x00, 0x00, 0x00, 0x24, 0x00, 0x00, 0x00,
  0x1d, 0x00, 0x00, 0x00, 0x54, 0x00, 0x00, 0x00, 0x04, 0x00, 0x00, 0x00,
  0xff, 0xff, 0xff, 0xff, 0x08, 0x00, 0x00, 0x00, 0x04, 0x00, 0x00, 0x00,
  0x08, 0x00, 0x00, 0x00, 0xb0, 0xf5, 0xff, 0xff, 0x30, 0x00, 0x00, 0x00,
  0x6d, 0x6f, 0x64, 0x65, 0x6c, 0x2f, 0x75, 0x70, 0x5f, 0x73, 0x61, 0x6d,
  0x70, 0x6c, 0x69, 0x6e, 0x67, 0x32, 0x64, 0x2f, 0x72, 0x65, 0x73, 0x69,
  0x7a, 0x65, 0x2f, 0x52, 0x65, 0x73, 0x69, 0x7a, 0x65, 0x4e, 0x65, 0x61,
  0x72, 0x65, 0x73, 0x74, 0x4e, 0x65, 0x69, 0x67, 0x68, 0x62, 0x6f, 0x72,
  0x00, 0x00, 0x00, 0x00, 0x04, 0x00, 0x00, 0x00, 0x01, 0x00, 0x00, 0x00,
  0x08, 0x00, 0x00, 0x00, 0x04, 0x00, 0x00, 0x00, 0x08, 0x00, 0x00, 0x00,
  0x3e, 0xf6, 0xff, 0xff, 0x00, 0x00, 0x00, 0x01, 0x14, 0x00, 0x00, 0x00,
  0x24, 0x00, 0x00, 0x00, 0x24, 0x00, 0x00, 0x00, 0x1c, 0x00, 0x00, 0x00,
  0x88, 0x00, 0x00, 0x00, 0x04, 0x00, 0x00, 0x00, 0xff, 0xff, 0xff, 0xff,
  0x04, 0x00, 0x00, 0x00, 0x02, 0x00, 0x00, 0x00, 0x08, 0x00, 0x00, 0x00,
  0x30, 0xf6, 0xff, 0xff, 0x66, 0x00, 0x00, 0x00, 0x6d, 0x6f, 0x64, 0x65,
  0x6c, 0x2f, 0x63, 0x6f, 0x6e, 0x76, 0x32, 0x64, 0x5f, 0x32, 0x2f, 0x52,
  0x65, 0x6c, 0x75, 0x3b, 0x6d, 0x6f, 0x64, 0x65, 0x6c, 0x2f, 0x63, 0x6f,
  0x6e, 0x76, 0x32, 0x64, 0x5f, 0x32, 0x2f, 0x42, 0x69, 0x61, 0x73, 0x41,
  0x64, 0x64, 0x3b, 0x6d, 0x6f, 0x64, 0x65, 0x6c, 0x2f, 0x63, 0x6f, 0x6e,
  0x76, 0x32, 0x64, 0x5f, 0x32, 0x2f, 0x43, 0x6f, 0x6e, 0x76, 0x32, 0x44,
  0x3b, 0x6d, 0x6f, 0x64, 0x65, 0x6c, 0x2f, 0x63, 0x6f, 0x6e, 0x76, 0x32,
  0x64, 0x5f, 0x32, 0x2f, 0x42, 0x69, 0x61, 0x73, 0x41, 0x64, 0x64, 0x2f,
  0x52, 0x65, 0x61, 0x64, 0x56, 0x61, 0x72, 0x69, 0x61, 0x62, 0x6c, 0x65,
  0x4f, 0x70, 0x00, 0x00, 0x04, 0x00, 0x00, 0x00, 0x01, 0x00, 0x00, 0x00,
  0x04, 0x00, 0x00, 0x00, 0x02, 0x00, 0x00, 0x00, 0x08, 0x00, 0x00, 0x00,
  0xf2, 0xf6, 0xff, 0xff, 0x00, 0x00, 0x00, 0x01, 0x14, 0x00, 0x00, 0x00,
  0x24, 0x00, 0x00, 0x00, 0x24, 0x00, 0x00, 0x00, 0x1b, 0x00, 0x00, 0x00,
  0x40, 0x00, 0x00, 0x00, 0x04, 0x00, 0x00, 0x00, 0xff, 0xff, 0xff, 0xff,
  0x04, 0x00, 0x00, 0x00, 0x02, 0x00, 0x00, 0x00, 0x08, 0x00, 0x00, 0x00,
  0xe4, 0xf6, 0xff, 0xff, 0x1d, 0x00, 0x00, 0x00, 0x6d, 0x6f, 0x64, 0x65,
  0x6c, 0x2f, 0x6d, 0x61, 0x78, 0x5f, 0x70, 0x6f, 0x6f, 0x6c, 0x69, 0x6e,
  0x67, 0x32, 0x64, 0x5f, 0x31, 0x2f, 0x4d, 0x61, 0x78, 0x50, 0x6f, 0x6f,
  0x6c, 0x00, 0x00, 0x00, 0x04, 0x00, 0x00, 0x00, 0x01, 0x00, 0x00, 0x00,
  0x04, 0x00, 0x00, 0x00, 0x02, 0x00, 0x00, 0x00, 0x08, 0x00, 0x00, 0x00,
  0x5e, 0xf7, 0xff, 0xff, 0x00, 0x00, 0x00, 0x01, 0x14, 0x00, 0x00, 0x00,
  0x24, 0x00, 0x00, 0x00, 0x24, 0x00, 0x00, 0x00, 0x1a, 0x00, 0x00, 0x00,
  0xa0, 0x00, 0x00, 0x00, 0x04, 0x00, 0x00, 0x00, 0xff, 0xff, 0xff, 0xff,
  0x08, 0x00, 0x00, 0x00, 0x04, 0x00, 0x00, 0x00, 0x08, 0x00, 0x00, 0x00,
  0x50, 0xf7, 0xff, 0xff, 0x7c, 0x00, 0x00, 0x00, 0x6d, 0x6f, 0x64, 0x65,
  0x6c, 0x2f, 0x63, 0x6f, 0x6e, 0x76, 0x32, 0x64, 0x5f, 0x31, 0x2f, 0x52,
  0x65, 0x6c, 0x75, 0x3b, 0x6d, 0x6f, 0x64, 0x65, 0x6c, 0x2f, 0x63, 0x6f,
  0x6e, 0x76, 0x32, 0x64, 0x5f, 0x31, 0x2f, 0x42, 0x69, 0x61, 0x73, 0x41,
  0x64, 0x64, 0x3b, 0x6d, 0x6f, 0x64, 0x65, 0x6c, 0x2f, 0x63, 0x6f, 0x6e,
  0x76, 0x32, 0x64, 0x5f, 0x32, 0x2f, 0x43, 0x6f, 0x6e, 0x76, 0x32, 0x44,
  0x3b, 0x6d, 0x6f, 0x64, 0x65, 0x6c, 0x2f, 0x63, 0x6f, 0x6e, 0x76, 0x32,
  0x64, 0x5f, 0x31, 0x2f, 0x43, 0x6f, 0x6e, 0x76, 0x32, 0x44, 0x3b, 0x6d,
  0x6f, 0x64, 0x65, 0x6c, 0x2f, 0x63, 0x6f, 0x6e, 0x76, 0x32, 0x64, 0x5f,
  0x31, 0x2f, 0x42, 0x69, 0x61, 0x73, 0x41, 0x64, 0x64, 0x2f, 0x52, 0x65,
  0x61, 0x64, 0x56, 0x61, 0x72, 0x69, 0x61, 0x62, 0x6c, 0x65, 0x4f, 0x70,
