unsigned char model_tflite[] = {
  0x1c, 0x00, 0x00, 0x00, 0x54, 0x46, 0x4c, 0x33, 0x14, 0x00, 0x20, 0x00,
  0x1c, 0x00, 0x18, 0x00, 0x14, 0x00, 0x10, 0x00, 0x0c, 0x00, 0x00, 0x00,
  0x08, 0x00, 0x04, 0x00, 0x14, 0x00, 0x00, 0x00, 0x1c, 0x00, 0x00, 0x00,
  0x80, 0x00, 0x00, 0x00, 0xd8, 0x00, 0x00, 0x00, 0xa8, 0x0c, 0x00, 0x00,
  0xb8, 0x0c, 0x00, 0x00, 0x08, 0x23, 0x00, 0x00, 0x03, 0x00, 0x00, 0x00,
  0x01, 0x00, 0x00, 0x00, 0x04, 0x00, 0x00, 0x00, 0xae, 0xf0, 0xff, 0xff,
  0x0c, 0x00, 0x00, 0x00, 0x1c, 0x00, 0x00, 0x00, 0x38, 0x00, 0x00, 0x00,
  0x0f, 0x00, 0x00, 0x00, 0x73, 0x65, 0x72, 0x76, 0x69, 0x6e, 0x67, 0x5f,
  0x64, 0x65, 0x66, 0x61, 0x75, 0x6c, 0x74, 0x00, 0x01, 0x00, 0x00, 0x00,
  0x04, 0x00, 0x00, 0x00, 0x9c, 0xff, 0xff, 0xff, 0x1e, 0x00, 0x00, 0x00,
  0x04, 0x00, 0x00, 0x00, 0x07, 0x00, 0x00, 0x00, 0x66, 0x6c, 0x61, 0x74,
  0x74, 0x65, 0x6e, 0x00, 0x01, 0x00, 0x00, 0x00, 0x04, 0x00, 0x00, 0x00,
  0xb2, 0xf0, 0xff, 0xff, 0x04, 0x00, 0x00, 0x00, 0x07, 0x00, 0x00, 0x00,
  0x69, 0x6e, 0x70, 0x75, 0x74, 0x5f, 0x31, 0x00, 0x02, 0x00, 0x00, 0x00,
  0x34, 0x00, 0x00, 0x00, 0x04, 0x00, 0x00, 0x00, 0xdc, 0xff, 0xff, 0xff,
  0x21, 0x00, 0x00, 0x00, 0x04, 0x00, 0x00, 0x00, 0x13, 0x00, 0x00, 0x00,
  0x43, 0x4f, 0x4e, 0x56, 0x45, 0x52, 0x53, 0x49, 0x4f, 0x4e, 0x5f, 0x4d,
  0x45, 0x54, 0x41, 0x44, 0x41, 0x54, 0x41, 0x00, 0x08, 0x00, 0x0c, 0x00,
  0x08, 0x00, 0x04, 0x00, 0x08, 0x00, 0x00, 0x00, 0x20, 0x00, 0x00, 0x00,
  0x04, 0x00, 0x00, 0x00, 0x13, 0x00, 0x00, 0x00, 0x6d, 0x69, 0x6e, 0x5f,
  0x72, 0x75, 0x6e, 0x74, 0x69, 0x6d, 0x65, 0x5f, 0x76, 0x65, 0x72, 0x73,
  0x69, 0x6f, 0x6e, 0x00, 0x22, 0x00, 0x00, 0x00, 0xcc, 0x0b, 0x00, 0x00,
  0xc4, 0x0b, 0x00, 0x00, 0xb0, 0x0b, 0x00, 0x00, 0x60, 0x0b, 0x00, 0x00,
  0x2c, 0x0b, 0x00, 0x00, 0xdc, 0x0a, 0x00, 0x00, 0x8c, 0x08, 0x00, 0x00,
  0x3c, 0x08, 0x00, 0x00, 0x28, 0x08, 0x00, 0x00, 0xd8, 0x07, 0x00, 0x00,
  0xc8, 0x03, 0x00, 0x00, 0x78, 0x01, 0x00, 0x00, 0x60, 0x01, 0x00, 0x00,
  0x4c, 0x01, 0x00, 0x00, 0x38, 0x01, 0x00, 0x00, 0x30, 0x01, 0x00, 0x00,
  0x1c, 0x01, 0x00, 0x00, 0x08, 0x01, 0x00, 0x00, 0xf0, 0x00, 0x00, 0x00,
  0xe8, 0x00, 0x00, 0x00, 0xe0, 0x00, 0x00, 0x00, 0xd8, 0x00, 0x00, 0x00,
  0xd0, 0x00, 0x00, 0x00, 0xc8, 0x00, 0x00, 0x00, 0xc0, 0x00, 0x00, 0x00,
  0xb8, 0x00, 0x00, 0x00, 0xb0, 0x00, 0x00, 0x00, 0xa8, 0x00, 0x00, 0x00,
  0xa0, 0x00, 0x00, 0x00, 0x98, 0x00, 0x00, 0x00, 0x90, 0x00, 0x00, 0x00,
  0x88, 0x00, 0x00, 0x00, 0x68, 0x00, 0x00, 0x00, 0x04, 0x00, 0x00, 0x00,
  0xae, 0xf1, 0xff, 0xff, 0x04, 0x00, 0x00, 0x00, 0x54, 0x00, 0x00, 0x00,
  0x0c, 0x00, 0x00, 0x00, 0x08, 0x00, 0x0e, 0x00, 0x08, 0x00, 0x04, 0x00,
  0x08, 0x00, 0x00, 0x00, 0x10, 0x00, 0x00, 0x00, 0x24, 0x00, 0x00, 0x00,
  0x00, 0x00, 0x06, 0x00, 0x08, 0x00, 0x04, 0x00, 0x06, 0x00, 0x00, 0x00,
  0x04, 0x00, 0x00, 0x00, 0x00, 0x00, 0x00, 0x00, 0x00, 0x00, 0x0a, 0x00,
  0x10, 0x00, 0x0c, 0x00, 0x08, 0x00, 0x04, 0x00, 0x0a, 0x00, 0x00, 0x00,
  0x01, 0x00, 0x00, 0x00, 0x02, 0x00, 0x00, 0x00, 0x04, 0x00, 0x00, 0x00,
  0x06, 0x00, 0x00, 0x00, 0x32, 0x2e, 0x31, 0x35, 0x2e, 0x30, 0x00, 0x00,
  0x0e, 0xf2, 0xff, 0xff, 0x04, 0x00, 0x00, 0x00, 0x10, 0x00, 0x00, 0x00,
  0x32, 0x2e, 0x33, 0x2e, 0x30, 0x00, 0x00, 0x00, 0x00, 0x00, 0x00, 0x00,
  0x00, 0x00, 0x00, 0x00, 0x00, 0xdf, 0xff, 0xff, 0x04, 0xdf, 0xff, 0xff,
  0x08, 0xdf, 0xff, 0xff, 0x0c, 0xdf, 0xff, 0xff, 0x10, 0xdf, 0xff, 0xff,
  0x14, 0xdf, 0xff, 0xff, 0x18, 0xdf, 0xff, 0xff, 0x1c, 0xdf, 0xff, 0xff,
  0x20, 0xdf, 0xff, 0xff, 0x24, 0xdf, 0xff, 0xff, 0x28, 0xdf, 0xff, 0xff,
  0x2c, 0xdf, 0xff, 0xff, 0x30, 0xdf, 0xff, 0xff, 0x5e, 0xf2, 0xff, 0xff,
  0x04, 0x00, 0x00, 0x00, 0x08, 0x00, 0x00, 0x00, 0xff, 0xff, 0xff, 0xff,
  0x80, 0x00, 0x00, 0x00, 0x72, 0xf2, 0xff, 0xff, 0x04, 0x00, 0x00, 0x00,
  0x04, 0x00, 0x00, 0x00, 0x10, 0x00, 0x00, 0x00, 0x82, 0xf2, 0xff, 0xff,
  0x04, 0x00, 0x00, 0x00, 0x04, 0x00, 0x00, 0x00, 0x08, 0x00, 0x00, 0x00,
  0x68, 0xdf, 0xff, 0xff, 0x96, 0xf2, 0xff, 0xff, 0x04, 0x00, 0x00, 0x00,
  0x04, 0x00, 0x00, 0x00, 0x00, 0x00, 0x00, 0x00, 0xa6, 0xf2, 0xff, 0xff,
  0x04, 0x00, 0x00, 0x00, 0x04, 0x00, 0x00, 0x00, 0x01, 0x00, 0x00, 0x00,
  0xb6, 0xf2, 0xff, 0xff, 0x04, 0x00, 0x00, 0x00, 0x08, 0x00, 0x00, 0x00,
  0x10, 0x00, 0x00, 0x00, 0x08, 0x00, 0x00, 0x00, 0xca, 0xf2, 0xff, 0xff,
  0x04, 0x00, 0x00, 0x00, 0x40, 0x02, 0x00, 0x00, 0x34, 0x50, 0xdc, 0x3d,
  0x72, 0x32, 0x19, 0x3d, 0xa0, 0x79, 0xbb, 0xbd, 0x91, 0xc8, 0x2c, 0xbd,
  0x6a, 0xb2, 0x0f, 0x3d, 0x0d, 0x66, 0x7d, 0xbd, 0x9d, 0x70, 0x72, 0x3b,
  0x5f, 0xb7, 0xce, 0xbb, 0xcb, 0x7c, 0x33, 0xbe, 0x07, 0x08, 0x00, 0xbd,
  0x64, 0x84, 0xcf, 0x3d, 0x26, 0x6a, 0x35, 0xbc, 0xc6, 0x51, 0x04, 0x3e,
  0x92, 0x6f, 0x51, 0xbb, 0x5e, 0x32, 0xce, 0xbd, 0x71, 0x47, 0xcd, 0x3d,
  0x38, 0x2f, 0x68, 0xbe, 0xd8, 0x4e, 0x43, 0xbb, 0x3d, 0x27, 0x20, 0x3e,
  0x4c, 0x87, 0x7b, 0x3d, 0x6b, 0x46, 0x89, 0x3b, 0xf0, 0x20, 0x6a, 0x3e,
  0xe0, 0xad, 0xfd, 0xbc, 0x5f, 0x7a, 0x85, 0x3d, 0xd1, 0xed, 0xdc, 0x3b,
  0x42, 0x03, 0x9e, 0xbd, 0xe1, 0xf3, 0x72, 0x3c, 0xed, 0xfb, 0x33, 0x3d,
  0x09, 0x52, 0xf8, 0xbd, 0x06, 0x97, 0xd0, 0xbd, 0xb5, 0xb7, 0xd4, 0xbd,
  0xb9, 0x08, 0x98, 0xbb, 0x57, 0xd0, 0x0f, 0x3e, 0x52, 0xc9, 0xee, 0x3c,
  0x1a, 0x08, 0x28, 0xbd, 0x6b, 0x49, 0x1f, 0xbe, 0x84, 0x45, 0x99, 0x3d,
  0x44, 0xe3, 0x00, 0xbd, 0x90, 0x7a, 0x8c, 0x3d, 0xbb, 0xec, 0x7d, 0x3d,
  0xbb, 0xfe, 0x08, 0xbe, 0x19, 0x08, 0xe9, 0x3c, 0x94, 0x6e, 0x5f, 0x3d,
  0x45, 0x9b, 0x2b, 0xbd, 0x3c, 0x1a, 0x83, 0x3d, 0xbf, 0x84, 0x4d, 0xbc,
  0x16, 0x3c, 0x3e, 0x3c, 0x22, 0xbb, 0x98, 0x3d, 0x18, 0x3e, 0xe3, 0xbc,
  0x04, 0x6b, 0x89, 0x3d, 0x19, 0xe4, 0x26, 0xbe, 0xda, 0x3e, 0xe0, 0x3c,
  0xa9, 0xf2, 0xc3, 0x3e, 0xdf, 0xdb, 0x23, 0x3d, 0x26, 0x3c, 0xb4, 0x3d,
  0xef, 0x71, 0x86, 0xbe, 0xee, 0x45, 0xfe, 0xbd, 0xbb, 0xad, 0x85, 0xbd,
  0x64, 0xf9, 0xb7, 0xbb, 0x9a, 0x46, 0xab, 0xbd, 0x16, 0xdb, 0xc2, 0x3c,
  0x8a, 0xd0, 0x1e, 0x3d, 0x58, 0x23, 0x84, 0x3d, 0x18, 0x49, 0x31, 0x3e,
  0x43, 0x25, 0x2f, 0x3e, 0xd6, 0x14, 0x55, 0xbd, 0x9f, 0xe8, 0x02, 0x3e,
  0x40, 0x14, 0x88, 0xbd, 0x48, 0x3c, 0x83, 0xbe, 0x74, 0x7f, 0x1c, 0x3e,
  0xff, 0x27, 0x8c, 0xbe, 0x6b, 0xfe, 0x39, 0x3e, 0x2a, 0x10, 0x0c, 0x3e,
  0xf7, 0x73, 0x35, 0xbd, 0xef, 0x0e, 0x40, 0xbe, 0x1c, 0xa8, 0x46, 0x3e,
  0xa9, 0x48, 0x43, 0xbe, 0xa6, 0xa8, 0x11, 0x3d, 0x12, 0x28, 0x4e, 0xbe,
  0x53, 0x24, 0xdb, 0xbd, 0x4d, 0x72, 0x77, 0x3e, 0x57, 0xb6, 0x18, 0x3e,
  0xab, 0x1e, 0x9d, 0x3d, 0x1e, 0xa6, 0x62, 0xbe, 0x2a, 0xbf, 0xf9, 0x3c,
  0x45, 0x1d, 0x21, 0x3d, 0x73, 0xcb, 0xfe, 0x3d, 0xbc, 0x7c, 0x8f, 0xbd,
  0x98, 0x75, 0x1a, 0xbe, 0x52, 0xf9, 0x7e, 0x3e, 0x19, 0xe2, 0xd2, 0x3c,
  0xc7, 0xa2, 0x11, 0xbe, 0x68, 0x77, 0x88, 0x3d, 0x23, 0x0c, 0xdf, 0xbc,
  0xff, 0xbe, 0x37, 0xbc, 0xa6, 0x2b, 0x12, 0xbc, 0x78, 0x78, 0x11, 0x3e,
  0xf8, 0x41, 0x60, 0xbb, 0x06, 0x52, 0xe4, 0x3d, 0x8b, 0xc2, 0x01, 0xbe,
  0x5a, 0x84, 0x99, 0x3e, 0xef, 0x58, 0x15, 0xbd, 0x1a, 0x4b, 0x3d, 0x3d,
  0x9c, 0x0e, 0xcd, 0xbd, 0xce, 0x87, 0x78, 0xbd, 0x70, 0x30, 0x67, 0x3d,
  0x54, 0xfe, 0x1e, 0xbd, 0x11, 0xd2, 0x96, 0xbc, 0x30, 0x1f, 0x31, 0xbe,
  0x69, 0xb6, 0xc9, 0x3c, 0x05, 0x61, 0x22, 0xbd, 0x60, 0x27, 0x3c, 0x3c,
  0xfb, 0xdf, 0xb8, 0xbd, 0x38, 0x5c, 0x43, 0xb8, 0x06, 0x2c, 0x6d, 0xbe,
  0x04, 0x85, 0x11, 0x3e, 0x51, 0x36, 0x28, 0xbe, 0x50, 0xb8, 0x19, 0xbc,
  0xb7, 0xff, 0xe9, 0xbd, 0xc0, 0xb7, 0xa8, 0x3d, 0xc4, 0xbb, 0x0f, 0x3e,
  0xe5, 0xb9, 0xd7, 0xbd, 0xb8, 0xa3, 0x8a, 0xbd, 0xa8, 0x61, 0x16, 0x3d,
  0xca, 0x6e, 0xa6, 0x3d, 0x84, 0x25, 0x2d, 0xbe, 0xcf, 0x15, 0x9c, 0x3d,
  0xfd, 0xee, 0x0c, 0xbe, 0xaf, 0x10, 0x49, 0x3e, 0xf8, 0x5c, 0x71, 0x3d,
  0x66, 0x57, 0x65, 0x3d, 0xbc, 0x6a, 0x9d, 0xbe, 0xf9, 0xaf, 0xe7, 0xba,
  0x1b, 0x59, 0xf5, 0x3d, 0xa1, 0x16, 0x84, 0x3d, 0x59, 0x83, 0x1b, 0xbe,
  0x7f, 0xce, 0x78, 0xbd, 0xa7, 0xe6, 0x06, 0x3e, 0x9e, 0x05, 0xbd, 0x3d,
  0xb3, 0x65, 0x82, 0xbc, 0x75, 0x81, 0x64, 0x3d, 0xeb, 0x1c, 0x31, 0x3e,
  0x7b, 0xae, 0x93, 0xbd, 0x71, 0xef, 0x3e, 0x3d, 0x16, 0xf5, 0xff, 0xff,
  0x04, 0x00, 0x00, 0x00, 0x00, 0x04, 0x00, 0x00, 0x25, 0x89, 0x51, 0xbe,
  0x3a, 0x85, 0x13, 0x3f, 0xd2, 0x00, 0xbe, 0x3e, 0x08, 0x4f, 0xa4, 0xbe,
  0x6f, 0x62, 0x7f, 0xbf, 0x10, 0x9d, 0xff, 0x3e, 0x22, 0x2b, 0xe1, 0x3e,
  0x19, 0x67, 0xf8, 0xbc, 0xdd, 0x9c, 0x0c, 0x3f, 0x4f, 0x9e, 0x9e, 0xbd,
  0x56, 0x34, 0x59, 0xbd, 0x64, 0x8c, 0xa9, 0x3d, 0x16, 0x95, 0xec, 0xbe,
  0x98, 0xba, 0xb6, 0xbe, 0x8b, 0x28, 0x92, 0x3e, 0x4a, 0xe9, 0x0b, 0x3f,
  0xd6, 0xa8, 0x68, 0x3f, 0xe2, 0x89, 0x15, 0xbf, 0xff, 0xdc, 0xfa, 0x3e,
  0x3b, 0x9c, 0x4a, 0x3f, 0x97, 0x79, 0x34, 0xbf, 0x58, 0x15, 0x1d, 0x3e,
  0x23, 0x7b, 0x05, 0xbe, 0xcb, 0x47, 0x84, 0x3e, 0xdf, 0x87, 0x72, 0x3e,
  0xba, 0xc5, 0x91, 0x3f, 0xc7, 0x75, 0x29, 0x3e, 0x42, 0xd6, 0x1b, 0x3f,
  0xa0, 0x76, 0x10, 0x3a, 0xf1, 0x93, 0xd9, 0xbe, 0xfa, 0x70, 0x6c, 0x3f,
  0xa5, 0x74, 0x0b, 0x3f, 0x8b, 0x76, 0x16, 0xbe, 0x9a, 0xbf, 0x24, 0xc0,
  0xca, 0x9e, 0xb4, 0xbf, 0x02, 0x3b, 0x21, 0x3f, 0x15, 0x1e, 0x37, 0x3f,
  0xaf, 0x5e, 0x45, 0x3f, 0x4f, 0x4c, 0x40, 0xc0, 0xfc, 0x4b, 0xaa, 0xbe,
  0x29, 0x1b, 0xd3, 0x3f, 0x2b, 0x91, 0x75, 0xbf, 0x9b, 0x2d, 0x0a, 0xc0,
  0x4c, 0xee, 0xa3, 0x3c, 0xe7, 0x76, 0x7d, 0xbf, 0x9d, 0x49, 0xc4, 0x3d,
  0x06, 0xc3, 0x22, 0xbf, 0xbc, 0x9e, 0xd8, 0xbd, 0x24, 0x87, 0x47, 0x3e,
  0x03, 0x71, 0x91, 0x3e, 0x2e, 0xad, 0x88, 0x3e, 0xe8, 0x24, 0x88, 0xbe,
  0x82, 0x74, 0x36, 0x3e, 0x3c, 0xdf, 0x3a, 0xbf, 0xdf, 0xe3, 0x70, 0x3f,
  0x2f, 0x8c, 0xf8, 0xbe, 0xa6, 0x87, 0xac, 0x3e, 0x0b, 0xaf, 0xf5, 0x3d,
  0x24, 0xf0, 0x33, 0x3d, 0x4d, 0x16, 0x91, 0x3e, 0x65, 0x2d, 0xf7, 0x3d,
  0x4a, 0xc3, 0x0a, 0xbf, 0xb8, 0xb6, 0xfe, 0xbe, 0xf1, 0x20, 0x11, 0xbf,
  0x8e, 0x17, 0xd0, 0x3d, 0x6a, 0x11, 0x1d, 0x3f, 0x99, 0x57, 0xea, 0x3e,
  0xa2, 0xc8, 0x87, 0xbf, 0xec, 0xb8, 0x47, 0x3e, 0x8f, 0x56, 0xaf, 0xbe,
  0x76, 0x5d, 0xc3, 0xbf, 0xee, 0xba, 0x5b, 0x3f, 0xee, 0x96, 0x8f, 0xbf,
  0xd1, 0x28, 0x3d, 0xbf, 0xd0, 0x4c, 0x25, 0xc0, 0x65, 0xac, 0x72, 0xbf,
  0x0e, 0x19, 0x05, 0xbf, 0x61, 0x12, 0x35, 0xbf, 0x97, 0xda, 0x04, 0x3e,
  0xf3, 0x1d, 0xc1, 0xbf, 0x8f, 0xe9, 0xa9, 0xbd, 0x45, 0x65, 0xec, 0xbd,
  0x67, 0x67, 0x09, 0xbf, 0xec, 0xad, 0x9e, 0x3d, 0xb1, 0x97, 0x72, 0x3d,
  0x77, 0x27, 0x80, 0xbe, 0xe6, 0x66, 0x0c, 0x3f, 0x2a, 0x71, 0xd7, 0x3e,
  0x38, 0xb1, 0x10, 0x3c, 0x94, 0x88, 0x24, 0xbf, 0xa3, 0xaf, 0x13, 0xbf,
  0xf5, 0xfa, 0x10, 0xbf, 0x3f, 0xa3, 0x8c, 0x3e, 0x35, 0x25, 0x99, 0x3e,
  0x11, 0x5a, 0x0e, 0x3f, 0x94, 0x85, 0x4a, 0x3e, 0x24, 0x53, 0x11, 0x3f,
  0x5c, 0x61, 0xed, 0x3e, 0x5c, 0x9f, 0xc2, 0xbf, 0x29, 0x5e, 0x96, 0x3f,
  0x6c, 0x59, 0x94, 0xbf, 0x8f, 0x34, 0xdb, 0xbe, 0x9b, 0x9a, 0x39, 0x3f,
  0x1b, 0xab, 0x55, 0xbf, 0x4d, 0xa7, 0xb2, 0x3f, 0x61, 0xb2, 0x16, 0x3f,
  0x28, 0xf8, 0xd8, 0x3f, 0x98, 0x9a, 0x38, 0xbe, 0x31, 0xf5, 0x59, 0x3f,
  0xaf, 0x44, 0xff, 0xbe, 0x8c, 0xbe, 0x97, 0x3f, 0x73, 0x93, 0xba, 0x3c,
  0xcc, 0x21, 0x90, 0xbf, 0x94, 0x83, 0xdd, 0xbe, 0x26, 0xb6, 0x06, 0xbe,
  0x21, 0x33, 0x83, 0x3e, 0x24, 0xf1, 0x81, 0xbd, 0x3f, 0x94, 0x73, 0x3e,
  0xb1, 0x56, 0x8e, 0xbf, 0x62, 0x30, 0x0d, 0xbe, 0x11, 0x2a, 0x34, 0x3f,
  0xd2, 0x95, 0xfb, 0xbd, 0x46, 0xd0, 0x06, 0xbd, 0x0d, 0x24, 0xfd, 0x3e,
  0x0c, 0xbd, 0x87, 0xbe, 0x33, 0xf5, 0x6c, 0xbf, 0x78, 0xb0, 0x56, 0x3e,
  0x2e, 0x31, 0x84, 0x3f, 0x7d, 0xb3, 0x71, 0x3e, 0x67, 0xe0, 0x08, 0x3f,
  0x42, 0x7d, 0x2b, 0xbf, 0x69, 0xc6, 0xdb, 0xbe, 0x68, 0x28, 0xe8, 0x3f,
  0xdc, 0x7a, 0x08, 0x3f, 0x80, 0x17, 0xde, 0xbe, 0xd1, 0x5b, 0x8f, 0x3c,
  0xe6, 0x1c, 0xe2, 0x3e, 0x70, 0x2d, 0x1f, 0x3f, 0xa4, 0x63, 0xaf, 0x3d,
  0xd8, 0x19, 0x92, 0xbe, 0xff, 0x94, 0xfd, 0x3e, 0xe4, 0xaa, 0xb3, 0xbd,
  0x5d, 0x48, 0x8c, 0xbe, 0xeb, 0x6e, 0x86, 0x3f, 0xb3, 0xc4, 0xb3, 0x3e,
  0x07, 0xee, 0xa4, 0x3e, 0xa8, 0xad, 0x3c, 0x3e, 0xe8, 0x64, 0x29, 0x3e,
  0x6f, 0x84, 0xe7, 0xbe, 0xcf, 0xb7, 0x00, 0x3e, 0xcd, 0xce, 0x16, 0x3f,
  0xc8, 0x96, 0x56, 0xbd, 0x77, 0xf1, 0x01, 0x3e, 0xc4, 0xb8, 0x44, 0x3f,
  0xdb, 0xbd, 0x16, 0xbf, 0x9e, 0x5e, 0xbf, 0x3e, 0xf4, 0x23, 0xe8, 0xbe,
  0xe8, 0x34, 0x18, 0xbf, 0xdc, 0x2e, 0x05, 0x3e, 0x89, 0x42, 0xe9, 0x3d,
  0xbd, 0x10, 0xf4, 0xbd, 0x8c, 0xbc, 0x26, 0xbf, 0xae, 0xa2, 0xe4, 0x3e,
  0x5b, 0x92, 0xf0, 0xbf, 0xa4, 0x8e, 0xdd, 0x3e, 0xc4, 0xd7, 0xbc, 0xbe,
  0x69, 0xf2, 0x87, 0xbf, 0xd4, 0x89, 0x85, 0x3e, 0x20, 0x63, 0xfb, 0x3c,
  0xb2, 0x55, 0xae, 0xbd, 0x6f, 0x23, 0x82, 0xbf, 0xb7, 0x42, 0x1d, 0x3f,
  0xd6, 0xb7, 0x19, 0x3f, 0xf9, 0x7f, 0x79, 0x3f, 0xba, 0xd8, 0x73, 0xbf,
  0x22, 0x77, 0x7b, 0x3e, 0x75, 0x81, 0x66, 0x3f, 0x57, 0x77, 0x0c, 0x3e,
  0x92, 0x7d, 0x2b, 0xbd, 0x65, 0x70, 0x65, 0xbf, 0x78, 0x08, 0xc2, 0xbd,
  0x9a, 0x75, 0xa9, 0x3e, 0xd7, 0xec, 0x27, 0xbf, 0xc0, 0x2c, 0x61, 0xbf,
  0x15, 0x6a, 0x25, 0x3e, 0x4d, 0x00, 0x8f, 0x3d, 0x33, 0xbe, 0x43, 0xbd,
  0x68, 0xab, 0xc9, 0x3d, 0xff, 0xa6, 0x8b, 0x3e, 0x07, 0xd3, 0x18, 0x3e,
  0x5d, 0xcc, 0x59, 0xbf, 0x54, 0x65, 0x20, 0xbf, 0x3d, 0x36, 0x5e, 0xbe,
  0x58, 0xbf, 0x8d, 0x3e, 0x62, 0x0a, 0x81, 0xbf, 0x49, 0x3c, 0xe6, 0xbb,
  0x20, 0x66, 0xac, 0x3e, 0x04, 0x20, 0x03, 0xbf, 0xd2, 0x7f, 0x76, 0xbf,
  0xd0, 0x7b, 0xbd, 0xbb, 0x74, 0x92, 0xbd, 0xbf, 0xe7, 0x7f, 0x8e, 0xbe,
  0xde, 0x9c, 0x75, 0xbf, 0xf2, 0x4e, 0xde, 0xbe, 0x51, 0xe5, 0xae, 0x3f,
  0x36, 0x5d, 0x55, 0x3f, 0xce, 0x64, 0x06, 0xbe, 0x4c, 0x79, 0x50, 0xbd,
  0x00, 0x72, 0x45, 0x3f, 0x05, 0x5f, 0xc7, 0xbf, 0x41, 0xdb, 0x6e, 0xbc,
  0x9c, 0xea, 0x0e, 0xbe, 0xd8, 0xc8, 0xc9, 0xbe, 0x9a, 0x1a, 0xa0, 0x3e,
  0x0c, 0x61, 0x39, 0xbe, 0x93, 0x9d, 0x9e, 0xbe, 0x25, 0xf9, 0xa1, 0xbd,
  0xbe, 0xfb, 0x93, 0xbf, 0xd6, 0xb2, 0xde, 0xbe, 0x3a, 0xd1, 0x1e, 0xbf,
  0x79, 0xc5, 0xc1, 0xbe, 0xad, 0x93, 0xed, 0xbe, 0xa5, 0x80, 0x0d, 0xbf,
  0x3f, 0xeb, 0x2c, 0x3f, 0x82, 0x72, 0xb9, 0x3e, 0xdd, 0xda, 0xa4, 0x3d,
  0x46, 0xf6, 0xdb, 0x3d, 0xf9, 0x3a, 0x28, 0x3f, 0x05, 0x8e, 0x9c, 0x3e,
  0xbc, 0x80, 0xa4, 0x3d, 0x2a, 0x93, 0x1e, 0xbe, 0x92, 0xd0, 0x3a, 0xbe,
  0xfe, 0x35, 0xdf, 0x3e, 0x75, 0xc2, 0x25, 0x3f, 0x79, 0xa5, 0x93, 0x3f,
  0x10, 0xf8, 0x95, 0x3f, 0xa5, 0x85, 0x1a, 0xbf, 0x29, 0x9d, 0x8d, 0xbe,
  0x49, 0x34, 0x1b, 0xbe, 0x19, 0x45, 0x89, 0x3e, 0x5b, 0xcf, 0x4b, 0xbf,
  0xbf, 0xaf, 0x11, 0x3f, 0x5c, 0x17, 0x3c, 0x3f, 0xef, 0xf3, 0xaf, 0x3e,
  0x8f, 0x1f, 0x7b, 0xbf, 0x54, 0x7f, 0xf1, 0x3e, 0x60, 0xc5, 0x63, 0x3f,
  0x03, 0x9d, 0x85, 0xbd, 0xff, 0xd7, 0x4a, 0xbf, 0xa7, 0xfa, 0x31, 0xbf,
  0x1a, 0xc3, 0x89, 0xbe, 0x92, 0xae, 0x5f, 0xbe, 0x0a, 0x03, 0xba, 0xbf,
  0xce, 0x8b, 0x5f, 0xbf, 0x23, 0xae, 0x0f, 0x3f, 0x3c, 0xd7, 0xec, 0x3a,
  0x22, 0xf9, 0xff, 0xff, 0x04, 0x00, 0x00, 0x00, 0x40, 0x00, 0x00, 0x00,
  0x64, 0x42, 0xfb, 0xbf, 0xe3, 0xe3, 0x0a, 0xc0, 0xbe, 0x12, 0x69, 0xbf,
  0x8f, 0x9c, 0x87, 0x3f, 0xf7, 0x39, 0x5e, 0x3f, 0x47, 0xe2, 0x67, 0x3f,
  0x05, 0xca, 0x7d, 0xbe, 0xde, 0xda, 0x7f, 0x40, 0xe1, 0xe6, 0xfc, 0xbf,
  0x3a, 0xca, 0x10, 0xbf, 0x04, 0x0e, 0xb1, 0xbe, 0x07, 0x1d, 0x1a, 0x3f,
  0xb6, 0x27, 0xf5, 0x3e, 0x7b, 0x00, 0x0c, 0xbc, 0x3e, 0xb4, 0x86, 0x3f,
  0x25, 0x5f, 0x88, 0x3f, 0x6e, 0xf9, 0xff, 0xff, 0x04, 0x00, 0x00, 0x00,
  0x04, 0x00, 0x00, 0x00, 0x98, 0x38, 0x21, 0x3b, 0x7e, 0xf9, 0xff, 0xff,
  0x04, 0x00, 0x00, 0x00, 0x40, 0x00, 0x00, 0x00, 0x53, 0xba, 0x46, 0xbf,
  0x31, 0x9b, 0xf8, 0xbf, 0xa9, 0xe7, 0x7a, 0x40, 0x91, 0x91, 0x1a, 0xbf,
  0x1d, 0x7c, 0x73, 0x40, 0xc5, 0x66, 0xf7, 0x3e, 0x21, 0xf5, 0x41, 0xc0,
  0x50, 0x23, 0xa0, 0x3c, 0x55, 0x29, 0x1c, 0xbf, 0xa8, 0x90, 0x54, 0xbf,
  0xa8, 0x1d, 0xe0, 0x3f, 0x2b, 0xe1, 0x1b, 0x3f, 0x1a, 0xf8, 0x1e, 0x40,
  0x63, 0x16, 0xdc, 0x3f, 0x5a, 0x60, 0x11, 0xc0, 0xc2, 0x8a, 0xa0, 0x3e,
  0xca, 0xf9, 0xff, 0xff, 0x04, 0x00, 0x00, 0x00, 0x40, 0x02, 0x00, 0x00,
  0x61, 0x1f, 0x3e, 0xc0, 0xa3, 0x50, 0x5d, 0xbf, 0x1a, 0x8c, 0x3d, 0x3f,
  0x33, 0x78, 0xd8, 0xbe, 0x82, 0xf9, 0x1c, 0x3f, 0xf9, 0xb4, 0xa4, 0x3e,
  0x0d, 0xfb, 0xcf, 0xbf, 0x9b, 0x25, 0x52, 0x3e, 0x48, 0xd1, 0x07, 0x3d,
  0xba, 0x43, 0x95, 0x40, 0x88, 0x01, 0xa2, 0x3f, 0x3a, 0x81, 0x6d, 0xc0,
  0x2b, 0xcc, 0x38, 0xbf, 0xa9, 0xef, 0xd8, 0xc0, 0x34, 0xe6, 0xe7, 0xbf,
  0x85, 0xd2, 0x47, 0xbf, 0x20, 0x0d, 0x9c, 0xbe, 0x4c, 0x05, 0x53, 0xbe,
  0xaf, 0xa3, 0x8e, 0x3e, 0x6a, 0xab, 0xd0, 0x3e, 0x0d, 0x7e, 0xac, 0xbf,
  0xa1, 0x9b, 0x79, 0xbf, 0x43, 0xa3, 0xf0, 0xbf, 0x39, 0xff, 0x84, 0x3d,
  0x98, 0x77, 0x71, 0x3e, 0xdf, 0xeb, 0x3e, 0xc0, 0x47, 0x90, 0xa1, 0xbf,
  0x25, 0x4b, 0xf0, 0x3f, 0xf6, 0x44, 0x0f, 0x40, 0x3c, 0x6e, 0x63, 0xc0,
  0x78, 0x18, 0x81, 0x3e, 0x7e, 0xca, 0x1f, 0x3b, 0xa2, 0x83, 0x7c, 0x3f,
  0xe8, 0x89, 0xdb, 0x3e, 0x3d, 0x0c, 0x3b, 0xbf, 0x0a, 0x27, 0xb8, 0xbe,
  0xae, 0x90, 0x3f, 0x3f, 0x4a, 0x1b, 0xb1, 0x3d, 0x28, 0xfa, 0xf2, 0x3f,
  0x8a, 0x0a, 0x12, 0xbf, 0x5e, 0x05, 0xb4, 0xbf, 0xf6, 0x66, 0x45, 0x40,
  0x49, 0x6f, 0x16, 0xbe, 0xce, 0x92, 0x0b, 0x3f, 0x83, 0x98, 0x84, 0xc0,
  0x93, 0x68, 0x30, 0xc0, 0xa0, 0x0e, 0xa7, 0x3c, 0xe9, 0x6b, 0x00, 0x3f,
  0x11, 0x48, 0x75, 0xbf, 0xef, 0xf5, 0xbe, 0xbf, 0xbd, 0xab, 0x8f, 0x40,
  0xca, 0x7c, 0xbc, 0x40, 0x77, 0x9b, 0xc6, 0xbf, 0x21, 0xd6, 0x50, 0x40,
  0xf4, 0xb0, 0x23, 0xc0, 0xb1, 0x29, 0xea, 0x3f, 0x44, 0x0b, 0x6c, 0xc0,
  0xbd, 0x1f, 0x48, 0xc0, 0x6e, 0x43, 0xe8, 0x3f, 0x97, 0x17, 0x9e, 0x3e,
  0x48, 0xe5, 0x93, 0x3f, 0xd6, 0x3e, 0x0e, 0xbf, 0x24, 0x84, 0x40, 0xc0,
  0xd1, 0x07, 0xb4, 0x40, 0xd0, 0x46, 0x37, 0x40, 0xb9, 0x3e, 0x65, 0x40,
  0xf2, 0x2c, 0x99, 0xc0, 0x61, 0x59, 0x2d, 0xc0, 0x47, 0xf8, 0xae, 0xc0,
  0xef, 0x33, 0xfe, 0x40, 0xbe, 0x1e, 0xeb, 0xbd, 0x3a, 0x96, 0x5b, 0x3f,
  0xba, 0x0c, 0xb6, 0x3f, 0x8e, 0xae, 0xb6, 0x40, 0xe4, 0xab, 0xe9, 0x3e,
  0xdc, 0x4c, 0xb5, 0xbf, 0x19, 0x92, 0x59, 0xc1, 0x10, 0x82, 0xab, 0xc0,
  0xbd, 0x66, 0xcc, 0x40, 0x00, 0x16, 0x99, 0xc0, 0x84, 0xf8, 0x18, 0x40,
  0x47, 0x70, 0x67, 0xbf, 0x44, 0x29, 0xd9, 0xbf, 0xbd, 0x74, 0x3c, 0x40,
  0x58, 0x8e, 0x59, 0x40, 0x6a, 0xc8, 0x99, 0xbf, 0x1b, 0x83, 0xa3, 0xbf,
  0xfd, 0x6b, 0x86, 0xbf, 0xf3, 0x82, 0xa2, 0xbf, 0xdb, 0xf2, 0xce, 0xbf,
  0x64, 0xf9, 0xbe, 0x3f, 0x46, 0x42, 0x5e, 0xbf, 0x7f, 0x10, 0x34, 0x3d,
  0xc1, 0xd8, 0xb9, 0xbf, 0x14, 0xc1, 0x8f, 0x3e, 0x2e, 0x73, 0x2e, 0xc0,
  0xe0, 0x91, 0x0c, 0xbe, 0x15, 0x13, 0x66, 0xbe, 0xa2, 0x18, 0x1d, 0xbe,
  0xee, 0x83, 0x8c, 0xbf, 0x8b, 0xaa, 0xdb, 0x3e, 0xb1, 0xf3, 0x02, 0xc0,
  0x58, 0xd5, 0x3a, 0xc0, 0x1f, 0x1a, 0xcb, 0x3c, 0x9b, 0xb3, 0xb7, 0x3e,
  0xc6, 0xab, 0x96, 0xbf, 0xe4, 0xae, 0x8e, 0x3f, 0xb5, 0x0a, 0x16, 0xc0,
  0xbb, 0xe5, 0x12, 0x40, 0x58, 0xf9, 0x1e, 0x40, 0xff, 0x4d, 0xc2, 0xbf,
  0x3d, 0xc9, 0x83, 0xbf, 0x68, 0x73, 0x8c, 0xbc, 0xf6, 0x6e, 0x90, 0x3e,
  0xc8, 0x56, 0xbb, 0x3e, 0x5e, 0xbd, 0xa1, 0x3e, 0x9c, 0x40, 0x51, 0xbf,
  0x46, 0x04, 0x91, 0xbf, 0x9e, 0x5c, 0x83, 0xbf, 0xb0, 0x60, 0x01, 0xbf,
  0xa7, 0xaa, 0x7e, 0xbf, 0xbc, 0x4f, 0x89, 0x3f, 0xa5, 0xef, 0xd1, 0xbf,
  0x1d, 0xdf, 0xd8, 0x3e, 0xac, 0x68, 0x18, 0xc0, 0x09, 0x31, 0x2a, 0x40,
  0xf1, 0xd4, 0x82, 0x3e, 0xdb, 0x07, 0xf8, 0x3f, 0x0c, 0x1c, 0x77, 0x3f,
  0x85, 0x53, 0xf0, 0x3d, 0x5a, 0x9b, 0x65, 0xbf, 0xa7, 0x86, 0x04, 0xbf,
  0x5e, 0x2a, 0x1c, 0x3f, 0xba, 0xc0, 0x98, 0x3e, 0x71, 0xd0, 0x79, 0x3f,
  0xfb, 0x51, 0x42, 0x3e, 0xd0, 0xc6, 0x8f, 0xbe, 0xf2, 0x4c, 0x00, 0xbe,
  0xd2, 0xbc, 0x99, 0x3f, 0x34, 0x53, 0x6c, 0x3f, 0x59, 0xfd, 0x03, 0xbf,
  0x31, 0x4b, 0x9d, 0x40, 0xc0, 0xf9, 0xc2, 0x3e, 0x1a, 0x63, 0xef, 0x3d,
  0x16, 0xfc, 0xff, 0xff, 0x04, 0x00, 0x00, 0x00, 0x40, 0x00, 0x00, 0x00,
  0x96, 0x12, 0x8e, 0x3f, 0x17, 0x8e, 0x91, 0x3f, 0x77, 0xdd, 0x04, 0x3f,
  0x7e, 0xc1, 0xa3, 0xbe, 0x81, 0x1b, 0x96, 0xbe, 0x4a, 0xd6, 0xa5, 0xbe,
  0x5c, 0xb9, 0xdd, 0x3e, 0x3a, 0x33, 0xe0, 0xbf, 0x0d, 0x22, 0x9a, 0x3f,
  0x0f, 0x46, 0x3b, 0x3f, 0x0c, 0x13, 0x46, 0x3f, 0x68, 0x0a, 0x1f, 0xbe,
  0xbd, 0x09, 0xe7, 0xbd, 0x00, 0x70, 0x53, 0x3a, 0x20, 0x77, 0xc8, 0xbe,
  0xa4, 0x2b, 0x97, 0xbe, 0x62, 0xfc, 0xff, 0xff, 0x04, 0x00, 0x00, 0x00,
  0x24, 0x00, 0x00, 0x00, 0xe0, 0x58, 0x8b, 0xbc, 0x56, 0x01, 0x08, 0xbe,
  0x97, 0x2f, 0x11, 0x3e, 0x0e, 0x3a, 0xc2, 0x3d, 0x24, 0x4e, 0x18, 0xbc,
  0xf1, 0x28, 0xa4, 0x3e, 0x38, 0xa7, 0xde, 0x3d, 0x8b, 0xce, 0xbf, 0x3d,
  0x12, 0x72, 0x23, 0x3e, 0x92, 0xfc, 0xff, 0xff, 0x04, 0x00, 0x00, 0x00,
  0x40, 0x00, 0x00, 0x00, 0x71, 0x44, 0xcd, 0xbf, 0x09, 0x46, 0x40, 0xbf,
  0x23, 0xeb, 0x25, 0x3f, 0xbc, 0x90, 0x1d, 0xbf, 0x99, 0x12, 0xbc, 0x3e,
  0xbd, 0xa8, 0x92, 0xbf, 0xe1, 0x7b, 0x06, 0x40, 0x0d, 0x83, 0x04, 0xbf,
  0xb6, 0xf0, 0xc9, 0x3f, 0x81, 0xe9, 0x0d, 0xc0, 0xa1, 0xc2, 0xb1, 0xbf,
  0x40, 0x48, 0x7f, 0x3f, 0x00, 0x85, 0xdc, 0x3f, 0x2e, 0xb8, 0x8a, 0xbc,
  0xaa, 0x37, 0xdf, 0xbe, 0xe5, 0x73, 0xd3, 0x3e, 0xde, 0xfc, 0xff, 0xff,
  0x04, 0x00, 0x00, 0x00, 0x04, 0x00, 0x00, 0x00, 0x89, 0x08, 0x09, 0x3e,
  0xc4, 0xe9, 0xff, 0xff, 0xc8, 0xe9, 0xff, 0xff, 0x0f, 0x00, 0x00, 0x00,
  0x4d, 0x4c, 0x49, 0x52, 0x20, 0x43, 0x6f, 0x6e, 0x76, 0x65, 0x72, 0x74,
  0x65, 0x64, 0x2e, 0x00, 0x01, 0x00, 0x00, 0x00, 0x14, 0x00, 0x00, 0x00,
  0x00, 0x00, 0x0e, 0x00, 0x18, 0x00, 0x14, 0x00, 0x10, 0x00, 0x0c, 0x00,
  0x08, 0x00, 0x04, 0x00, 0x0e, 0x00, 0x00, 0x00, 0x14, 0x00, 0x00, 0x00,
  0x1c, 0x00, 0x00, 0x00, 0x9c, 0x03, 0x00, 0x00, 0xa0, 0x03, 0x00, 0x00,
  0xa4, 0x03, 0x00, 0x00, 0x04, 0x00, 0x00, 0x00, 0x6d, 0x61, 0x69, 0x6e,
  0x00, 0x00, 0x00, 0x00, 0x0d, 0x00, 0x00, 0x00, 0x4c, 0x03, 0x00, 0x00,
  0xec, 0x02, 0x00, 0x00, 0x94, 0x02, 0x00, 0x00, 0x6c, 0x02, 0x00, 0x00,
  0x08, 0x02, 0x00, 0x00, 0xb8, 0x01, 0x00, 0x00, 0x68, 0x01, 0x00, 0x00,
  0x20, 0x01, 0x00, 0x00, 0xdc, 0x00, 0x00, 0x00, 0x9c, 0x00, 0x00, 0x00,
  0x50, 0x00, 0x00, 0x00, 0x2c, 0x00, 0x00, 0x00, 0x04, 0x00, 0x00, 0x00,
  0xc6, 0xfd, 0xff, 0xff, 0x0c, 0x00, 0x00, 0x00, 0x10, 0x00, 0x00, 0x00,
  0x03, 0x00, 0x00, 0x00, 0x01, 0x00, 0x00, 0x00, 0x1e, 0x00, 0x00, 0x00,
  0x02, 0x00, 0x00, 0x00, 0x1d, 0x00, 0x00, 0x00, 0x11, 0x00, 0x00, 0x00,
  0xea, 0xfd, 0xff, 0xff, 0x0c, 0x00, 0x00, 0x00, 0x10, 0x00, 0x00, 0x00,
  0x08, 0x00, 0x00, 0x00, 0x01, 0x00, 0x00, 0x00, 0x1d, 0x00, 0x00, 0x00,
  0x01, 0x00, 0x00, 0x00, 0x1c, 0x00, 0x00, 0x00, 0x96, 0xfd, 0xff, 0xff,
  0x20, 0x00, 0x00, 0x00, 0x00, 0x00, 0x00, 0x01, 0x24, 0x00, 0x00, 0x00,
  0x28, 0x00, 0x00, 0x00, 0x05, 0x00, 0x00, 0x00, 0x00, 0x00, 0x0a, 0x00,
  0x0c, 0x00, 0x00, 0x00, 0x08, 0x00, 0x04, 0x00, 0x0a, 0x00, 0x00, 0x00,
  0x01, 0x00, 0x00, 0x00, 0x01, 0x00, 0x00, 0x00, 0x01, 0x00, 0x00, 0x00,
  0x1c, 0x00, 0x00, 0x00, 0x03, 0x00, 0x00, 0x00, 0x1b, 0x00, 0x00, 0x00,
  0x0a, 0x00, 0x00, 0x00, 0x07, 0x00, 0x00, 0x00, 0xde, 0xfd, 0xff, 0xff,
  0x1c, 0x00, 0x00, 0x00, 0x00, 0x00, 0x00, 0x4a, 0x1c, 0x00, 0x00, 0x00,
  0x20, 0x00, 0x00, 0x00, 0x07, 0x00, 0x00, 0x00, 0x08, 0x00, 0x08, 0x00,
  0x00, 0x00, 0x07, 0x00, 0x08, 0x00, 0x00, 0x00, 0x00, 0x00, 0x00, 0x01,
  0x01, 0x00, 0x00, 0x00, 0x1b, 0x00, 0x00, 0x00, 0x02, 0x00, 0x00, 0x00,
  0x1a, 0x00, 0x00, 0x00, 0x0b, 0x00, 0x00, 0x00, 0x1a, 0xfe, 0xff, 0xff,
  0x14, 0x00, 0x00, 0x00, 0x00, 0x00, 0x00, 0x01, 0x1c, 0x00, 0x00, 0x00,
  0x20, 0x00, 0x00, 0x00, 0x05, 0x00, 0x00, 0x00, 0x30, 0xff, 0xff, 0xff,
  0x00, 0x00, 0x00, 0x01, 0x01, 0x00, 0x00, 0x00, 0x01, 0x00, 0x00, 0x00,
  0x01, 0x00, 0x00, 0x00, 0x1a, 0x00, 0x00, 0x00, 0x03, 0x00, 0x00, 0x00,
  0x19, 0x00, 0x00, 0x00, 0x09, 0x00, 0x00, 0x00, 0x06, 0x00, 0x00, 0x00,
  0x5a, 0xfe, 0xff, 0xff, 0x14, 0x00, 0x00, 0x00, 0x00, 0x00, 0x00, 0x02,
  0x20, 0x00, 0x00, 0x00, 0x24, 0x00, 0x00, 0x00, 0x04, 0x00, 0x00, 0x00,
  0x22, 0xff, 0xff, 0xff, 0x00, 0x00, 0x00, 0x01, 0x01, 0x00, 0x00, 0x00,
  0x01, 0x00, 0x00, 0x00, 0x01, 0x00, 0x00, 0x00, 0x01, 0x00, 0x00, 0x00,
  0x19, 0x00, 0x00, 0x00, 0x03, 0x00, 0x00, 0x00, 0x18, 0x00, 0x00, 0x00,
  0x05, 0x00, 0x00, 0x00, 0x02, 0x00, 0x00, 0x00, 0x9e, 0xfe, 0xff, 0xff,
  0x24, 0x00, 0x00, 0x00, 0x00, 0x00, 0x00, 0x05, 0x30, 0x00, 0x00, 0x00,
  0x34, 0x00, 0x00, 0x00, 0x06, 0x00, 0x00, 0x00, 0x00, 0x00, 0x0e, 0x00,
  0x14, 0x00, 0x00, 0x00, 0x10, 0x00, 0x0c, 0x00, 0x08, 0x00, 0x04, 0x00,
  0x0e, 0x00, 0x00, 0x00, 0x02, 0x00, 0x00, 0x00, 0x02, 0x00, 0x00, 0x00,
  0x02, 0x00, 0x00, 0x00, 0x02, 0x00, 0x00, 0x00, 0x01, 0x00, 0x00, 0x00,
  0x18, 0x00, 0x00, 0x00, 0x01, 0x00, 0x00, 0x00, 0x17, 0x00, 0x00, 0x00,
  0xea, 0xfe, 0xff, 0xff, 0x20, 0x00, 0x00, 0x00, 0x00, 0x00, 0x00, 0x01,
  0x28, 0x00, 0x00, 0x00, 0x2c, 0x00, 0x00, 0x00, 0x05, 0x00, 0x00, 0x00,
  0x0c, 0x00, 0x10, 0x00, 0x00, 0x00, 0x0c, 0x00, 0x08, 0x00, 0x07, 0x00,
  0x0c, 0x00, 0x00, 0x00, 0x00, 0x00, 0x00, 0x01, 0x01, 0x00, 0x00, 0x00,
  0x01, 0x00, 0x00, 0x00, 0x01, 0x00, 0x00, 0x00, 0x17, 0x00, 0x00, 0x00,
  0x03, 0x00, 0x00, 0x00, 0x16, 0x00, 0x00, 0x00, 0x08, 0x00, 0x00, 0x00,
  0x04, 0x00, 0x00, 0x00, 0x36, 0xff, 0xff, 0xff, 0x24, 0x00, 0x00, 0x00,
  0x00, 0x00, 0x00, 0x02, 0x30, 0x00, 0x00, 0x00, 0x34, 0x00, 0x00, 0x00,
  0x04, 0x00, 0x00, 0x00, 0x00, 0x00, 0x0e, 0x00, 0x14, 0x00, 0x00, 0x00,
  0x10, 0x00, 0x0c, 0x00, 0x08, 0x00, 0x07, 0x00, 0x0e, 0x00, 0x00, 0x00,
  0x00, 0x00, 0x00, 0x01, 0x01, 0x00, 0x00, 0x00, 0x01, 0x00, 0x00, 0x00,
  0x01, 0x00, 0x00, 0x00, 0x01, 0x00, 0x00, 0x00, 0x16, 0x00, 0x00, 0x00,
  0x03, 0x00, 0x00, 0x00, 0x15, 0x00, 0x00, 0x00, 0x03, 0x00, 0x00, 0x00,
  0x01, 0x00, 0x00, 0x00, 0x00, 0x00, 0x0a, 0x00, 0x10, 0x00, 0x0c, 0x00,
  0x08, 0x00, 0x04, 0x00, 0x0a, 0x00, 0x00, 0x00, 0x0c, 0x00, 0x00, 0x00,
  0x10, 0x00, 0x00, 0x00, 0x03, 0x00, 0x00, 0x00, 0x01, 0x00, 0x00, 0x00,
  0x15, 0x00, 0x00, 0x00, 0x02, 0x00, 0x00, 0x00, 0x00, 0x00, 0x00, 0x00,
  0x14, 0x00, 0x00, 0x00, 0xba, 0xff, 0xff, 0xff, 0x1c, 0x00, 0x00, 0x00,
  0x00, 0x00, 0x00, 0x3b, 0x1c, 0x00, 0x00, 0x00, 0x20, 0x00, 0x00, 0x00,
  0x02, 0x00, 0x00, 0x00, 0x00, 0x00, 0x06, 0x00, 0x08, 0x00, 0x04, 0x00,
  0x06, 0x00, 0x00, 0x00, 0x04, 0x00, 0x00, 0x00, 0x01, 0x00, 0x00, 0x00,
  0x14, 0x00, 0x00, 0x00, 0x04, 0x00, 0x00, 0x00, 0x13, 0x00, 0x00, 0x00,
  0x10, 0x00, 0x00, 0x00, 0x0f, 0x00, 0x00, 0x00, 0x0e, 0x00, 0x00, 0x00,
  0x00, 0x00, 0x0e, 0x00, 0x1a, 0x00, 0x14, 0x00, 0x10, 0x00, 0x0c, 0x00,
  0x0b, 0x00, 0x04, 0x00, 0x0e, 0x00, 0x00, 0x00, 0x24, 0x00, 0x00, 0x00,
  0x00, 0x00, 0x00, 0x20, 0x24, 0x00, 0x00, 0x00, 0x28, 0x00, 0x00, 0x00,
  0x01, 0x00, 0x00, 0x00, 0x00, 0x00, 0x0e, 0x00, 0x08, 0x00, 0x00, 0x00,
  0x00, 0x00, 0x00, 0x00, 0x00, 0x00, 0x04, 0x00, 0x0e, 0x00, 0x00, 0x00,
  0x01, 0x00, 0x00, 0x00, 0x01, 0x00, 0x00, 0x00, 0x13, 0x00, 0x00, 0x00,
  0x04, 0x00, 0x00, 0x00, 0x12, 0x00, 0x00, 0x00, 0x0d, 0x00, 0x00, 0x00,
  0x0c, 0x00, 0x00, 0x00, 0x0c, 0x00, 0x00, 0x00, 0x00, 0x00, 0x0e, 0x00,
  0x16, 0x00, 0x00, 0x00, 0x10, 0x00, 0x0c, 0x00, 0x0b, 0x00, 0x04, 0x00,
  0x0e, 0x00, 0x00, 0x00, 0x18, 0x00, 0x00, 0x00, 0x00, 0x00, 0x00, 0x37,
  0x18, 0x00, 0x00, 0x00, 0x1c, 0x00, 0x00, 0x00, 0x00, 0x00, 0x06, 0x00,
  0x08, 0x00, 0x07, 0x00, 0x06, 0x00, 0x00, 0x00, 0x00, 0x00, 0x00, 0x02,
  0x01, 0x00, 0x00, 0x00, 0x12, 0x00, 0x00, 0x00, 0x01, 0x00, 0x00, 0x00,
  0x00, 0x00, 0x00, 0x00, 0x01, 0x00, 0x00, 0x00, 0x1e, 0x00, 0x00, 0x00,
  0x01, 0x00, 0x00, 0x00, 0x00, 0x00, 0x00, 0x00, 0x1f, 0x00, 0x00, 0x00,
  0x24, 0x12, 0x00, 0x00, 0x00, 0x11, 0x00, 0x00, 0xd4, 0x0f, 0x00, 0x00,
  0xd4, 0x0e, 0x00, 0x00, 0xe4, 0x0d, 0x00, 0x00, 0xdc, 0x0c, 0x00, 0x00,
  0x04, 0x0c, 0x00, 0x00, 0xac, 0x0b, 0x00, 0x00, 0x58, 0x0b, 0x00, 0x00,
  0x04, 0x0b, 0x00, 0x00, 0xb0, 0x0a, 0x00, 0x00, 0x60, 0x0a, 0x00, 0x00,
  0xec, 0x09, 0x00, 0x00, 0x94, 0x09, 0x00, 0x00, 0x44, 0x09, 0x00, 0x00,
  0xf4, 0x08, 0x00, 0x00, 0xa4, 0x08, 0x00, 0x00, 0x58, 0x08, 0x00, 0x00,
  0x0c, 0x08, 0x00, 0x00, 0xbc, 0x07, 0x00, 0x00, 0x68, 0x07, 0x00, 0x00,
  0xfc, 0x06, 0x00, 0x00, 0xcc, 0x05, 0x00, 0x00, 0xb8, 0x04, 0x00, 0x00,
  0x44, 0x04, 0x00, 0x00, 0x08, 0x03, 0x00, 0x00, 0x08, 0x02, 0x00, 0x00,
  0x80, 0x01, 0x00, 0x00, 0xcc, 0x00, 0x00, 0x00, 0x60, 0x00, 0x00, 0x00,
  0x04, 0x00, 0x00, 0x00, 0x6e, 0xee, 0xff, 0xff, 0x00, 0x00, 0x00, 0x01,
  0x14, 0x00, 0x00, 0x00, 0x1c, 0x00, 0x00, 0x00, 0x1c, 0x00, 0x00, 0x00,
  0x1f, 0x00, 0x00, 0x00, 0x34, 0x00, 0x00, 0x00, 0x02, 0x00, 0x00, 0x00,
  0xff, 0xff, 0xff, 0xff, 0x80, 0x00, 0x00, 0x00, 0x58, 0xee, 0xff, 0xff,
  0x19, 0x00, 0x00, 0x00, 0x53, 0x74, 0x61, 0x74, 0x65, 0x66, 0x75, 0x6c,
  0x50, 0x61, 0x72, 0x74, 0x69, 0x74, 0x69, 0x6f, 0x6e, 0x65, 0x64, 0x43,
  0x61, 0x6c, 0x6c, 0x3a, 0x30, 0x00, 0x00, 0x00, 0x02, 0x00, 0x00, 0x00,
  0x01, 0x00, 0x00, 0x00, 0x80, 0x00, 0x00, 0x00, 0xc6, 0xee, 0xff, 0xff,
  0x00, 0x00, 0x00, 0x01, 0x14, 0x00, 0x00, 0x00, 0x24, 0x00, 0x00, 0x00,
  0x24, 0x00, 0x00, 0x00, 0x1e, 0x00, 0x00, 0x00, 0x3c, 0x00, 0x00, 0x00,
  0x04, 0x00, 0x00, 0x00, 0xff, 0xff, 0xff, 0xff, 0x10, 0x00, 0x00, 0x00,
  0x08, 0x00, 0x00, 0x00, 0x01, 0x00, 0x00, 0x00, 0xb8, 0xee, 0xff, 0xff,
  0x1b, 0x00, 0x00, 0x00, 0x73, 0x65, 0x71, 0x75, 0x65, 0x6e, 0x74, 0x69,
  0x61, 0x6c, 0x2f, 0x63, 0x6f, 0x6e, 0x76, 0x32, 0x64, 0x5f, 0x32, 0x2f,
  0x53, 0x69, 0x67, 0x6d, 0x6f, 0x69, 0x64, 0x00, 0x04, 0x00, 0x00, 0x00,
  0x01, 0x00, 0x00, 0x00, 0x10, 0x00, 0x00, 0x00, 0x08, 0x00, 0x00, 0x00,
  0x01, 0x00, 0x00, 0x00, 0x2e, 0xef, 0xff, 0xff, 0x00, 0x00, 0x00, 0x01,
  0x14, 0x00, 0x00, 0x00, 0x24, 0x00, 0x00, 0x00, 0x24, 0x00, 0x00, 0x00,
  0x1d, 0x00, 0x00, 0x00, 0x84, 0x00, 0x00, 0x00, 0x04, 0x00, 0x00, 0x00,
  0xff, 0xff, 0xff, 0xff, 0x10, 0x00, 0x00, 0x00, 0x08, 0x00, 0x00, 0x00,
  0x01, 0x00, 0x00, 0x00, 0x20, 0xef, 0xff, 0xff, 0x61, 0x00, 0x00, 0x00,
  0x73, 0x65, 0x71, 0x75, 0x65, 0x6e, 0x74, 0x69, 0x61, 0x6c, 0x2f, 0x63,
  0x6f, 0x6e, 0x76, 0x32, 0x64, 0x5f, 0x32, 0x2f, 0x42, 0x69, 0x61, 0x73,
  0x41, 0x64, 0x64, 0x3b, 0x73, 0x65, 0x71, 0x75, 0x65, 0x6e, 0x74, 0x69,
  0x61, 0x6c, 0x2f, 0x63, 0x6f, 0x6e, 0x76, 0x32, 0x64, 0x5f, 0x32, 0x2f,
  0x43, 0x6f, 0x6e, 0x76, 0x32, 0x44, 0x3b, 0x73, 0x65, 0x71, 0x75, 0x65,
  0x6e, 0x74, 0x69, 0x61, 0x6c, 0x2f, 0x63, 0x6f, 0x6e, 0x76, 0x32, 0x64,
  0x5f, 0x32, 0x2f, 0x42, 0x69, 0x61, 0x73, 0x41, 0x64, 0x64, 0x2f, 0x52,
  0x65, 0x61, 0x64, 0x56, 0x61, 0x72, 0x69, 0x61, 0x62, 0x6c, 0x65, 0x4f,
  0x70, 0x00, 0x00, 0x00, 0x04, 0x00, 0x00, 0x00, 0x01, 0x00, 0x00, 0x00,
  0x10, 0x00, 0x00, 0x00, 0x08, 0x00, 0x00, 0x00, 0x01, 0x00, 0x00, 0x00,
  0xde, 0xef, 0xff, 0xff, 0x00, 0x00, 0x00, 0x01, 0x14, 0x00, 0x00, 0x00,
  0x24, 0x00, 0x00, 0x00, 0x24, 0x00, 0x00, 0x00, 0x1c, 0x00, 0x00, 0x00,
  0x58, 0x00, 0x00, 0x00, 0x04, 0x00, 0x00, 0x00, 0xff, 0xff, 0xff, 0xff,
  0x10, 0x00, 0x00, 0x00, 0x08, 0x00, 0x00, 0x00, 0x10, 0x00, 0x00, 0x00,
  0xd0, 0xef, 0xff, 0xff, 0x35, 0x00, 0x00, 0x00, 0x73, 0x65, 0x71, 0x75,
  0x65, 0x6e, 0x74, 0x69, 0x61, 0x6c, 0x2f, 0x75, 0x70, 0x5f, 0x73, 0x61,
  0x6d, 0x70, 0x6c, 0x69, 0x6e, 0x67, 0x32, 0x64, 0x2f, 0x72, 0x65, 0x73,
  0x69, 0x7a, 0x65, 0x2f, 0x52, 0x65, 0x73, 0x69, 0x7a, 0x65, 0x4e, 0x65,
  0x61, 0x72, 0x65, 0x73, 0x74, 0x4e, 0x65, 0x69, 0x67, 0x68, 0x62, 0x6f,
  0x72, 0x00, 0x00, 0x00, 0x04, 0x00, 0x00, 0x00, 0x01, 0x00, 0x00, 0x00,
  0x10, 0x00, 0x00, 0x00, 0x08, 0x00, 0x00, 0x00, 0x10, 0x00, 0x00, 0x00,
  0x62, 0xf0, 0xff, 0xff, 0x00, 0x00, 0x00, 0x01, 0x14, 0x00, 0x00, 0x00,
  0x24, 0x00, 0x00, 0x00, 0x24, 0x00, 0x00, 0x00, 0x1b, 0x00, 0x00, 0x00,
  0xd0, 0x00, 0x00, 0x00, 0x04, 0x00, 0x00, 0x00, 0xff, 0xff, 0xff, 0xff,
  0x08, 0x00, 0x00, 0x00, 0x04, 0x00, 0x00, 0x00, 0x10, 0x00, 0x00, 0x00,
  0x54, 0xf0, 0xff, 0xff, 0xac, 0x00, 0x00, 0x00, 0x73, 0x65, 0x71, 0x75,
  0x65, 0x6e, 0x74, 0x69, 0x61, 0x6c, 0x2f, 0x72, 0x65, 0x5f, 0x6c, 0x75,
  0x5f, 0x33, 0x2f, 0x52, 0x65, 0x6c, 0x75, 0x3b, 0x73, 0x65, 0x71, 0x75,
  0x65, 0x6e, 0x74, 0x69, 0x61, 0x6c, 0x2f, 0x62, 0x61, 0x74, 0x63, 0x68,
  0x5f, 0x6e, 0x6f, 0x72, 0x6d, 0x61, 0x6c, 0x69, 0x7a, 0x61, 0x74, 0x69,
  0x6f, 0x6e, 0x5f, 0x33, 0x2f, 0x46, 0x75, 0x73, 0x65, 0x64, 0x42, 0x61,
  0x74, 0x63, 0x68, 0x4e, 0x6f, 0x72, 0x6d, 0x56, 0x33, 0x3b, 0x73, 0x65,
  0x71, 0x75, 0x65, 0x6e, 0x74, 0x69, 0x61, 0x6c, 0x2f, 0x63, 0x6f, 0x6e,
  0x76, 0x32, 0x64, 0x5f, 0x31, 0x2f, 0x42, 0x69, 0x61, 0x73, 0x41, 0x64,
  0x64, 0x2f, 0x52, 0x65, 0x61, 0x64, 0x56, 0x61, 0x72, 0x69, 0x61, 0x62,
  0x6c, 0x65, 0x4f, 0x70, 0x3b, 0x73, 0x65, 0x71, 0x75, 0x65, 0x6e, 0x74,
  0x69, 0x61, 0x6c, 0x2f, 0x63, 0x6f, 0x6e, 0x76, 0x32, 0x64, 0x5f, 0x31,
  0x2f, 0x42, 0x69, 0x61, 0x73, 0x41, 0x64, 0x64, 0x3b, 0x73, 0x65, 0x71,
  0x75, 0x65, 0x6e, 0x74, 0x69, 0x61, 0x6c, 0x2f, 0x63, 0x6f, 0x6e, 0x76,
  0x32, 0x64, 0x5f, 0x31, 0x2f, 0x43, 0x6f, 0x6e, 0x76, 0x32, 0x44, 0x31,
  0x00, 0x00, 0x00, 0x00, 0x04, 0x00, 0x00, 0x00, 0x01, 0x00, 0x00, 0x00,
  0x08, 0x00, 0x00, 0x00, 0x04, 0x00, 0x00, 0x00, 0x10, 0x00, 0x00, 0x00,
  0x5e, 0xf1, 0xff, 0xff, 0x00, 0x00, 0x00, 0x01, 0x14, 0x00, 0x00, 0x00,
  0x24, 0x00, 0x00, 0x00, 0x24, 0x00, 0x00, 0x00, 0x1a, 0x00, 0x00, 0x00,
  0x0c, 0x01, 0x00, 0x00, 0x04, 0x00, 0x00, 0x00, 0xff, 0xff, 0xff, 0xff,
  0x08, 0x00, 0x00, 0x00, 0x04, 0x00, 0x00, 0x00, 0x10, 0x00, 0x00, 0x00,
  0x50, 0xf1, 0xff, 0xff, 0xe8, 0x00, 0x00, 0x00, 0x73, 0x65, 0x71, 0x75,
  0x65, 0x6e, 0x74, 0x69, 0x61, 0x6c, 0x2f, 0x72, 0x65, 0x5f, 0x6c, 0x75,
  0x5f, 0x32, 0x2f, 0x52, 0x65, 0x6c, 0x75, 0x3b, 0x73, 0x65, 0x71, 0x75,
  0x65, 0x6e, 0x74, 0x69, 0x61, 0x6c, 0x2f, 0x62, 0x61, 0x74, 0x63, 0x68,
  0x5f, 0x6e, 0x6f, 0x72, 0x6d, 0x61, 0x6c, 0x69, 0x7a, 0x61, 0x74, 0x69,
  0x6f, 0x6e, 0x5f, 0x32, 0x2f, 0x46, 0x75, 0x73, 0x65, 0x64, 0x42, 0x61,
  0x74, 0x63, 0x68, 0x4e, 0x6f, 0x72, 0x6d, 0x56, 0x33, 0x3b, 0x73, 0x65,
  0x71, 0x75, 0x65, 0x6e, 0x74, 0x69, 0x61, 0x6c, 0x2f, 0x64, 0x65, 0x70,
  0x74, 0x68, 0x77, 0x69, 0x73, 0x65, 0x5f, 0x63, 0x6f, 0x6e, 0x76, 0x32,
  0x64, 0x5f, 0x31, 0x2f, 0x64, 0x65, 0x70, 0x74, 0x68, 0x77, 0x69, 0x73,
  0x65, 0x3b, 0x73, 0x65, 0x71, 0x75, 0x65, 0x6e, 0x74, 0x69, 0x61, 0x6c,
  0x2f, 0x64, 0x65, 0x70, 0x74, 0x68, 0x77, 0x69, 0x73, 0x65, 0x5f, 0x63,
  0x6f, 0x6e, 0x76, 0x32, 0x64, 0x5f, 0x31, 0x2f, 0x42, 0x69, 0x61, 0x73,
  0x41, 0x64, 0x64, 0x2f, 0x52, 0x65, 0x61, 0x64, 0x56, 0x61, 0x72, 0x69,
  0x61, 0x62, 0x6c, 0x65, 0x4f, 0x70, 0x3b, 0x73, 0x65, 0x71, 0x75, 0x65,
  0x6e, 0x74, 0x69, 0x61, 0x6c, 0x2f, 0x64, 0x65, 0x70, 0x74, 0x68, 0x77,
  0x69, 0x73, 0x65, 0x5f, 0x63, 0x6f, 0x6e, 0x76, 0x32, 0x64, 0x5f, 0x31,
  0x2f, 0x42, 0x69, 0x61, 0x73, 0x41, 0x64, 0x64, 0x3b, 0x73, 0x65, 0x71,
  0x75, 0x65, 0x6e, 0x74, 0x69, 0x61, 0x6c, 0x2f, 0x63, 0x6f, 0x6e, 0x76,
  0x32, 0x64, 0x5f, 0x31, 0x2f, 0x43, 0x6f, 0x6e, 0x76, 0x32, 0x44, 0x31,
  0x00, 0x00, 0x00, 0x00, 0x04, 0x00, 0x00, 0x00, 0x01, 0x00, 0x00, 0x00,
  0x08, 0x00, 0x00, 0x00, 0x04, 0x00, 0x00, 0x00, 0x10, 0x00, 0x00, 0x00,
  0x96, 0xf2, 0xff, 0xff, 0x00, 0x00, 0x00, 0x01, 0x14, 0x00, 0x00, 0x00,
  0x24, 0x00, 0x00, 0x00, 0x24, 0x00, 0x00, 0x00, 0x19, 0x00, 0x00, 0x00,
  0x44, 0x00, 0x00, 0x00, 0x04, 0x00, 0x00, 0x00, 0xff, 0xff, 0xff, 0xff,
  0x08, 0x00, 0x00, 0x00, 0x04, 0x00, 0x00, 0x00, 0x10, 0x00, 0x00, 0x00,
  0x88, 0xf2, 0xff, 0xff, 0x20, 0x00, 0x00, 0x00, 0x73, 0x65, 0x71, 0x75,
  0x65, 0x6e, 0x74, 0x69, 0x61, 0x6c, 0x2f, 0x6d, 0x61, 0x78, 0x5f, 0x70,
  0x6f, 0x6f, 0x6c, 0x69, 0x6e, 0x67, 0x32, 0x64, 0x2f, 0x4d, 0x61, 0x78,
  0x50, 0x6f, 0x6f, 0x6c, 0x00, 0x00, 0x00, 0x00, 0x04, 0x00, 0x00, 0x00,
  0x01, 0x00, 0x00, 0x00, 0x08, 0x00, 0x00, 0x00, 0x04, 0x00, 0x00, 0x00,
  0x10, 0x00, 0x00, 0x00, 0x06, 0xf3, 0xff, 0xff, 0x00, 0x00, 0x00, 0x01,
  0x14, 0x00, 0x00, 0x00, 0x24, 0x00, 0x00, 0x00, 0x24, 0x00, 0x00, 0x00,
  0x18, 0x00, 0x00, 0x00, 0xe4, 0x00, 0x00, 0x00, 0x04, 0x00, 0x00, 0x00,
  0xff, 0xff, 0xff, 0xff, 0x10, 0x00, 0x00, 0x00, 0x08, 0x00, 0x00, 0x00,
  0x10, 0x00, 0x00, 0x00, 0xf8, 0xf2, 0xff, 0xff, 0xc1, 0x00, 0x00, 0x00,
  0x73, 0x65, 0x71, 0x75, 0x65, 0x6e, 0x74, 0x69, 0x61, 0x6c, 0x2f, 0x72,
  0x65, 0x5f, 0x6c, 0x75, 0x5f, 0x31, 0x2f, 0x52, 0x65, 0x6c, 0x75, 0x3b,
  0x73, 0x65, 0x71, 0x75, 0x65, 0x6e, 0x74, 0x69, 0x61, 0x6c, 0x2f, 0x62,
  0x61, 0x74, 0x63, 0x68, 0x5f, 0x6e, 0x6f, 0x72, 0x6d, 0x61, 0x6c, 0x69,
  0x7a, 0x61, 0x74, 0x69, 0x6f, 0x6e, 0x5f, 0x31, 0x2f, 0x46, 0x75, 0x73,
  0x65, 0x64, 0x42, 0x61, 0x74, 0x63, 0x68, 0x4e, 0x6f, 0x72, 0x6d, 0x56,
  0x33, 0x3b, 0x73, 0x65, 0x71, 0x75, 0x65, 0x6e, 0x74, 0x69, 0x61, 0x6c,
  0x2f, 0x63, 0x6f, 0x6e, 0x76, 0x32, 0x64, 0x2f, 0x42, 0x69, 0x61, 0x73,
  0x41, 0x64, 0x64, 0x2f, 0x52, 0x65, 0x61, 0x64, 0x56, 0x61, 0x72, 0x69,
  0x61, 0x62, 0x6c, 0x65, 0x4f, 0x70, 0x3b, 0x73, 0x65, 0x71, 0x75, 0x65,
  0x6e, 0x74, 0x69, 0x61, 0x6c, 0x2f, 0x63, 0x6f, 0x6e, 0x76, 0x32, 0x64,
  0x2f, 0x42, 0x69, 0x61, 0x73, 0x41, 0x64, 0x64, 0x3b, 0x73, 0x65, 0x71,
  0x75, 0x65, 0x6e, 0x74, 0x69, 0x61, 0x6c, 0x2f, 0x63, 0x6f, 0x6e, 0x76,
  0x32, 0x64, 0x5f, 0x31, 0x2f, 0x43, 0x6f, 0x6e, 0x76, 0x32, 0x44, 0x3b,
  0x73, 0x65, 0x71, 0x75, 0x65, 0x6e, 0x74, 0x69, 0x61, 0x6c, 0x2f, 0x63,
  0x6f, 0x6e, 0x76, 0x32, 0x64, 0x2f, 0x43, 0x6f, 0x6e, 0x76, 0x32, 0x44,
  0x31, 0x00, 0x00, 0x00, 0x04, 0x00, 0x00, 0x00, 0x01, 0x00, 0x00, 0x00,
  0x10, 0x00, 0x00, 0x00, 0x08, 0x00, 0x00, 0x00, 0x10, 0x00, 0x00, 0x00,
  0x16, 0xf4, 0xff, 0xff, 0x00, 0x00, 0x00, 0x01, 0x14, 0x00, 0x00, 0x00,
  0x24, 0x00, 0x00, 0x00, 0x24, 0x00, 0x00, 0x00, 0x17, 0x00, 0x00, 0x00,
  0x00, 0x01, 0x00, 0x00, 0x04, 0x00, 0x00, 0x00, 0xff, 0xff, 0xff, 0xff,
  0x10, 0x00, 0x00, 0x00, 0x08, 0x00, 0x00, 0x00, 0x01, 0x00, 0x00, 0x00,
  0x08, 0xf4, 0xff, 0xff, 0xde, 0x00, 0x00, 0x00, 0x73, 0x65, 0x71, 0x75,
  0x65, 0x6e, 0x74, 0x69, 0x61, 0x6c, 0x2f, 0x72, 0x65, 0x5f, 0x6c, 0x75,
  0x2f, 0x52, 0x65, 0x6c, 0x75, 0x3b, 0x73, 0x65, 0x71, 0x75, 0x65, 0x6e,
  0x74, 0x69, 0x61, 0x6c, 0x2f, 0x62, 0x61, 0x74, 0x63, 0x68, 0x5f, 0x6e,
  0x6f, 0x72, 0x6d, 0x61, 0x6c, 0x69, 0x7a, 0x61, 0x74, 0x69, 0x6f, 0x6e,
  0x2f, 0x46, 0x75, 0x73, 0x65, 0x64, 0x42, 0x61, 0x74, 0x63, 0x68, 0x4e,
  0x6f, 0x72, 0x6d, 0x56, 0x33, 0x3b, 0x73, 0x65, 0x71, 0x75, 0x65, 0x6e,
  0x74, 0x69, 0x61, 0x6c, 0x2f, 0x64, 0x65, 0x70, 0x74, 0x68, 0x77, 0x69,
  0x73, 0x65, 0x5f, 0x63, 0x6f, 0x6e, 0x76, 0x32, 0x64, 0x2f, 0x64, 0x65,
  0x70, 0x74, 0x68, 0x77, 0x69, 0x73, 0x65, 0x3b, 0x73, 0x65, 0x71, 0x75,
  0x65, 0x6e, 0x74, 0x69, 0x61, 0x6c, 0x2f, 0x64, 0x65, 0x70, 0x74, 0x68,
  0x77, 0x69, 0x73, 0x65, 0x5f, 0x63, 0x6f, 0x6e, 0x76, 0x32, 0x64, 0x2f,
  0x42, 0x69, 0x61, 0x73, 0x41, 0x64, 0x64, 0x2f, 0x52, 0x65, 0x61, 0x64,
  0x56, 0x61, 0x72, 0x69, 0x61, 0x62, 0x6c, 0x65, 0x4f, 0x70, 0x3b, 0x73,
  0x65, 0x71, 0x75, 0x65, 0x6e, 0x74, 0x69, 0x61, 0x6c, 0x2f, 0x64, 0x65,
  0x70, 0x74, 0x68, 0x77, 0x69, 0x73, 0x65, 0x5f, 0x63, 0x6f, 0x6e, 0x76,
  0x32, 0x64, 0x2f, 0x42, 0x69, 0x61, 0x73, 0x41, 0x64, 0x64, 0x3b, 0x73,
  0x65, 0x71, 0x75, 0x65, 0x6e, 0x74, 0x69, 0x61, 0x6c, 0x2f, 0x63, 0x6f,
  0x6e, 0x76, 0x32, 0x64, 0x5f, 0x32, 0x2f, 0x43, 0x6f, 0x6e, 0x76, 0x32,
  0x44, 0x31, 0x00, 0x00, 0x04, 0x00, 0x00, 0x00, 0x01, 0x00, 0x00, 0x00,
  0x10, 0x00, 0x00, 0x00, 0x08, 0x00, 0x00, 0x00, 0x01, 0x00, 0x00, 0x00,
  0x42, 0xf5, 0xff, 0xff, 0x00, 0x00, 0x00, 0x01, 0x14, 0x00, 0x00, 0x00,
  0x24, 0x00, 0x00, 0x00, 0x24, 0x00, 0x00, 0x00, 0x16, 0x00, 0x00, 0x00,
  0x3c, 0x00, 0x00, 0x00, 0x04, 0x00, 0x00, 0x00, 0xff, 0xff, 0xff, 0xff,
  0x10, 0x00, 0x00, 0x00, 0x08, 0x00, 0x00, 0x00, 0x01, 0x00, 0x00, 0x00,
  0x34, 0xf5, 0xff, 0xff, 0x1a, 0x00, 0x00, 0x00, 0x73, 0x65, 0x71, 0x75,
  0x65, 0x6e, 0x74, 0x69, 0x61, 0x6c, 0x2f, 0x72, 0x65, 0x73, 0x68, 0x61,
  0x70, 0x65, 0x2f, 0x52, 0x65, 0x73, 0x68, 0x61, 0x70, 0x65, 0x00, 0x00,
  0x04, 0x00, 0x00, 0x00, 0x01, 0x00, 0x00, 0x00, 0x10, 0x00, 0x00, 0x00,
  0x08, 0x00, 0x00, 0x00, 0x01, 0x00, 0x00, 0x00, 0x42, 0xfd, 0xff, 0xff,
  0x00, 0x00, 0x00, 0x01, 0x14, 0x00, 0x00, 0x00, 0x14, 0x00, 0x00, 0x00,
  0x15, 0x00, 0x00, 0x00, 0x00, 0x00, 0x00, 0x02, 0x30, 0x00, 0x00, 0x00,
  0x88, 0xf5, 0xff, 0xff, 0x20, 0x00, 0x00, 0x00, 0x73, 0x65, 0x71, 0x75,
  0x65, 0x6e, 0x74, 0x69, 0x61, 0x6c, 0x2f, 0x72, 0x65, 0x73, 0x68, 0x61,
  0x70, 0x65, 0x2f, 0x52, 0x65, 0x73, 0x68, 0x61, 0x70, 0x65, 0x2f, 0x73,
  0x68, 0x61, 0x70, 0x65, 0x00, 0x00, 0x00, 0x00, 0x01, 0x00, 0x00, 0x00,
  0x04, 0x00, 0x00, 0x00, 0x92, 0xfd, 0xff, 0xff, 0x00, 0x00, 0x00, 0x01,
  0x14, 0x00, 0x00, 0x00, 0x14, 0x00, 0x00, 0x00, 0x14, 0x00, 0x00, 0x00,
  0x00, 0x00, 0x00, 0x02, 0x30, 0x00, 0x00, 0x00, 0xd8, 0xf5, 0xff, 0xff,
  0x20, 0x00, 0x00, 0x00, 0x73, 0x65, 0x71, 0x75, 0x65, 0x6e, 0x74, 0x69,
  0x61, 0x6c, 0x2f, 0x72, 0x65, 0x73, 0x68, 0x61, 0x70, 0x65, 0x2f, 0x73,
  0x74, 0x72, 0x69, 0x64, 0x65, 0x64, 0x5f, 0x73, 0x6c, 0x69, 0x63, 0x65,
  0x00, 0x00, 0x00, 0x00, 0x00, 0x00, 0x00, 0x00, 0xde, 0xfd, 0xff, 0xff,
  0x00, 0x00, 0x00, 0x01, 0x14, 0x00, 0x00, 0x00, 0x14, 0x00, 0x00, 0x00,
  0x13, 0x00, 0x00, 0x00, 0x00, 0x00, 0x00, 0x02, 0x28, 0x00, 0x00, 0x00,
  0x24, 0xf6, 0xff, 0xff, 0x18, 0x00, 0x00, 0x00, 0x73, 0x65, 0x71, 0x75,
  0x65, 0x6e, 0x74, 0x69, 0x61, 0x6c, 0x2f, 0x72, 0x65, 0x73, 0x68, 0x61,
  0x70, 0x65, 0x2f, 0x53, 0x68, 0x61, 0x70, 0x65, 0x00, 0x00, 0x00, 0x00,
  0x01, 0x00, 0x00, 0x00, 0x02, 0x00, 0x00, 0x00, 0x26, 0xfe, 0xff, 0xff,
  0x00, 0x00, 0x00, 0x01, 0x14, 0x00, 0x00, 0x00, 0x14, 0x00, 0x00, 0x00,
  0x12, 0x00, 0x00, 0x00, 0x00, 0x00, 0x00, 0x02, 0x28, 0x00, 0x00, 0x00,
  0x6c, 0xf6, 0xff, 0xff, 0x18, 0x00, 0x00, 0x00, 0x73, 0x65, 0x71, 0x75,
  0x65, 0x6e, 0x74, 0x69, 0x61, 0x6c, 0x2f, 0x66, 0x6c, 0x61, 0x74, 0x74,
  0x65, 0x6e, 0x2f, 0x43, 0x6f, 0x6e, 0x73, 0x74, 0x00, 0x00, 0x00, 0x00,
  0x01, 0x00, 0x00, 0x00, 0x02, 0x00, 0x00, 0x00, 0x6e, 0xfe, 0xff, 0xff,
  0x00, 0x00, 0x00, 0x01, 0x14, 0x00, 0x00, 0x00, 0x14, 0x00, 0x00, 0x00,
  0x11, 0x00, 0x00, 0x00, 0x00, 0x00, 0x00, 0x02, 0x30, 0x00, 0x00, 0x00,
  0xb4, 0xf6, 0xff, 0xff, 0x22, 0x00, 0x00, 0x00, 0x73, 0x65, 0x71, 0x75,
  0x65, 0x6e, 0x74, 0x69, 0x61, 0x6c, 0x2f, 0x72, 0x65, 0x73, 0x68, 0x61,
  0x70, 0x65, 0x2f, 0x52, 0x65, 0x73, 0x68, 0x61, 0x70, 0x65, 0x2f, 0x73,
  0x68, 0x61, 0x70, 0x65, 0x2f, 0x31, 0x00, 0x00, 0x00, 0x00, 0x00, 0x00,
  0xba, 0xfe, 0xff, 0xff, 0x00, 0x00, 0x00, 0x01, 0x14, 0x00, 0x00, 0x00,
  0x14, 0x00, 0x00, 0x00, 0x10, 0x00, 0x00, 0x00, 0x00, 0x00, 0x00, 0x02,
  0x30, 0x00, 0x00, 0x00, 0x00, 0xf7, 0xff, 0xff, 0x22, 0x00, 0x00, 0x00,
  0x73, 0x65, 0x71, 0x75, 0x65, 0x6e, 0x74, 0x69, 0x61, 0x6c, 0x2f, 0x72,
  0x65, 0x73, 0x68, 0x61, 0x70, 0x65, 0x2f, 0x52, 0x65, 0x73, 0x68, 0x61,
  0x70, 0x65, 0x2f, 0x73, 0x68, 0x61, 0x70, 0x65, 0x2f, 0x32, 0x00, 0x00,
  0x00, 0x00, 0x00, 0x00, 0x06, 0xff, 0xff, 0xff, 0x00, 0x00, 0x00, 0x01,
  0x14, 0x00, 0x00, 0x00, 0x14, 0x00, 0x00, 0x00, 0x0d, 0x00, 0x00, 0x00,
  0x00, 0x00, 0x00, 0x02, 0x30, 0x00, 0x00, 0x00, 0x4c, 0xf7, 0xff, 0xff,
  0x22, 0x00, 0x00, 0x00, 0x73, 0x65, 0x71, 0x75, 0x65, 0x6e, 0x74, 0x69,
  0x61, 0x6c, 0x2f, 0x72, 0x65, 0x73, 0x68, 0x61, 0x70, 0x65, 0x2f, 0x52,
  0x65, 0x73, 0x68, 0x61, 0x70, 0x65, 0x2f, 0x73, 0x68, 0x61, 0x70, 0x65,
  0x2f, 0x33, 0x00, 0x00, 0x00, 0x00, 0x00, 0x00, 0x52, 0xff, 0xff, 0xff,
  0x00, 0x00, 0x00, 0x01, 0x14, 0x00, 0x00, 0x00, 0x14, 0x00, 0x00, 0x00,
  0x0e, 0x00, 0x00, 0x00, 0x00, 0x00, 0x00, 0x02, 0x34, 0x00, 0x00, 0x00,
  0x98, 0xf7, 0xff, 0xff, 0x26, 0x00, 0x00, 0x00, 0x73, 0x65, 0x71, 0x75,
  0x65, 0x6e, 0x74, 0x69, 0x61, 0x6c, 0x2f, 0x72, 0x65, 0x73, 0x68, 0x61,
  0x70, 0x65, 0x2f, 0x73, 0x74, 0x72, 0x69, 0x64, 0x65, 0x64, 0x5f, 0x73,
  0x6c, 0x69, 0x63, 0x65, 0x2f, 0x73, 0x74, 0x61, 0x63, 0x6b, 0x00, 0x00,
  0x01, 0x00, 0x00, 0x00, 0x01, 0x00, 0x00, 0x00, 0xa6, 0xff, 0xff, 0xff,
  0x00, 0x00, 0x00, 0x01, 0x14, 0x00, 0x00, 0x00, 0x14, 0x00, 0x00, 0x00,
  0x0d, 0x00, 0x00, 0x00, 0x00, 0x00, 0x00, 0x02, 0x38, 0x00, 0x00, 0x00,
  0xec, 0xf7, 0xff, 0xff, 0x28, 0x00, 0x00, 0x00, 0x73, 0x65, 0x71, 0x75,
  0x65, 0x6e, 0x74, 0x69, 0x61, 0x6c, 0x2f, 0x72, 0x65, 0x73, 0x68, 0x61,
  0x70, 0x65, 0x2f, 0x73, 0x74, 0x72, 0x69, 0x64, 0x65, 0x64, 0x5f, 0x73,
  0x6c, 0x69, 0x63, 0x65, 0x2f, 0x73, 0x74, 0x61, 0x63, 0x6b, 0x5f, 0x31,
  0x00, 0x00, 0x00, 0x00, 0x01, 0x00, 0x00, 0x00, 0x01, 0x00, 0x00, 0x00,
  0x00, 0x00, 0x16, 0x00, 0x1c, 0x00, 0x18, 0x00, 0x17, 0x00, 0x10, 0x00,
  0x0c, 0x00, 0x08, 0x00, 0x00, 0x00, 0x00, 0x00, 0x00, 0x00, 0x07, 0x00,
  0x16, 0x00, 0x00, 0x00, 0x00, 0x00, 0x00, 0x01, 0x14, 0x00, 0x00, 0x00,
  0x14, 0x00, 0x00, 0x00, 0x0c, 0x00, 0x00, 0x00, 0x00, 0x00, 0x00, 0x02,
  0x2c, 0x00, 0x00, 0x00, 0x5c, 0xf8, 0xff, 0xff, 0x1c, 0x00, 0x00, 0x00,
  0x73, 0x65, 0x71, 0x75, 0x65, 0x6e, 0x74, 0x69, 0x61, 0x6c, 0x2f, 0x75,
  0x70, 0x5f, 0x73, 0x61, 0x6d, 0x70, 0x6c, 0x69, 0x6e, 0x67, 0x32, 0x64,
  0x2f, 0x6d, 0x75, 0x6c, 0x00, 0x00, 0x00, 0x00, 0x01, 0x00, 0x00, 0x00,
  0x02, 0x00, 0x00, 0x00, 0xea, 0xf9, 0xff, 0xff, 0x00, 0x00, 0x00, 0x01,
  0x10, 0x00, 0x00, 0x00, 0x10, 0x00, 0x00, 0x00, 0x0b, 0x00, 0x00, 0x00,
  0x28, 0x00, 0x00, 0x00, 0xa4, 0xf8, 0xff, 0xff, 0x1a, 0x00, 0x00, 0x00,
  0x73, 0x65, 0x71, 0x75, 0x65, 0x6e, 0x74, 0x69, 0x61, 0x6c, 0x2f, 0x63,
  0x6f, 0x6e, 0x76, 0x32, 0x64, 0x5f, 0x32, 0x2f, 0x43, 0x6f, 0x6e, 0x76,
  0x32, 0x44, 0x00, 0x00, 0x04, 0x00, 0x00, 0x00, 0x01, 0x00, 0x00, 0x00,
  0x03, 0x00, 0x00, 0x00, 0x03, 0x00, 0x00, 0x00, 0x10, 0x00, 0x00, 0x00,
  0x3a, 0xfa, 0xff, 0xff, 0x00, 0x00, 0x00, 0x01, 0x10, 0x00, 0x00, 0x00,
  0x10, 0x00, 0x00, 0x00, 0x0a, 0x00, 0x00, 0x00, 0x28, 0x00, 0x00, 0x00,
  0xf4, 0xf8, 0xff, 0xff, 0x1a, 0x00, 0x00, 0x00, 0x73, 0x65, 0x71, 0x75,
  0x65, 0x6e, 0x74, 0x69, 0x61, 0x6c, 0x2f, 0x63, 0x6f, 0x6e, 0x76, 0x32,
  0x64, 0x5f, 0x31, 0x2f, 0x43, 0x6f, 0x6e, 0x76, 0x32, 0x44, 0x00, 0x00,
  0x04, 0x00, 0x00, 0x00, 0x10, 0x00, 0x00, 0x00, 0x01, 0x00, 0x00, 0x00,
  0x01, 0x00, 0x00, 0x00, 0x10, 0x00, 0x00, 0x00, 0x8a, 0xfa, 0xff, 0xff,
  0x00, 0x00, 0x00, 0x01, 0x10, 0x00, 0x00, 0x00, 0x10, 0x00, 0x00, 0x00,
  0x09, 0x00, 0x00, 0x00, 0x28, 0x00, 0x00, 0x00, 0x44, 0xf9, 0xff, 0xff,
  0x18, 0x00, 0x00, 0x00, 0x73, 0x65, 0x71, 0x75, 0x65, 0x6e, 0x74, 0x69,
  0x61, 0x6c, 0x2f, 0x63, 0x6f, 0x6e, 0x76, 0x32, 0x64, 0x2f, 0x43, 0x6f,
  0x6e, 0x76, 0x32, 0x44, 0x00, 0x00, 0x00, 0x00, 0x04, 0x00, 0x00, 0x00,
  0x10, 0x00, 0x00, 0x00, 0x01, 0x00, 0x00, 0x00, 0x01, 0x00, 0x00, 0x00,
  0x01, 0x00, 0x00, 0x00, 0xda, 0xfa, 0xff, 0xff, 0x00, 0x00, 0x00, 0x01,
  0x10, 0x00, 0x00, 0x00, 0x10, 0x00, 0x00, 0x00, 0x08, 0x00, 0x00, 0x00,
  0x38, 0x00, 0x00, 0x00, 0x94, 0xf9, 0xff, 0xff, 0x2a, 0x00, 0x00, 0x00,
  0x73, 0x65, 0x71, 0x75, 0x65, 0x6e, 0x74, 0x69, 0x61, 0x6c, 0x2f, 0x63,
  0x6f, 0x6e, 0x76, 0x32, 0x64, 0x5f, 0x32, 0x2f, 0x42, 0x69, 0x61, 0x73,
  0x41, 0x64, 0x64, 0x2f, 0x52, 0x65, 0x61, 0x64, 0x56, 0x61, 0x72, 0x69,
  0x61, 0x62, 0x6c, 0x65, 0x4f, 0x70, 0x00, 0x00, 0x01, 0x00, 0x00, 0x00,
  0x01, 0x00, 0x00, 0x00, 0x2e, 0xfb, 0xff, 0xff, 0x00, 0x00, 0x00, 0x01,
  0x10, 0x00, 0x00, 0x00, 0x10, 0x00, 0x00, 0x00, 0x07, 0x00, 0x00, 0x00,
  0xb8, 0x00, 0x00, 0x00, 0xe8, 0xf9, 0xff, 0xff, 0xab, 0x00, 0x00, 0x00,
  0x73, 0x65, 0x71, 0x75, 0x65, 0x6e, 0x74, 0x69, 0x61, 0x6c, 0x2f, 0x72,
  0x65, 0x5f, 0x6c, 0x75, 0x5f, 0x33, 0x2f, 0x52, 0x65, 0x6c, 0x75, 0x3b,
  0x73, 0x65, 0x71, 0x75, 0x65, 0x6e, 0x74, 0x69, 0x61, 0x6c, 0x2f, 0x62,
  0x61, 0x74, 0x63, 0x68, 0x5f, 0x6e, 0x6f, 0x72, 0x6d, 0x61, 0x6c, 0x69,
  0x7a, 0x61, 0x74, 0x69, 0x6f, 0x6e, 0x5f, 0x33, 0x2f, 0x46, 0x75, 0x73,
  0x65, 0x64, 0x42, 0x61, 0x74, 0x63, 0x68, 0x4e, 0x6f, 0x72, 0x6d, 0x56,
  0x33, 0x3b, 0x73, 0x65, 0x71, 0x75, 0x65, 0x6e, 0x74, 0x69, 0x61, 0x6c,
  0x2f, 0x63, 0x6f, 0x6e, 0x76, 0x32, 0x64, 0x5f, 0x31, 0x2f, 0x42, 0x69,
  0x61, 0x73, 0x41, 0x64, 0x64, 0x2f, 0x52, 0x65, 0x61, 0x64, 0x56, 0x61,
  0x72, 0x69, 0x61, 0x62, 0x6c, 0x65, 0x4f, 0x70, 0x3b, 0x73, 0x65, 0x71,
  0x75, 0x65, 0x6e, 0x74, 0x69, 0x61, 0x6c, 0x2f, 0x63, 0x6f, 0x6e, 0x76,
  0x32, 0x64, 0x5f, 0x31, 0x2f, 0x42, 0x69, 0x61, 0x73, 0x41, 0x64, 0x64,
  0x3b, 0x73, 0x65, 0x71, 0x75, 0x65, 0x6e, 0x74, 0x69, 0x61, 0x6c, 0x2f,
  0x63, 0x6f, 0x6e, 0x76, 0x32, 0x64, 0x5f, 0x31, 0x2f, 0x43, 0x6f, 0x6e,
  0x76, 0x32, 0x44, 0x00, 0x01, 0x00, 0x00, 0x00, 0x10, 0x00, 0x00, 0x00,
  0x02, 0xfc, 0xff, 0xff, 0x00, 0x00, 0x00, 0x01, 0x10, 0x00, 0x00, 0x00,
  0x10, 0x00, 0x00, 0x00, 0x06, 0x00, 0x00, 0x00, 0xdc, 0x00, 0x00, 0x00,
  0xbc, 0xfa, 0xff, 0xff, 0xcf, 0x00, 0x00, 0x00, 0x73, 0x65, 0x71, 0x75,
  0x65, 0x6e, 0x74, 0x69, 0x61, 0x6c, 0x2f, 0x62, 0x61, 0x74, 0x63, 0x68,
  0x5f, 0x6e, 0x6f, 0x72, 0x6d, 0x61, 0x6c, 0x69, 0x7a, 0x61, 0x74, 0x69,
  0x6f, 0x6e, 0x5f, 0x32, 0x2f, 0x46, 0x75, 0x73, 0x65, 0x64, 0x42, 0x61,
  0x74, 0x63, 0x68, 0x4e, 0x6f, 0x72, 0x6d, 0x56, 0x33, 0x3b, 0x73, 0x65,
  0x71, 0x75, 0x65, 0x6e, 0x74, 0x69, 0x61, 0x6c, 0x2f, 0x64, 0x65, 0x70,
  0x74, 0x68, 0x77, 0x69, 0x73, 0x65, 0x5f, 0x63, 0x6f, 0x6e, 0x76, 0x32,
  0x64, 0x5f, 0x31, 0x2f, 0x64, 0x65, 0x70, 0x74, 0x68, 0x77, 0x69, 0x73,
  0x65, 0x3b, 0x73, 0x65, 0x71, 0x75, 0x65, 0x6e, 0x74, 0x69, 0x61, 0x6c,
  0x2f, 0x64, 0x65, 0x70, 0x74, 0x68, 0x77, 0x69, 0x73, 0x65, 0x5f, 0x63,
  0x6f, 0x6e, 0x76, 0x32, 0x64, 0x5f, 0x31, 0x2f, 0x42, 0x69, 0x61, 0x73,
  0x41, 0x64, 0x64, 0x2f, 0x52, 0x65, 0x61, 0x64, 0x56, 0x61, 0x72, 0x69,
  0x61, 0x62, 0x6c, 0x65, 0x4f, 0x70, 0x3b, 0x73, 0x65, 0x71, 0x75, 0x65,
  0x6e, 0x74, 0x69, 0x61, 0x6c, 0x2f, 0x64, 0x65, 0x70, 0x74, 0x68, 0x77,
  0x69, 0x73, 0x65, 0x5f, 0x63, 0x6f, 0x6e, 0x76, 0x32, 0x64, 0x5f, 0x31,
  0x2f, 0x42, 0x69, 0x61, 0x73, 0x41, 0x64, 0x64, 0x3b, 0x73, 0x65, 0x71,
  0x75, 0x65, 0x6e, 0x74, 0x69, 0x61, 0x6c, 0x2f, 0x63, 0x6f, 0x6e, 0x76,
  0x32, 0x64, 0x5f, 0x31, 0x2f, 0x43, 0x6f, 0x6e, 0x76, 0x32, 0x44, 0x00,
  0x04, 0x00, 0x00, 0x00, 0x01, 0x00, 0x00, 0x00, 0x03, 0x00, 0x00, 0x00,
  0x03, 0x00, 0x00, 0x00, 0x10, 0x00, 0x00, 0x00, 0x06, 0xfd, 0xff, 0xff,
  0x00, 0x00, 0x00, 0x01, 0x10, 0x00, 0x00, 0x00, 0x10, 0x00, 0x00, 0x00,
  0x05, 0x00, 0x00, 0x00, 0xd0, 0x00, 0x00, 0x00, 0xc0, 0xfb, 0xff, 0xff,
  0xc0, 0x00, 0x00, 0x00, 0x73, 0x65, 0x71, 0x75, 0x65, 0x6e, 0x74, 0x69,
  0x61, 0x6c, 0x2f, 0x72, 0x65, 0x5f, 0x6c, 0x75, 0x5f, 0x31, 0x2f, 0x52,
  0x65, 0x6c, 0x75, 0x3b, 0x73, 0x65, 0x71, 0x75, 0x65, 0x6e, 0x74, 0x69,
  0x61, 0x6c, 0x2f, 0x62, 0x61, 0x74, 0x63, 0x68, 0x5f, 0x6e, 0x6f, 0x72,
  0x6d, 0x61, 0x6c, 0x69, 0x7a, 0x61, 0x74, 0x69, 0x6f, 0x6e, 0x5f, 0x31,
  0x2f, 0x46, 0x75, 0x73, 0x65, 0x64, 0x42, 0x61, 0x74, 0x63, 0x68, 0x4e,
  0x6f, 0x72, 0x6d, 0x56, 0x33, 0x3b, 0x73, 0x65, 0x71, 0x75, 0x65, 0x6e,
  0x74, 0x69, 0x61, 0x6c, 0x2f, 0x63, 0x6f, 0x6e, 0x76, 0x32, 0x64, 0x2f,
  0x42, 0x69, 0x61, 0x73, 0x41, 0x64, 0x64, 0x2f, 0x52, 0x65, 0x61, 0x64,
  0x56, 0x61, 0x72, 0x69, 0x61, 0x62, 0x6c, 0x65, 0x4f, 0x70, 0x3b, 0x73,
  0x65, 0x71, 0x75, 0x65, 0x6e, 0x74, 0x69, 0x61, 0x6c, 0x2f, 0x63, 0x6f,
  0x6e, 0x76, 0x32, 0x64, 0x2f, 0x42, 0x69, 0x61, 0x73, 0x41, 0x64, 0x64,
  0x3b, 0x73, 0x65, 0x71, 0x75, 0x65, 0x6e, 0x74, 0x69, 0x61, 0x6c, 0x2f,
  0x63, 0x6f, 0x6e, 0x76, 0x32, 0x64, 0x5f, 0x31, 0x2f, 0x43, 0x6f, 0x6e,
  0x76, 0x32, 0x44, 0x3b, 0x73, 0x65, 0x71, 0x75, 0x65, 0x6e, 0x74, 0x69,
  0x61, 0x6c, 0x2f, 0x63, 0x6f, 0x6e, 0x76, 0x32, 0x64, 0x2f, 0x43, 0x6f,
  0x6e, 0x76, 0x32, 0x44, 0x00, 0x00, 0x00, 0x00, 0x01, 0x00, 0x00, 0x00,
  0x10, 0x00, 0x00, 0x00, 0xf2, 0xfd, 0xff, 0xff, 0x00, 0x00, 0x00, 0x01,
  0x10, 0x00, 0x00, 0x00, 0x10, 0x00, 0x00, 0x00, 0x04, 0x00, 0x00, 0x00,
  0xd4, 0x00, 0x00, 0x00, 0xac, 0xfc, 0xff, 0xff, 0xc7, 0x00, 0x00, 0x00,
  0x73, 0x65, 0x71, 0x75, 0x65, 0x6e, 0x74, 0x69, 0x61, 0x6c, 0x2f, 0x62,
  0x61, 0x74, 0x63, 0x68, 0x5f, 0x6e, 0x6f, 0x72, 0x6d, 0x61, 0x6c, 0x69,
  0x7a, 0x61, 0x74, 0x69, 0x6f, 0x6e, 0x2f, 0x46, 0x75, 0x73, 0x65, 0x64,
  0x42, 0x61, 0x74, 0x63, 0x68, 0x4e, 0x6f, 0x72, 0x6d, 0x56, 0x33, 0x3b,
  0x73, 0x65, 0x71, 0x75, 0x65, 0x6e, 0x74, 0x69, 0x61, 0x6c, 0x2f, 0x64,
  0x65, 0x70, 0x74, 0x68, 0x77, 0x69, 0x73, 0x65, 0x5f, 0x63, 0x6f, 0x6e,
  0x76, 0x32, 0x64, 0x2f, 0x64, 0x65, 0x70, 0x74, 0x68, 0x77, 0x69, 0x73,
  0x65, 0x3b, 0x73, 0x65, 0x71, 0x75, 0x65, 0x6e, 0x74, 0x69, 0x61, 0x6c,
  0x2f, 0x64, 0x65, 0x70, 0x74, 0x68, 0x77, 0x69, 0x73, 0x65, 0x5f, 0x63,
  0x6f, 0x6e, 0x76, 0x32, 0x64, 0x2f, 0x42, 0x69, 0x61, 0x73, 0x41, 0x64,
  0x64, 0x2f, 0x52, 0x65, 0x61, 0x64, 0x56, 0x61, 0x72, 0x69, 0x61, 0x62,
  0x6c, 0x65, 0x4f, 0x70, 0x3b, 0x73, 0x65, 0x71, 0x75, 0x65, 0x6e, 0x74,
  0x69, 0x61, 0x6c, 0x2f, 0x64, 0x65, 0x70, 0x74, 0x68, 0x77, 0x69, 0x73,
  0x65, 0x5f, 0x63, 0x6f, 0x6e, 0x76, 0x32, 0x64, 0x2f, 0x42, 0x69, 0x61,
  0x73, 0x41, 0x64, 0x64, 0x3b, 0x73, 0x65, 0x71, 0x75, 0x65, 0x6e, 0x74,
  0x69, 0x61, 0x6c, 0x2f, 0x63, 0x6f, 0x6e, 0x76, 0x32, 0x64, 0x5f, 0x32,
  0x2f, 0x43, 0x6f, 0x6e, 0x76, 0x32, 0x44, 0x00, 0x04, 0x00, 0x00, 0x00,
  0x01, 0x00, 0x00, 0x00, 0x03, 0x00, 0x00, 0x00, 0x03, 0x00, 0x00, 0x00,
  0x01, 0x00, 0x00, 0x00, 0xee, 0xfe, 0xff, 0xff, 0x00, 0x00, 0x00, 0x01,
  0x10, 0x00, 0x00, 0x00, 0x10, 0x00, 0x00, 0x00, 0x03, 0x00, 0x00, 0x00,
  0xf4, 0x00, 0x00, 0x00, 0xa8, 0xfd, 0xff, 0xff, 0xe7, 0x00, 0x00, 0x00,
  0x73, 0x65, 0x71, 0x75, 0x65, 0x6e, 0x74, 0x69, 0x61, 0x6c, 0x2f, 0x72,
  0x65, 0x5f, 0x6c, 0x75, 0x5f, 0x32, 0x2f, 0x52, 0x65, 0x6c, 0x75, 0x3b,
  0x73, 0x65, 0x71, 0x75, 0x65, 0x6e, 0x74, 0x69, 0x61, 0x6c, 0x2f, 0x62,
  0x61, 0x74, 0x63, 0x68, 0x5f, 0x6e, 0x6f, 0x72, 0x6d, 0x61, 0x6c, 0x69,
  0x7a, 0x61, 0x74, 0x69, 0x6f, 0x6e, 0x5f, 0x32, 0x2f, 0x46, 0x75, 0x73,
  0x65, 0x64, 0x42, 0x61, 0x74, 0x63, 0x68, 0x4e, 0x6f, 0x72, 0x6d, 0x56,
  0x33, 0x3b, 0x73, 0x65, 0x71, 0x75, 0x65, 0x6e, 0x74, 0x69, 0x61, 0x6c,
  0x2f, 0x64, 0x65, 0x70, 0x74, 0x68, 0x77, 0x69, 0x73, 0x65, 0x5f, 0x63,
  0x6f, 0x6e, 0x76, 0x32, 0x64, 0x5f, 0x31, 0x2f, 0x64, 0x65, 0x70, 0x74,
  0x68, 0x77, 0x69, 0x73, 0x65, 0x3b, 0x73, 0x65, 0x71, 0x75, 0x65, 0x6e,
  0x74, 0x69, 0x61, 0x6c, 0x2f, 0x64, 0x65, 0x70, 0x74, 0x68, 0x77, 0x69,
  0x73, 0x65, 0x5f, 0x63, 0x6f, 0x6e, 0x76, 0x32, 0x64, 0x5f, 0x31, 0x2f,
  0x42, 0x69, 0x61, 0x73, 0x41, 0x64, 0x64, 0x2f, 0x52, 0x65, 0x61, 0x64,
  0x56, 0x61, 0x72, 0x69, 0x61, 0x62, 0x6c, 0x65, 0x4f, 0x70, 0x3b, 0x73,
  0x65, 0x71, 0x75, 0x65, 0x6e, 0x74, 0x69, 0x61, 0x6c, 0x2f, 0x64, 0x65,
  0x70, 0x74, 0x68, 0x77, 0x69, 0x73, 0x65, 0x5f, 0x63, 0x6f, 0x6e, 0x76,
  0x32, 0x64, 0x5f, 0x31, 0x2f, 0x42, 0x69, 0x61, 0x73, 0x41, 0x64, 0x64,
  0x3b, 0x73, 0x65, 0x71, 0x75, 0x65, 0x6e, 0x74, 0x69, 0x61, 0x6c, 0x2f,
  0x63, 0x6f, 0x6e, 0x76, 0x32, 0x64, 0x5f, 0x31, 0x2f, 0x43, 0x6f, 0x6e,
  0x76, 0x32, 0x44, 0x00, 0x01, 0x00, 0x00, 0x00, 0x10, 0x00, 0x00, 0x00,
  0x00, 0x00, 0x16, 0x00, 0x18, 0x00, 0x14, 0x00, 0x00, 0x00, 0x10, 0x00,
  0x0c, 0x00, 0x08, 0x00, 0x00, 0x00, 0x00, 0x00, 0x00, 0x00, 0x07, 0x00,
  0x16, 0x00, 0x00, 0x00, 0x00, 0x00, 0x00, 0x01, 0x10, 0x00, 0x00, 0x00,
  0x10, 0x00, 0x00, 0x00, 0x02, 0x00, 0x00, 0x00, 0xec, 0x00, 0x00, 0x00,
  0xd0, 0xfe, 0xff, 0xff, 0xdd, 0x00, 0x00, 0x00, 0x73, 0x65, 0x71, 0x75,
  0x65, 0x6e, 0x74, 0x69, 0x61, 0x6c, 0x2f, 0x72, 0x65, 0x5f, 0x6c, 0x75,
  0x2f, 0x52, 0x65, 0x6c, 0x75, 0x3b, 0x73, 0x65, 0x71, 0x75, 0x65, 0x6e,
  0x74, 0x69, 0x61, 0x6c, 0x2f, 0x62, 0x61, 0x74, 0x63, 0x68, 0x5f, 0x6e,
  0x6f, 0x72, 0x6d, 0x61, 0x6c, 0x69, 0x7a, 0x61, 0x74, 0x69, 0x6f, 0x6e,
  0x2f, 0x46, 0x75, 0x73, 0x65, 0x64, 0x42, 0x61, 0x74, 0x63, 0x68, 0x4e,
  0x6f, 0x72, 0x6d, 0x56, 0x33, 0x3b, 0x73, 0x65, 0x71, 0x75, 0x65, 0x6e,
  0x74, 0x69, 0x61, 0x6c, 0x2f, 0x64, 0x65, 0x70, 0x74, 0x68, 0x77, 0x69,
  0x73, 0x65, 0x5f, 0x63, 0x6f, 0x6e, 0x76, 0x32, 0x64, 0x2f, 0x64, 0x65,
  0x70, 0x74, 0x68, 0x77, 0x69, 0x73, 0x65, 0x3b, 0x73, 0x65, 0x71, 0x75,
  0x65, 0x6e, 0x74, 0x69, 0x61, 0x6c, 0x2f, 0x64, 0x65, 0x70, 0x74, 0x68,
  0x77, 0x69, 0x73, 0x65, 0x5f, 0x63, 0x6f, 0x6e, 0x76, 0x32, 0x64, 0x2f,
  0x42, 0x69, 0x61, 0x73, 0x41, 0x64, 0x64, 0x2f, 0x52, 0x65, 0x61, 0x64,
  0x56, 0x61, 0x72, 0x69, 0x61, 0x62, 0x6c, 0x65, 0x4f, 0x70, 0x3b, 0x73,
  0x65, 0x71, 0x75, 0x65, 0x6e, 0x74, 0x69, 0x61, 0x6c, 0x2f, 0x64, 0x65,
  0x70, 0x74, 0x68, 0x77, 0x69, 0x73, 0x65, 0x5f, 0x63, 0x6f, 0x6e, 0x76,
  0x32, 0x64, 0x2f, 0x42, 0x69, 0x61, 0x73, 0x41, 0x64, 0x64, 0x3b, 0x73,
  0x65, 0x71, 0x75, 0x65, 0x6e, 0x74, 0x69, 0x61, 0x6c, 0x2f, 0x63, 0x6f,
  0x6e, 0x76, 0x32, 0x64, 0x5f, 0x32, 0x2f, 0x43, 0x6f, 0x6e, 0x76, 0x32,
  0x44, 0x00, 0x00, 0x00, 0x01, 0x00, 0x00, 0x00, 0x01, 0x00, 0x00, 0x00,
  0x00, 0x00, 0x16, 0x00, 0x1c, 0x00, 0x18, 0x00, 0x00, 0x00, 0x14, 0x00,
  0x10, 0x00, 0x0c, 0x00, 0x00, 0x00, 0x00, 0x00, 0x08, 0x00, 0x07, 0x00,
  0x16, 0x00, 0x00, 0x00, 0x00, 0x00, 0x00, 0x01, 0x14, 0x00, 0x00, 0x00,
  0x20, 0x00, 0x00, 0x00, 0x20, 0x00, 0x00, 0x00, 0x01, 0x00, 0x00, 0x00,
  0x38, 0x00, 0x00, 0x00, 0x02, 0x00, 0x00, 0x00, 0xff, 0xff, 0xff, 0xff,
  0x80, 0x00, 0x00, 0x00, 0x04, 0x00, 0x04, 0x00, 0x04, 0x00, 0x00, 0x00,
  0x19, 0x00, 0x00, 0x00, 0x73, 0x65, 0x72, 0x76, 0x69, 0x6e, 0x67, 0x5f,
  0x64, 0x65, 0x66, 0x61, 0x75, 0x6c, 0x74, 0x5f, 0x69, 0x6e, 0x70, 0x75,
  0x74, 0x5f, 0x31, 0x3a, 0x30, 0x00, 0x00, 0x00, 0x02, 0x00, 0x00, 0x00,
  0x01, 0x00, 0x00, 0x00, 0x80, 0x00, 0x00, 0x00, 0x09, 0x00, 0x00, 0x00,
  0xa0, 0x00, 0x00, 0x00, 0x84, 0x00, 0x00, 0x00, 0x74, 0x00, 0x00, 0x00,
  0x64, 0x00, 0x00, 0x00, 0x54, 0x00, 0x00, 0x00, 0x44, 0x00, 0x00, 0x00,
  0x34, 0x00, 0x00, 0x00, 0x20, 0x00, 0x00, 0x00, 0x04, 0x00, 0x00, 0x00,
  0x90, 0xff, 0xff, 0xff, 0x0e, 0x00, 0x00, 0x00, 0x00, 0x00, 0x00, 0x0e,
  0x0c, 0x00, 0x10, 0x00, 0x0f, 0x00, 0x00, 0x00, 0x08, 0x00, 0x04, 0x00,
  0x0c, 0x00, 0x00, 0x00, 0x61, 0x00, 0x00, 0x00, 0x03, 0x00, 0x00, 0x00,
  0x00, 0x00, 0x00, 0x61, 0xb8, 0xff, 0xff, 0xff, 0x11, 0x00, 0x00, 0x00,
  0x00, 0x00, 0x00, 0x11, 0xc4, 0xff, 0xff, 0xff, 0x03, 0x00, 0x00, 0x00,
  0x00, 0x00, 0x00, 0x03, 0xd0, 0xff, 0xff, 0xff, 0x04, 0x00, 0x00, 0x00,
  0x00, 0x00, 0x00, 0x04, 0xdc, 0xff, 0xff, 0xff, 0x16, 0x00, 0x00, 0x00,
  0x00, 0x00, 0x00, 0x16, 0xe8, 0xff, 0xff, 0xff, 0x53, 0x00, 0x00, 0x00,
  0x00, 0x00, 0x00, 0x53, 0xf4, 0xff, 0xff, 0xff, 0x2d, 0x00, 0x00, 0x00,
  0x00, 0x00, 0x00, 0x2d, 0x0c, 0x00, 0x0c, 0x00, 0x0b, 0x00, 0x00, 0x00,
  0x00, 0x00, 0x04, 0x00, 0x0c, 0x00, 0x00, 0x00, 0x4d, 0x00, 0x00, 0x00,
  0x00, 0x00, 0x00, 0x4d
};
unsigned int model_tflite_len = 9196;
